[PAD]	0
[UNK]	0
[BOS]	0
[EOS]	0
[CLS]	0
[SEP]	0
[MASK]	0
▁▃	-0
▁.	-1
▁이	-2
▁에	-3
▁다	-4
▁의	-5
▁는	-6
▁,	-7
▁하	-8
▁을	-9
▁1	-10
▁은	-11
▁가	-12
▁(	-13
▁)	-14
▁고	-15
▁를	-16
▁한	-17
▁년	-18
▁으	-19
▁2	-20
▁로	-21
▁으로	-22
▁에서	-23
▁지	-24
▁있	-25
▁대	-26
▁기	-27
▁되	-28
▁일	-29
▁인	-30
▁었	-31
▁사	-32
▁그	-33
▁도	-34
▁시	-35
▁과	-36
▁아	-37
▁들	-38
▁했	-39
▁월	-40
▁수	-41
▁19	-42
▁20	-43
▁어	-44
▁전	-45
▁적	-46
▁와	-47
▁자	-48
▁였	-49
▁여	-50
▁부	-51
▁제	-52
▁라	-53
▁주	-54
▁"	-55
▁정	-56
▁중	-57
▁위	-58
▁된	-59
▁보	-60
▁해	-61
▁공	-62
▁3	-63
▁세	-64
▁나	-65
▁경	-66
▁개	-67
▁게	-68
▁것	-69
▁유	-70
▁'	-71
▁한다	-72
▁조	-73
▁등	-74
▁스	-75
▁선	-76
▁마	-77
▁만	-78
▁성	-79
▁미	-80
▁동	-81
▁연	-82
▁오	-83
▁상	-84
▁소	-85
▁영	-86
▁모	-87
▁서	-88
▁구	-89
▁발	-90
▁비	-91
▁4	-92
▁면	-93
▁며	-94
▁국	-95
▁201	-96
▁명	-97
▁5	-98
▁후	-99
▁-	-100
▁관	-101
▁200	-102
▁신	-103
▁프	-104
▁때	-105
▁할	-106
▁던	-107
▁장	-108
▁거	-109
▁방	-110
▁바	-111
▁6	-112
▁대한	-113
▁교	-114
▁리	-115
▁차	-116
▁당	-117
▁우	-118
▁문	-119
▁무	-120
▁현	-121
▁역	-122
▁통	-123
▁또	-124
▁원	-125
▁내	-126
▁노	-127
▁진	-128
▁계	-129
▁포	-130
▁군	-131
▁분	-132
▁남	-133
▁7	-134
▁까	-135
▁않	-136
▁8	-137
▁10	-138
▁화	-139
▁생	-140
▁출	-141
▁작	-142
▁았	-143
▁까지	-144
▁같	-145
▁학	-146
▁결	-147
▁에게	-148
▁강	-149
▁받	-150
▁파	-151
▁불	-152
▁번	-153
▁함	-154
▁으며	-155
▁단	-156
▁된다	-157
▁최	-158
▁9	-159
▁반	-160
▁알	-161
▁~	-162
▁지만	-163
▁호	-164
▁배	-165
▁음	-166
▁회	-167
▁데	-168
▁S	-169
▁실	-170
▁예	-171
▁두	-172
▁형	-173
▁안	-174
▁재	-175
▁따	-176
▁초	-177
▁말	-178
▁부터	-179
▁없	-180
▁사용	-181
▁카	-182
▁타	-183
or	-184
▁C	-185
▁미국	-186
▁18	-187
▁종	-188
▁설	-189
▁라고	-190
▁요	-191
▁이후	-192
▁라는	-193
▁199	-194
er	-195
▁A	-196
▁특	-197
▁12	-198
▁면서	-199
▁일본	-200
▁감	-201
▁레	-202
▁코	-203
▁산	-204
▁더	-205
▁는데	-206
▁M	-207
▁운	-208
으며	-209
▁권	-210
▁독	-211
▁다음	-212
▁추	-213
▁베	-214
▁처	-215
▁지역	-216
▁건	-217
▁행	-218
▁활	-219
▁11	-220
▁간	-221
▁태	-222
민국	-223
▁T	-224
▁입	-225
▁피	-226
▁왕	-227
▁크	-228
▁매	-229
▁평	-230
▁많	-231
▁양	-232
▁및	-233
on	-234
▁다른	-235
▁김	-236
▁참	-237
la	-238
▁민	-239
in	-240
▁본	-241
▁대한민국	-242
▁승	-243
▁드	-244
00	-245
▁경기	-246
▁다고	-247
▁열	-248
▁총	-249
▁위해	-250
▁임	-251
▁올	-252
스트	-253
▁프로	-254
리아	-255
an	-256
▁속	-257
▁대학	-258
▁북	-259
▁198	-260
▁그리	-261
▁목	-262
▁:	-263
▁F	-264
▁야	-265
▁트	-266
▁시작	-267
▁때문	-268
▁달	-269
▁표	-270
▁물	-271
▁집	-272
▁변	-273
▁B	-274
▁외	-275
▁각	-276
▁체	-277
▁영화	-278
▁직	-279
▁법	-280
▁토	-281
▁메	-282
▁사람	-283
▁천	-284
▁약	-285
▁따라	-286
▁D	-287
▁함께	-288
▁15	-289
▁또한	-290
▁그러	-291
▁사이	-292
▁점	-293
▁f	-294
▁투	-295
▁항	-296
▁팀	-297
▁P	-298
▁치	-299
▁저	-300
▁현재	-301
▁박	-302
▁브	-303
▁자신	-304
▁선수	-305
▁16	-306
▁세계	-307
▁판	-308
▁새	-309
▁버	-310
▁경우	-311
▁광	-312
▁한국	-313
▁청	-314
▁용	-315
▁디	-316
en	-317
시아	-318
▁하나	-319
▁197	-320
▁가장	-321
▁위치	-322
▁또는	-323
▁기록	-324
▁이름	-325
▁m	-326
▁루	-327
▁당시	-328
▁네	-329
▁복	-330
▁존	-331
▁확	-332
▁17	-333
ar	-334
▁편	-335
▁국가	-336
▁L	-337
▁의해	-338
▁다는	-339
▁I	-340
▁축	-341
▁가지	-342
▁철	-343
▁이나	-344
▁합	-345
▁째	-346
▁필	-347
▁테	-348
▁_	-349
▁플	-350
▁뒤	-351
▁K	-352
▁for	-353
▁살	-354
▁그러나	-355
▁%	-356
mu	-357
▁증	-358
▁활동	-359
▁언	-360
주의	-361
▁삼	-362
▁리그	-363
▁심	-364
al	-365
▁196	-366
▁G	-367
▁금	-368
▁R	-369
▁조선	-370
▁페	-371
▁/	-372
▁근	-373
▁학교	-374
레이	-375
mula	-376
▁14	-377
▁formula	-378
▁식	-379
▁프랑	-380
▁통해	-381
부터	-382
▁백	-383
▁연구	-384
▁대표	-385
▁못	-386
▁창	-387
▁H	-388
▁병	-389
▁k	-390
▁쓰	-391
at	-392
▁니	-393
▁0	-394
▁그리고	-395
▁13	-396
▁돌	-397
▁규	-398
▁N	-399
▁사회	-400
▁황	-401
▁E	-402
es	-403
▁첫	-404
▁시즌	-405
▁애	-406
으나	-407
▁러	-408
▁순	-409
▁포함	-410
▁보다	-411
▁완	-412
▁히	-413
▁높	-414
▁충	-415
▁클	-416
▁패	-417
▁아니	-418
▁194	-419
▁키	-420
▁프랑스	-421
▁만들	-422
▁협	-423
▁중국	-424
▁도시	-425
▁다시	-426
랜드	-427
▁영국	-428
▁정부	-429
▁채	-430
ic	-431
▁는다	-432
▁인구	-433
▁뜻	-434
▁대해	-435
▁시대	-436
▁195	-437
▁여러	-438
he	-439
▁제작	-440
▁서울	-441
▁독일	-442
▁감독	-443
▁동안	-444
▁취	-445
▁큰	-446
▁친	-447
▁이상	-448
▁W	-449
▁일부	-450
▁아이	-451
▁전쟁	-452
▁로서	-453
▁모든	-454
학교	-455
is	-456
▁모두	-457
▁가능	-458
▁엔	-459
▁길	-460
▁으나	-461
▁다가	-462
▁죽	-463
▁202	-464
▁]	-465
▁온	-466
▁[	-467
▁곡	-468
▁U	-469
▁정치	-470
▁발매	-471
▁대회	-472
▁준	-473
▁처음	-474
▁환	-475
▁별	-476
▁손	-477
▁구성	-478
▁알려	-479
▁km	-480
▁c	-481
▁개발	-482
▁문화	-483
▁뉴	-484
▁위원	-485
▁배우	-486
▁위한	-487
▁축구	-488
▁지방	-489
it	-490
▁문제	-491
▁게임	-492
▁세기	-493
▁방송	-494
▁허	-495
▁될	-496
라이	-497
▁시간	-498
▁t	-499
▁30	-500
▁일반	-501
▁검	-502
▁이루	-503
▁농	-504
▁캐	-505
▁석	-506
▁골	-507
▁끝	-508
▁대학교	-509
▁였으며	-510
▁작품	-511
▁존재	-512
▁기준	-513
▁즉	-514
▁케	-515
▁날	-516
▁논	-517
▁밀	-518
▁쿠	-519
▁J	-520
▁이용	-521
▁국제	-522
▁193	-523
▁음악	-524
▁s	-525
▁앞	-526
니아	-527
▁효	-528
▁주장	-529
▁음반	-530
▁티	-531
▁볼	-532
▁접	-533
▁역사	-534
▁정도	-535
▁거나	-536
▁중심	-537
▁걸	-538
▁나타	-539
▁폭	-540
▁향	-541
▁관계	-542
▁O	-543
▁급	-544
▁곳	-545
▁새로	-546
▁려	-547
▁했으며	-548
▁25	-549
▁이러	-550
▁맡	-551
▁사건	-552
부분	-553
▁운동	-554
le	-555
▁선거	-556
▁교육	-557
▁씨	-558
▁질	-559
▁발견	-560
▁경제	-561
▁극	-562
▁슈	-563
▁맞	-564
▁절	-565
re	-566
리스	-567
▁육	-568
ou	-569
▁귀	-570
▁발표	-571
▁담	-572
▁도록	-573
▁블	-574
▁측	-575
▁글	-576
▁누	-577
▁줄	-578
이스	-579
통령	-580
▁막	-581
ion	-582
▁기술	-583
▁대부분	-584
▁암	-585
000	-586
▁로부터	-587
▁사망	-588
▁태어	-589
▁2010	-590
▁의미	-591
▁갖	-592
▁잘	-593
▁터	-594
▁시키	-595
▁아들	-596
▁21	-597
화국	-598
▁책	-599
▁192	-600
▁전투	-601
▁홍	-602
▁영향	-603
▁결과	-604
▁우승	-605
▁들어	-606
▁민주	-607
▁헤	-608
▁참여	-609
▁공격	-610
▁발생	-611
▁커	-612
▁설치	-613
▁봉	-614
▁대통령	-615
▁섬	-616
▁갈	-617
▁밝	-618
▁라이	-619
▁프로그	-620
▁앨	-621
el	-622
▁지원	-623
▁유럽	-624
란드	-625
▁과정	-626
▁잡	-627
▁특히	-628
리카	-629
▁관련	-630
▁부분	-631
▁진행	-632
▁러시아	-633
▁머	-634
▁탄	-635
▁업	-636
▁최초	-637
▁이전	-638
▁됐	-639
▁얻	-640
▁범	-641
▁다양	-642
▁송	-643
▁올림	-644
▁중앙	-645
디오	-646
▁센	-647
▁결정	-648
▁탈	-649
▁V	-650
지만	-651
▁24	-652
▁설립	-653
▁폐	-654
▁22	-655
▁독립	-656
▁2008	-657
▁새로운	-658
▁해당	-659
▁제국	-660
om	-661
버지	-662
▁악	-663
▁23	-664
▁191	-665
▁구조	-666
▁자유	-667
▁상태	-668
▁인해	-669
▁형태	-670
▁주로	-671
▁여성	-672
ol	-673
▁고등	-674
▁일어	-675
us	-676
▁난	-677
▁소속	-678
▁사실	-679
▁로마	-680
▁싱	-681
▁어서	-682
▁침	-683
▁그녀	-684
▁같이	-685
▁폴	-686
▁하지만	-687
▁2011	-688
▁100	-689
▁이탈	-690
▁올림픽	-691
▁좋	-692
우스	-693
▁2012	-694
▁르	-695
as	-696
▁필요	-697
▁프로그램	-698
▁생각	-699
▁중요	-700
▁2009	-701
나라	-702
▁2007	-703
▁출신	-704
▁이것	-705
▁스타	-706
▁팔	-707
▁생산	-708
▁으로서	-709
et	-710
▁혼	-711
▁2014	-712
▁좌	-713
▁이어	-714
▁빌	-715
▁운영	-716
▁참가	-717
▁철도	-718
▁나라	-719
▁벌	-720
▁조직	-721
▁타이	-722
▁란	-723
il	-724
▁억	-725
▁행정	-726
▁출연	-727
▁등장	-728
▁초등	-729
▁기관	-730
am	-731
▁인민	-732
▁계획	-733
▁윤	-734
라마	-735
▁000	-736
▁정보	-737
ing	-738
▁성공	-739
▁계속	-740
▁관리	-741
므로	-742
▁이탈리아	-743
▁매우	-744
▁콘	-745
▁26	-746
▁주요	-747
르크	-748
▁상대	-749
▁2013	-750
▁데뷔	-751
▁시스	-752
▁2015	-753
▁헌	-754
▁바이	-755
리즈	-756
▁위원회	-757
▁따르	-758
▁넘	-759
▁데이	-760
▁몇	-761
▁28	-762
▁쇼	-763
▁2018	-764
▁27	-765
▁그룹	-766
▁o	-767
스터	-768
▁차지	-769
▁뿐	-770
▁해서	-771
▁아버지	-772
▁전체	-773
ro	-774
ch	-775
▁2016	-776
▁레이	-777
▁d	-778
▁과학	-779
▁여자	-780
▁지정	-781
진다	-782
▁국민	-783
프트	-784
▁아래	-785
▁처럼	-786
▁고려	-787
▁드라마	-788
▁칼	-789
이션	-790
▁제공	-791
▁자리	-792
▁발전	-793
▁찾	-794
▁2006	-795
▁p	-796
▁대전	-797
▁방법	-798
▁앨범	-799
▁시리즈	-800
▁기원	-801
▁사업	-802
▁보이	-803
▁인도	-804
▁후보	-805
▁능	-806
▁최고	-807
▁2017	-808
▁돌아	-809
레스	-810
▁묘	-811
▁의원	-812
▁회사	-813
▁졌	-814
▁가리	-815
▁기업	-816
▁둘	-817
▁결국	-818
▁공식	-819
▁엘	-820
▁2000	-821
비아	-822
▁스페	-823
▁마이	-824
▁떨	-825
남도	-826
▁시스템	-827
▁격	-828
▁이유	-829
▁힘	-830
▁29	-831
이트	-832
▁퍼	-833
▁거의	-834
▁시기	-835
▁조사	-836
한다	-837
▁방식	-838
▁그리스	-839
▁인간	-840
▁내용	-841
▁빠	-842
비스	-843
▁한편	-844
▁얼	-845
▁태어났	-846
▁층	-847
▁떠	-848
▁생활	-849
▁역할	-850
▁인터	-851
▁")	-852
운데	-853
▁많이	-854
▁우리	-855
▁월드	-856
▁초기	-857
▁교회	-858
▁2019	-859
▁풍	-860
▁동시	-861
▁몸	-862
▁워	-863
▁잠	-864
▁출전	-865
▁연결	-866
▁연합	-867
▁가운데	-868
▁못하	-869
▁컴	-870
▁반대	-871
▁유지	-872
▁유명	-873
인다	-874
▁군사	-875
▁먼	-876
▁였으나	-877
▁공개	-878
▁해야	-879
▁190	-880
▁고등학교	-881
FA	-882
▁녹	-883
▁대신	-884
▁색	-885
▁2005	-886
▁마지	-887
▁느	-888
▁평가	-889
ac	-890
▁of	-891
▁지구	-892
▁표현	-893
▁규모	-894
▁으로써	-895
▁31	-896
▁으로부터	-897
▁기능	-898
▁항공	-899
▁분류	-900
▁민족	-901
▁수상	-902
▁노동	-903
▁떨어	-904
▁칸	-905
▁제도	-906
▁이미	-907
▁언어	-908
▁밴	-909
▁노래	-910
▁대상	-911
▁개인	-912
▁수도	-913
▁현대	-914
▁마지막	-915
▁열린	-916
▁텔	-917
▁졸	-918
▁각각	-919
▁몰	-920
▁따라서	-921
▁추가	-922
▁승리	-923
▁모습	-924
야기	-925
▁여기	-926
▁2020	-927
▁프리	-928
▁이루어	-929
▁홈	-930
ed	-931
▁이론	-932
▁류	-933
▁응	-934
▁기간	-935
▁이르	-936
▁특별	-937
▁지도	-938
▁플레이	-939
▁인정	-940
▁웨	-941
▁붙	-942
▁자연	-943
▁건설	-944
▁긴	-945
▁2004	-946
▁시켰	-947
▁밖	-948
▁단체	-949
▁놓	-950
▁임명	-951
▁형성	-952
▁진출	-953
▁알려져	-954
▁전문	-955
▁울	-956
▁희	-957
▁핵	-958
▁시장	-959
▁산업	-960
머니	-961
▁직접	-962
▁눈	-963
▁브라	-964
▁샤	-965
▁상황	-966
▁모델	-967
▁50	-968
스크	-969
id	-970
BS	-971
▁푸	-972
▁벨	-973
▁아르	-974
▁먹	-975
▁그것	-976
▁The	-977
▁마을	-978
▁건물	-979
▁공동	-980
▁왔	-981
▁정의	-982
▁오스트	-983
▁목적	-984
▁슬	-985
▁이야기	-986
▁빈	-987
▁정책	-988
▁계약	-989
▁서로	-990
▁불리	-991
▁족	-992
ent	-993
▁시절	-994
▁지금	-995
북도	-996
▁!	-997
▁스페인	-998
▁습	-999
▁압	-1000
▁했으나	-1001
▁보여	-1002
▁변경	-1003
▁뛰	-1004
▁자동	-1005
▁노선	-1006
▁혁	-1007
▁콜	-1008
이지	-1009
학자	-1010
ad	-1011
▁변화	-1012
▁경상	-1013
▁완전	-1014
▁의회	-1015
▁서비스	-1016
킨다	-1017
▁b	-1018
▁가수	-1019
▁공간	-1020
os	-1021
▁개최	-1022
▁교수	-1023
▁혹	-1024
이드	-1025
▁결혼	-1026
▁거리	-1027
▁경찰	-1028
▁너	-1029
▁관한	-1030
ur	-1031
▁야구	-1032
▁활약	-1033
▁낮	-1034
▁TV	-1035
니다	-1036
▁인물	-1037
▁훈	-1038
▁으면	-1039
▁망	-1040
ig	-1041
▁2002	-1042
▁졸업	-1043
▁최대	-1044
▁학생	-1045
▁실제	-1046
▁우주	-1047
▁40	-1048
▁부르	-1049
▁의하	-1050
▁공화국	-1051
▁싱글	-1052
▁촌	-1053
▁밴드	-1054
▁전국	-1055
▁기반	-1056
▁비롯	-1057
▁사상	-1058
▁소설	-1059
▁궁	-1060
▁휴	-1061
ter	-1062
iv	-1063
▁역시	-1064
▁기원전	-1065
▁지지	-1066
▁기타	-1067
▁189	-1068
▁요구	-1069
▁딸	-1070
▁판매	-1071
▁텔레	-1072
▁보호	-1073
▁the	-1074
▁2003	-1075
▁원래	-1076
▁일으	-1077
운드	-1078
and	-1079
대로	-1080
▁보통	-1081
▁잉	-1082
른다	-1083
프리카	-1084
▁속하	-1085
▁다이	-1086
▁부산	-1087
▁없이	-1088
▁황제	-1089
▁인민공	-1090
▁인민공화국	-1091
▁사랑	-1092
▁나이	-1093
▁겠	-1094
▁기본	-1095
▁가진	-1096
▁국회	-1097
비전	-1098
르트	-1099
▁출시	-1100
un	-1101
▁견	-1102
ation	-1103
▁FC	-1104
▁만든	-1105
▁맥	-1106
▁겸	-1107
▁퇴	-1108
▁달리	-1109
▁탑	-1110
▁어떤	-1111
▁거쳐	-1112
▁수행	-1113
▁실시	-1114
▁?	-1115
▁그래	-1116
▁론	-1117
▁아닌	-1118
▁자기	-1119
▁운행	-1120
od	-1121
스탄	-1122
▁못했	-1123
ot	-1124
▁전통	-1125
▁지하	-1126
▁설명	-1127
▁중화	-1128
▁도쿄	-1129
▁중학교	-1130
▁한다는	-1131
▁연방	-1132
▁종교	-1133
▁소련	-1134
▁엄	-1135
▁증가	-1136
▁도로	-1137
▁작업	-1138
▁차이	-1139
▁비판	-1140
▁1990	-1141
▁지나	-1142
▁Y	-1143
▁제외	-1144
▁이동	-1145
▁싸	-1146
▁옥	-1147
▁흐	-1148
▁환경	-1149
▁작곡	-1150
▁전기	-1151
▁특징	-1152
▁탐	-1153
▁혹은	-1154
▁공연	-1155
로스	-1156
린다	-1157
▁명칭	-1158
▁득	-1159
▁뮤	-1160
▁St	-1161
▁세력	-1162
▁숙	-1163
▁모양	-1164
▁세포	-1165
▁스위	-1166
역시	-1167
▁남쪽	-1168
▁북쪽	-1169
▁분야	-1170
▁애니	-1171
▁행동	-1172
▁통합	-1173
나다	-1174
▁경기도	-1175
▁염	-1176
▁시설	-1177
um	-1178
▁동물	-1179
▁위하	-1180
▁자료	-1181
▁군대	-1182
▁전자	-1183
▁방향	-1184
▁회의	-1185
▁도입	-1186
▁나오	-1187
▁구역	-1188
▁2001	-1189
▁센터	-1190
ra	-1191
▁목록	-1192
▁선정	-1193
▁능력	-1194
▁이라	-1195
▁작가	-1196
▁예술	-1197
▁기독	-1198
▁부대	-1199
▁차량	-1200
▁가족	-1201
▁확인	-1202
▁기존	-1203
▁바로	-1204
▁대해서	-1205
▁소프트	-1206
▁의한	-1207
▁풀	-1208
▁기념	-1209
▁지휘	-1210
너지	-1211
▁비슷	-1212
▁효과	-1213
▁승강	-1214
▁면적	-1215
▁교통	-1216
러스	-1217
▁지배	-1218
▁나가	-1219
▁추정	-1220
▁어머니	-1221
▁열차	-1222
▁작용	-1223
▁넓	-1224
▁높이	-1225
▁과거	-1226
▁피해	-1227
▁텔레비전	-1228
▁십	-1229
▁런	-1230
▁이때	-1231
▁이끌	-1232
▁역임	-1233
▁유일	-1234
▁몽	-1235
▁국내	-1236
▁n	-1237
▁2021	-1238
▁착	-1239
▁므로	-1240
▁월드컵	-1241
im	-1242
▁캐나다	-1243
▁옮	-1244
▁기독교	-1245
▁행위	-1246
▁남부	-1247
▁남자	-1248
▁형식	-1249
▁마다	-1250
▁교황	-1251
ir	-1252
▁동일	-1253
▁전라	-1254
▁오늘	-1255
▁X	-1256
▁부문	-1257
▁흔	-1258
▁적용	-1259
▁인기	-1260
▁문학	-1261
▁컴퓨	-1262
▁동쪽	-1263
루스	-1264
▁주변	-1265
em	-1266
▁시민	-1267
▁획	-1268
▁정당	-1269
▁혁명	-1270
▁앤	-1271
▁h	-1272
BC	-1273
▁솔	-1274
▁쪽	-1275
▁액	-1276
▁뉴욕	-1277
▁갑	-1278
▁한다고	-1279
▁담당	-1280
▁보내	-1281
▁컵	-1282
스타	-1283
▁비교	-1284
▁태양	-1285
▁대사	-1286
▁성장	-1287
▁낙	-1288
▁품	-1289
▁덴	-1290
▁서쪽	-1291
▁스트	-1292
▁상당	-1293
▁장관	-1294
▁윌	-1295
▁잔	-1296
▁1980	-1297
▁왕국	-1298
▁멤	-1299
▁승강장	-1300
▁클럽	-1301
▁영어	-1302
▁1999	-1303
▁이적	-1304
▁어린	-1305
ut	-1306
의원	-1307
▁발매되	-1308
▁이사	-1309
▁협회	-1310
▁데이터	-1311
ec	-1312
▁사고	-1313
ia	-1314
▁버전	-1315
▁FI	-1316
▁188	-1317
▁개념	-1318
메이션	-1319
자리	-1320
▁베이	-1321
▁"(	-1322
▁반응	-1323
▁자체	-1324
리오	-1325
▁예정	-1326
▁홀	-1327
▁특정	-1328
▁디자	-1329
▁공산	-1330
▁달러	-1331
▁크기	-1332
▁대체	-1333
▁스포	-1334
▁건축	-1335
▁징	-1336
▁에너지	-1337
▁연주	-1338
▁물리	-1339
▁메이	-1340
▁록	-1341
▁구간	-1342
▁돈	-1343
▁시켜	-1344
▁선택	-1345
▁가까	-1346
▁다르	-1347
▁챔	-1348
▁주연	-1349
▁곧	-1350
▁움	-1351
▁흥	-1352
▁1998	-1353
▁칭	-1354
▁차례	-1355
▁마음	-1356
▁사무	-1357
▁자치	-1358
▁컴퓨터	-1359
▁버스	-1360
▁즈	-1361
▁맨	-1362
▁a	-1363
▁애니메이션	-1364
▁어느	-1365
▁올라	-1366
▁육군	-1367
▁조건	-1368
▁넣	-1369
가지	-1370
▁율	-1371
▁멤버	-1372
▁평균	-1373
▁실패	-1374
▁부족	-1375
▁언급	-1376
▁이런	-1377
▁스위스	-1378
▁연속	-1379
st	-1380
▁마르	-1381
▁32	-1382
▁단계	-1383
▁선출	-1384
▁컨	-1385
▁주도	-1386
▁북부	-1387
▁공사	-1388
▁연기	-1389
▁땅	-1390
▁는지	-1391
▁출판	-1392
▁대하	-1393
▁늘	-1394
▁방영	-1395
▁인지	-1396
▁35	-1397
▁조지	-1398
▁속도	-1399
▁윈	-1400
▁종류	-1401
▁선언	-1402
▁Ch	-1403
▁고대	-1404
▁포르	-1405
▁수록	-1406
▁내부	-1407
▁작전	-1408
▁충청	-1409
op	-1410
▁챔피	-1411
▁링	-1412
카이	-1413
▁물질	-1414
▁1997	-1415
▁친구	-1416
▁정신	-1417
▁곤	-1418
▁덕	-1419
▁60	-1420
▁치료	-1421
▁옛	-1422
▁규정	-1423
▁In	-1424
드리	-1425
▁헌법	-1426
글랜드	-1427
▁최종	-1428
▁cm	-1429
▁밝혔	-1430
▁명령	-1431
▁1995	-1432
▁1996	-1433
▁구단	-1434
▁개혁	-1435
▁익	-1436
▁g	-1437
▁확장	-1438
▁몬	-1439
ow	-1440
▁민주주의	-1441
▁위해서	-1442
▁설계	-1443
▁걸쳐	-1444
▁입단	-1445
시마	-1446
▁흑	-1447
▁분석	-1448
▁쌍	-1449
거리	-1450
▁벤	-1451
난다	-1452
▁지냈	-1453
▁표준	-1454
▁페르	-1455
▁조약	-1456
▁보인다	-1457
▁연대	-1458
▁결승	-1459
▁획득	-1460
oc	-1461
▁체제	-1462
▁최근	-1463
▁척	-1464
▁지속	-1465
▁해군	-1466
▁의사	-1467
웨어	-1468
▁거주	-1469
▁선발	-1470
▁유사	-1471
▁찬	-1472
▁혈	-1473
▁대구	-1474
▁가치	-1475
▁관심	-1476
▁법원	-1477
▁in	-1478
▁일어나	-1479
▁소유	-1480
▁엔진	-1481
▁팬	-1482
▁요소	-1483
트남	-1484
▁대중	-1485
▁핀	-1486
▁왜	-1487
▁FIFA	-1488
▁더욱	-1489
▁사단	-1490
▁잉글랜드	-1491
▁강화	-1492
▁비행	-1493
▁남성	-1494
▁아시아	-1495
▁로스	-1496
▁개월	-1497
▁분리	-1498
▁1994	-1499
▁결합	-1500
▁국립	-1501
▁널	-1502
▁개봉	-1503
▁하이	-1504
▁스테	-1505
ag	-1506
▁머리	-1507
▁지명	-1508
▁체계	-1509
▁1970	-1510
▁mm	-1511
▁공항	-1512
▁소비	-1513
▁집단	-1514
▁내려	-1515
▁관할	-1516
▁도움	-1517
▁=	-1518
▁%)	-1519
▁1992	-1520
▁오늘날	-1521
▁목표	-1522
▁비디오	-1523
코드	-1524
▁가리킨다	-1525
▁휘	-1526
▁조정	-1527
▁자동차	-1528
▁후반	-1529
▁겨	-1530
메리카	-1531
리지	-1532
▁폴란드	-1533
▁제품	-1534
▁배치	-1535
▁실험	-1536
▁씩	-1537
▁파리	-1538
▁주인	-1539
▁맺	-1540
▁밤	-1541
스코	-1542
▁크리스	-1543
ay	-1544
▁부상	-1545
▁술	-1546
디어	-1547
▁어려	-1548
▁인천	-1549
▁시도	-1550
▁정규	-1551
렇게	-1552
▁어야	-1553
▁외국	-1554
▁문서	-1555
▁스포츠	-1556
▁베르	-1557
▁현상	-1558
▁요시	-1559
▁'(	-1560
▁&	-1561
▁수준	-1562
▁헬	-1563
▁재판	-1564
▁이해	-1565
▁186	-1566
▁고자	-1567
▁려고	-1568
▁가문	-1569
▁점령	-1570
▁네덜	-1571
▁네덜란드	-1572
아들	-1573
▁제한	-1574
▁투표	-1575
▁1991	-1576
▁187	-1577
▁처리	-1578
▁기사	-1579
라스	-1580
▁당하	-1581
▁불구	-1582
▁유전	-1583
▁알려진	-1584
▁주민	-1585
▁깊	-1586
▁디자인	-1587
▁문자	-1588
젝트	-1589
▁학자	-1590
▁들어가	-1591
▁쥐	-1592
ce	-1593
▁길이	-1594
▁북한	-1595
▁잃	-1596
▁뛰어	-1597
메달	-1598
▁편성	-1599
▁안정	-1600
▁칠	-1601
▁동맹	-1602
▁제조	-1603
▁마리	-1604
야마	-1605
▁나무	-1606
▁행사	-1607
ul	-1608
▁70	-1609
▁괴	-1610
▁원자	-1611
▁파이	-1612
▁일종	-1613
▁장치	-1614
버스	-1615
▁경험	-1616
▁바르	-1617
▁가정	-1618
▁책임	-1619
▁1993	-1620
▁정확	-1621
▁방문	-1622
▁웹	-1623
▁통치	-1624
▁장군	-1625
ers	-1626
▁통일	-1627
▁나타나	-1628
▁에스	-1629
▁올랐	-1630
▁용어	-1631
▁공원	-1632
▁언론	-1633
▁e	-1634
▁통과	-1635
▁시험	-1636
▁함수	-1637
▁통신	-1638
▁준비	-1639
▁아마	-1640
▁그림	-1641
▁사진	-1642
▁비해	-1643
▁촉	-1644
▁캠	-1645
▁다면	-1646
▁제안	-1647
▁프로젝트	-1648
▁아프리카	-1649
▁성적	-1650
▁베트남	-1651
광역시	-1652
▁사령	-1653
▁거두	-1654
▁이라고	-1655
▁믿	-1656
▁앙	-1657
▁500	-1658
▁듯	-1659
일랜드	-1660
▁만나	-1661
▁80	-1662
▁츠	-1663
머지	-1664
▁구분	-1665
▁",	-1666
▁나머지	-1667
▁원인	-1668
▁1988	-1669
▁병원	-1670
▁갔	-1671
▁끌	-1672
▁빛	-1673
▁불교	-1674
▁신문	-1675
▁멸	-1676
▁드러	-1677
▁런던	-1678
nd	-1679
▁1960	-1680
▁꽃	-1681
▁챔피언	-1682
▁주제	-1683
▁완전히	-1684
▁려는	-1685
▁그런	-1686
▁소재	-1687
▁평화	-1688
▁값	-1689
▁은퇴	-1690
▁정권	-1691
▁서부	-1692
▁36	-1693
▁본선	-1694
▁w	-1695
▁고속	-1696
▁대로	-1697
▁만화	-1698
▁인데	-1699
▁총리	-1700
▁45	-1701
▁쓴	-1702
▁아직	-1703
▁지진	-1704
▁부여	-1705
▁유래	-1706
▁발달	-1707
▁수용	-1708
▁야마	-1709
▁1989	-1710
▁쉽	-1711
▁요리	-1712
▁파괴	-1713
▁해석	-1714
▁영역	-1715
▁경쟁	-1716
▁정상	-1717
▁노력	-1718
▁여겨	-1719
스로	-1720
▁예선	-1721
▁레코드	-1722
▁생물	-1723
▁멀	-1724
▁방어	-1725
▁이곳	-1726
ri	-1727
▁경계	-1728
▁이듬	-1729
▁',	-1730
▁알렉	-1731
▁놀	-1732
▁오르	-1733
▁널리	-1734
▁KBS	-1735
▁훈련	-1736
▁기여	-1737
▁회장	-1738
▁나온	-1739
ph	-1740
▁33	-1741
나무	-1742
▁부인	-1743
ov	-1744
▁접근	-1745
▁추진	-1746
▁정리	-1747
▁부정	-1748
▁동부	-1749
▁반면	-1750
▁영토	-1751
▁폐지	-1752
▁번호	-1753
▁요청	-1754
▁광주	-1755
라인	-1756
리트	-1757
▁공립	-1758
▁라디오	-1759
▁사라	-1760
스턴	-1761
▁경영	-1762
▁무기	-1763
▁자주	-1764
▁이듬해	-1765
▁프레	-1766
▁보도	-1767
▁움직	-1768
▁왕조	-1769
▁입장	-1770
웨이	-1771
▁무대	-1772
▁인식	-1773
▁세워	-1774
▁+	-1775
▁일제	-1776
▁마찬	-1777
▁마찬가지	-1778
▁델	-1779
▁법률	-1780
레일	-1781
▁슈퍼	-1782
▁등록	-1783
▁세대	-1784
▁가르	-1785
▁궤	-1786
▁투수	-1787
▁연맹	-1788
▁오래	-1789
인트	-1790
▁식민	-1791
▁미사	-1792
▁신경	-1793
▁든	-1794
▁하계	-1795
▁외교	-1796
▁표기	-1797
▁신라	-1798
▁금지	-1799
▁종합	-1800
▁깨	-1801
th	-1802
▁인터넷	-1803
▁오른	-1804
▁민주당	-1805
톨릭	-1806
▁뇌	-1807
▁장애	-1808
▁지난	-1809
▁거부	-1810
▁철학	-1811
▁바탕	-1812
▁다리	-1813
▁도서	-1814
▁잇	-1815
▁스웨	-1816
▁묘사	-1817
▁실제로	-1818
ist	-1819
▁받아들	-1820
▁상호	-1821
▁스튜	-1822
ie	-1823
▁펼	-1824
▁캐릭	-1825
특별	-1826
▁;	-1827
▁행성	-1828
▁정식	-1829
▁펜	-1830
▁연구소	-1831
▁짧	-1832
▁노르	-1833
▁꼬	-1834
▁스스로	-1835
▁차트	-1836
▁박사	-1837
▁서식	-1838
▁미술	-1839
▁조각	-1840
▁검사	-1841
▁근처	-1842
▁업무	-1843
▁해결	-1844
▁아서	-1845
▁당했	-1846
▁표시	-1847
▁v	-1848
▁다수	-1849
▁전해	-1850
▁화학	-1851
▁보수	-1852
▁벽	-1853
▁빅	-1854
▁폰	-1855
▁지도자	-1856
▁의식	-1857
▁38	-1858
▁더불	-1859
▁은행	-1860
▁무역	-1861
▁복귀	-1862
▁기초	-1863
▁캐릭터	-1864
▁아일랜드	-1865
▁장소	-1866
og	-1867
▁분포	-1868
▁지대	-1869
▁둔	-1870
▁강력	-1871
▁가톨릭	-1872
요일	-1873
부르크	-1874
▁제주	-1875
▁결성	-1876
▁UE	-1877
▁감소	-1878
▁스웨덴	-1879
▁발사	-1880
▁주의	-1881
▁1987	-1882
▁득점	-1883
▁단순	-1884
▁중간	-1885
▁그대로	-1886
▁밝혀	-1887
▁끼	-1888
▁정치인	-1889
▁트리	-1890
▁오스트리아	-1891
▁패배	-1892
▁소리	-1893
낸다	-1894
▁식물	-1895
시코	-1896
▁수학	-1897
▁이스	-1898
▁임시	-1899
▁찾아	-1900
▁렌	-1901
▁여름	-1902
▁UEFA	-1903
로나	-1904
▁초대	-1905
▁경기장	-1906
▁생성	-1907
▁성격	-1908
모토	-1909
▁브라질	-1910
▁돼	-1911
▁마이크	-1912
▁아카	-1913
▁위험	-1914
▁기구	-1915
토리	-1916
▁오스	-1917
▁디지	-1918
▁박물	-1919
▁바뀌	-1920
▁1986	-1921
▁셀	-1922
▁삼성	-1923
▁제시	-1924
▁필리	-1925
▁바다	-1926
▁34	-1927
▁관측	-1928
▁이외	-1929
▁중단	-1930
▁멜	-1931
▁도착	-1932
▁그린	-1933
▁공작	-1934
▁회원	-1935
▁국회의원	-1936
▁차원	-1937
▁협력	-1938
▁시행	-1939
▁유로	-1940
▁유형	-1941
▁단어	-1942
▁계열	-1943
▁l	-1944
▁나중	-1945
▁로써	-1946
▁파일	-1947
▁활용	-1948
▁권력	-1949
▁린	-1950
▁가져	-1951
▁흡	-1952
▁다만	-1953
멕시코	-1954
▁아시	-1955
ard	-1956
NA	-1957
▁1950	-1958
▁히로	-1959
▁1984	-1960
▁기계	-1961
▁x	-1962
▁일정	-1963
▁인사	-1964
▁90	-1965
▁먼저	-1966
▁집합	-1967
▁오브	-1968
▁발행	-1969
▁안전	-1970
▁총선	-1971
est	-1972
▁뮤직	-1973
▁반란	-1974
워드	-1975
▁소프트웨어	-1976
▁형제	-1977
▁스코	-1978
▁여행	-1979
▁연장	-1980
▁캘	-1981
▁량	-1982
간다	-1983
▁지적	-1984
▁만큼	-1985
▁습니다	-1986
▁수많	-1987
▁카드	-1988
▁아무	-1989
▁오사	-1990
▁투자	-1991
▁Z	-1992
▁극장	-1993
▁나타내	-1994
▁굴	-1995
▁사이트	-1996
임스	-1997
▁번역	-1998
▁윌리	-1999
▁쓰이	-2000
▁률	-2001
▁라인	-2002
▁케이	-2003
주시	-2004
▁48	-2005
▁유대	-2006
▁달성	-2007
레일리아	-2008
워크	-2009
▁붕	-2010
▁박물관	-2011
▁개국	-2012
▁1985	-2013
▁균	-2014
▁겪	-2015
▁쉬	-2016
▁하루	-2017
▁연극	-2018
▁여객	-2019
▁강원	-2020
트로	-2021
ess	-2022
▁삶	-2023
▁후기	-2024
ap	-2025
▁해안	-2026
▁기자	-2027
▁후쿠	-2028
▁전시	-2029
▁공장	-2030
▁래	-2031
▁촬	-2032
▁떠나	-2033
▁유니	-2034
▁코드	-2035
가와	-2036
트리	-2037
▁녹음	-2038
▁2022	-2039
▁혐	-2040
▁1945	-2041
▁귀족	-2042
▁에이	-2043
▁네트	-2044
▁출생	-2045
▁조성	-2046
▁and	-2047
▁벌어	-2048
▁보유	-2049
티아	-2050
▁죽음	-2051
▁내각	-2052
▁순위	-2053
▁체포	-2054
▁파견	-2055
ine	-2056
▁다카	-2057
▁전달	-2058
▁측정	-2059
▁주어	-2060
▁디지털	-2061
지션	-2062
▁촬영	-2063
▁근거	-2064
▁위기	-2065
베이	-2066
▁뉴스	-2067
▁완성	-2068
▁관광	-2069
▁동생	-2070
소년	-2071
▁상업	-2072
무원	-2073
▁마사	-2074
▁제기	-2075
▁상징	-2076
▁영상	-2077
▁학위	-2078
▁카이	-2079
가리	-2080
▁단위	-2081
▁오스트레일리아	-2082
▁숨	-2083
▁옹	-2084
▁본부	-2085
▁꾸	-2086
▁태평	-2087
▁죄	-2088
▁멕시코	-2089
▁혜	-2090
▁지식	-2091
▁1982	-2092
▁전략	-2093
▁개통	-2094
▁바꾸	-2095
전히	-2096
▁유리	-2097
▁대응	-2098
▁범죄	-2099
▁컬	-2100
ity	-2101
▁37	-2102
▁세상	-2103
▁관찰	-2104
▁Al	-2105
▁이하	-2106
▁확대	-2107
버트	-2108
▁보존	-2109
▁아내	-2110
▁수사	-2111
▁포르투	-2112
▁지상	-2113
▁권리	-2114
▁특수	-2115
▁성우	-2116
▁통하	-2117
▁듀	-2118
▁이슬	-2119
▁185	-2120
▁밀도	-2121
▁이주	-2122
니스	-2123
회사	-2124
▁세웠	-2125
▁몇몇	-2126
배우	-2127
▁설정	-2128
ct	-2129
▁미래	-2130
▁보였	-2131
▁지하철	-2132
▁체결	-2133
특별시	-2134
▁1983	-2135
▁천황	-2136
▁윈도	-2137
▁서울특별시	-2138
▁양식	-2139
▁톤	-2140
▁당선	-2141
art	-2142
av	-2143
▁전환	-2144
▁크로	-2145
▁근무	-2146
▁싶	-2147
ab	-2148
▁헝	-2149
▁경상남도	-2150
▁경상북도	-2151
▁성립	-2152
▁윌리엄	-2153
▁그렇	-2154
▁피아	-2155
▁특성	-2156
▁논란	-2157
▁수비	-2158
▁코치	-2159
▁식민지	-2160
▁이렇게	-2161
▁타이틀	-2162
▁채널	-2163
▁직후	-2164
▁다루	-2165
▁종료	-2166
나이	-2167
▁42	-2168
▁옆	-2169
▁국왕	-2170
▁합류	-2171
▁세르	-2172
▁소수	-2173
▁주인공	-2174
▁즐	-2175
▁39	-2176
▁종목	-2177
▁계승	-2178
▁공급	-2179
▁승격	-2180
아시아	-2181
▁300	-2182
▁정착	-2183
▁님	-2184
▁판단	-2185
▁부른다	-2186
▁낳	-2187
▁생명	-2188
▁아키	-2189
▁밑	-2190
▁미군	-2191
▁텍	-2192
▁국경	-2193
▁젊	-2194
▁올리	-2195
▁으므로	-2196
▁지위	-2197
ill	-2198
▁따른	-2199
▁스키	-2200
▁춘	-2201
▁이집	-2202
▁이집트	-2203
▁개정	-2204
▁얼마	-2205
▁맹	-2206
모리	-2207
▁헨	-2208
▁즉위	-2209
▁홍콩	-2210
▁개선	-2211
▁취임	-2212
▁교체	-2213
▁주식	-2214
▁비용	-2215
▁농업	-2216
▁겐	-2217
▁의견	-2218
▁부모	-2219
▁시티	-2220
▁제거	-2221
▁시청	-2222
▁자본	-2223
▁수정	-2224
▁대륙	-2225
▁납	-2226
▁1981	-2227
▁빨	-2228
▁제정	-2229
▁보냈	-2230
▁소개	-2231
▁거대	-2232
▁원소	-2233
ak	-2234
▁~)	-2235
▁감염	-2236
igh	-2237
▁주목	-2238
▁41	-2239
▁벗	-2240
▁못한	-2241
▁건강	-2242
▁제목	-2243
▁강한	-2244
▁우크	-2245
▁기획	-2246
▁롤	-2247
▁64	-2248
▁음식	-2249
▁이래	-2250
▁시위	-2251
▁배경	-2252
▁계산	-2253
리학	-2254
▁해외	-2255
▁져	-2256
러운	-2257
▁55	-2258
▁인근	-2259
▁은하	-2260
▁스티	-2261
▁여전히	-2262
▁스튜디오	-2263
▁도서관	-2264
▁네트워크	-2265
▁튀	-2266
▁만드	-2267
▁MBC	-2268
▁충돌	-2269
if	-2270
▁1979	-2271
▁통제	-2272
라도	-2273
▁쌓	-2274
▁기후	-2275
▁왼	-2276
▁공부	-2277
▁썼	-2278
▁결승전	-2279
▁측면	-2280
▁펠	-2281
▁읽	-2282
▁집중	-2283
▁셰	-2284
▁de	-2285
▁장기	-2286
▁사회주의	-2287
ell	-2288
▁됨	-2289
▁본래	-2290
▁작성	-2291
▁지점	-2292
▁원정	-2293
▁환자	-2294
▁인수	-2295
▁184	-2296
▁물론	-2297
▁이번	-2298
▁..	-2299
▁떨어진	-2300
▁미사일	-2301
▁소장	-2302
▁알렉산	-2303
스티	-2304
▁자격	-2305
▁군인	-2306
▁찰	-2307
교회	-2308
▁최소	-2309
▁가격	-2310
▁II	-2311
▁너무	-2312
▁전차	-2313
▁계기	-2314
▁자원	-2315
ang	-2316
▁외부	-2317
▁1972	-2318
디아	-2319
▁가까운	-2320
▁음력	-2321
▁몽골	-2322
▁이슬람	-2323
▁랑	-2324
▁가입	-2325
▁합병	-2326
▁베네	-2327
오카	-2328
▁옮겨	-2329
▁듣	-2330
▁신호	-2331
▁명예	-2332
▁홈런	-2333
▁예수	-2334
▁1973	-2335
▁이란	-2336
▁문화재	-2337
▁Th	-2338
▁비밀	-2339
▁본관	-2340
▁오후	-2341
▁나누	-2342
▁청년	-2343
▁틀	-2344
▁약간	-2345
▁일어난	-2346
▁저항	-2347
리포	-2348
nt	-2349
▁75	-2350
▁포르투갈	-2351
▁마치	-2352
▁엘리	-2353
▁궤도	-2354
▁Re	-2355
▁허용	-2356
▁전라남도	-2357
▁강조	-2358
all	-2359
▁엑	-2360
▁으면서	-2361
스카	-2362
▁바이러스	-2363
ip	-2364
▁헝가리	-2365
▁학문	-2366
▁콩	-2367
▁전사	-2368
▁입학	-2369
▁다니	-2370
▁공군	-2371
▁편집	-2372
▁표면	-2373
어나	-2374
▁객	-2375
▁포지션	-2376
▁병력	-2377
ive	-2378
▁둘러	-2379
▁블랙	-2380
▁준다	-2381
▁종종	-2382
▁학년	-2383
▁아우	-2384
▁기회	-2385
▁가리키	-2386
▁실행	-2387
▁엔터	-2388
▁신학	-2389
▁킬	-2390
동안	-2391
티나	-2392
▁성인	-2393
ber	-2394
▁남북	-2395
▁인한	-2396
▁질량	-2397
▁각종	-2398
▁노동자	-2399
▁병사	-2400
▁제임스	-2401
▁고양	-2402
백질	-2403
▁충분	-2404
▁광고	-2405
▁천문	-2406
피아	-2407
▁나왔	-2408
▁뒷	-2409
▁180	-2410
▁만약	-2411
▁미디어	-2412
▁세이	-2413
니어	-2414
▁전반	-2415
▁변호	-2416
▁민간	-2417
▁샌	-2418
▁1974	-2419
▁보고	-2420
아가	-2421
베르	-2422
▁플로	-2423
▁겨울	-2424
▁빼	-2425
▁건너	-2426
▁모리	-2427
▁재정	-2428
▁간주	-2429
▁이루어져	-2430
▁동료	-2431
▁금융	-2432
▁혐의	-2433
▁43	-2434
▁윈도우	-2435
▁비트	-2436
▁전역	-2437
▁현실	-2438
▁무렵	-2439
▁증명	-2440
▁도중	-2441
▁가졌	-2442
▁흰	-2443
▁바람	-2444
▁태평양	-2445
▁유도	-2446
▁국방	-2447
ue	-2448
▁에드	-2449
▁수입	-2450
▁라운드	-2451
▁승인	-2452
▁고전	-2453
▁잎	-2454
▁1978	-2455
▁양자	-2456
▁털	-2457
te	-2458
▁위협	-2459
소리	-2460
▁양성	-2461
▁오사카	-2462
▁의료	-2463
▁1976	-2464
▁증거	-2465
▁캘리포	-2466
▁불린다	-2467
▁가스	-2468
▁등급	-2469
▁종이	-2470
▁잭	-2471
▁논문	-2472
▁무장	-2473
▁지내	-2474
▁짓	-2475
▁범위	-2476
▁시킨	-2477
▁토지	-2478
▁공공	-2479
▁클라	-2480
▁항상	-2481
▁숲	-2482
도로	-2483
▁냉	-2484
철도	-2485
▁단백질	-2486
▁1971	-2487
▁그해	-2488
ub	-2489
▁캘리포니아	-2490
▁마련	-2491
▁잡지	-2492
▁해방	-2493
▁나카	-2494
▁분자	-2495
▁계급	-2496
▁라이브	-2497
▁1968	-2498
▁재산	-2499
▁이미지	-2500
▁온도	-2501
▁붕괴	-2502
▁갖추	-2503
▁임무	-2504
▁가로	-2505
▁쇠	-2506
ne	-2507
▁그곳	-2508
▁재직	-2509
▁전력	-2510
▁섭	-2511
마크	-2512
▁인디	-2513
▁회복	-2514
▁융	-2515
▁강제	-2516
▁다섯	-2517
▁미치	-2518
▁183	-2519
▁킹	-2520
▁1975	-2521
▁조치	-2522
▁강원도	-2523
▁44	-2524
▁1969	-2525
▁채택	-2526
▁47	-2527
▁진화	-2528
▁위원장	-2529
▁적극	-2530
▁확보	-2531
▁명단	-2532
▁령	-2533
▁후지	-2534
▁사례	-2535
▁업체	-2536
스키	-2537
▁400	-2538
▁짐	-2539
▁폼	-2540
▁출발	-2541
▁65	-2542
▁소송	-2543
▁그래서	-2544
▁게이	-2545
보드	-2546
▁불러	-2547
▁원칙	-2548
▁힐	-2549
▁핀란드	-2550
our	-2551
▁비율	-2552
▁욕	-2553
▁점차	-2554
▁Q	-2555
▁합의	-2556
리스트	-2557
▁그려	-2558
▁꼬리	-2559
▁울산	-2560
▁대학원	-2561
▁카르	-2562
▁답	-2563
▁남동	-2564
▁전하	-2565
▁토론	-2566
아프리카	-2567
▁구축	-2568
▁대대	-2569
▁사우	-2570
▁충청남도	-2571
▁장면	-2572
▁r	-2573
▁인하	-2574
로드	-2575
▁에피	-2576
▁루이	-2577
▁드래	-2578
▁남편	-2579
▁일원	-2580
▁수단	-2581
▁거래	-2582
드로	-2583
▁시내	-2584
▁이스라	-2585
▁봄	-2586
▁수립	-2587
▁터미	-2588
주교	-2589
▁유엔	-2590
▁아라	-2591
▁동계	-2592
▁모스크	-2593
▁마쓰	-2594
▁매년	-2595
▁불가	-2596
▁46	-2597
▁중심지	-2598
▁군주	-2599
▁교사	-2600
▁의학	-2601
▁시인	-2602
▁첨	-2603
▁끊	-2604
ian	-2605
CA	-2606
▁얼굴	-2607
▁스파	-2608
▁라틴	-2609
▁둥	-2610
▁세종	-2611
▁부근	-2612
▁오리	-2613
▁이스라엘	-2614
▁체육	-2615
▁폭발	-2616
▁전선	-2617
▁쓰인다	-2618
바이	-2619
테르	-2620
▁1963	-2621
▁1977	-2622
▁강의	-2623
키아	-2624
▁장비	-2625
▁근대	-2626
▁불렀	-2627
▁아나	-2628
▁냈	-2629
▁179	-2630
▁침공	-2631
▁흘	-2632
▁스타일	-2633
타인	-2634
▁|	-2635
▁CD	-2636
▁공산당	-2637
▁규칙	-2638
▁빠르	-2639
▁51	-2640
▁필리핀	-2641
▁De	-2642
▁아주	-2643
ong	-2644
ice	-2645
▁전개	-2646
▁확실	-2647
▁텐	-2648
▁경향	-2649
▁군단	-2650
▁마리아	-2651
▁만족	-2652
▁투어	-2653
ud	-2654
▁위성	-2655
▁대수	-2656
▁대형	-2657
ran	-2658
▁롭	-2659
▁코미	-2660
▁기억	-2661
고기	-2662
▁라면	-2663
▁아랍	-2664
▁플랫	-2665
▁52	-2666
▁터미널	-2667
▁장식	-2668
▁Le	-2669
라노	-2670
▁신화	-2671
레이드	-2672
▁꿈	-2673
리히	-2674
▁공주	-2675
▁경력	-2676
▁카메	-2677
▁기지	-2678
▁앞두	-2679
▁라며	-2680
▁에게서	-2681
▁이제	-2682
▁향상	-2683
▁가사	-2684
▁클래	-2685
마스	-2686
▁효소	-2687
▁탑재	-2688
▁기대	-2689
▁붉	-2690
▁개편	-2691
▁어떻	-2692
▁150	-2693
▁선거구	-2694
▁일어났	-2695
반도	-2696
누스	-2697
▁1964	-2698
▁열렸	-2699
▁서양	-2700
▁했었	-2701
▁1948	-2702
▁고종	-2703
▁대기	-2704
▁감정	-2705
▁대장	-2706
▁1920	-2707
▁불과	-2708
▁해체	-2709
▁1940	-2710
데미	-2711
▁영화배우	-2712
고리	-2713
▁공유	-2714
▁아름	-2715
▁버리	-2716
▁상하	-2717
▁수출	-2718
▁떨어져	-2719
▁낭	-2720
▁보장	-2721
▁띠	-2722
▁캄	-2723
▁동음	-2724
▁나치	-2725
▁고구	-2726
▁시각	-2727
▁자금	-2728
▁태어난	-2729
네시아	-2730
▁1930	-2731
▁아파	-2732
▁좀	-2733
▁복잡	-2734
▁해도	-2735
▁켄	-2736
▁항성	-2737
▁조합	-2738
▁st	-2739
▁고용	-2740
▁이승	-2741
▁공업	-2742
▁알려졌	-2743
▁예상	-2744
▁살해	-2745
▁넘어	-2746
▁아카데미	-2747
▁플레이어	-2748
▁독자	-2749
▁스리	-2750
▁1967	-2751
ge	-2752
▁알리	-2753
▁호수	-2754
▁181	-2755
▁모르	-2756
▁세우	-2757
▁선고	-2758
▁이끄	-2759
우드	-2760
▁동의	-2761
▁스피	-2762
▁브랜드	-2763
▁Ne	-2764
▁귀국	-2765
▁신설	-2766
이의	-2767
▁사후	-2768
▁소년	-2769
▁단일	-2770
▁54	-2771
▁동음이의	-2772
소드	-2773
▁우선	-2774
▁확정	-2775
▁아메리카	-2776
▁Ar	-2777
▁지시	-2778
트라	-2779
▁고문	-2780
▁아야	-2781
▁1962	-2782
▁단지	-2783
▁나와	-2784
아메리카	-2785
▁트랙	-2786
▁솔로	-2787
▁코미디	-2788
▁강점	-2789
▁의장	-2790
▁중반	-2791
▁청소년	-2792
▁전설	-2793
▁차별	-2794
▁잠시	-2795
요시	-2796
▁수원	-2797
▁시킬	-2798
▁랭	-2799
▁청나라	-2800
▁공포	-2801
▁성과	-2802
▁회전	-2803
▁빙	-2804
틀랜드	-2805
▁마드리	-2806
▁우수	-2807
▁온라인	-2808
▁선생	-2809
▁나폴	-2810
▁집행	-2811
▁판결	-2812
▁전화	-2813
▁Un	-2814
▁구체	-2815
▁의무	-2816
▁53	-2817
이크	-2818
오스	-2819
▁삭	-2820
▁고정	-2821
▁인조	-2822
▁An	-2823
▁참석	-2824
▁편입	-2825
▁핵심	-2826
▁세운	-2827
▁어린이	-2828
하라	-2829
레이션	-2830
▁태어나	-2831
▁베이스	-2832
▁시킨다	-2833
▁자세	-2834
▁마드리드	-2835
를린	-2836
▁49	-2837
▁%,	-2838
ry	-2839
▁갖춘	-2840
▁주교	-2841
▁스카	-2842
▁훨	-2843
▁터키	-2844
▁신앙	-2845
▁덴마크	-2846
▁1965	-2847
▁1946	-2848
▁kg	-2849
▁대립	-2850
▁초반	-2851
어들	-2852
▁메이저	-2853
▁작곡가	-2854
▁노예	-2855
▁만주	-2856
▁평양	-2857
▁훨씬	-2858
▁직원	-2859
▁선조	-2860
▁헤이	-2861
▁브리	-2862
▁냐	-2863
없이	-2864
▁중화민국	-2865
▁애플	-2866
룬다	-2867
▁창설	-2868
▁숭	-2869
▁1966	-2870
▁저장	-2871
▁나뉘	-2872
▁숫	-2873
▁의해서	-2874
▁이루어진	-2875
▁뿌	-2876
▁철도역	-2877
▁운전	-2878
▁유전자	-2879
▁뛰어난	-2880
▁덮	-2881
▁스케	-2882
▁역대	-2883
▁Mar	-2884
▁교토	-2885
▁대비	-2886
▁상품	-2887
▁주택	-2888
▁협상	-2889
FC	-2890
▁권한	-2891
▁중부	-2892
ight	-2893
▁검찰	-2894
▁별도	-2895
▁공학	-2896
▁하늘	-2897
▁전용	-2898
터리	-2899
▁공기	-2900
▁이루어지	-2901
네스	-2902
▁경주	-2903
▁왕위	-2904
▁보안	-2905
▁이성	-2906
싱턴	-2907
▁보병	-2908
▁LG	-2909
▁원작	-2910
▁대항	-2911
각형	-2912
▁중세	-2913
▁카운	-2914
에르	-2915
▁보급	-2916
▁함대	-2917
▁북서	-2918
▁올렸	-2919
▁북동	-2920
▁오픈	-2921
▁아르헨	-2922
▁보조	-2923
리어	-2924
▁고구려	-2925
▁후손	-2926
다이	-2927
운동	-2928
▁태풍	-2929
▁56	-2930
의회	-2931
▁에선	-2932
▁1949	-2933
▁에피소드	-2934
▁흔히	-2935
ant	-2936
▁마크	-2937
▁인상	-2938
▁통한	-2939
일러	-2940
▁조금	-2941
▁협정	-2942
▁순서	-2943
▁1961	-2944
▁본인	-2945
▁서기	-2946
▁심각	-2947
▁묻	-2948
▁아르헨티나	-2949
셔널	-2950
▁사항	-2951
▁아시안	-2952
카와	-2953
▁옷	-2954
▁산맥	-2955
▁호텔	-2956
▁본격	-2957
▁이익	-2958
ST	-2959
▁장착	-2960
▁멘	-2961
▁금메달	-2962
▁연고	-2963
▁탄생	-2964
▁암살	-2965
▁재단	-2966
▁잘못	-2967
ob	-2968
▁전혀	-2969
▁Sh	-2970
▁정복	-2971
▁스크	-2972
▁오른쪽	-2973
▁수여	-2974
▁지키	-2975
se	-2976
▁사전	-2977
▁통계	-2978
ich	-2979
▁비난	-2980
▁바라	-2981
▁댄	-2982
▁유학	-2983
▁터널	-2984
▁반복	-2985
▁말기	-2986
▁방출	-2987
▁하드	-2988
▁고향	-2989
오프	-2990
▁켈	-2991
▁앞서	-2992
▁육상	-2993
사키	-2994
▁왼쪽	-2995
▁방면	-2996
▁보컬	-2997
▁아스	-2998
비드	-2999
▁이어지	-3000
▁변호사	-3001
▁물러	-3002
▁활성	-3003
▁오랜	-3004
▁명명	-3005
▁오히	-3006
▁찍	-3007
▁각본	-3008
▁강점기	-3009
▁소식	-3010
다리	-3011
▁워싱턴	-3012
▁로버트	-3013
▁갈등	-3014
▁닌	-3015
해졌	-3016
ore	-3017
듀서	-3018
▁프로듀서	-3019
원군	-3020
▁도달	-3021
▁논의	-3022
ort	-3023
▁삼국	-3024
▁re	-3025
▁요새	-3026
▁돌아가	-3027
▁출마	-3028
▁58	-3029
▁어떻게	-3030
▁시점	-3031
▁슬로	-3032
▁저지	-3033
▁공무원	-3034
▁반도	-3035
▁카를	-3036
▁셋	-3037
▁유적	-3038
▁합성	-3039
▁저서	-3040
▁연관	-3041
per	-3042
▁금속	-3043
문화	-3044
▁1000	-3045
▁선수단	-3046
▁롯	-3047
▁레드	-3048
▁성당	-3049
▁신체	-3050
▁플라	-3051
▁릴	-3052
▁원주	-3053
▁박쥐	-3054
▁베를린	-3055
▁요한	-3056
qu	-3057
▁구별	-3058
▁태국	-3059
▁인정받	-3060
▁강하	-3061
▁인권	-3062
▁노스	-3063
퍼스	-3064
▁인터뷰	-3065
▁주기	-3066
▁일으키	-3067
▁모스크바	-3068
▁전후	-3069
▁프란	-3070
▁99	-3071
▁관료	-3072
▁오토	-3073
▁아미	-3074
▁Com	-3075
▁법인	-3076
▁우스	-3077
▁창조	-3078
ain	-3079
미터	-3080
▁건조	-3081
▁전라북도	-3082
▁인류	-3083
▁피아노	-3084
▁인종	-3085
▁입자	-3086
▁투입	-3087
▁이민	-3088
▁광역시	-3089
▁생존	-3090
▁군수	-3091
▁무리	-3092
ver	-3093
▁글로	-3094
▁로드	-3095
▁182	-3096
▁미터	-3097
▁베이징	-3098
▁추측	-3099
▁속한다	-3100
▁교차	-3101
▁효율	-3102
▁오전	-3103
▁아침	-3104
▁US	-3105
▁숫자	-3106
▁진다	-3107
ate	-3108
▁to	-3109
▁사령관	-3110
▁창립	-3111
▁복합	-3112
▁57	-3113
▁항복	-3114
▁불렸	-3115
▁산하	-3116
▁짜	-3117
▁코스	-3118
▁흡수	-3119
BO	-3120
▁공산주의	-3121
▁건국	-3122
▁Be	-3123
▁현장	-3124
▁일치	-3125
▁거절	-3126
▁한때	-3127
▁62	-3128
무라	-3129
정부	-3130
▁내렸	-3131
▁구속	-3132
▁사법	-3133
▁1958	-3134
ord	-3135
▁제출	-3136
퍼드	-3137
세이	-3138
▁스코틀랜드	-3139
▁인공	-3140
▁마침	-3141
ss	-3142
▁논쟁	-3143
▁포기	-3144
▁성경	-3145
▁공화	-3146
▁탁	-3147
▁열리	-3148
▁전공	-3149
▁파라	-3150
▁낸	-3151
▁개시	-3152
▁노르웨이	-3153
▁해양	-3154
▁벡	-3155
OS	-3156
▁웨스트	-3157
ect	-3158
▁예산	-3159
▁현역	-3160
▁제자	-3161
▁절대	-3162
▁법칙	-3163
▁정체	-3164
▁00	-3165
▁연산	-3166
▁SBS	-3167
도르	-3168
▁머물	-3169
▁운용	-3170
▁의존	-3171
▁72	-3172
▁비록	-3173
▁하위	-3174
▁제어	-3175
▁i	-3176
▁주위	-3177
▁작사	-3178
▁연합군	-3179
▁라도	-3180
▁메시	-3181
▁집안	-3182
▁교류	-3183
▁오히려	-3184
▁해상	-3185
end	-3186
▁블루	-3187
▁수송	-3188
▁미나	-3189
▁미니	-3190
▁인가	-3191
젤레스	-3192
▁고유	-3193
▁헨리	-3194
▁투쟁	-3195
▁61	-3196
▁주전	-3197
▁전부	-3198
▁프라	-3199
▁PC	-3200
▁뽑	-3201
▁중대	-3202
▁김정	-3203
마트	-3204
▁관점	-3205
▁사운드	-3206
스토	-3207
▁1956	-3208
서트	-3209
▁붙여	-3210
▁에어	-3211
▁해졌	-3212
▁지닌	-3213
▁95	-3214
▁맛	-3215
▁소녀	-3216
▁포도	-3217
▁어렵	-3218
▁이기	-3219
▁마이클	-3220
▁160	-3221
▁멸망	-3222
▁신성	-3223
▁전철	-3224
▁편지	-3225
▁취급	-3226
▁들어갔	-3227
▁반영	-3228
▁66	-3229
▁활발	-3230
▁178	-3231
▁읍	-3232
▁파크	-3233
▁플레이오프	-3234
▁밖에	-3235
▁아사	-3236
▁취득	-3237
▁직전	-3238
▁분쟁	-3239
▁지니	-3240
▁목사	-3241
▁포위	-3242
▁통해서	-3243
산시	-3244
▁안타	-3245
▁정비	-3246
쿠라	-3247
▁파트	-3248
▁1944	-3249
▁본사	-3250
▁죽이	-3251
▁내리	-3252
기에	-3253
▁1959	-3254
▁택	-3255
▁한자	-3256
▁총독	-3257
▁장악	-3258
▁외국인	-3259
▁생겨	-3260
▁미드	-3261
▁항공기	-3262
▁약속	-3263
ys	-3264
준다	-3265
▁노부	-3266
▁다운	-3267
ae	-3268
▁88	-3269
키스탄	-3270
▁성능	-3271
▁히데	-3272
▁경성	-3273
▁폭력	-3274
▁Sp	-3275
▁1947	-3276
▁더라도	-3277
▁혼란	-3278
▁수집	-3279
▁직업	-3280
io	-3281
▁현지	-3282
▁명성	-3283
▁상당히	-3284
▁질병	-3285
라이나	-3286
▁도구	-3287
ik	-3288
▁자라	-3289
▁이른	-3290
▁소스	-3291
▁아름다	-3292
일보	-3293
▁견해	-3294
▁수술	-3295
▁그레	-3296
▁농민	-3297
▁보관	-3298
다가	-3299
▁해산	-3300
▁예비	-3301
▁부활	-3302
▁화물	-3303
▁조절	-3304
릭스	-3305
▁1941	-3306
▁성질	-3307
▁후원	-3308
▁한국어	-3309
▁넷	-3310
▁85	-3311
▁폴리	-3312
▁159	-3313
▁형사	-3314
▁무엇	-3315
▁떠났	-3316
▁대화	-3317
자기	-3318
▁장교	-3319
▁연료	-3320
▁일으켰	-3321
▁개체	-3322
▁일대	-3323
▁세인트	-3324
▁상승	-3325
▁득표	-3326
▁에도	-3327
▁브루	-3328
▁팝	-3329
▁출입	-3330
▁불법	-3331
▁콘서트	-3332
▁브레	-3333
ff	-3334
▁전문가	-3335
▁자녀	-3336
▁본명	-3337
▁사태	-3338
▁교환	-3339
▁니시	-3340
▁생기	-3341
▁남서	-3342
▁대략	-3343
라비아	-3344
▁대리	-3345
▁진입	-3346
▁건립	-3347
▁소방	-3348
▁68	-3349
▁동원	-3350
▁주관	-3351
▁보험	-3352
▁빠른	-3353
▁여객철도	-3354
▁핑	-3355
▁63	-3356
ok	-3357
▁심리	-3358
▁간단	-3359
▁디스	-3360
▁모드	-3361
oh	-3362
▁원리	-3363
▁인도네시아	-3364
▁학부	-3365
▁베스트	-3366
uc	-3367
▁부장	-3368
데스	-3369
▁선교	-3370
▁여부	-3371
▁연재	-3372
▁이치	-3373
▁탈출	-3374
▁영향력	-3375
▁관직	-3376
▁니콜	-3377
▁자이	-3378
▁백작	-3379
▁부임	-3380
▁출장	-3381
▁써	-3382
▁좁	-3383
▁진보	-3384
▁철수	-3385
▁하우스	-3386
바라	-3387
▁고도	-3388
▁엠	-3389
▁로스앤	-3390
▁벨기에	-3391
▁로스앤젤레스	-3392
▁의도	-3393
▁꼭	-3394
▁살인	-3395
▁임대	-3396
▁취하	-3397
▁닥	-3398
▁시리아	-3399
▁1954	-3400
▁정지	-3401
▁영화제	-3402
▁al	-3403
▁보스	-3404
▁응용	-3405
▁학습	-3406
▁스미	-3407
▁막부	-3408
▁1939	-3409
▁분열	-3410
▁You	-3411
▁경로	-3412
▁탄소	-3413
▁1952	-3414
▁임금	-3415
▁연출	-3416
▁변형	-3417
▁허가	-3418
▁이시	-3419
▁동성	-3420
▁랜	-3421
▁갤	-3422
▁Con	-3423
▁구성원	-3424
▁59	-3425
▁알아	-3426
▁고리	-3427
▁논리	-3428
▁사령부	-3429
ast	-3430
▁주간	-3431
▁그런데	-3432
▁로운	-3433
▁공동체	-3434
▁예측	-3435
▁공통	-3436
▁위반	-3437
에트	-3438
▁학술	-3439
▁접하	-3440
▁훗	-3441
▁보건	-3442
▁톰	-3443
▁젠	-3444
▁갈라	-3445
▁말레이	-3446
▁픽	-3447
▁항구	-3448
▁FA	-3449
▁증상	-3450
▁코로나	-3451
▁영업	-3452
▁장르	-3453
▁트랜	-3454
▁천체	-3455
노스	-3456
▁헤르	-3457
▁방사	-3458
▁스프	-3459
▁1919	-3460
▁계통	-3461
▁아테	-3462
▁통상	-3463
▁거기	-3464
카이도	-3465
▁하나님	-3466
▁사장	-3467
▁82	-3468
▁복무	-3469
▁재료	-3470
▁전파	-3471
▁영입	-3472
▁He	-3473
▁쫓	-3474
▁프리미	-3475
▁도망	-3476
▁리더	-3477
▁스러운	-3478
이어	-3479
▁주년	-3480
리케	-3481
▁콤	-3482
▁엑스	-3483
▁시카	-3484
▁리스	-3485
나이티	-3486
병대	-3487
▁국도	-3488
▁타이완	-3489
▁샘	-3490
▁주식회사	-3491
▁Pro	-3492
▁1957	-3493
▁유나이티	-3494
▁요코	-3495
▁상륙	-3496
▁완료	-3497
▁프로세	-3498
▁신분	-3499
▁1955	-3500
▁문헌	-3501
▁수리	-3502
▁자살	-3503
▁기호	-3504
ure	-3505
▁유물	-3506
▁렀	-3507
▁반발	-3508
아버지	-3509
▁아파트	-3510
▁절차	-3511
▁축제	-3512
▁정원	-3513
▁1953	-3514
▁화성	-3515
▁진압	-3516
타르	-3517
▁Se	-3518
▁당한	-3519
▁지낸	-3520
▁탈락	-3521
▁데이비드	-3522
로그	-3523
▁요인	-3524
▁86	-3525
▁이중	-3526
▁이뤄	-3527
▁흉	-3528
▁흐르	-3529
▁학회	-3530
머스	-3531
▁테러	-3532
▁톱	-3533
▁국장	-3534
ib	-3535
▁그리스도	-3536
▁모여	-3537
▁카메라	-3538
▁98	-3539
시스	-3540
▁메인	-3541
▁박정	-3542
▁스토	-3543
▁이온	-3544
▁120	-3545
▁유기	-3546
▁동남	-3547
▁화면	-3548
▁신청	-3549
▁포트	-3550
▁나타났	-3551
▁백제	-3552
▁히트	-3553
▁식품	-3554
▁횡	-3555
에이	-3556
▁정기	-3557
천군	-3558
ens	-3559
▁Me	-3560
▁포로	-3561
▁락	-3562
▁충청북도	-3563
▁다스	-3564
▁""	-3565
▁먹이	-3566
▁십자	-3567
▁훗날	-3568
포르	-3569
티브	-3570
▁74	-3571
▁기도	-3572
▁김영	-3573
▁수소	-3574
▁부부	-3575
▁승진	-3576
믹스	-3577
▁선보	-3578
▁시호	-3579
▁71	-3580
▁가을	-3581
▁감사	-3582
▁치렀	-3583
▁라이트	-3584
AR	-3585
▁누구	-3586
▁취소	-3587
▁방지	-3588
▁재위	-3589
▁빠져	-3590
▁트라	-3591
하마	-3592
▁문장	-3593
천시	-3594
▁판서	-3595
▁제일	-3596
▁개신	-3597
▁스럽	-3598
▁모아	-3599
▁학과	-3600
▁아동	-3601
▁임의	-3602
▁우크라	-3603
▁체코	-3604
무부	-3605
페라	-3606
메리	-3607
▁벼	-3608
▁그라	-3609
▁콘스탄	-3610
▁변환	-3611
▁배출	-3612
▁캠퍼스	-3613
▁조작	-3614
ld	-3615
▁압력	-3616
▁쳐	-3617
one	-3618
▁합격	-3619
▁원년	-3620
▁광장	-3621
▁코르	-3622
▁트로	-3623
▁분명	-3624
▁학원	-3625
▁보낸	-3626
▁생긴	-3627
▁아프	-3628
▁셔	-3629
▁연안	-3630
▁채용	-3631
▁저작	-3632
▁1942	-3633
▁출간	-3634
▁개조	-3635
▁지붕	-3636
▁동작	-3637
▁큐	-3638
▁76	-3639
▁청구	-3640
▁한반도	-3641
▁소비에트	-3642
▁롯데	-3643
▁늦	-3644
드시	-3645
▁창단	-3646
▁SK	-3647
man	-3648
▁마케	-3649
▁서버	-3650
▁나타난다	-3651
▁우려	-3652
▁73	-3653
▁가나	-3654
iz	-3655
수록	-3656
▁망명	-3657
ER	-3658
▁메이지	-3659
▁도전	-3660
▁비례	-3661
▁177	-3662
▁처형	-3663
▁등지	-3664
▁무덤	-3665
▁추산	-3666
▁뿌리	-3667
▁물체	-3668
▁액션	-3669
▁주둔	-3670
성군	-3671
▁지급	-3672
▁페이	-3673
▁600	-3674
▁선전	-3675
▁실수	-3676
▁분해	-3677
바르	-3678
▁독특	-3679
▁살아	-3680
▁67	-3681
▁목소리	-3682
크스	-3683
어스	-3684
▁루트	-3685
▁흑인	-3686
▁어떠	-3687
▁맞이	-3688
▁참고	-3689
▁DNA	-3690
▁오프	-3691
▁서구	-3692
▁농구	-3693
▁가구	-3694
▁특이	-3695
▁유치	-3696
▁불상	-3697
▁달하	-3698
▁상원	-3699
▁매일	-3700
ount	-3701
▁고지	-3702
문화재	-3703
▁800	-3704
▁1943	-3705
▁77	-3706
정식	-3707
▁방해	-3708
▁기하	-3709
▁남겼	-3710
▁반드시	-3711
▁전면	-3712
▁오스만	-3713
▁전형	-3714
▁홋	-3715
▁참전	-3716
▁글자	-3717
▁끝나	-3718
▁동기	-3719
▁엄청	-3720
▁된다는	-3721
▁풍부	-3722
▁위상	-3723
▁발언	-3724
▁기체	-3725
▁제대로	-3726
브리	-3727
▁나갔	-3728
ial	-3729
▁도쿠	-3730
▁녹색	-3731
▁IS	-3732
▁리가	-3733
▁롱	-3734
▁기법	-3735
▁왕자	-3736
ack	-3737
▁둘째	-3738
▁희망	-3739
▁메모리	-3740
▁비평	-3741
▁삽	-3742
▁장수	-3743
▁카운티	-3744
저우	-3745
▁기상	-3746
▁실질	-3747
▁덧	-3748
▁미국인	-3749
비치	-3750
▁계곡	-3751
▁방송국	-3752
▁CO	-3753
▁신뢰	-3754
▁황금	-3755
▁레오	-3756
▁신인	-3757
▁지리	-3758
▁연간	-3759
▁는가	-3760
▁로켓	-3761
▁단독	-3762
▁분할	-3763
▁판사	-3764
▁크리	-3765
▁한정	-3766
▁치러	-3767
▁스토리	-3768
▁92	-3769
▁공정	-3770
▁성향	-3771
▁별명	-3772
▁묶	-3773
▁뜨	-3774
▁점점	-3775
▁추구	-3776
▁수영	-3777
▁물리학	-3778
▁쓸	-3779
▁수도원	-3780
ust	-3781
▁적절	-3782
▁에르	-3783
AS	-3784
▁캔	-3785
▁향하	-3786
▁플래	-3787
▁희생	-3788
질랜드	-3789
ly	-3790
▁움직임	-3791
▁대법	-3792
▁루이스	-3793
▁그레이	-3794
더스	-3795
▁천연	-3796
▁명나라	-3797
▁태어났으며	-3798
▁꺾	-3799
▁싸우	-3800
▁뉴질랜드	-3801
▁최다	-3802
▁호주	-3803
▁둘러싸	-3804
▁션	-3805
▁타임	-3806
▁친일	-3807
▁싸움	-3808
▁파악	-3809
유럽	-3810
▁처벌	-3811
▁끝난	-3812
▁법정	-3813
▁독립운동	-3814
▁사냥	-3815
▁순환	-3816
▁아티	-3817
▁화재	-3818
▁앵	-3819
▁인접	-3820
▁코파	-3821
▁자극	-3822
▁96	-3823
▁새롭	-3824
▁구하	-3825
▁손자	-3826
라드	-3827
ith	-3828
▁한계	-3829
▁고양이	-3830
▁스탠	-3831
▁무시	-3832
▁91	-3833
▁Am	-3834
▁여야	-3835
▁로봇	-3836
▁부사	-3837
▁향해	-3838
▁타격	-3839
▁마침내	-3840
▁일찍	-3841
▁스마트	-3842
▁명확	-3843
▁버렸	-3844
▁상위	-3845
▁조종	-3846
▁알렉산드	-3847
▁81	-3848
▁알파	-3849
▁해리	-3850
▁분기	-3851
▁이승만	-3852
▁전동	-3853
▁집권	-3854
▁달라	-3855
치아	-3856
▁모형	-3857
▁내전	-3858
▁가상	-3859
▁바둑	-3860
▁부하	-3861
▁이룬다	-3862
▁일본군	-3863
▁홍보	-3864
▁구현	-3865
▁1936	-3866
▁유행	-3867
▁확률	-3868
▁간행	-3869
사스	-3870
▁으려	-3871
AT	-3872
ind	-3873
▁맞추	-3874
▁사임	-3875
▁방정식	-3876
▁범주	-3877
라이언	-3878
▁오페라	-3879
▁세르비아	-3880
▁테이	-3881
▁마시	-3882
▁찰스	-3883
▁서명	-3884
▁악기	-3885
▁파르	-3886
▁인증	-3887
▁SS	-3888
▁분위	-3889
▁개신교	-3890
▁1951	-3891
▁의심	-3892
▁전주	-3893
▁빌보드	-3894
▁부진	-3895
이치	-3896
▁접촉	-3897
▁KBO	-3898
텐츠	-3899
▁재건	-3900
▁마르크	-3901
▁무게	-3902
▁이자	-3903
▁날개	-3904
▁화산	-3905
우리	-3906
▁뮤지	-3907
▁임진	-3908
▁전원	-3909
▁마법	-3910
▁퀸	-3911
▁웅	-3912
▁충격	-3913
▁긍	-3914
▁올려	-3915
▁혼합	-3916
▁의지	-3917
▁통산	-3918
투스	-3919
▁영웅	-3920
▁클레	-3921
▁전신	-3922
공항	-3923
▁복수	-3924
▁순간	-3925
▁팽	-3926
▁승객	-3927
▁대개	-3928
▁보물	-3929
▁람	-3930
▁첼	-3931
리노	-3932
▁빼앗	-3933
▁임기	-3934
▁1938	-3935
▁프라이	-3936
▁78	-3937
▁출범	-3938
▁다며	-3939
민주	-3940
▁악화	-3941
TV	-3942
▁확산	-3943
▁84	-3944
▁느끼	-3945
▁여단	-3946
▁복지	-3947
▁기기	-3948
▁보고서	-3949
▁나뉜	-3950
디션	-3951
▁완공	-3952
▁com	-3953
▁평등	-3954
▁영지	-3955
▁162	-3956
▁성분	-3957
▁순수	-3958
IV	-3959
▁입니다	-3960
▁양쪽	-3961
▁가시	-3962
▁과학자	-3963
▁사립	-3964
▁일본인	-3965
▁어도	-3966
▁닉	-3967
프리	-3968
▁저술	-3969
▁폐쇄	-3970
▁기둥	-3971
▁리처	-3972
▁좌우	-3973
▁진정	-3974
▁97	-3975
▁후속	-3976
▁시카고	-3977
▁서원	-3978
▁161	-3979
▁방위	-3980
▁연구원	-3981
▁포인트	-3982
▁87	-3983
▁93	-3984
▁에서부터	-3985
▁뤼	-3986
▁김일	-3987
▁훌	-3988
▁아리	-3989
먼트	-3990
▁진주	-3991
▁발굴	-3992
르타	-3993
▁튜	-3994
▁사마	-3995
▁수석	-3996
▁사형	-3997
▁시드	-3998
▁개입	-3999
▁균형	-4000
▁중기	-4001
▁추천	-4002
▁바깥	-4003
▁갈색	-4004
▁카라	-4005
▁신자	-4006
▁징역	-4007
▁모토	-4008
▁났	-4009
방송	-4010
▁테스트	-4011
▁1937	-4012
▁흘러	-4013
▁나타낸다	-4014
▁페르시아	-4015
사자	-4016
ove	-4017
▁루스	-4018
▁올해	-4019
▁국제공항	-4020
▁드라이	-4021
▁사원	-4022
▁문명	-4023
▁오랫	-4024
▁발음	-4025
▁웨이	-4026
▁이닝	-4027
▁뚜	-4028
▁닛	-4029
ide	-4030
▁동명	-4031
▁사실상	-4032
▁당초	-4033
▁노벨	-4034
피스	-4035
▁개막	-4036
▁69	-4037
▁레인	-4038
▁커뮤	-4039
▁포켓	-4040
▁수익	-4041
▁교향	-4042
▁밝히	-4043
▁텍사스	-4044
▁손상	-4045
▁그때	-4046
BA	-4047
▁변수	-4048
▁편찬	-4049
거운	-4050
▁띄	-4051
▁매장	-4052
▁미야	-4053
연히	-4054
▁모임	-4055
▁대공	-4056
▁나아가	-4057
▁속한	-4058
▁도와	-4059
▁시사	-4060
▁이라크	-4061
▁석유	-4062
학생	-4063
아티아	-4064
▁크로아티아	-4065
ug	-4066
ory	-4067
▁사정	-4068
은행	-4069
▁힌	-4070
▁커뮤니	-4071
▁등판	-4072
세포	-4073
틀러	-4074
▁공로	-4075
▁태도	-4076
▁근본	-4077
▁질환	-4078
▁오랫동안	-4079
▁묵	-4080
이너	-4081
▁단편	-4082
▁벡터	-4083
▁새겨	-4084
▁가진다	-4085
▁당국	-4086
▁꼽	-4087
▁마무	-4088
▁함락	-4089
일리	-4090
▁프린	-4091
▁시조	-4092
▁된다고	-4093
▁고속도로	-4094
▁재배	-4095
▁출력	-4096
메이	-4097
▁네이	-4098
▁실현	-4099
▁분위기	-4100
ood	-4101
▁그래픽	-4102
▁평론	-4103
IA	-4104
▁가와	-4105
▁뱅	-4106
▁밝혀졌	-4107
ational	-4108
▁입법	-4109
▁심사	-4110
▁합쳐	-4111
▁1935	-4112
▁가슴	-4113
up	-4114
▁무사	-4115
▁춤	-4116
▁탐사	-4117
▁기울	-4118
▁예전	-4119
▁점수	-4120
마니아	-4121
▁한다면	-4122
ock	-4123
▁권위	-4124
▁각지	-4125
▁심장	-4126
▁떨어지	-4127
▁구원	-4128
▁억제	-4129
▁1910	-4130
▁Pr	-4131
▁언제	-4132
베스	-4133
▁일상	-4134
▁정하	-4135
▁Ro	-4136
▁원형	-4137
▁곽	-4138
▁공헌	-4139
▁덜	-4140
▁감시	-4141
▁기온	-4142
▁독일군	-4143
ath	-4144
▁IC	-4145
▁왕실	-4146
▁민법	-4147
▁백성	-4148
▁흐름	-4149
▁음악가	-4150
▁저녁	-4151
▁절반	-4152
▁AT	-4153
버그	-4154
lan	-4155
▁바위	-4156
▁회담	-4157
▁175	-4158
▁심지	-4159
▁복원	-4160
▁어깨	-4161
ace	-4162
▁바닥	-4163
▁포스	-4164
▁멀리	-4165
▁89	-4166
▁NH	-4167
▁프로그래	-4168
▁줄기	-4169
▁침략	-4170
▁움직이	-4171
▁여론	-4172
▁1932	-4173
▁공중	-4174
▁대량	-4175
▁정차	-4176
ond	-4177
▁가공	-4178
▁후계	-4179
▁앉	-4180
▁섞	-4181
▁돕	-4182
▁뮤지컬	-4183
▁일시	-4184
▁노출	-4185
▁1914	-4186
▁기에	-4187
▁1918	-4188
▁력	-4189
▁받아들여	-4190
▁발발	-4191
▁약물	-4192
▁화합	-4193
▁조별	-4194
▁확립	-4195
▁1933	-4196
▁국무	-4197
▁인쇄	-4198
▁진단	-4199
▁기소	-4200
러리	-4201
▁넓이	-4202
▁Sc	-4203
▁안토	-4204
▁도요	-4205
터스	-4206
▁'()	-4207
▁170	-4208
▁인용	-4209
▁프리미어	-4210
▁작동	-4211
▁백만	-4212
▁긍정	-4213
▁암호	-4214
▁신고	-4215
▁밥	-4216
레옹	-4217
일스	-4218
▁승부	-4219
▁그렇게	-4220
▁자전	-4221
▁th	-4222
▁신부	-4223
▁여왕	-4224
▁정해	-4225
▁동해	-4226
ment	-4227
▁타자	-4228
▁나폴레옹	-4229
레인	-4230
▁어디	-4231
▁피부	-4232
▁산화	-4233
▁다케	-4234
▁파워	-4235
▁164	-4236
▁미쓰	-4237
▁학살	-4238
▁돌아왔	-4239
▁고통	-4240
▁필수	-4241
▁화석	-4242
▁83	-4243
▁한글	-4244
▁광범	-4245
▁주최	-4246
▁혁신	-4247
▁늘어	-4248
▁벗어나	-4249
▁상관	-4250
▁행렬	-4251
▁Ma	-4252
▁숙종	-4253
▁경전	-4254
▁지형	-4255
▁이어졌	-4256
▁비상	-4257
▁부지	-4258
ical	-4259
▁163	-4260
▁오버	-4261
▁한국인	-4262
▁선박	-4263
▁아이돌	-4264
▁프랑크	-4265
▁듯이	-4266
▁가설	-4267
▁여겨진다	-4268
▁펼쳐	-4269
▁시마	-4270
▁침입	-4271
▁계층	-4272
▁내셔널	-4273
▁자식	-4274
▁아트	-4275
▁79	-4276
▁전직	-4277
▁벌였	-4278
▁관여	-4279
▁고기	-4280
▁시상	-4281
▁광복	-4282
▁다소	-4283
▁94	-4284
▁생물학	-4285
▁우라	-4286
대부	-4287
▁겹	-4288
▁더블	-4289
▁지켜	-4290
▁연예	-4291
▁나온다	-4292
스트라	-4293
▁참조	-4294
▁오카	-4295
▁AP	-4296
▁사자	-4297
▁작위	-4298
쿠스	-4299
▁대선	-4300
ies	-4301
▁어려운	-4302
▁프랑스어	-4303
조합	-4304
▁이와	-4305
▁장남	-4306
▁태조	-4307
▁일본어	-4308
시오	-4309
▁FM	-4310
▁결론	-4311
▁나뉜다	-4312
▁입력	-4313
▁1934	-4314
▁누르	-4315
▁알프	-4316
▁뮌	-4317
▁하원	-4318
이센	-4319
▁메리	-4320
▁폭탄	-4321
▁깃	-4322
미야	-4323
▁Br	-4324
▁176	-4325
▁가량	-4326
▁가이	-4327
▁피하	-4328
코스	-4329
▁병합	-4330
▁사인	-4331
▁화이트	-4332
▁데스	-4333
▁보상	-4334
▁158	-4335
▁이혼	-4336
▁포항	-4337
▁구매	-4338
▁리처드	-4339
▁마무리	-4340
▁매체	-4341
▁산소	-4342
▁제사	-4343
▁심지어	-4344
▁1928	-4345
▁좋아	-4346
▁브라운	-4347
▁중력	-4348
▁통화	-4349
필더	-4350
▁미드필더	-4351
▁DV	-4352
▁불만	-4353
▁가마	-4354
▁분노	-4355
▁에드워드	-4356
▁소득	-4357
▁도마	-4358
▁잠수	-4359
▁700	-4360
▁도덕	-4361
▁덩	-4362
▁위대	-4363
▁1924	-4364
▁복음	-4365
친다	-4366
▁홋카이도	-4367
▁훈장	-4368
▁제이	-4369
▁해발	-4370
▁여섯	-4371
▁동아	-4372
▁잭슨	-4373
▁면역	-4374
▁사제	-4375
에른	-4376
▁리버	-4377
▁비서	-4378
▁화장	-4379
▁쌀	-4380
▁그만	-4381
▁안드로	-4382
▁레알	-4383
▁느낌	-4384
▁근육	-4385
▁민중	-4386
▁말레이시아	-4387
▁역학	-4388
▁165	-4389
▁전투기	-4390
▁포스트	-4391
▁검토	-4392
▁오이	-4393
▁거듭	-4394
▁기리	-4395
▁가담	-4396
▁골든	-4397
▁메시지	-4398
▁적합	-4399
가락	-4400
▁Wh	-4401
▁유고	-4402
▁올라가	-4403
▁총회	-4404
▁턴	-4405
▁호소	-4406
▁피해자	-4407
▁어려움	-4408
▁개설	-4409
▁불안	-4410
▁설득	-4411
▁동방	-4412
▁본질	-4413
▁태종	-4414
▁La	-4415
▁안동	-4416
▁리드	-4417
EC	-4418
tern	-4419
▁싱가	-4420
▁Wor	-4421
▁싱가포르	-4422
▁지향	-4423
▁y	-4424
▁평안	-4425
▁녀	-4426
숭이	-4427
▁수요	-4428
▁광범위	-4429
▁따로	-4430
▁상실	-4431
▁힙	-4432
▁의혹	-4433
▁정수	-4434
▁지역구	-4435
▁초점	-4436
ire	-4437
▁블라	-4438
▁창작	-4439
▁특별시	-4440
▁옮겼	-4441
▁가까이	-4442
▁루마니아	-4443
▁보르	-4444
▁곱	-4445
act	-4446
타이	-4447
▁알바	-4448
▁AFC	-4449
▁탈퇴	-4450
ont	-4451
▁라스	-4452
▁커버	-4453
▁152	-4454
▁1900	-4455
▁개방	-4456
▁는다는	-4457
▁교구	-4458
▁실력	-4459
▁동양	-4460
▁두려	-4461
▁Te	-4462
▁En	-4463
▁후쿠오카	-4464
▁조카	-4465
▁박정희	-4466
▁140	-4467
tt	-4468
ence	-4469
▁유한	-4470
직자	-4471
▁뷰	-4472
▁구글	-4473
▁속해	-4474
▁참모	-4475
슬러	-4476
▁피터	-4477
ass	-4478
▁부담	-4479
▁본다	-4480
▁천만	-4481
▁졌으며	-4482
▁랩	-4483
▁101	-4484
▁질문	-4485
▁엄청난	-4486
▁아름다운	-4487
▁아웃	-4488
ick	-4489
▁규제	-4490
▁예방	-4491
▁세자	-4492
▁랜드	-4493
▁Gr	-4494
▁연습	-4495
메리칸	-4496
▁보여준다	-4497
▁일련	-4498
가니	-4499
▁모바	-4500
▁세리	-4501
▁라틴어	-4502
▁나들	-4503
▁세트	-4504
란색	-4505
▁창원	-4506
▁재학	-4507
▁콘스탄티	-4508
▁라우	-4509
▁접한다	-4510
▁바이에른	-4511
▁깊이	-4512
▁포켓몬	-4513
▁바르셀	-4514
AN	-4515
▁바르셀로나	-4516
ary	-4517
▁맞서	-4518
▁벌이	-4519
▁디스크	-4520
▁동서	-4521
▁즉시	-4522
▁대지	-4523
▁끝내	-4524
▁부친	-4525
iss	-4526
▁폭격	-4527
▁닥터	-4528
▁마스터	-4529
▁지사	-4530
▁무료	-4531
▁사유	-4532
▁독일어	-4533
▁교리	-4534
▁행복	-4535
▁황후	-4536
▁급제	-4537
▁골드	-4538
▁소멸	-4539
pt	-4540
▁섹	-4541
▁퀴	-4542
▁정조	-4543
▁168	-4544
▁김대	-4545
▁국군	-4546
드리히	-4547
체스터	-4548
나가	-4549
▁1931	-4550
▁156	-4551
▁시나	-4552
▁부위	-4553
▁조상	-4554
왜란	-4555
▁임진왜란	-4556
클리	-4557
▁나들목	-4558
▁연설	-4559
▁오직	-4560
▁조지아	-4561
▁닫	-4562
▁앤드	-4563
land	-4564
▁타워	-4565
▁대왕	-4566
산화	-4567
▁였을	-4568
▁하인	-4569
▁김성	-4570
▁패션	-4571
▁프로이센	-4572
▁유산	-4573
▁승려	-4574
▁사우스	-4575
▁유통	-4576
▁테크	-4577
▁기동	-4578
▁프리드리히	-4579
▁빅토	-4580
▁대체로	-4581
▁윗	-4582
▁주력	-4583
▁총장	-4584
▁막대	-4585
▁돌아와	-4586
의정	-4587
▁발탁	-4588
▁혼인	-4589
▁쓰여	-4590
▁페이지	-4591
▁모바일	-4592
▁구입	-4593
▁후임	-4594
▁조차	-4595
▁필드	-4596
▁Count	-4597
▁글로벌	-4598
▁신사	-4599
마르	-4600
▁센트	-4601
▁쿠데	-4602
▁도모	-4603
▁당나라	-4604
▁My	-4605
▁디아	-4606
▁사도	-4607
▁일컫	-4608
▁일기	-4609
▁림	-4610
인물	-4611
▁발레	-4612
▁이른다	-4613
▁추방	-4614
▁원주민	-4615
▁방언	-4616
▁티베	-4617
▁무한	-4618
▁언덕	-4619
하여	-4620
▁처분	-4621
▁천주교	-4622
▁불가리아	-4623
▁프랭	-4624
lat	-4625
▁선임	-4626
▁수업	-4627
▁MS	-4628
▁국정	-4629
▁Col	-4630
DP	-4631
▁인원	-4632
▁일식	-4633
▁1929	-4634
▁햄	-4635
▁미시	-4636
▁Bo	-4637
▁웃	-4638
▁심판	-4639
▁문신	-4640
▁우크라이나	-4641
▁감각	-4642
▁개칭	-4643
▁조조	-4644
▁타운	-4645
▁대성	-4646
▁이내	-4647
▁Ph	-4648
ah	-4649
▁학사	-4650
▁1923	-4651
▁딜	-4652
▁혈액	-4653
▁상속	-4654
▁아티스트	-4655
▁남아프리카	-4656
▁벨라	-4657
해서	-4658
▁왕비	-4659
ivers	-4660
▁Joh	-4661
▁께	-4662
▁탱	-4663
▁Co	-4664
▁굳	-4665
▁쾌	-4666
▁상인	-4667
▁실업	-4668
미르	-4669
바키아	-4670
▁음성	-4671
▁EP	-4672
▁서술	-4673
▁1921	-4674
▁톨	-4675
▁1925	-4676
▁유형문화재	-4677
▁결의	-4678
▁멸종	-4679
▁개별	-4680
▁쿠데타	-4681
유산	-4682
▁발명	-4683
▁휴대	-4684
▁왕후	-4685
▁스테이션	-4686
▁토론토	-4687
▁1922	-4688
▁서식지	-4689
▁축구단	-4690
▁도미	-4691
▁핫	-4692
▁김일성	-4693
▁경제학	-4694
▁라이프	-4695
▁근로	-4696
▁스티븐	-4697
▁166	-4698
▁Sch	-4699
주군	-4700
▁콘텐츠	-4701
AM	-4702
▁저자	-4703
▁만났	-4704
▁게다가	-4705
▁크로스	-4706
▁석사	-4707
▁아테네	-4708
▁손실	-4709
▁보살	-4710
▁신장	-4711
▁주석	-4712
아내	-4713
▁진영	-4714
▁151	-4715
▁157	-4716
▁급격	-4717
▁이웃	-4718
▁타인	-4719
▁스미스	-4720
▁똑	-4721
민주당	-4722
▁130	-4723
▁옵	-4724
▁154	-4725
amp	-4726
▁배포	-4727
▁려면	-4728
▁부산광역시	-4729
어도	-4730
▁핸	-4731
▁Bl	-4732
▁수치	-4733
▁인생	-4734
레나	-4735
▁크루	-4736
▁자국	-4737
BM	-4738
시스코	-4739
▁게르	-4740
▁모음	-4741
▁물건	-4742
▁선호	-4743
▁스탈	-4744
▁연락	-4745
▁와이	-4746
▁엉	-4747
▁테마	-4748
슈타인	-4749
▁펑	-4750
▁대책	-4751
▁유효	-4752
▁로맨	-4753
▁개성	-4754
▁김종	-4755
▁최우	-4756
▁정교회	-4757
머리	-4758
▁영조	-4759
▁창당	-4760
▁여우	-4761
▁145	-4762
바로	-4763
▁자이언	-4764
▁카스	-4765
▁전술	-4766
▁재즈	-4767
▁고급	-4768
▁상역	-4769
▁검색	-4770
▁DVD	-4771
▁오가	-4772
▁빌리	-4773
▁스타디	-4774
▁고시	-4775
▁야스	-4776
▁완벽	-4777
▁운송	-4778
▁이명	-4779
▁빚	-4780
▁세부	-4781
▁칭호	-4782
▁암컷	-4783
▁고객	-4784
▁사기	-4785
▁빌딩	-4786
▁소위	-4787
▁수호	-4788
가시	-4789
구치	-4790
▁소비자	-4791
pe	-4792
pha	-4793
▁110	-4794
▁그리스어	-4795
▁가요	-4796
▁궁전	-4797
ID	-4798
▁업적	-4799
▁싱어	-4800
▁155	-4801
▁생태	-4802
▁아인	-4803
▁블록	-4804
▁고위	-4805
▁차단	-4806
▁클로	-4807
▁시트	-4808
▁히틀러	-4809
▁반사	-4810
▁천안	-4811
▁미리	-4812
▁렀다	-4813
▁자는	-4814
▁구멍	-4815
▁킬로	-4816
리우스	-4817
▁재개	-4818
▁취리히	-4819
▁랄	-4820
▁진격	-4821
sh	-4822
▁사격	-4823
▁호흡	-4824
▁환승	-4825
▁줄어들	-4826
▁후계자	-4827
▁영주	-4828
▁동북	-4829
▁01	-4830
토스	-4831
age	-4832
▁밀려	-4833
▁Man	-4834
▁농촌	-4835
▁오키	-4836
▁촉진	-4837
▁분화	-4838
▁흰색	-4839
▁비치	-4840
▁전송	-4841
▁퀘	-4842
▁레스	-4843
▁국적	-4844
▁줄이	-4845
▁1926	-4846
▁드래프트	-4847
▁마르크스	-4848
자키	-4849
▁Tr	-4850
▁Car	-4851
▁전당	-4852
▁주소	-4853
▁갑자기	-4854
▁알고리	-4855
▁뼈	-4856
너스	-4857
자치	-4858
▁이즈	-4859
▁섬유	-4860
▁일체	-4861
▁누리	-4862
▁소형	-4863
▁백인	-4864
▁아오	-4865
▁153	-4866
▁사무소	-4867
▁CP	-4868
▁짝	-4869
지사	-4870
▁독재	-4871
▁대사관	-4872
▁영양	-4873
동생	-4874
▁달려	-4875
▁노리	-4876
▁원수	-4877
하이	-4878
▁대우	-4879
▁부동	-4880
▁요금	-4881
▁Love	-4882
▁알고리즘	-4883
구리	-4884
▁단층	-4885
▁반지	-4886
▁사과	-4887
▁칠레	-4888
▁청주	-4889
▁1927	-4890
▁약칭	-4891
▁거짓	-4892
▁물고기	-4893
▁타이거	-4894
▁스프링	-4895
▁딘	-4896
▁대만	-4897
▁수백	-4898
펙트	-4899
▁되돌	-4900
▁화려	-4901
ost	-4902
▁수십	-4903
▁선포	-4904
▁비행기	-4905
▁생겼	-4906
▁소화	-4907
▁돌려	-4908
베르트	-4909
▁비스	-4910
▁사양	-4911
▁경남	-4912
▁선형	-4913
▁Ad	-4914
▁의문	-4915
son	-4916
▁개량	-4917
▁와서	-4918
다란	-4919
▁경비	-4920
▁언스	-4921
▁경사	-4922
▁젤	-4923
▁받아들이	-4924
▁덧붙	-4925
닉스	-4926
▁172	-4927
▁동성애	-4928
▁노트	-4929
▁파티	-4930
▁료	-4931
▁선로	-4932
▁판타	-4933
▁쿼	-4934
ern	-4935
▁*	-4936
▁개명	-4937
▁변하	-4938
비히	-4939
▁안쪽	-4940
▁캘리포니아주	-4941
니즘	-4942
총리	-4943
▁벌어진	-4944
▁이른바	-4945
▁시모	-4946
▁We	-4947
▁스타디움	-4948
IN	-4949
▁마주	-4950
▁내세	-4951
▁사망자	-4952
생물	-4953
▁상수	-4954
▁주체	-4955
▁대법원	-4956
▁립	-4957
에도	-4958
▁아메리칸	-4959
▁지불	-4960
▁진학	-4961
▁주니어	-4962
▁극단	-4963
▁기부	-4964
▁프랑스군	-4965
▁돌파	-4966
▁찬성	-4967
▁발간	-4968
▁영구	-4969
제국	-4970
▁j	-4971
▁당해	-4972
여서	-4973
▁1917	-4974
▁마루	-4975
▁툴	-4976
▁중추	-4977
▁질서	-4978
벤트	-4979
리나	-4980
사이	-4981
▁꾸준	-4982
▁증언	-4983
▁167	-4984
▁당대	-4985
▁실천	-4986
▁총재	-4987
▁사퇴	-4988
▁1912	-4989
▁당원	-4990
▁보편	-4991
▁부서	-4992
▁허락	-4993
▁습격	-4994
▁알레	-4995
과이	-4996
▁늑	-4997
독부	-4998
오르	-4999
▁인디언	-5000
▁타율	-5001
원경	-5002
▁화합물	-5003
▁OS	-5004
▁스톤	-5005
▁가속	-5006
ier	-5007
무르	-5008
▁누스	-5009
▁사이드	-5010
▁쿨	-5011
데이	-5012
▁강릉	-5013
▁북미	-5014
▁곡선	-5015
▁세로	-5016
로지	-5017
▁최후	-5018
▁뮌헨	-5019
▁남기	-5020
▁유발	-5021
▁거치	-5022
▁충분히	-5023
▁항의	-5024
▁국기	-5025
▁자산	-5026
▁가깝	-5027
▁New	-5028
▁각국	-5029
▁등장인물	-5030
다수	-5031
▁도쿠가와	-5032
▁단순히	-5033
▁전동차	-5034
▁윙	-5035
▁겉	-5036
▁시신	-5037
▁집회	-5038
▁1907	-5039
ish	-5040
▁09	-5041
▁자본주의	-5042
▁139	-5043
▁힙합	-5044
▁171	-5045
▁메탈	-5046
래프트	-5047
▁구상	-5048
▁내놓	-5049
▁오케	-5050
▁느냐	-5051
▁크라	-5052
ite	-5053
▁종사	-5054
▁HD	-5055
▁멈	-5056
▁격파	-5057
▁펀	-5058
▁메달	-5059
▁챔피언십	-5060
▁위키	-5061
ck	-5062
베르크	-5063
▁티베트	-5064
▁개장	-5065
▁연평	-5066
▁트레이드	-5067
▁소집	-5068
▁cod	-5069
▁세워졌	-5070
▁마틴	-5071
▁약화	-5072
▁탄압	-5073
▁은메달	-5074
olog	-5075
▁소문	-5076
▁축소	-5077
뜨리	-5078
▁배급	-5079
▁브로	-5080
▁추기	-5081
ann	-5082
▁주문	-5083
▁일으켜	-5084
센트	-5085
▁동메달	-5086
▁성남	-5087
무늬	-5088
▁클리	-5089
▁아틀	-5090
▁Par	-5091
▁화폐	-5092
▁간다	-5093
▁팩	-5094
▁멀티	-5095
lar	-5096
▁용인	-5097
▁미스	-5098
▁용도	-5099
▁이재	-5100
▁틈	-5101
▁유대인	-5102
드라	-5103
▁법학	-5104
게이	-5105
▁174	-5106
▁주일	-5107
▁남녀	-5108
▁피트	-5109
▁혼자	-5110
▁코리아	-5111
투아	-5112
▁돌아온	-5113
▁이벤트	-5114
▁이스트	-5115
▁모험	-5116
▁엄격	-5117
여금	-5118
▁경고	-5119
AC	-5120
▁첩	-5121
▁영감	-5122
▁County	-5123
▁뻗	-5124
▁들어오	-5125
▁치르	-5126
▁항공사	-5127
rom	-5128
▁지중	-5129
▁JR	-5130
베리아	-5131
필드	-5132
▁미술관	-5133
▁힘들	-5134
▁액체	-5135
▁콜로	-5136
▁정확히	-5137
▁틴	-5138
▁파키스탄	-5139
▁개척	-5140
▁목성	-5141
▁이념	-5142
▁재생	-5143
▁넥	-5144
▁매치	-5145
▁미만	-5146
▁클래식	-5147
▁가난	-5148
▁상주	-5149
▁끈	-5150
▁입대	-5151
▁콜롬	-5152
▁원시	-5153
▁조선총	-5154
▁베네치아	-5155
▁정류	-5156
즈니	-5157
▁조선총독부	-5158
▁구로	-5159
▁수컷	-5160
▁화제	-5161
▁돌아오	-5162
▁드물	-5163
▁영원	-5164
▁전망	-5165
▁쓰였	-5166
▁Ex	-5167
▁야당	-5168
▁1905	-5169
▁입구	-5170
▁해제	-5171
IS	-5172
▁실내	-5173
▁베르크	-5174
▁정통	-5175
▁다큐	-5176
▁추적	-5177
▁추기경	-5178
▁철거	-5179
▁라트	-5180
▁ch	-5181
▁산지	-5182
▁노동당	-5183
▁법안	-5184
▁진실	-5185
▁철학자	-5186
▁1908	-5187
▁익스	-5188
▁합동	-5189
▁탓	-5190
▁빗	-5191
▁회로	-5192
▁쿠바	-5193
▁고개	-5194
▁지질	-5195
▁페리	-5196
▁흔적	-5197
▁동화	-5198
▁이수	-5199
▁조항	-5200
▁못한다	-5201
▁아프가니	-5202
▁250	-5203
▁농장	-5204
▁강도	-5205
티스	-5206
▁다다	-5207
▁자매	-5208
▁댄스	-5209
▁서방	-5210
해군	-5211
orm	-5212
▁재능	-5213
▁지수	-5214
▁전적	-5215
▁토대	-5216
▁군부	-5217
▁퓨	-5218
▁웰	-5219
저스	-5220
▁설치류	-5221
▁페이스	-5222
▁이행	-5223
▁그럼	-5224
▁대칭	-5225
▁동인	-5226
▁형상	-5227
▁간격	-5228
▁안토니	-5229
▁평론가	-5230
제르	-5231
▁유배	-5232
▁08	-5233
▁존스	-5234
▁로렌	-5235
▁시계	-5236
▁스크린	-5237
▁밀리	-5238
리다	-5239
텐도	-5240
▁걸친	-5241
▁배열	-5242
▁닌텐도	-5243
▁AC	-5244
▁무력	-5245
▁공신	-5246
▁회색	-5247
▁돔	-5248
▁강요	-5249
▁양국	-5250
▁이마	-5251
▁대가	-5252
▁사막	-5253
▁레벨	-5254
▁프로그래밍	-5255
▁잠재	-5256
▁풋	-5257
▁룸	-5258
▁간부	-5259
▁놀이	-5260
▁당신	-5261
▁강남	-5262
▁북서쪽	-5263
▁요코하마	-5264
▁대원	-5265
▁Cl	-5266
ound	-5267
▁으니	-5268
▁아프가니스탄	-5269
▁합리	-5270
▁유아	-5271
▁중성	-5272
▁뱀	-5273
▁글리	-5274
▁오류	-5275
▁조기	-5276
▁도마뱀	-5277
ile	-5278
▁나선	-5279
▁클래스	-5280
▁%),	-5281
ON	-5282
▁성종	-5283
▁주재	-5284
수량	-5285
드레	-5286
▁베리	-5287
▁프로토	-5288
브라	-5289
▁신도	-5290
▁본토	-5291
▁장로	-5292
▁05	-5293
ase	-5294
ere	-5295
▁사무실	-5296
▁할아버지	-5297
▁04	-5298
▁레닌	-5299
▁무용	-5300
▁세금	-5301
▁주어졌	-5302
코프	-5303
▁사찰	-5304
▁꾼	-5305
▁캡	-5306
▁인치	-5307
▁국방부	-5308
▁트랜스	-5309
▁구름	-5310
페이스	-5311
▁타카	-5312
▁바이올	-5313
사전	-5314
▁우에	-5315
▁중지	-5316
▁운항	-5317
▁1906	-5318
▁la	-5319
▁정면	-5320
▁합니다	-5321
▁on	-5322
▁레이블	-5323
▁양산	-5324
▁스탈린	-5325
▁재판소	-5326
▁탕	-5327
▁지표	-5328
▁자랑	-5329
▁중동	-5330
▁올스타	-5331
▁유키	-5332
▁전제	-5333
▁판정	-5334
▁John	-5335
런스	-5336
▁히로시마	-5337
▁구사	-5338
▁중종	-5339
▁평면	-5340
▁함경	-5341
▁사카	-5342
▁잠수함	-5343
▁쟁	-5344
▁나이트	-5345
▁드리	-5346
▁분산	-5347
레오	-5348
▁복사	-5349
▁장례	-5350
▁밸	-5351
▁ST	-5352
▁표지	-5353
슬링	-5354
▁닐	-5355
▁첸	-5356
▁식량	-5357
▁번지	-5358
▁독점	-5359
힌다	-5360
ung	-5361
▁직무	-5362
bert	-5363
▁엘리자	-5364
▁전한	-5365
▁리아	-5366
▁일단	-5367
▁편의	-5368
티오	-5369
▁관객	-5370
▁지칭	-5371
▁강등	-5372
▁북아메리카	-5373
▁Univers	-5374
▁노인	-5375
▁그래프	-5376
야스	-5377
▁인민군	-5378
▁마감	-5379
▁매주	-5380
▁명시	-5381
▁항해	-5382
리그	-5383
▁일환	-5384
▁탄핵	-5385
▁나섰	-5386
▁안내	-5387
▁하여금	-5388
▁광산	-5389
▁대다수	-5390
▁메트로	-5391
▁보스턴	-5392
히로	-5393
att	-5394
▁부속	-5395
▁그리하여	-5396
ime	-5397
성기	-5398
레이크	-5399
공사	-5400
▁발전소	-5401
▁마저	-5402
둥이	-5403
▁동굴	-5404
▁석방	-5405
▁상대식	-5406
▁재임	-5407
▁준우	-5408
▁파트너	-5409
▁전작	-5410
▁킨	-5411
▁세월	-5412
▁세조	-5413
▁행하	-5414
키퍼	-5415
▁전남	-5416
▁토착	-5417
▁골키퍼	-5418
▁곤충	-5419
▁국토	-5420
▁꺼	-5421
세대	-5422
▁원자력	-5423
돌프	-5424
▁착용	-5425
ica	-5426
▁카자	-5427
▁초청	-5428
시스트	-5429
▁열매	-5430
▁코너	-5431
▁포드	-5432
▁리스트	-5433
▁부작	-5434
▁아이스	-5435
페인	-5436
▁투스	-5437
▁개찰	-5438
▁현존	-5439
▁대동	-5440
▁덕분	-5441
ES	-5442
▁첫째	-5443
▁World	-5444
▁빵	-5445
어로	-5446
▁손해	-5447
▁남동쪽	-5448
▁늑대	-5449
▁진술	-5450
▁오리지	-5451
▁부드	-5452
▁지바	-5453
▁이정	-5454
▁갱	-5455
▁공룡	-5456
▁동반	-5457
▁소요	-5458
▁심리학	-5459
▁파운드	-5460
▁부호	-5461
▁필립	-5462
▁놀라	-5463
▁발렌	-5464
▁수비수	-5465
▁히어로	-5466
▁쏘	-5467
▁동지	-5468
▁새벽	-5469
▁하와	-5470
▁의정부	-5471
und	-5472
▁부품	-5473
▁스카이	-5474
ction	-5475
▁코어	-5476
▁특별히	-5477
▁146	-5478
▁북동쪽	-5479
▁앱	-5480
▁하사	-5481
니스트	-5482
▁전북	-5483
▁동구	-5484
▁타점	-5485
튜브	-5486
▁필라	-5487
OR	-5488
▁키스	-5489
▁놓여	-5490
▁부처	-5491
ach	-5492
▁고조	-5493
▁윤리	-5494
▁거점	-5495
▁KT	-5496
▁매니	-5497
▁연령	-5498
▁대승	-5499
▁관계자	-5500
▁베른	-5501
▁벼슬	-5502
▁살아남	-5503
▁얀	-5504
▁중립	-5505
▁기생	-5506
위대	-5507
▁유튜브	-5508
▁박스	-5509
▁일자	-5510
▁교향곡	-5511
▁선물	-5512
▁성씨	-5513
▁종전	-5514
▁한성	-5515
▁모자	-5516
▁죠	-5517
테스	-5518
▁Or	-5519
▁훌륭	-5520
▁풍속	-5521
사르	-5522
▁도메	-5523
▁유력	-5524
▁소재지	-5525
▁카리	-5526
▁마일	-5527
▁메르	-5528
▁141	-5529
▁codice	-5530
▁접속	-5531
▁pro	-5532
▁동경	-5533
▁오염	-5534
▁시정	-5535
▁모로	-5536
▁밀라노	-5537
▁고고	-5538
▁펼쳤	-5539
▁자유주의	-5540
▁약탈	-5541
▁롬	-5542
▁감옥	-5543
▁타입	-5544
▁휘하	-5545
공업	-5546
▁비틀	-5547
▁새끼	-5548
▁준우승	-5549
▁일곱	-5550
▁주자	-5551
▁다이묘	-5552
▁이어서	-5553
VP	-5554
▁어두	-5555
▁요원	-5556
▁마그	-5557
▁우드	-5558
▁봉기	-5559
▁아르메	-5560
▁배웠	-5561
▁지휘관	-5562
▁Su	-5563
▁뚜렷	-5564
▁거느	-5565
▁구리	-5566
▁임신	-5567
▁집필	-5568
▁맨체스터	-5569
▁동일본	-5570
ft	-5571
▁아비	-5572
안군	-5573
▁베토	-5574
▁패턴	-5575
▁수반	-5576
▁Is	-5577
▁대변	-5578
▁러브	-5579
▁삭제	-5580
▁자치구	-5581
▁르네	-5582
▁물려	-5583
▁제네	-5584
▁캠프	-5585
▁아르메니아	-5586
▁체험	-5587
▁칼리지	-5588
▁남극	-5589
▁명사	-5590
▁수직	-5591
▁목숨	-5592
▁테르	-5593
▁연호	-5594
▁장점	-5595
▁그러므로	-5596
야수	-5597
▁로즈	-5598
▁레지	-5599
▁오리지널	-5600
▁SM	-5601
▁비중	-5602
▁적어도	-5603
▁UN	-5604
▁ro	-5605
▁성서	-5606
▁코트	-5607
▁경찰서	-5608
▁히가시	-5609
▁펄	-5610
▁쯤	-5611
▁훼	-5612
▁후퇴	-5613
▁비즈	-5614
▁칙	-5615
▁SF	-5616
▁가끔	-5617
▁특허	-5618
▁교도	-5619
les	-5620
▁소설가	-5621
데르	-5622
▁단장	-5623
▁중계	-5624
▁교차로	-5625
▁폭풍	-5626
▁킬로미터	-5627
▁모노	-5628
▁토마스	-5629
▁압도	-5630
교육	-5631
▁영혼	-5632
라이터	-5633
▁제약	-5634
▁149	-5635
▁굽	-5636
▁대결	-5637
▁증권	-5638
아르	-5639
▁진동	-5640
▁07	-5641
▁틱	-5642
▁구미	-5643
도사	-5644
▁연상	-5645
베이스	-5646
▁플로리다	-5647
ED	-5648
▁크레	-5649
▁주류	-5650
▁극복	-5651
▁곰	-5652
▁건담	-5653
▁기병	-5654
▁똑같	-5655
▁하버	-5656
▁SC	-5657
▁초상	-5658
▁빨간	-5659
▁닮	-5660
are	-5661
▁원장	-5662
▁웨일스	-5663
▁성직자	-5664
▁역전	-5665
▁무늬	-5666
▁는다고	-5667
▁원조	-5668
▁의석	-5669
▁사신	-5670
애나	-5671
▁Sy	-5672
▁운동가	-5673
▁무너	-5674
▁지부	-5675
▁적응	-5676
▁지연	-5677
멘터리	-5678
▁1904	-5679
고속	-5680
old	-5681
▁베토벤	-5682
▁공국	-5683
▁성명	-5684
▁모터	-5685
프라	-5686
▁시게	-5687
▁유용	-5688
▁강전	-5689
▁경유	-5690
▁부유	-5691
▁저널	-5692
▁버지	-5693
▁수장	-5694
우치	-5695
▁색상	-5696
▁169	-5697
▁고교	-5698
▁도호	-5699
▁무릎	-5700
▁판타지	-5701
이즈	-5702
ium	-5703
▁06	-5704
▁평생	-5705
▁147	-5706
▁기관차	-5707
▁스트라이	-5708
▁베타	-5709
▁협약	-5710
▁화가	-5711
▁청동	-5712
ve	-5713
베리	-5714
프란	-5715
미아	-5716
▁빠지	-5717
▁지자	-5718
밀리	-5719
▁존슨	-5720
ton	-5721
PS	-5722
유키	-5723
▁HIV	-5724
▁딱	-5725
일본	-5726
▁커다란	-5727
▁미카	-5728
▁주거	-5729
▁복구	-5730
▁봉해졌	-5731
▁자이언츠	-5732
▁계수	-5733
▁예외	-5734
▁토너	-5735
▁북극	-5736
▁프레임	-5737
▁AM	-5738
▁Ed	-5739
▁도어	-5740
▁위안	-5741
▁드래곤	-5742
ps	-5743
▁발휘	-5744
▁좌파	-5745
▁타원	-5746
▁때로	-5747
▁사관	-5748
▁고안	-5749
▁리투아	-5750
▁리투아니아	-5751
▁납치	-5752
▁송라이터	-5753
▁압축	-5754
▁남서쪽	-5755
▁다큐멘터리	-5756
▁SN	-5757
▁규슈	-5758
▁장갑	-5759
▁홀로	-5760
▁일어난다	-5761
클린	-5762
▁교역	-5763
▁과도	-5764
▁1911	-5765
▁연계	-5766
▁해협	-5767
▁유고슬	-5768
▁인터페이스	-5769
▁유고슬라비아	-5770
럼비아	-5771
▁몬테	-5772
▁유역	-5773
▁항목	-5774
▁인천광역시	-5775
▁쓰러	-5776
슬리	-5777
▁선교사	-5778
▁125	-5779
▁램	-5780
▁결심	-5781
▁지중해	-5782
▁출산	-5783
▁돌아갔	-5784
▁김대중	-5785
▁표본	-5786
▁트레이	-5787
▁대한제국	-5788
▁김구	-5789
▁자책	-5790
▁음모	-5791
▁변신	-5792
▁"()	-5793
▁스케이	-5794
▁대조	-5795
▁사촌	-5796
▁삽입	-5797
▁페루	-5798
▁고르	-5799
▁공세	-5800
▁데려	-5801
추어	-5802
▁김해	-5803
▁직위	-5804
▁나서	-5805
▁입사	-5806
▁파울	-5807
▁비평가	-5808
▁낸다	-5809
▁서적	-5810
긴다	-5811
▁관리자	-5812
▁연소	-5813
▁험	-5814
▁비하	-5815
▁추대	-5816
▁케이블	-5817
az	-5818
gr	-5819
▁135	-5820
▁통로	-5821
나르	-5822
ult	-5823
▁105	-5824
▁커뮤니티	-5825
▁모래	-5826
▁데리	-5827
▁다녔	-5828
▁최상	-5829
▁삼각형	-5830
크래프트	-5831
나타	-5832
▁리치	-5833
▁매각	-5834
▁삼각	-5835
▁그럼에도	-5836
▁중구	-5837
▁공격수	-5838
▁어워드	-5839
IC	-5840
▁부탁	-5841
▁탐험	-5842
sp	-5843
▁토너먼트	-5844
▁우루	-5845
▁트럼	-5846
aw	-5847
▁BBC	-5848
▁남겨	-5849
▁생애	-5850
▁조화	-5851
▁각자	-5852
▁필름	-5853
▁리듬	-5854
▁동사	-5855
▁토르	-5856
▁173	-5857
▁인력	-5858
▁연평균	-5859
▁산악	-5860
▁서인	-5861
▁염색	-5862
▁중시	-5863
느님	-5864
▁상처	-5865
▁운반	-5866
▁드러나	-5867
▁남아메리카	-5868
▁기압	-5869
▁싫	-5870
▁하느님	-5871
▁정서	-5872
▁플레	-5873
▁헤드	-5874
au	-5875
▁주한	-5876
무게	-5877
▁조문	-5878
▁국민당	-5879
▁몸무게	-5880
▁El	-5881
▁파생	-5882
▁비전	-5883
▁포유	-5884
▁디즈니	-5885
멘트	-5886
▁칼리	-5887
▁경북	-5888
▁채권	-5889
▁상영	-5890
플레이	-5891
▁망원경	-5892
▁03	-5893
▁144	-5894
▁철저	-5895
▁1896	-5896
눅스	-5897
▁디오	-5898
▁왈	-5899
▁구마	-5900
ear	-5901
▁무산	-5902
▁유비	-5903
보이	-5904
▁목포	-5905
▁리눅스	-5906
▁내장	-5907
▁샤를	-5908
▁직선	-5909
▁트라이	-5910
▁02	-5911
▁불화	-5912
▁트럭	-5913
▁소니	-5914
▁와카	-5915
▁떼	-5916
▁옹호	-5917
▁그랜드	-5918
▁맞춰	-5919
▁사토	-5920
▁일행	-5921
▁건축물	-5922
▁엽	-5923
란다	-5924
▁출판사	-5925
▁사거리	-5926
▁예술가	-5927
대문	-5928
▁조명	-5929
▁요미	-5930
▁악장	-5931
▁태자	-5932
▁포크	-5933
▁대행	-5934
▁쇼군	-5935
▁크림	-5936
▁올린	-5937
▁침해	-5938
▁보좌	-5939
▁과장	-5940
▁아기	-5941
ame	-5942
▁우익	-5943
▁유닛	-5944
▁아이디어	-5945
▁과일	-5946
ous	-5947
▁유성	-5948
ix	-5949
▁광역	-5950
▁유입	-5951
▁이조	-5952
즈키	-5953
▁라마	-5954
▁모듈	-5955
▁문법	-5956
▁모시	-5957
▁간섭	-5958
▁고분	-5959
▁사당	-5960
사관	-5961
가타	-5962
▁사라지	-5963
▁토벌	-5964
▁목격	-5965
▁아과	-5966
▁블라디	-5967
▁금강	-5968
▁돼지	-5969
▁행해	-5970
▁그려져	-5971
▁1909	-5972
널드	-5973
▁모니	-5974
▁종족	-5975
▁폐기	-5976
▁정류장	-5977
운서	-5978
▁노비	-5979
▁버지니아	-5980
키스	-5981
▁이날	-5982
▁전향	-5983
▁하와이	-5984
양군	-5985
▁탑승	-5986
▁수지	-5987
▁아나운서	-5988
▁프로세서	-5989
▁랭킹	-5990
▁아울	-5991
무네	-5992
▁합계	-5993
▁릭	-5994
마이	-5995
▁쇠퇴	-5996
▁적색	-5997
카스	-5998
▁체인	-5999
▁렉	-6000
▁실점	-6001
▁역과	-6002
▁스마트폰	-6003
▁옮기	-6004
▁교과	-6005
▁출현	-6006
▁이종	-6007
▁가해	-6008
▁이토	-6009
▁증기	-6010
▁103	-6011
▁틸	-6012
▁외계	-6013
▁운명	-6014
▁왕립	-6015
▁안드로이드	-6016
▁미나미	-6017
▁넬	-6018
스팅	-6019
▁글씨	-6020
▁단선	-6021
▁시에	-6022
▁창간	-6023
▁아마추어	-6024
▁들어서	-6025
▁제주도	-6026
▁단행	-6027
▁퍼시	-6028
▁It	-6029
▁무인	-6030
▁박근	-6031
▁투구	-6032
▁디자이너	-6033
라트	-6034
▁플루	-6035
영상	-6036
▁왕가	-6037
▁출구	-6038
▁토머스	-6039
ep	-6040
▁설비	-6041
▁원로	-6042
▁유인	-6043
▁유가	-6044
▁종로	-6045
▁산타	-6046
▁여인	-6047
▁입증	-6048
▁넘겨	-6049
오리	-6050
▁단종	-6051
▁마카	-6052
▁수감	-6053
슬로	-6054
▁추락	-6055
▁전승	-6056
▁이루어진다	-6057
▁황태	-6058
다니	-6059
ome	-6060
▁고서	-6061
▁쓴다	-6062
▁루트비히	-6063
▁야생	-6064
▁무선	-6065
▁문인	-6066
▁하천	-6067
▁도심	-6068
▁복제	-6069
▁좌상	-6070
▁호조	-6071
▁수명	-6072
▁연주자	-6073
▁색깔	-6074
▁세워진	-6075
▁에스파	-6076
▁샌프란	-6077
▁샌프란시스코	-6078
▁DS	-6079
▁낼	-6080
▁사료	-6081
▁스릴	-6082
▁Gre	-6083
▁자회사	-6084
부사	-6085
몬드	-6086
▁기타리스트	-6087
▁시상식	-6088
▁링크	-6089
ET	-6090
▁슐	-6091
행성	-6092
▁최우수	-6093
▁선제	-6094
지마	-6095
▁기갑	-6096
▁농도	-6097
▁들여	-6098
▁지름	-6099
▁진지	-6100
▁가미	-6101
▁진도	-6102
▁All	-6103
▁패러	-6104
▁1913	-6105
▁사우루스	-6106
▁별로	-6107
▁대안	-6108
▁진흥	-6109
▁기하학	-6110
▁배상	-6111
▁띤	-6112
ism	-6113
▁시아	-6114
▁해설	-6115
▁민속	-6116
▁아무런	-6117
▁육성	-6118
▁데이터베이스	-6119
▁마스	-6120
▁쿠스	-6121
런트	-6122
▁봉사	-6123
▁안보	-6124
▁되찾	-6125
▁무신	-6126
▁수천	-6127
▁알렉산더	-6128
▁자문	-6129
길이	-6130
▁관중	-6131
▁흥미	-6132
▁수상자	-6133
IT	-6134
OC	-6135
▁영광	-6136
▁앨런	-6137
▁바오	-6138
▁칭하	-6139
▁문화유산	-6140
orn	-6141
ool	-6142
▁기차	-6143
▁꾸준히	-6144
ric	-6145
▁''	-6146
▁윤치	-6147
▁흙	-6148
▁셋째	-6149
▁주사	-6150
▁지자체	-6151
▁뚫	-6152
▁거둔	-6153
▁커피	-6154
▁레이스	-6155
eth	-6156
▁배제	-6157
▁스승	-6158
하르트	-6159
▁템	-6160
▁관하	-6161
▁기름	-6162
▁148	-6163
▁자치체	-6164
▁주파	-6165
▁해진	-6166
▁토니	-6167
▁중국어	-6168
AP	-6169
▁AS	-6170
▁모집	-6171
▁묘지	-6172
▁시집	-6173
▁재무	-6174
엘라	-6175
▁급속	-6176
▁콩고	-6177
▁143	-6178
▁PS	-6179
▁아세	-6180
▁초래	-6181
▁용기	-6182
▁할리	-6183
▁138	-6184
▁빅토리아	-6185
▁명문	-6186
▁럭	-6187
▁연금	-6188
▁로맨스	-6189
ke	-6190
▁1915	-6191
▁가쓰	-6192
rist	-6193
▁이어져	-6194
▁스펙트	-6195
산물	-6196
▁가르치	-6197
▁엄마	-6198
▁걷	-6199
▁겨우	-6200
▁딴	-6201
로운	-6202
▁동아시아	-6203
▁가톨릭교회	-6204
▁136	-6205
▁142	-6206
▁Ge	-6207
▁무관	-6208
▁스페셜	-6209
▁늘어나	-6210
▁민족주의	-6211
▁번주	-6212
▁정자	-6213
나카	-6214
▁or	-6215
▁몸길이	-6216
▁구장	-6217
▁스펙트럼	-6218
▁오케스트라	-6219
▁여서	-6220
▁아크	-6221
▁미분	-6222
▁주의자	-6223
▁노무	-6224
▁PD	-6225
란트	-6226
▁다양체	-6227
ign	-6228
ina	-6229
▁서브	-6230
▁직장	-6231
▁부동산	-6232
▁자전거	-6233
▁호르	-6234
▁일으킨	-6235
주곡	-6236
총장	-6237
▁반환	-6238
▁향토	-6239
도니아	-6240
▁마쳤	-6241
▁미얀	-6242
▁칩	-6243
▁여동생	-6244
▁연고지	-6245
▁그쳤	-6246
▁머물렀	-6247
▁무슬	-6248
▁향년	-6249
ale	-6250
▁밀접	-6251
▁동영상	-6252
▁128	-6253
▁기종	-6254
▁전염	-6255
▁상하이	-6256
타카	-6257
▁Mus	-6258
▁룩	-6259
▁IP	-6260
▁바이올린	-6261
▁127	-6262
▁지휘자	-6263
▁미네	-6264
▁수수	-6265
▁줬	-6266
▁쿠르	-6267
▁개발자	-6268
▁곧바로	-6269
▁오디션	-6270
▁게시	-6271
▁유신	-6272
ala	-6273
▁스릴러	-6274
슬라	-6275
▁무슬림	-6276
▁디비	-6277
▁예능	-6278
▁900	-6279
▁거친	-6280
▁스틸	-6281
▁내륙	-6282
▁안양	-6283
데이트	-6284
▁전해진다	-6285
타운	-6286
▁박근혜	-6287
▁비단	-6288
▁주말	-6289
▁타마	-6290
다른	-6291
▁스와	-6292
▁네이션	-6293
▁업데이트	-6294
▁1895	-6295
ron	-6296
▁걸려	-6297
▁심하	-6298
▁펼치	-6299
페이지	-6300
▁무라	-6301
▁좌익	-6302
▁융합	-6303
▁콜롬비아	-6304
▁정사	-6305
▁서북	-6306
즈카	-6307
▁DJ	-6308
▁아가	-6309
▁기점	-6310
▁협의	-6311
리케이션	-6312
▁나미	-6313
▁완화	-6314
▁북동부	-6315
▁여신	-6316
▁NHK	-6317
▁넨	-6318
yl	-6319
▁고립	-6320
▁분지	-6321
▁신임	-6322
▁자사	-6323
▁호남	-6324
▁비즈니스	-6325
▁MC	-6326
▁기재	-6327
▁사로	-6328
▁압박	-6329
▁정교	-6330
▁버그	-6331
▁부패	-6332
▁신비	-6333
▁도메인	-6334
악기	-6335
▁품질	-6336
▁102	-6337
▁구동	-6338
▁기용	-6339
▁점성	-6340
▁붙잡	-6341
트랙	-6342
▁나폴리	-6343
▁옛날	-6344
▁홈페이지	-6345
ose	-6346
▁권고	-6347
▁긴급	-6348
▁의병	-6349
▁엘리자베스	-6350
▁사이클	-6351
▁WW	-6352
▁렌즈	-6353
▁걸리	-6354
▁분배	-6355
▁입문	-6356
▁말라	-6357
▁찌	-6358
시온	-6359
▁문재	-6360
▁랴	-6361
▁가하	-6362
▁임상	-6363
▁당사자	-6364
▁협의회	-6365
▁가게	-6366
▁동치	-6367
▁특급	-6368
▁프랜	-6369
세스	-6370
▁평소	-6371
▁노조	-6372
루살	-6373
▁개수	-6374
▁바흐	-6375
▁세균	-6376
ree	-6377
▁문하	-6378
▁시달	-6379
▁원산	-6380
▁좌석	-6381
루살렘	-6382
▁두드	-6383
▁제후	-6384
▁드러내	-6385
▁뿔	-6386
때로	-6387
int	-6388
▁알바니아	-6389
▁관장	-6390
▁갤럭	-6391
▁라이온	-6392
▁왕족	-6393
▁라이벌	-6394
▁모순	-6395
▁번식	-6396
▁마라	-6397
▁선진	-6398
▁희극	-6399
▁얼음	-6400
▁굿	-6401
▁우르	-6402
▁조선인	-6403
yn	-6404
▁장편	-6405
▁사직	-6406
▁폭스	-6407
▁카페	-6408
▁합작	-6409
▁후자	-6410
▁자바	-6411
▁교전	-6412
▁주어진	-6413
레드	-6414
▁Fran	-6415
어트	-6416
iel	-6417
▁스트리트	-6418
가스	-6419
▁살펴	-6420
▁오타	-6421
▁기아	-6422
▁콘스탄티노	-6423
▁MP	-6424
▁ex	-6425
▁호환	-6426
▁나타난	-6427
▁때때로	-6428
▁And	-6429
▁회원국	-6430
▁계단	-6431
▁발효	-6432
▁상소	-6433
▁할당	-6434
▁행정부	-6435
▁방안	-6436
▁문과	-6437
▁갤럭시	-6438
▁센트럴	-6439
TC	-6440
회의	-6441
▁사르	-6442
▁브라이언	-6443
▁장사	-6444
▁선보였	-6445
▁조류	-6446
▁기념물	-6447
▁요미우리	-6448
▁댐	-6449
▁예언	-6450
▁이오	-6451
랑이	-6452
▁좋아하	-6453
▁시내버스	-6454
▁드림	-6455
▁사면	-6456
브스	-6457
로프	-6458
문학	-6459
▁간접	-6460
▁알라	-6461
▁강수량	-6462
▁스케이팅	-6463
▁alpha	-6464
▁에릭	-6465
▁정계	-6466
ley	-6467
▁108	-6468
▁과제	-6469
▁용량	-6470
▁부수	-6471
▁아도	-6472
로디	-6473
▁교섭	-6474
AD	-6475
들리	-6476
▁현종	-6477
▁두려워	-6478
▁스테이지	-6479
▁팅	-6480
▁상임	-6481
▁자마	-6482
▁부리	-6483
▁부시	-6484
▁신하	-6485
▁퍼져	-6486
폴리스	-6487
▁예루살렘	-6488
▁차관	-6489
스티벌	-6490
▁페스티벌	-6491
▁대령	-6492
▁도리	-6493
▁선두	-6494
▁한나라	-6495
으므로	-6496
▁사라졌	-6497
▁한나라당	-6498
▁1916	-6499
▁인자	-6500
▁충성	-6501
▁On	-6502
▁저택	-6503
▁매개	-6504
▁환상	-6505
▁플라스	-6506
▁137	-6507
▁벨라루스	-6508
▁가득	-6509
▁이리	-6510
▁벌어지	-6511
▁후쿠시마	-6512
▁연구자	-6513
▁일요일	-6514
▁체육관	-6515
▁대교	-6516
▁지주	-6517
▁나열	-6518
▁야기	-6519
▁CH	-6520
▁편곡	-6521
▁카자흐	-6522
랑크	-6523
▁훼손	-6524
▁호평	-6525
껍질	-6526
▁지각	-6527
▁십자군	-6528
▁1500	-6529
▁봐	-6530
Hz	-6531
▁뷔	-6532
▁만난	-6533
▁우지	-6534
▁최신	-6535
▁투명	-6536
▁히스	-6537
▁DC	-6538
▁변동	-6539
▁상류	-6540
▁형법	-6541
▁푸른	-6542
▁알렸	-6543
▁싸웠	-6544
▁에스토	-6545
어리	-6546
▁거슬러	-6547
▁들어간	-6548
lo	-6549
마치	-6550
▁급행	-6551
▁신용	-6552
▁착륙	-6553
▁식사	-6554
리티	-6555
oph	-6556
▁니아	-6557
▁대답	-6558
▁사사	-6559
▁마케도니아	-6560
▁서일본	-6561
▁샹	-6562
▁식별	-6563
▁학파	-6564
▁동전	-6565
식물	-6566
▁상상	-6567
▁친정	-6568
▁파동	-6569
트롤	-6570
▁월간	-6571
OM	-6572
▁빨리	-6573
▁자면	-6574
▁마케팅	-6575
▁관습	-6576
▁기단	-6577
▁관광객	-6578
▁충족	-6579
▁벌어졌	-6580
▁판매량	-6581
다는	-6582
▁지지자	-6583
아리	-6584
▁예배	-6585
다이라	-6586
▁아베	-6587
▁111	-6588
▁애플리케이션	-6589
▁중독	-6590
▁부통령	-6591
▁참가자	-6592
▁잊	-6593
▁맥스	-6594
▁선사	-6595
▁에스토니아	-6596
ance	-6597
▁던지	-6598
▁차체	-6599
▁공용	-6600
▁와중	-6601
▁수면	-6602
▁미스터	-6603
아지	-6604
ork	-6605
▁받침	-6606
▁피렌	-6607
▁의거	-6608
▁취약	-6609
▁됐으며	-6610
▁스피드	-6611
결승	-6612
▁백신	-6613
▁사명	-6614
▁하드웨어	-6615
▁묘소	-6616
▁명종	-6617
▁내내	-6618
ert	-6619
▁대단	-6620
▁트레	-6621
▁파나	-6622
▁MVP	-6623
▁얼마나	-6624
레이터	-6625
▁가질	-6626
▁해임	-6627
▁이에	-6628
나와	-6629
▁오다	-6630
▁응답	-6631
▁하트	-6632
▁굉	-6633
▁신전	-6634
▁이지	-6635
▁존경	-6636
▁조용	-6637
▁주립	-6638
▁친선	-6639
▁트윈	-6640
▁득표율	-6641
▁환원	-6642
▁아즈	-6643
▁위주	-6644
▁곁	-6645
▁니스	-6646
▁피스	-6647
▁한화	-6648
▁컬럼비아	-6649
모니	-6650
▁붓	-6651
ise	-6652
▁바그	-6653
▁힌두	-6654
▁수학자	-6655
oth	-6656
▁크리스토	-6657
▁서독	-6658
▁연애	-6659
ild	-6660
▁다룬	-6661
▁다이아	-6662
▁련	-6663
▁피렌체	-6664
▁5000	-6665
▁부흥	-6666
▁심한	-6667
▁점유	-6668
동물	-6669
잡이	-6670
▁뛰어나	-6671
▁자손	-6672
▁낱	-6673
▁상무	-6674
▁중도	-6675
▁아틀레	-6676
▁University	-6677
커스	-6678
▁측근	-6679
▁이슬람교	-6680
▁메가	-6681
▁저기	-6682
▁귀환	-6683
▁붙이	-6684
▁미얀마	-6685
▁깔	-6686
▁실용	-6687
▁Intern	-6688
▁분교	-6689
▁일렉	-6690
▁젖	-6691
가루	-6692
▁급진	-6693
▁도르	-6694
▁로빈	-6695
▁무효	-6696
▁용산	-6697
▁조국	-6698
▁노동조합	-6699
▁상부	-6700
▁소금	-6701
▁le	-6702
▁시체	-6703
ai	-6704
▁루수	-6705
▁적대	-6706
▁119	-6707
▁고원	-6708
▁래퍼	-6709
▁리얼	-6710
▁별개	-6711
▁책봉	-6712
▁통칭	-6713
▁시외	-6714
경기	-6715
우옌	-6716
▁전임	-6717
▁고사	-6718
▁학명	-6719
▁혜성	-6720
▁쥬	-6721
▁동남아시아	-6722
수수	-6723
▁중점	-6724
▁한양	-6725
디스	-6726
▁세례	-6727
▁자율	-6728
▁전이	-6729
▁주행	-6730
▁항일	-6731
▁아울러	-6732
▁발족	-6733
▁우즈	-6734
토미	-6735
own	-6736
▁회수	-6737
▁룬	-6738
트니	-6739
▁서울시	-6740
Pa	-6741
카르	-6742
▁목조	-6743
▁석탄	-6744
▁일관	-6745
▁SP	-6746
▁시라	-6747
▁아케	-6748
▁포맷	-6749
▁피난	-6750
▁검증	-6751
스부르크	-6752
enn	-6753
▁감지	-6754
▁소송법	-6755
▁믿음	-6756
▁서열	-6757
▁착수	-6758
▁푼	-6759
▁뱅크	-6760
▁Comp	-6761
▁스쿨	-6762
▁아이디	-6763
▁인과	-6764
▁CE	-6765
▁생일	-6766
▁여덟	-6767
▁하노	-6768
▁캠페인	-6769
페이	-6770
▁브라우	-6771
▁끼리	-6772
▁비아	-6773
▁사가	-6774
▁정벌	-6775
▁산림	-6776
▁악마	-6777
▁흥행	-6778
▁로고	-6779
▁팽창	-6780
▁리메	-6781
▁보드	-6782
▁빌헬	-6783
▁와인	-6784
▁권유	-6785
▁진상	-6786
▁아마도	-6787
▁프로세스	-6788
▁메디	-6789
▁메타	-6790
▁사다	-6791
▁외무	-6792
▁얇	-6793
▁배정	-6794
▁떨어졌	-6795
▁흩	-6796
전자	-6797
▁121	-6798
▁비잔	-6799
▁근로자	-6800
▁아리스	-6801
균관	-6802
▁전지	-6803
조선	-6804
▁창업	-6805
스케	-6806
▁참판	-6807
▁카시	-6808
▁드럼	-6809
▁부자	-6810
ons	-6811
▁통행	-6812
▁공전	-6813
▁김동	-6814
▁사범	-6815
▁지분	-6816
▁우주선	-6817
▁강사	-6818
▁전류	-6819
▁마오	-6820
▁사바	-6821
▁친척	-6822
▁그랑	-6823
▁애국	-6824
ox	-6825
▁발현	-6826
일드	-6827
▁성벽	-6828
▁관념	-6829
▁규격	-6830
▁요크	-6831
▁최적	-6832
▁강연	-6833
▁버튼	-6834
▁제의	-6835
루미	-6836
stem	-6837
▁비틀즈	-6838
▁겔	-6839
보살	-6840
자와	-6841
부인	-6842
▁조언	-6843
▁장인	-6844
▁하이드	-6845
▁옌	-6846
카드	-6847
▁보전	-6848
▁제휴	-6849
▁연수	-6850
▁전진	-6851
▁112	-6852
▁독립운동가	-6853
외선	-6854
▁하마	-6855
▁비극	-6856
▁비로	-6857
▁성공회	-6858
▁하버드	-6859
▁루터	-6860
▁공과	-6861
▁따위	-6862
▁우정	-6863
▁포장	-6864
▁짙	-6865
che	-6866
▁가라	-6867
▁수신	-6868
▁쏟	-6869
▁쇼핑	-6870
▁꼴	-6871
▁거인	-6872
▁스콧	-6873
▁바티	-6874
▁IT	-6875
▁몰락	-6876
▁자책점	-6877
킨스	-6878
▁국어	-6879
▁두드러	-6880
IM	-6881
▁동등	-6882
▁전장	-6883
▁긴장	-6884
▁노드	-6885
▁매사	-6886
▁부착	-6887
▁소지	-6888
▁보충	-6889
수아	-6890
산군	-6891
▁달아	-6892
▁찾아가	-6893
▁해인	-6894
▁주머니	-6895
서양	-6896
▁초연	-6897
▁약한	-6898
▁No	-6899
▁관찰사	-6900
▁제작자	-6901
러미	-6902
▁오렌	-6903
▁히라	-6904
▁마친	-6905
▁발트	-6906
▁법령	-6907
▁z	-6908
▁샬	-6909
▁구제	-6910
▁테오	-6911
ake	-6912
▁경선	-6913
▁떠난	-6914
▁마운	-6915
▁좌표	-6916
▁응우옌	-6917
▁성전	-6918
▁쇄	-6919
▁전두	-6920
▁짜리	-6921
▁3000	-6922
▁하우	-6923
▁물러나	-6924
▁리오	-6925
▁배틀	-6926
▁노무현	-6927
▁연루	-6928
▁텍스트	-6929
▁담배	-6930
▁주권	-6931
▁평행	-6932
▁들어와	-6933
▁아미노	-6934
▁천문학	-6935
oci	-6936
▁준공	-6937
▁원나라	-6938
pp	-6939
▁어항	-6940
▁기상청	-6941
▁빌헬름	-6942
▁턱	-6943
▁김용	-6944
▁스파이	-6945
▁성균관	-6946
▁이명박	-6947
▁규명	-6948
받침	-6949
out	-6950
▁개업	-6951
▁북서부	-6952
메르	-6953
▁베이스볼	-6954
▁Ab	-6955
▁없애	-6956
▁서경	-6957
▁합법	-6958
▁컨트롤	-6959
▁위장	-6960
▁이복	-6961
▁엔지	-6962
▁어드	-6963
▁어릴	-6964
▁점프	-6965
▁시드니	-6966
츠키	-6967
iam	-6968
▁금성	-6969
▁회계	-6970
▁저기압	-6971
▁주파수	-6972
▁마산	-6973
▁여진	-6974
▁행진	-6975
▁아군	-6976
▁퇴각	-6977
▁공인	-6978
▁나리	-6979
▁게재	-6980
▁두산	-6981
▁디비전	-6982
▁휩	-6983
▁아바	-6984
▁1894	-6985
▁겸임	-6986
▁미하	-6987
▁허브	-6988
▁클린	-6989
▁로프	-6990
▁서서	-6991
▁식당	-6992
혁명	-6993
▁배구	-6994
▁소총	-6995
▁연인	-6996
▁우편	-6997
▁"("	-6998
▁게이트	-6999
▁알코	-7000
▁못해	-7001
문관	-7002
▁중재	-7003
네이	-7004
▁디젤	-7005
▁어두운	-7006
▁자고	-7007
▁정찰	-7008
▁남인	-7009
▁사물	-7010
▁123	-7011
▁마찰	-7012
▁이슈	-7013
▁115	-7014
▁내지	-7015
▁인텔	-7016
▁이노	-7017
▁곳곳	-7018
▁법무	-7019
▁사로잡	-7020
▁Cent	-7021
▁셈	-7022
▁파스	-7023
▁건축가	-7024
▁테일러	-7025
▁복소	-7026
▁금액	-7027
▁전도	-7028
▁봤	-7029
▁유해	-7030
▁패전	-7031
▁미쳤	-7032
▁손가락	-7033
▁윌슨	-7034
▁준결승	-7035
▁계절	-7036
▁고무	-7037
▁근접	-7038
▁박영	-7039
▁하부	-7040
▁사용자	-7041
▁중장	-7042
▁단원	-7043
▁트위	-7044
▁아우구	-7045
▁실종	-7046
▁레이다	-7047
▁닿	-7048
▁피에르	-7049
▁크리스마스	-7050
▁술탄	-7051
▁증후	-7052
▁지목	-7053
▁106	-7054
▁신칸	-7055
▁마리오	-7056
▁한강	-7057
ius	-7058
▁한데	-7059
▁$	-7060
▁콰	-7061
델피아	-7062
▁필라델피아	-7063
▁각기	-7064
▁제트	-7065
▁상자	-7066
▁오클	-7067
▁휠	-7068
oll	-7069
▁관현	-7070
▁센서	-7071
▁키프	-7072
▁갓	-7073
▁굵	-7074
리크	-7075
▁눈물	-7076
▁117	-7077
▁마쓰다이라	-7078
▁생명체	-7079
▁전문학교	-7080
▁크리스티	-7081
▁유출	-7082
▁챌	-7083
▁특유	-7084
▁회화	-7085
itt	-7086
▁과목	-7087
▁스페인어	-7088
▁격렬	-7089
▁승차	-7090
▁Bla	-7091
▁오디오	-7092
▁CC	-7093
▁옐	-7094
▁Go	-7095
▁청와	-7096
▁후일	-7097
▁포수	-7098
▁협동	-7099
▁문제점	-7100
▁유소년	-7101
▁중국인	-7102
예프	-7103
수엘라	-7104
▁Will	-7105
▁모으	-7106
▁인산	-7107
▁제곱	-7108
▁승무원	-7109
▁에이스	-7110
어져	-7111
▁104	-7112
▁폴리스	-7113
▁매력	-7114
▁직책	-7115
▁향한	-7116
▁각본가	-7117
▁남양	-7118
▁호칭	-7119
▁자발	-7120
▁컸	-7121
▁카타	-7122
▁청와대	-7123
▁궁정	-7124
▁외곽	-7125
▁친왕	-7126
▁가르침	-7127
▁고가	-7128
▁착공	-7129
▁천사	-7130
▁토리	-7131
▁보스니아	-7132
▁뢰	-7133
▁민국	-7134
▁민영	-7135
▁섭취	-7136
▁청사	-7137
▁히데요시	-7138
상스	-7139
▁야간	-7140
▁차남	-7141
▁카탈	-7142
▁회견	-7143
▁난민	-7144
▁다운로드	-7145
▁베네수엘라	-7146
▁카트	-7147
▁박탈	-7148
▁반경	-7149
▁수평	-7150
▁순조	-7151
▁영장	-7152
▁상대방	-7153
▁증후군	-7154
소스	-7155
▁속성	-7156
▁골프	-7157
▁애틀	-7158
▁113	-7159
▁고베	-7160
▁시립	-7161
▁드라이브	-7162
▁동년	-7163
▁반격	-7164
▁For	-7165
▁최소한	-7166
집합	-7167
▁신칸센	-7168
▁유언	-7169
▁추격	-7170
▁118	-7171
▁단기	-7172
▁포괄	-7173
▁언론인	-7174
▁채무	-7175
▁인형	-7176
▁취재	-7177
▁해전	-7178
ics	-7179
▁밭	-7180
▁정밀	-7181
▁돌연	-7182
ii	-7183
▁기금	-7184
▁마비	-7185
▁품종	-7186
▁이순	-7187
▁저명	-7188
▁즐기	-7189
▁퍼시픽	-7190
▁1890	-7191
▁고체	-7192
그라드	-7193
▁소닉	-7194
▁수산	-7195
▁팔레스	-7196
▁리메이크	-7197
▁펴	-7198
▁옥스	-7199
EN	-7200
▁유격	-7201
▁화살	-7202
▁노란색	-7203
▁삿	-7204
▁hPa	-7205
▁연도	-7206
▁엔지니어	-7207
enc	-7208
▁수동	-7209
구장	-7210
▁해역	-7211
▁최저	-7212
▁향후	-7213
대군	-7214
▁교장	-7215
▁추모	-7216
▁대주교	-7217
▁물러났	-7218
▁토요일	-7219
▁등재	-7220
▁총괄	-7221
▁부르크	-7222
▁시청자	-7223
팩트	-7224
▁공략	-7225
▁장성	-7226
▁치세	-7227
제프	-7228
플러	-7229
▁룰	-7230
▁청장	-7231
▁콜라	-7232
▁나가사키	-7233
ML	-7234
▁선원	-7235
▁이영	-7236
▁튀르	-7237
▁자마자	-7238
▁출입구	-7239
▁날짜	-7240
▁부과	-7241
▁이글	-7242
▁인격	-7243
▁정점	-7244
▁126	-7245
기니	-7246
▁가즈	-7247
▁광년	-7248
▁디스플레이	-7249
어지	-7250
▁sp	-7251
▁서서히	-7252
▁스타크래프트	-7253
▁진리	-7254
▁패스	-7255
▁레이저	-7256
▁슬라	-7257
▁시즈	-7258
▁여의	-7259
▁전례	-7260
▁피고	-7261
▁이원	-7262
▁기다리	-7263
▁대위	-7264
▁사리	-7265
▁일족	-7266
▁별자리	-7267
▁1902	-7268
▁번뇌	-7269
▁헐	-7270
▁사슬	-7271
▁석조	-7272
▁탐지	-7273
▁Ser	-7274
▁광해군	-7275
▁일찍이	-7276
▁진나라	-7277
▁출처	-7278
▁통근	-7279
▁얘	-7280
▁끌어	-7281
▁미주	-7282
▁프로토콜	-7283
▁프랭크	-7284
▁상장	-7285
▁오렌지	-7286
우라	-7287
▁명목	-7288
▁가져왔	-7289
row	-7290
▁교단	-7291
▁보잉	-7292
▁슬로바키아	-7293
서리	-7294
▁사절	-7295
▁태생	-7296
▁페어	-7297
▁숭배	-7298
▁이사장	-7299
▁꾀	-7300
▁브래	-7301
ene	-7302
▁부도	-7303
▁부재	-7304
▁자유당	-7305
▁르네상스	-7306
▁물자	-7307
▁유교	-7308
▁하얀	-7309
▁이민자	-7310
▁끊임	-7311
▁109	-7312
▁보통학교	-7313
올리	-7314
▁앞면	-7315
▁애틀랜	-7316
▁지나치	-7317
▁이인	-7318
마사	-7319
▁차기	-7320
자스	-7321
▁133	-7322
▁이이	-7323
▁오키나와	-7324
▁매출	-7325
AL	-7326
▁개찰구	-7327
▁팔레스타인	-7328
모어	-7329
▁상세	-7330
석기	-7331
▁간호	-7332
▁안장	-7333
▁챌린	-7334
▁홍수	-7335
▁버려	-7336
▁슈트	-7337
▁양상	-7338
▁캄보	-7339
▁존중	-7340
▁한동안	-7341
▁원하	-7342
▁주차	-7343
시티	-7344
▁남긴	-7345
▁서해	-7346
▁단점	-7347
▁여수	-7348
▁지장	-7349
▁1898	-7350
▁Christ	-7351
의자	-7352
창기	-7353
▁360	-7354
▁별칭	-7355
▁병역	-7356
▁신규	-7357
▁가르쳤	-7358
▁딩	-7359
▁달린	-7360
▁무려	-7361
▁갑작	-7362
▁기수	-7363
▁CPU	-7364
▁1901	-7365
▁성모	-7366
▁촉구	-7367
네스코	-7368
▁아사히	-7369
▁이틀	-7370
▁블루스	-7371
▁후지와	-7372
▁NG	-7373
▁따뜻	-7374
▁세션	-7375
▁입체	-7376
▁마인	-7377
▁버린	-7378
▁주지사	-7379
▁사우디아	-7380
▁튼	-7381
노부	-7382
▁Bar	-7383
▁수용체	-7384
▁나고	-7385
▁수성	-7386
▁첨가	-7387
행위	-7388
▁공자	-7389
베이터	-7390
악단	-7391
퍼니	-7392
원숭이	-7393
▁항공모	-7394
▁ar	-7395
▁역명	-7396
▁투르	-7397
▁일자리	-7398
▁하인리히	-7399
▁닭	-7400
▁낙선	-7401
▁스핀	-7402
▁카나	-7403
▁III	-7404
▁쿤	-7405
▁다중	-7406
▁머신	-7407
▁주축	-7408
▁건너가	-7409
▁셸	-7410
라이트	-7411
▁서사	-7412
▁어업	-7413
▁호프	-7414
▁남한	-7415
▁자민	-7416
▁암석	-7417
▁소실	-7418
▁쇼트	-7419
▁컬러	-7420
▁방침	-7421
▁캐스팅	-7422
▁볼리	-7423
▁Ac	-7424
▁Op	-7425
▁정말	-7426
▁해운	-7427
▁사이버	-7428
TA	-7429
▁트루	-7430
▁포도주	-7431
▁||	-7432
칠리아	-7433
▁창시	-7434
ward	-7435
▁아이템	-7436
▁트럼프	-7437
다드	-7438
▁둥근	-7439
▁명의	-7440
▁조리	-7441
▁네이버	-7442
▁건의	-7443
▁굉장	-7444
▁제네바	-7445
▁동력	-7446
▁신세	-7447
ife	-7448
▁관통	-7449
▁세미	-7450
▁줄여서	-7451
▁밀양	-7452
▁불명	-7453
▁유연	-7454
▁공직	-7455
▁추증	-7456
고속도로	-7457
화점	-7458
▁적자	-7459
ition	-7460
▁객관	-7461
▁죽였	-7462
▁진군	-7463
▁둘러싼	-7464
티움	-7465
▁황해	-7466
▁정치가	-7467
MS	-7468
▁장난	-7469
▁타르	-7470
▁Qu	-7471
▁교양	-7472
▁스터	-7473
▁북구	-7474
▁에디	-7475
▁여겼	-7476
▁전대	-7477
▁팜	-7478
라리	-7479
▁EC	-7480
▁리어	-7481
▁케네	-7482
▁상당수	-7483
▁문양	-7484
▁중순	-7485
▁an	-7486
▁시공	-7487
▁발해	-7488
▁나고야	-7489
▁외국어	-7490
▁원고	-7491
▁음원	-7492
▁조르	-7493
▁일어날	-7494
▁TO	-7495
토시	-7496
키지	-7497
▁132	-7498
▁유니폼	-7499
▁경보	-7500
▁허리	-7501
게이머	-7502
▁프로게이머	-7503
▁사우디아라비아	-7504
산면	-7505
▁윌리엄스	-7506
▁유네스코	-7507
▁자랐	-7508
▁124	-7509
▁초창기	-7510
▁동독	-7511
▁대역	-7512
▁앙리	-7513
▁마츠	-7514
▁TH	-7515
▁고발	-7516
▁김재	-7517
▁모스	-7518
▁성주	-7519
▁재미	-7520
▁조달	-7521
▁평일	-7522
▁프레스	-7523
노리	-7524
▁원자로	-7525
▁동위	-7526
▁며칠	-7527
▁영리	-7528
▁이바	-7529
▁122	-7530
▁협주곡	-7531
▁당일	-7532
▁생식	-7533
▁107	-7534
▁명백	-7535
▁요르	-7536
크리트	-7537
▁걱	-7538
노프	-7539
리즘	-7540
태우	-7541
hel	-7542
▁수군	-7543
▁Ste	-7544
▁카자흐스탄	-7545
▁AR	-7546
▁레바	-7547
▁무죄	-7548
▁발원	-7549
라이더	-7550
▁책임자	-7551
▁천문학자	-7552
트릭	-7553
▁통증	-7554
▁전함	-7555
▁공민	-7556
▁마약	-7557
▁미소	-7558
▁김영삼	-7559
▁고래	-7560
▁난다	-7561
▁누군	-7562
▁루프	-7563
▁성별	-7564
박스	-7565
생활	-7566
lay	-7567
▁멈추	-7568
▁도호쿠	-7569
▁전한다	-7570
▁우울	-7571
▁1903	-7572
▁대처	-7573
▁보완	-7574
▁1899	-7575
▁항공모함	-7576
▁수렴	-7577
▁탈환	-7578
라미	-7579
▁연패	-7580
▁부채	-7581
▁전두환	-7582
▁캄보디아	-7583
▁북위	-7584
▁비문	-7585
▁신속	-7586
▁함유	-7587
▁129	-7588
eta	-7589
▁교외	-7590
▁언더	-7591
▁좌절	-7592
▁집계	-7593
▁배터리	-7594
▁선구	-7595
▁심의	-7596
▁미토	-7597
▁패하	-7598
▁평야	-7599
▁이어받	-7600
▁강경	-7601
▁경부	-7602
▁도왔	-7603
▁시나리오	-7604
▁이어진다	-7605
▁엘리베이터	-7606
▁평범	-7607
▁누적	-7608
▁레전	-7609
▁복장	-7610
▁섭정	-7611
▁안티	-7612
▁상담	-7613
▁ISO	-7614
▁테니스	-7615
산리	-7616
▁토마	-7617
▁옴	-7618
어진	-7619
▁추상	-7620
▁가벼	-7621
ology	-7622
▁테스	-7623
차례	-7624
▁바퀴	-7625
▁소통	-7626
▁시오	-7627
붙이	-7628
▁종결	-7629
▁극장판	-7630
▁대외	-7631
▁번영	-7632
▁불편	-7633
▁지류	-7634
▁수용소	-7635
▁알프스	-7636
▁의상	-7637
▁중심부	-7638
▁라트비아	-7639
mer	-7640
▁수령	-7641
▁마하	-7642
▁부른	-7643
▁분광	-7644
▁풀려	-7645
▁협조	-7646
▁송나라	-7647
MA	-7648
▁취지	-7649
TS	-7650
추세	-7651
▁관람	-7652
▁모방	-7653
▁그램	-7654
▁든지	-7655
▁격투	-7656
▁김진	-7657
가와현	-7658
▁남동부	-7659
▁언제나	-7660
▁투르크	-7661
▁스러	-7662
▁온천	-7663
▁조반	-7664
▁풍경	-7665
▁양도	-7666
▁워너	-7667
▁무거운	-7668
ru	-7669
▁그렸	-7670
▁대군	-7671
▁오빠	-7672
추세츠	-7673
▁할리우드	-7674
▁매사추세츠	-7675
▁장려	-7676
▁134	-7677
니치	-7678
▁걱정	-7679
창군	-7680
▁석탑	-7681
▁미상	-7682
▁초과	-7683
▁WWE	-7684
▁지나가	-7685
▁데이비스	-7686
언스	-7687
▁소매	-7688
▁위임	-7689
▁후세	-7690
▁실린	-7691
▁후대	-7692
▁NBA	-7693
▁물리학자	-7694
온다	-7695
▁So	-7696
▁기장	-7697
▁합창	-7698
▁항소	-7699
▁International	-7700
▁휴전	-7701
▁One	-7702
▁스티브	-7703
▁우연히	-7704
▁여겨졌	-7705
▁해병대	-7706
루션	-7707
ink	-7708
▁북방	-7709
▁지혜	-7710
▁서울대	-7711
▁세계관	-7712
▁룽	-7713
▁동맥	-7714
▁휴식	-7715
▁Amer	-7716
▁삼진	-7717
▁후안	-7718
▁구조물	-7719
선스	-7720
▁케이스	-7721
▁냄	-7722
▁창고	-7723
져서	-7724
▁소환	-7725
▁Har	-7726
트리올	-7727
▁몬트리올	-7728
▁암시	-7729
▁추출	-7730
▁버린다	-7731
마현	-7732
▁기어	-7733
▁표명	-7734
ye	-7735
▁외교관	-7736
▁개관	-7737
▁장학	-7738
▁쫓겨	-7739
▁쉬운	-7740
▁토크	-7741
▁디비시온	-7742
▁느낀	-7743
▁승점	-7744
ames	-7745
▁민사	-7746
▁총사	-7747
▁믹스	-7748
▁바꿔	-7749
▁뉘	-7750
▁정전	-7751
▁컴퍼니	-7752
ans	-7753
▁NC	-7754
▁기인	-7755
▁가면	-7756
▁무제	-7757
▁여주	-7758
▁탐구	-7759
▁호세	-7760
▁htt	-7761
람회	-7762
평군	-7763
▁여지	-7764
▁유수	-7765
▁의뢰	-7766
▁해수	-7767
▁혈통	-7768
▁우루과이	-7769
▁전성기	-7770
▁창건	-7771
▁대포	-7772
▁잡아	-7773
▁충실	-7774
▁후한	-7775
▁나이지	-7776
▁소유자	-7777
▁신학자	-7778
▁나이지리아	-7779
▁매카	-7780
▁효력	-7781
▁넘어가	-7782
way	-7783
▁김수	-7784
▁토스	-7785
▁미즈	-7786
▁톈	-7787
▁도주	-7788
▁생전	-7789
▁Je	-7790
▁기습	-7791
ute	-7792
말라	-7793
▁편리	-7794
▁확진	-7795
▁사회학	-7796
▁벗어	-7797
▁라이선스	-7798
▁#	-7799
▁공모	-7800
▁꽤	-7801
▁중량	-7802
▁케네디	-7803
▁기요	-7804
▁방패	-7805
▁지냈으며	-7806
▁쓰인	-7807
▁아폴	-7808
▁에다	-7809
▁영동	-7810
▁초상화	-7811
erm	-7812
▁공채	-7813
▁껍질	-7814
▁석가	-7815
▁소나타	-7816
▁다녀	-7817
▁총대	-7818
▁고백	-7819
▁1897	-7820
▁호기	-7821
▁자기장	-7822
▁콘크리트	-7823
▁왓	-7824
먼드	-7825
▁그로	-7826
▁바치	-7827
▁인연	-7828
ream	-7829
▁아이슬	-7830
▁CS	-7831
▁어스	-7832
▁육지	-7833
▁탱크	-7834
▁Sou	-7835
▁쉐	-7836
▁왜성	-7837
▁운동장	-7838
▁패키지	-7839
ash	-7840
▁고민	-7841
▁저하	-7842
▁중의원	-7843
▁에스파냐	-7844
▁카이사르	-7845
▁원내	-7846
그로	-7847
▁배신	-7848
▁에우	-7849
▁훔	-7850
사기	-7851
▁진짜	-7852
▁침몰	-7853
▁바실	-7854
▁거느리	-7855
▁라파	-7856
▁막내	-7857
▁숨겨	-7858
▁신생	-7859
▁아종	-7860
무기	-7861
ata	-7862
▁RNA	-7863
▁레전드	-7864
항공	-7865
▁김태	-7866
▁마천	-7867
▁이식	-7868
▁이진	-7869
▁체르	-7870
▁하락	-7871
▁연세대	-7872
▁충남	-7873
▁쌍둥이	-7874
▁반박	-7875
▁상서	-7876
▁이를	-7877
▁정렬	-7878
▁지능	-7879
▁나쁜	-7880
▁정무	-7881
벌레	-7882
시로	-7883
▁둘레	-7884
▁서남	-7885
▁써서	-7886
▁일조	-7887
▁중위	-7888
▁아이슬란드	-7889
푸스	-7890
▁보일	-7891
▁원반	-7892
▁태수	-7893
pr	-7894
▁시그	-7895
PG	-7896
▁성숙	-7897
ta	-7898
▁들어왔	-7899
▁스페이스	-7900
▁ne	-7901
▁고령	-7902
▁어요	-7903
▁리버풀	-7904
▁부적	-7905
▁중소	-7906
▁옵션	-7907
▁폐위	-7908
▁탤	-7909
lic	-7910
▁만세	-7911
▁면허	-7912
▁계몽	-7913
▁법조	-7914
▁보리	-7915
▁파업	-7916
주의자	-7917
▁문학상	-7918
▁실시간	-7919
포트	-7920
▁코프	-7921
▁펑크	-7922
▁밟	-7923
▁도라	-7924
▁피츠	-7925
바이잔	-7926
포구	-7927
▁바뀐	-7928
▁스파르타	-7929
▁아랍어	-7930
▁인플	-7931
▁인재	-7932
▁아제르	-7933
▁알코올	-7934
▁횟	-7935
▁Ag	-7936
▁부천	-7937
▁성취	-7938
▁순천	-7939
▁우세	-7940
▁앓	-7941
▁Pa	-7942
하면	-7943
▁강과	-7944
▁목재	-7945
▁에티오	-7946
▁에티오피아	-7947
▁아제르바이잔	-7948
리에	-7949
▁루시	-7950
▁신기	-7951
▁귀중	-7952
▁선종	-7953
▁문재인	-7954
▁분비	-7955
▁코무네	-7956
▁깨달	-7957
▁박해	-7958
▁충전	-7959
▁혈관	-7960
▁일러	-7961
▁내려가	-7962
ark	-7963
▁낱말	-7964
▁치열	-7965
▁신중	-7966
▁해변	-7967
▁바라보	-7968
▁끓	-7969
▁치즈	-7970
ener	-7971
▁결혼식	-7972
▁신학교	-7973
▁축하	-7974
▁출토	-7975
▁김상	-7976
▁잦	-7977
▁도스	-7978
▁동당	-7979
▁드라	-7980
▁내외	-7981
▁병조	-7982
▁열대	-7983
▁파장	-7984
▁회고	-7985
▁십자가	-7986
랑카	-7987
▁업계	-7988
ement	-7989
▁전압	-7990
▁급격히	-7991
▁몰려	-7992
▁서머	-7993
▁바이오	-7994
▁1884	-7995
▁닝	-7996
▁치명	-7997
▁총선거	-7998
▁두루	-7999
▁신흥	-8000
ade	-8001
▁포격	-8002
lass	-8003
▁동로	-8004
▁한성부	-8005
▁겸하	-8006
▁가마쿠라	-8007
▁be	-8008
▁음료	-8009
▁즈음	-8010
▁천도	-8011
▁장거리	-8012
▁안드레	-8013
▁시외버스	-8014
▁멋	-8015
선거	-8016
▁개미	-8017
▁빠졌	-8018
▁퍼센트	-8019
▁돌리	-8020
▁원했	-8021
▁이광	-8022
▁구호	-8023
▁대제	-8024
▁어울	-8025
▁리비아	-8026
▁끌려	-8027
▁장미	-8028
▁생산량	-8029
▁펌	-8030
기지	-8031
▁현금	-8032
내셔널	-8033
▁공의회	-8034
▁인터내셔널	-8035
▁그날	-8036
▁Part	-8037
▁To	-8038
▁입지	-8039
▁후방	-8040
▁114	-8041
도바	-8042
▁롤링	-8043
▁이글스	-8044
▁파이어	-8045
▁Pe	-8046
▁미션	-8047
▁전했	-8048
▁할지	-8049
▁해소	-8050
▁제수	-8051
▁증진	-8052
que	-8053
▁산다	-8054
케이션	-8055
▁김포	-8056
▁병행	-8057
▁GDP	-8058
▁기업인	-8059
▁스트레스	-8060
▁순회	-8061
▁카리브	-8062
▁AD	-8063
▁서정	-8064
▁에버	-8065
▁청원	-8066
▁조연	-8067
제리	-8068
▁한쪽	-8069
▁고치	-8070
▁링컨	-8071
▁배수	-8072
▁남서부	-8073
▁봉쇄	-8074
▁께서	-8075
▁환영	-8076
▁동래	-8077
▁의약	-8078
▁전념	-8079
▁룡	-8080
나리	-8081
▁냉각	-8082
▁광물	-8083
▁추세	-8084
▁모른다	-8085
▁황태자	-8086
▁재현	-8087
▁축적	-8088
▁달했	-8089
▁횟수	-8090
▁덤	-8091
리니	-8092
ald	-8093
▁장안	-8094
베니아	-8095
▁이사회	-8096
▁역설	-8097
▁다룬다	-8098
▁트위터	-8099
▁고인	-8100
▁시바	-8101
▁나스	-8102
▁백색	-8103
▁오세	-8104
▁일화	-8105
we	-8106
▁내보	-8107
▁시골	-8108
▁휴스턴	-8109
대신	-8110
▁닛폰	-8111
▁분당	-8112
▁탈당	-8113
▁마이너	-8114
치오	-8115
▁350	-8116
▁우라늄	-8117
▁치러진	-8118
▁Kore	-8119
▁슬로베니아	-8120
▁Gu	-8121
▁어원	-8122
▁스튜어트	-8123
▁서재	-8124
▁염기	-8125
▁호랑이	-8126
▁동상	-8127
▁되게	-8128
▁양주	-8129
▁나타낼	-8130
▁실리	-8131
데시	-8132
▁리우스	-8133
▁레일	-8134
▁한지	-8135
▁경연	-8136
▁리틀	-8137
▁교원	-8138
▁유죄	-8139
명사전	-8140
▁코믹스	-8141
바다	-8142
▁SE	-8143
▁고수	-8144
▁마력	-8145
▁자아	-8146
▁단식	-8147
▁빨간색	-8148
▁베드	-8149
▁위탁	-8150
중국	-8151
▁격퇴	-8152
▁내린	-8153
▁명제	-8154
▁지폐	-8155
▁궁극	-8156
▁리뷰	-8157
▁반감	-8158
▁누군가	-8159
IP	-8160
▁로열	-8161
▁입당	-8162
▁거론	-8163
릴라	-8164
페르	-8165
▁국사	-8166
▁유로파	-8167
은색	-8168
▁얘기	-8169
공신	-8170
글리	-8171
▁피에	-8172
▁col	-8173
어버	-8174
▁개그	-8175
▁당주	-8176
▁최상위	-8177
▁차종	-8178
▁오노	-8179
▁나주	-8180
▁무상	-8181
▁바닷	-8182
▁범인	-8183
▁속했	-8184
▁가장자리	-8185
ng	-8186
▁약자	-8187
▁말리	-8188
▁붙였	-8189
▁모니터	-8190
▁유니버	-8191
▁BC	-8192
▁시선	-8193
▁히메	-8194
sk	-8195
▁그루	-8196
▁레논	-8197
▁마블	-8198
▁벌금	-8199
▁갇	-8200
고쿠	-8201
▁신념	-8202
▁청하	-8203
▁Char	-8204
유행	-8205
▁애덤	-8206
me	-8207
▁향교	-8208
▁여당	-8209
▁잔류	-8210
▁그랑프리	-8211
▁대전광역시	-8212
누엘	-8213
▁다발	-8214
▁게르만	-8215
▁중성자	-8216
▁비잔티움	-8217
▁시칠리아	-8218
anc	-8219
▁지선	-8220
▁전라도	-8221
시피	-8222
▁영남	-8223
권자	-8224
▁가동	-8225
▁샘플	-8226
차기	-8227
▁설탕	-8228
▁실려	-8229
red	-8230
▁매달	-8231
▁시흥	-8232
▁여파	-8233
▁최악	-8234
회장	-8235
▁위쪽	-8236
▁다스리	-8237
▁브라우저	-8238
▁닷	-8239
▁나트	-8240
▁한족	-8241
▁효고	-8242
수리	-8243
▁단단	-8244
▁베스	-8245
▁왜냐	-8246
▁Dav	-8247
▁솟	-8248
▁성체	-8249
▁시가	-8250
rans	-8251
▁')	-8252
▁-)	-8253
▁너비	-8254
▁이에야스	-8255
AF	-8256
▁광학	-8257
▁몰아	-8258
▁시초	-8259
토모	-8260
▁나눌	-8261
래스카	-8262
▁갑작스	-8263
스틴	-8264
ict	-8265
▁AK	-8266
▁고소	-8267
▁사지	-8268
▁치아	-8269
▁호위	-8270
▁중추원	-8271
isc	-8272
▁대니	-8273
▁작센	-8274
▁주역	-8275
▁핸드	-8276
▁도장	-8277
▁Cor	-8278
▁차이점	-8279
▁규범	-8280
▁실전	-8281
▁브라더스	-8282
▁블라디미르	-8283
▁객체	-8284
▁상점	-8285
▁제갈	-8286
ject	-8287
▁다이아몬드	-8288
▁개원	-8289
▁극히	-8290
▁맥락	-8291
▁우위	-8292
블로	-8293
▁열정	-8294
▁Live	-8295
▁거행	-8296
▁낭만	-8297
▁확신	-8298
ower	-8299
▁햇	-8300
▁복선	-8301
▁아홉	-8302
▁펜실	-8303
▁풋볼	-8304
베이니아	-8305
▁공산주의자	-8306
▁펜실베이니아	-8307
▁뭉	-8308
▁이케	-8309
▁평의회	-8310
▁노부나가	-8311
▁신탁	-8312
▁플랜	-8313
타주	-8314
▁동점	-8315
▁SD	-8316
▁명령어	-8317
수소	-8318
포스	-8319
▁모이	-8320
▁오비	-8321
▁예시	-8322
▁제독	-8323
▁현저	-8324
드리아	-8325
▁정한	-8326
▁직면	-8327
▁관해서	-8328
타로	-8329
▁보인	-8330
▁유동	-8331
▁이산화	-8332
실록	-8333
▁가짜	-8334
▁오바	-8335
▁이긴	-8336
▁티스	-8337
▁어휘	-8338
▁누가	-8339
▁상공	-8340
▁상단	-8341
▁실장	-8342
란히	-8343
▁바리	-8344
그레이드	-8345
▁솜	-8346
거진	-8347
▁가죽	-8348
▁아벨	-8349
▁해밀	-8350
▁후사	-8351
▁클라우드	-8352
▁순교	-8353
▁입상	-8354
▁적당	-8355
▁침투	-8356
▁테이블	-8357
▁흔한	-8358
▁견제	-8359
▁수습	-8360
▁억압	-8361
▁업그레이드	-8362
▁나비	-8363
▁주주	-8364
▁해적	-8365
승지	-8366
▁김기	-8367
▁한스	-8368
니카	-8369
▁더글	-8370
▁방송사	-8371
▁도루	-8372
▁척추	-8373
▁트래	-8374
푸르트	-8375
▁다크	-8376
▁매입	-8377
▁사헌	-8378
▁친일인	-8379
▁친일인명사전	-8380
▁운하	-8381
▁테이프	-8382
▁pr	-8383
▁결선	-8384
▁구도	-8385
▁IBM	-8386
▁드문	-8387
▁못할	-8388
▁토모	-8389
▁is	-8390
▁감리	-8391
느러미	-8392
▁누나	-8393
▁마디	-8394
▁사육	-8395
▁스톡	-8396
▁토성	-8397
▁Don	-8398
▁들어간다	-8399
▁Sm	-8400
▁차장	-8401
▁충주	-8402
▁칭찬	-8403
▁131	-8404
▁맵	-8405
▁조종사	-8406
규모	-8407
▁부제	-8408
lect	-8409
▁with	-8410
타고	-8411
▁기질	-8412
▁비시	-8413
▁평원	-8414
▁평택	-8415
▁새겨져	-8416
야시	-8417
양함	-8418
▁언니	-8419
▁연쇄	-8420
▁워드	-8421
▁딕	-8422
▁1871	-8423
ble	-8424
▁산란	-8425
▁이세	-8426
▁입원	-8427
▁덧붙여	-8428
▁상반	-8429
▁받아들였	-8430
▁이관	-8431
▁국무총리	-8432
▁육체	-8433
▁통틀	-8434
▁플라이	-8435
마쓰	-8436
▁거북	-8437
▁뒷면	-8438
▁폭동	-8439
▁힘입	-8440
보기	-8441
승부	-8442
▁변이	-8443
▁아예	-8444
▁영의정	-8445
▁모았	-8446
▁비자	-8447
▁백화점	-8448
▁그동안	-8449
▁구릉	-8450
▁깨닫	-8451
▁행적	-8452
브리지	-8453
▁프랑수아	-8454
▁거쳤	-8455
▁관해	-8456
▁뜨거운	-8457
▁결함	-8458
▁대피	-8459
▁서진	-8460
▁Ind	-8461
▁SU	-8462
▁곡인	-8463
▁멜로디	-8464
▁별다른	-8465
아스	-8466
▁존속	-8467
▁주름	-8468
▁반도체	-8469
▁첼시	-8470
자치도	-8471
▁베어스	-8472
▁프로덕	-8473
▁제주특별	-8474
▁제주특별자치도	-8475
▁시뮬	-8476
▁사헌부	-8477
LS	-8478
▁고장	-8479
▁데모	-8480
▁소셜	-8481
▁늘어났	-8482
▁CR	-8483
▁춘추	-8484
▁라이브러리	-8485
MI	-8486
▁요하	-8487
▁하워드	-8488
▁통치자	-8489
▁희생자	-8490
▁문화방송	-8491
▁경관	-8492
▁특집	-8493
▁플랫폼	-8494
마드	-8495
아이	-8496
▁극동	-8497
▁성사	-8498
▁한인	-8499
▁쳤	-8500
▁임용	-8501
▁제재	-8502
▁히사	-8503
▁116	-8504
박쥐	-8505
▁빈곤	-8506
▁문구	-8507
▁상용	-8508
▁야쿠	-8509
▁키프로스	-8510
은이	-8511
▁Fe	-8512
▁Ke	-8513
▁근교	-8514
기업	-8515
▁CN	-8516
▁오해	-8517
▁War	-8518
▁다니엘	-8519
uro	-8520
▁우유	-8521
▁염색체	-8522
▁로이	-8523
▁페르디	-8524
▁므	-8525
▁구출	-8526
▁실체	-8527
▁화해	-8528
▁헥	-8529
▁보석	-8530
▁파인	-8531
ott	-8532
▁누이	-8533
▁무어	-8534
▁바스	-8535
▁고고학	-8536
▁블로그	-8537
▁왜냐하면	-8538
▁EU	-8539
▁수색	-8540
▁터치	-8541
▁CF	-8542
▁대표작	-8543
▁대학생	-8544
▁바른	-8545
▁이소	-8546
▁Em	-8547
▁거울	-8548
▁결코	-8549
▁느껴	-8550
▁비유	-8551
▁이화	-8552
▁과반	-8553
▁신주	-8554
▁을지	-8555
ail	-8556
lex	-8557
▁공천	-8558
▁담긴	-8559
▁리프	-8560
▁표적	-8561
▁태양계	-8562
▁공습	-8563
▁중합	-8564
▁할머니	-8565
법인	-8566
▁이윤	-8567
▁그만두	-8568
▁오프닝	-8569
▁일리노	-8570
▁1885	-8571
타나	-8572
▁관절	-8573
▁소규모	-8574
▁만남	-8575
▁세속	-8576
▁원숭이	-8577
irl	-8578
▁개종	-8579
▁양측	-8580
▁조부	-8581
▁하프	-8582
▁일리노이	-8583
▁황실	-8584
▁끄	-8585
▁눌	-8586
살이	-8587
▁국소	-8588
▁사업자	-8589
▁야구장	-8590
▁시베리아	-8591
▁재선	-8592
▁전년	-8593
▁우승자	-8594
조부	-8595
ank	-8596
▁IM	-8597
▁구해	-8598
▁노바	-8599
▁헤비	-8600
▁부당	-8601
▁키르	-8602
▁발라	-8603
시타	-8604
▁파란색	-8605
▁벵	-8606
▁종착	-8607
▁해고	-8608
HO	-8609
더슨	-8610
▁글루	-8611
▁사모	-8612
▁포럼	-8613
▁후궁	-8614
▁1880	-8615
▁날씨	-8616
▁포터	-8617
▁매니저	-8618
▁러시아어	-8619
비나	-8620
▁남원	-8621
▁신조	-8622
▁요건	-8623
▁응원	-8624
▁라이언	-8625
하시	-8626
▁성운	-8627
▁Ass	-8628
gh	-8629
백과	-8630
▁철회	-8631
▁횡단	-8632
▁타이거즈	-8633
대기	-8634
▁제프	-8635
▁게스트	-8636
▁군청	-8637
▁아부	-8638
▁천장	-8639
▁협박	-8640
▁돋	-8641
▁가축	-8642
▁뒤집	-8643
▁소원	-8644
▁모로코	-8645
리케인	-8646
▁분명히	-8647
▁신한	-8648
▁Day	-8649
▁Her	-8650
▁몬스터	-8651
▁창원시	-8652
▁그냥	-8653
▁빠진	-8654
▁Art	-8655
▁레바논	-8656
▁물리치	-8657
▁허리케인	-8658
▁킥	-8659
▁다항	-8660
▁왜곡	-8661
▁근원	-8662
▁기적	-8663
▁송시	-8664
▁칼라	-8665
▁굉장히	-8666
▁파이널	-8667
람쥐	-8668
▁신시	-8669
▁스트리	-8670
▁화장실	-8671
▁GP	-8672
▁증대	-8673
▁몰래	-8674
▁팔라	-8675
▁con	-8676
▁삼성전자	-8677
끼리	-8678
▁트윈스	-8679
바시	-8680
▁미라	-8681
▁바나	-8682
▁상표	-8683
▁처녀	-8684
▁키우	-8685
▁왔으며	-8686
▁릉	-8687
▁독일인	-8688
▁아미타	-8689
▁외야수	-8690
▁구와	-8691
▁심해	-8692
▁따른다	-8693
▁드로	-8694
▁생겨났	-8695
▁개교	-8696
▁케냐	-8697
▁계정	-8698
▁미세	-8699
▁용병	-8700
▁컴파	-8701
▁살아가	-8702
▁빌려	-8703
▁탐색	-8704
▁원로원	-8705
무스	-8706
▁나눠	-8707
▁담겨	-8708
▁맥주	-8709
▁몰리	-8710
▁스캔	-8711
▁여래	-8712
▁힘든	-8713
프레스	-8714
▁오피스	-8715
▁네이션스	-8716
▁대폭	-8717
▁공단	-8718
▁공수	-8719
▁교황청	-8720
urn	-8721
▁네스	-8722
▁진급	-8723
▁프로덕션	-8724
▁시위대	-8725
▁비르	-8726
▁브로드	-8727
ola	-8728
▁선비	-8729
▁인체	-8730
▁엿	-8731
▁보위	-8732
베르토	-8733
▁페르난	-8734
▁지평	-8735
▁알제리	-8736
▁신민	-8737
▁유저	-8738
▁루이지	-8739
▁물려받	-8740
▁아인슈타인	-8741
▁National	-8742
▁공백	-8743
▁타당	-8744
▁동아일보	-8745
▁요정	-8746
▁욕구	-8747
▁허위	-8748
▁희곡	-8749
▁신선	-8750
▁일방	-8751
▁드러났	-8752
▁스위치	-8753
▁가루	-8754
▁즉각	-8755
▁흔하	-8756
▁왕복	-8757
▁Gl	-8758
▁구절	-8759
▁미키	-8760
▁효종	-8761
OL	-8762
▁경신	-8763
▁극심	-8764
▁김경	-8765
▁안성	-8766
▁일가	-8767
▁춘천	-8768
▁투옥	-8769
▁폭행	-8770
▁주어지	-8771
▁니콜라	-8772
be	-8773
▁릿	-8774
▁공익	-8775
▁우호	-8776
fer	-8777
▁묘역	-8778
▁바우	-8779
▁주가	-8780
▁내려오	-8781
▁위키백과	-8782
▁리우	-8783
▁수축	-8784
▁경상도	-8785
▁찾아볼	-8786
▁라이너	-8787
▁이어진	-8788
▁Mo	-8789
▁미르	-8790
▁시어	-8791
▁뉴욕주	-8792
▁법무부	-8793
▁최대한	-8794
▁1860	-8795
▁둔다	-8796
▁힌두교	-8797
▁캉	-8798
▁오오	-8799
▁인문	-8800
▁GT	-8801
▁만성	-8802
▁민회	-8803
▁진공	-8804
▁체스	-8805
▁Res	-8806
▁무승부	-8807
▁아레나	-8808
▁1889	-8809
▁붐	-8810
▁거제	-8811
▁지미	-8812
▁촉매	-8813
▁필터	-8814
타리오	-8815
▁종로구	-8816
▁수련	-8817
▁사쿠라	-8818
▁줄무늬	-8819
▁부딪	-8820
▁마야	-8821
▁붙인	-8822
▁살리	-8823
▁드러머	-8824
위원	-8825
▁As	-8826
▁1800	-8827
II	-8828
▁동문	-8829
▁빙하	-8830
▁치안	-8831
▁일반인	-8832
▁교정	-8833
▁자택	-8834
port	-8835
▁더니	-8836
▁수법	-8837
▁발리	-8838
▁친일파	-8839
▁오사카부	-8840
산동	-8841
▁라오스	-8842
▁분기점	-8843
▁전자기	-8844
도리	-8845
▁뒤쪽	-8846
▁헤라	-8847
▁203	-8848
▁Can	-8849
▁연합회	-8850
▁유치원	-8851
▁조선일보	-8852
하키	-8853
▁승계	-8854
▁캐시	-8855
▁테레	-8856
▁느꼈	-8857
고래	-8858
eng	-8859
▁만일	-8860
▁컨셉	-8861
갈색	-8862
▁가군	-8863
▁김현	-8864
▁발병	-8865
▁세라	-8866
▁사이타	-8867
ler	-8868
▁탐사선	-8869
▁믹	-8870
▁희귀	-8871
▁교과서	-8872
▁곤란	-8873
▁카미	-8874
▁팔리	-8875
▁CON	-8876
▁제대	-8877
▁흠	-8878
▁나르	-8879
▁문예	-8880
▁풍자	-8881
▁흔들	-8882
▁sc	-8883
▁구이	-8884
▁봉건	-8885
▁포병	-8886
연합	-8887
▁무지	-8888
▁보트	-8889
▁이빨	-8890
▁후속작	-8891
▁디렉	-8892
▁만료	-8893
▁메커	-8894
▁종속	-8895
▁경찰청	-8896
▁Fl	-8897
▁se	-8898
▁동국	-8899
▁모친	-8900
▁센티	-8901
▁자음	-8902
▁증손	-8903
▁카롤	-8904
▁택시	-8905
▁Per	-8906
yc	-8907
▁GS	-8908
▁로그	-8909
▁성도	-8910
▁야마토	-8911
▁먼지	-8912
▁적분	-8913
▁뒷받침	-8914
▁발급	-8915
▁엔딩	-8916
▁지침	-8917
▁플러스	-8918
코딩	-8919
▁띤다	-8920
▁무성	-8921
▁화자	-8922
▁양키스	-8923
▁HT	-8924
나스	-8925
▁일컬	-8926
▁카를로스	-8927
린스	-8928
▁상해	-8929
▁목판	-8930
▁자선	-8931
▁초록	-8932
▁1870	-8933
포드	-8934
▁감자	-8935
▁냉전	-8936
▁말씀	-8937
▁웹툰	-8938
▁이남	-8939
▁방송인	-8940
▁그치	-8941
▁예고	-8942
▁우측	-8943
▁프랑크푸르트	-8944
▁성문	-8945
▁오크	-8946
▁판본	-8947
▁괴물	-8948
▁신약	-8949
ater	-8950
▁보증	-8951
▁이경	-8952
▁조세	-8953
▁지출	-8954
▁공민왕	-8955
▁승부차기	-8956
레기	-8957
셰비	-8958
▁영문	-8959
▁체크	-8960
▁학계	-8961
▁제압	-8962
▁팡	-8963
▁아랫	-8964
▁Dr	-8965
▁ID	-8966
▁나올	-8967
▁용이	-8968
조건	-8969
▁Fr	-8970
▁극작	-8971
▁채워	-8972
▁초월	-8973
▁박람회	-8974
바닥	-8975
올라	-8976
▁우파	-8977
▁캔자스	-8978
저지	-8979
▁핑크	-8980
▁간단히	-8981
▁발렌시아	-8982
oup	-8983
▁기각	-8984
▁리라	-8985
▁부피	-8986
▁이준	-8987
▁아래쪽	-8988
곡리	-8989
다지	-8990
속기	-8991
▁he	-8992
▁연합국	-8993
▁아카데미상	-8994
▁요동	-8995
▁들어온	-8996
▁체코슬로	-8997
▁체코슬로바키아	-8998
ins	-8999
▁승자	-9000
▁유년	-9001
▁해명	-9002
▁가나가와현	-9003
▁비리	-9004
▁태권	-9005
ican	-9006
▁알루미	-9007
▁사본	-9008
▁메커니즘	-9009
▁플라스틱	-9010
▁Black	-9011
▁단절	-9012
테르부르크	-9013
▁유방	-9014
▁혼동	-9015
스테	-9016
ual	-9017
▁기다	-9018
▁소관	-9019
▁키보드	-9020
▁각도	-9021
▁둥지	-9022
▁슈팅	-9023
▁Colle	-9024
▁구축함	-9025
롤라이나	-9026
▁sh	-9027
▁상사	-9028
▁뉴저지	-9029
단체	-9030
미사	-9031
▁물품	-9032
▁생략	-9033
▁호른	-9034
▁부여받	-9035
▁송시열	-9036
▁탤런트	-9037
▁핵무기	-9038
▁엥	-9039
▁우즈베	-9040
▁퐁	-9041
▁에미	-9042
▁파산	-9043
▁펠리	-9044
▁게이지	-9045
브레	-9046
▁강서	-9047
▁대거	-9048
▁염증	-9049
ings	-9050
▁른	-9051
▁기증	-9052
▁Pet	-9053
▁이드	-9054
▁이브	-9055
▁일생	-9056
▁도마뱀붙이	-9057
▁블랙홀	-9058
리안	-9059
▁대명	-9060
▁어렸	-9061
▁저주	-9062
▁나눈	-9063
치기	-9064
▁늘리	-9065
▁정주	-9066
▁브리지	-9067
▁220	-9068
톨레	-9069
▁갈래	-9070
▁Rec	-9071
▁크레이	-9072
▁School	-9073
▁관세	-9074
▁올라간다	-9075
▁이탈리아어	-9076
▁{	-9077
블리	-9078
▁고산	-9079
▁외모	-9080
▁코스타	-9081
▁합스부르크	-9082
▁학업	-9083
퍼런스	-9084
▁자연수	-9085
▁드라이버	-9086
uk	-9087
의장	-9088
헤이	-9089
▁ES	-9090
▁IN	-9091
▁돌격	-9092
▁스칼	-9093
덩이	-9094
마루	-9095
▁로우	-9096
▁공감	-9097
타니	-9098
▁온타리오	-9099
▁그래미	-9100
▁끌어들	-9101
▁날아	-9102
▁아담	-9103
▁카우	-9104
▁AG	-9105
▁자비	-9106
▁적도	-9107
▁퍼스	-9108
▁방사선	-9109
타리	-9110
▁사위	-9111
▁오라	-9112
▁혜택	-9113
▁퍼지	-9114
▁미생물	-9115
▁사상자	-9116
▁Mc	-9117
▁이순신	-9118
▁라이온즈	-9119
▁배후	-9120
▁달한다	-9121
▁아이오	-9122
▁at	-9123
▁생체	-9124
▁계열사	-9125
▁바오로	-9126
▁플래시	-9127
▁확실히	-9128
▁옆면	-9129
bo	-9130
▁도청	-9131
▁레온	-9132
able	-9133
▁경찰관	-9134
▁세이브	-9135
▁="	-9136
▁브뤼	-9137
▁비로소	-9138
개골	-9139
▁구경	-9140
▁프론	-9141
▁필사	-9142
form	-9143
▁검찰청	-9144
▁1868	-9145
러드	-9146
화물	-9147
▁이끈	-9148
▁입국	-9149
▁청춘	-9150
먼스	-9151
▁un	-9152
▁가드	-9153
▁관구	-9154
▁예조	-9155
▁원종	-9156
▁어려워	-9157
▁종점	-9158
▁축출	-9159
▁쾌속	-9160
▁밀집	-9161
▁서신	-9162
▁Rock	-9163
▁킴	-9164
ode	-9165
대원군	-9166
▁Mag	-9167
▁금요일	-9168
▁커뮤니케이션	-9169
▁수분	-9170
▁징계	-9171
▁요르단	-9172
▁총독부	-9173
▁트로이	-9174
▁깎	-9175
짓점	-9176
▁국영	-9177
▁내정	-9178
▁동행	-9179
▁폭포	-9180
▁장례식	-9181
ma	-9182
▁날카	-9183
▁레즈	-9184
▁통보	-9185
▁꼭짓점	-9186
▁필리프	-9187
▁BS	-9188
▁걸렸	-9189
교도	-9190
츠크	-9191
ini	-9192
▁군정	-9193
▁군중	-9194
▁내주	-9195
▁답변	-9196
▁워터	-9197
▁헬리	-9198
▁대변인	-9199
▁아리아	-9200
▁럼	-9201
▁CJ	-9202
▁숙청	-9203
▁어긋	-9204
▁일으킬	-9205
▁툰	-9206
▁감마	-9207
▁학기	-9208
na	-9209
▁민감	-9210
▁은데	-9211
▁바깥쪽	-9212
줄기	-9213
▁이타	-9214
▁가벼운	-9215
▁개인전	-9216
▁맘	-9217
▁컷	-9218
로이	-9219
▁공방	-9220
▁미루	-9221
▁바꾼	-9222
ner	-9223
▁갱신	-9224
▁카디	-9225
▁벽돌	-9226
▁진사	-9227
▁월요일	-9228
하루	-9229
▁고성	-9230
▁미노	-9231
▁소시	-9232
▁실망	-9233
▁정세	-9234
▁케임	-9235
▁의약품	-9236
▁클라이	-9237
▁맑	-9238
oss	-9239
▁동정	-9240
▁역량	-9241
inc	-9242
파이어	-9243
▁재상	-9244
▁시가지	-9245
레아	-9246
▁개소	-9247
▁볼프	-9248
▁익스프레스	-9249
▁닦	-9250
▁광둥	-9251
▁대부	-9252
▁토양	-9253
▁가신	-9254
▁서초	-9255
▁알루미늄	-9256
드르	-9257
▁성단	-9258
▁원천	-9259
문트	-9260
▁끼쳤	-9261
▁뇌물	-9262
▁반해	-9263
▁어른	-9264
▁체조	-9265
▁카카	-9266
▁하고	-9267
축구	-9268
▁남작	-9269
▁부설	-9270
▁중복	-9271
▁퇴임	-9272
▁공조	-9273
▁차가	-9274
▁천재	-9275
▁커지	-9276
▁퇴적	-9277
▁평정	-9278
▁따온	-9279
▁원본	-9280
▁황족	-9281
카가	-9282
vel	-9283
▁고쳐	-9284
▁공명	-9285
▁기니	-9286
▁헌정	-9287
▁화강	-9288
▁대서양	-9289
▁총사령	-9290
ution	-9291
▁소모	-9292
▁폭넓	-9293
▁기사단	-9294
▁맏	-9295
샤바	-9296
▁총칭	-9297
IG	-9298
▁마르티	-9299
▁창출	-9300
▁바티칸	-9301
▁구할	-9302
▁서자	-9303
▁연승	-9304
프레	-9305
▁게리	-9306
▁베니	-9307
▁호출	-9308
▁Ant	-9309
▁젊은이	-9310
▁프란츠	-9311
일으	-9312
▁김규	-9313
▁한테	-9314
▁불러일으	-9315
ett	-9316
▁암흑	-9317
▁중형	-9318
▁헬기	-9319
지스	-9320
▁본국	-9321
▁였음	-9322
▁워크	-9323
▁최강	-9324
▁Inst	-9325
▁방화	-9326
▁적혀	-9327
▁지인	-9328
▁김정일	-9329
▁안토니오	-9330
지붕	-9331
▁부스	-9332
▁첨단	-9333
▁대의원	-9334
변이	-9335
▁옹립	-9336
▁돌연변이	-9337
▁단축	-9338
▁양호	-9339
▁제인	-9340
▁하르	-9341
▁살펴보	-9342
▁오리콘	-9343
▁William	-9344
▁대출	-9345
▁매매	-9346
▁선행	-9347
▁아미노산	-9348
▁권장	-9349
▁크리스토퍼	-9350
▁남구	-9351
▁선도	-9352
▁속편	-9353
▁콕	-9354
닐라	-9355
▁이단	-9356
▁반지름	-9357
▁베네딕	-9358
▁성리학	-9359
크라	-9360
▁관제	-9361
▁재혼	-9362
▁연예인	-9363
▁웨스턴	-9364
진군	-9365
ole	-9366
▁Cr	-9367
▁대합	-9368
▁유라	-9369
▁자오	-9370
▁조립	-9371
▁아키타	-9372
▁제로	-9373
▁질소	-9374
▁민간인	-9375
렉스	-9376
▁갈릴	-9377
▁빌라	-9378
▁체류	-9379
▁티코	-9380
▁1883	-9381
▁구스	-9382
▁토미	-9383
▁윤치호	-9384
▁기슭	-9385
▁덮여	-9386
▁인명	-9387
▁1600	-9388
▁아시카가	-9389
uck	-9390
▁선배	-9391
▁악단	-9392
▁국내외	-9393
▁땄	-9394
▁JT	-9395
▁설교	-9396
▁유체	-9397
idae	-9398
▁두개골	-9399
▁스즈키	-9400
▁렐	-9401
카타	-9402
▁MB	-9403
▁제니	-9404
▁피오	-9405
▁"),	-9406
▁부작용	-9407
▁타임스	-9408
군다	-9409
▁어미	-9410
▁채소	-9411
▁기술자	-9412
▁Time	-9413
브르	-9414
▁뉴턴	-9415
▁원전	-9416
▁취업	-9417
▁들어갈	-9418
▁어류	-9419
▁컴백	-9420
▁종래	-9421
▁지옥	-9422
▁복합체	-9423
▁강희	-9424
▁추론	-9425
▁마운트	-9426
▁데르	-9427
▁사이토	-9428
▁청주시	-9429
▁강간	-9430
▁전속	-9431
▁터보	-9432
▁호르몬	-9433
▁슨	-9434
▁남미	-9435
▁독성	-9436
▁로비	-9437
▁삼촌	-9438
▁우회	-9439
▁특권	-9440
▁`	-9441
▁권총	-9442
▁외관	-9443
▁패널	-9444
▁스리랑카	-9445
▁병기	-9446
우트	-9447
▁--	-9448
▁괴롭	-9449
▁말미	-9450
▁연이	-9451
▁왕세	-9452
셰비키	-9453
▁사회당	-9454
보르	-9455
▁따왔	-9456
▁결핍	-9457
▁대패	-9458
▁던져	-9459
▁모서리	-9460
▁잃어버	-9461
▁비주	-9462
▁절단	-9463
▁포획	-9464
▁갈리아	-9465
마이오스	-9466
▁꿀	-9467
▁륙	-9468
▁구청	-9469
▁이겼	-9470
▁Life	-9471
▁공적	-9472
▁밝기	-9473
▁GO	-9474
▁복용	-9475
▁비타	-9476
▁안테	-9477
▁지우	-9478
▁매카트니	-9479
퀘어	-9480
▁직경	-9481
▁야마구치	-9482
두리	-9483
▁면제	-9484
▁본문	-9485
▁서류	-9486
▁페널	-9487
▁헌신	-9488
▁간선	-9489
▁시코	-9490
아웃	-9491
▁시범	-9492
▁회상	-9493
▁코끼리	-9494
ike	-9495
▁앵글	-9496
▁중산	-9497
▁1888	-9498
ane	-9499
▁통영	-9500
▁하단	-9501
▁머무르	-9502
▁옳	-9503
▁형조	-9504
▁Med	-9505
▁장기간	-9506
▁밍	-9507
▁빔	-9508
▁얽	-9509
▁광대	-9510
▁니코	-9511
▁양반	-9512
▁자작	-9513
▁페니	-9514
▁개막전	-9515
▁패밀리	-9516
▁동성애자	-9517
▁짱	-9518
황후	-9519
▁그랜	-9520
▁패했	-9521
▁스크립	-9522
▁폭격기	-9523
▁러시	-9524
▁수확	-9525
▁패한	-9526
▁피신	-9527
▁혐오	-9528
야마현	-9529
▁당한다	-9530
▁도카이	-9531
글라	-9532
▁코카	-9533
▁구스타	-9534
sch	-9535
▁러셀	-9536
▁고트	-9537
▁곡물	-9538
▁예하	-9539
▁주부	-9540
▁주조	-9541
▁중생	-9542
▁분량	-9543
▁서유럽	-9544
▁셨	-9545
▁감행	-9546
▁돌기	-9547
▁에밀	-9548
▁정적	-9549
▁커널	-9550
▁화상	-9551
▁거주지	-9552
▁영국인	-9553
▁일렉트로	-9554
▁연봉	-9555
▁토끼	-9556
▁모리스	-9557
▁신원	-9558
▁사업가	-9559
▁1893	-9560
벤처	-9561
벨트	-9562
▁Of	-9563
▁동조	-9564
▁세비	-9565
▁이용자	-9566
▁지식인	-9567
▁어드벤처	-9568
기스	-9569
▁ph	-9570
▁봉안	-9571
사이드	-9572
▁아리스토	-9573
카미	-9574
포로	-9575
▁강변	-9576
▁끊임없이	-9577
▁예명	-9578
▁장벽	-9579
▁갈수록	-9580
▁그레고	-9581
▁케임브리지	-9582
쟁이	-9583
▁가야	-9584
▁들이	-9585
▁바빌	-9586
▁부를	-9587
▁홈구장	-9588
▁극한	-9589
▁김지	-9590
▁스턴	-9591
▁CEO	-9592
▁마스크	-9593
▁미하일	-9594
렉션	-9595
▁가까워	-9596
▁고양시	-9597
▁1882	-9598
▁얹	-9599
구르	-9600
▁농림	-9601
▁싸이	-9602
타이드	-9603
▁Robert	-9604
번스	-9605
▁앞쪽	-9606
ital	-9607
ony	-9608
▁두께	-9609
▁등기	-9610
▁산출	-9611
▁상트	-9612
▁스폰	-9613
▁유진	-9614
▁항쟁	-9615
스토랑	-9616
▁레스토랑	-9617
▁옥스퍼드	-9618
▁가옥	-9619
▁깃발	-9620
▁독서	-9621
tr	-9622
▁격자	-9623
▁중령	-9624
▁고속도	-9625
▁1892	-9626
▁미시시피	-9627
▁격차	-9628
▁소생	-9629
▁전방	-9630
▁채우	-9631
▁하리	-9632
니까	-9633
▁겁	-9634
레타	-9635
▁왼손	-9636
▁조수	-9637
▁보이스	-9638
▁나우	-9639
▁부가	-9640
▁간토	-9641
▁남매	-9642
▁함정	-9643
▁회관	-9644
▁와일드	-9645
af	-9646
그라	-9647
▁빈도	-9648
▁아이스하키	-9649
▁가가	-9650
▁전위	-9651
▁카사	-9652
▁퇴역	-9653
IL	-9654
RO	-9655
de	-9656
▁CM	-9657
▁검출	-9658
▁사간	-9659
▁상금	-9660
▁설화	-9661
▁숙주	-9662
▁전구	-9663
▁설립자	-9664
▁지도부	-9665
나미	-9666
▁건륭	-9667
▁천문대	-9668
▁포켓몬스터	-9669
▁발령	-9670
▁전염병	-9671
▁렘	-9672
▁대손	-9673
▁토시	-9674
타임	-9675
파르	-9676
▁미들	-9677
▁이현	-9678
▁체중	-9679
▁태극	-9680
▁사이타마현	-9681
▁기숙	-9682
▁리터	-9683
▁의자	-9684
▁자르	-9685
▁제치	-9686
▁히타	-9687
▁부회장	-9688
▁히로시	-9689
▁나갈	-9690
▁반군	-9691
▁성폭	-9692
▁꼭대기	-9693
▁제조업	-9694
틱스	-9695
▁농경	-9696
▁벨트	-9697
▁불신	-9698
▁서장	-9699
시즘	-9700
ven	-9701
▁범유행	-9702
▁지바현	-9703
▁대웅	-9704
▁응시	-9705
▁초원	-9706
▁세이부	-9707
▁겐지	-9708
▁마녀	-9709
▁임관	-9710
▁하동	-9711
▁화력	-9712
▁프톨레	-9713
▁효고현	-9714
▁프톨레마이오스	-9715
아일랜드	-9716
▁쿄	-9717
▁커스	-9718
▁코시	-9719
노미야	-9720
▁시네	-9721
▁입성	-9722
▁비행장	-9723
▁NE	-9724
▁나노	-9725
▁잡혀	-9726
▁피고인	-9727
▁습지	-9728
▁작물	-9729
▁이바라	-9730
디나	-9731
▁하비	-9732
▁슬라브	-9733
ral	-9734
▁기분	-9735
▁대치	-9736
▁보복	-9737
▁좌측	-9738
▁코코	-9739
▁하차	-9740
로우	-9741
▁서민	-9742
▁차르	-9743
▁참의	-9744
▁아폴로	-9745
▁해진다	-9746
개미	-9747
▁농부	-9748
▁보헤	-9749
▁남동생	-9750
▁소령	-9751
▁아치	-9752
▁임원	-9753
▁켈리	-9754
▁경작	-9755
▁우체	-9756
▁체력	-9757
▁케빈	-9758
▁아돌프	-9759
▁MHz	-9760
RA	-9761
산맥	-9762
히코	-9763
▁동형	-9764
▁사슴	-9765
테르담	-9766
omys	-9767
▁정해진	-9768
▁극대	-9769
▁뮤지션	-9770
▁카타르	-9771
▁각색	-9772
▁느리	-9773
▁퉁	-9774
▁난징	-9775
▁다름	-9776
▁섹스	-9777
▁열도	-9778
▁막시	-9779
▁연꽃	-9780
▁인질	-9781
▁즐겨	-9782
▁해밀턴	-9783
▁어둠	-9784
▁감수	-9785
▁고아	-9786
▁기저	-9787
▁정동	-9788
▁거래소	-9789
▁아마존	-9790
▁러시아군	-9791
▁광주광역시	-9792
▁Wal	-9793
▁히어로즈	-9794
FL	-9795
▁LP	-9796
▁검열	-9797
▁정변	-9798
▁주된	-9799
▁모티브	-9800
▁포스터	-9801
▁몫	-9802
▁초신	-9803
▁학대	-9804
▁전시회	-9805
▁점성술	-9806
ana	-9807
▁쌓았	-9808
▁축물	-9809
▁System	-9810
▁NAS	-9811
EL	-9812
▁동네	-9813
▁매수	-9814
▁자크	-9815
▁표방	-9816
▁Mon	-9817
▁개화	-9818
▁불꽃	-9819
▁솔루션	-9820
방송공사	-9821
캐롤라이나	-9822
▁그릇	-9823
▁세네	-9824
▁웬	-9825
▁구형	-9826
▁서문	-9827
▁야시	-9828
▁회피	-9829
▁분수	-9830
▁퀘벡	-9831
▁소나무	-9832
▁교대	-9833
▁정성	-9834
ouse	-9835
▁알렉산드르	-9836
▁me	-9837
▁견인	-9838
▁교량	-9839
▁룩셈	-9840
▁마키	-9841
▁발기	-9842
▁해부	-9843
▁연대기	-9844
▁연산군	-9845
▁대구광역시	-9846
▁룩셈부르크	-9847
▁북아프리카	-9848
▁루카	-9849
▁요약	-9850
▁방글라	-9851
▁경제학자	-9852
▁방글라데시	-9853
▁썬	-9854
ino	-9855
▁선동	-9856
▁입각	-9857
▁하치	-9858
▁삿포로	-9859
▁도요토미	-9860
▁땃	-9861
ors	-9862
▁레슬링	-9863
▁언어학	-9864
▁Night	-9865
▁가려	-9866
▁기르	-9867
▁둥글	-9868
▁루타	-9869
▁무함	-9870
▁타케	-9871
▁미야기	-9872
▁브리튼	-9873
▁비석	-9874
레슬링	-9875
▁상트페	-9876
▁인프라	-9877
▁상트페테르부르크	-9878
▁냄새	-9879
▁정화	-9880
▁그다지	-9881
▁더욱이	-9882
다고	-9883
역학	-9884
▁이우	-9885
▁푸르	-9886
▁KIA	-9887
그룹	-9888
폴리	-9889
▁AN	-9890
▁소말	-9891
▁Tra	-9892
▁USS	-9893
▁시뮬레이션	-9894
▁광부	-9895
▁로저	-9896
▁호모	-9897
▁부의장	-9898
▁페널티	-9899
▁색채	-9900
▁트리플	-9901
대장	-9902
▁손꼽	-9903
▁드레스	-9904
함수	-9905
▁리조	-9906
▁의결	-9907
▁스퀘어	-9908
▁연산자	-9909
▁낫	-9910
▁에콰	-9911
▁소방서	-9912
▁소수자	-9913
▁에콰도르	-9914
▁운수	-9915
▁토기	-9916
▁프로레슬링	-9917
▁감안	-9918
▁불린	-9919
▁시킴	-9920
▁오를	-9921
▁추첨	-9922
▁THE	-9923
▁관광지	-9924
▁페르디난	-9925
펜하	-9926
▁Do	-9927
▁러스	-9928
▁수년	-9929
▁오쿠	-9930
▁제국주의	-9931
링턴	-9932
세기	-9933
▁노이	-9934
▁석회	-9935
▁정립	-9936
▁피겨	-9937
inal	-9938
지르	-9939
피어	-9940
▁어려서	-9941
▁유닉스	-9942
▁표기법	-9943
▁Music	-9944
그리	-9945
let	-9946
▁가역	-9947
▁애칭	-9948
▁파이터	-9949
▁파우	-9950
▁Bro	-9951
▁울산광역시	-9952
▁Jo	-9953
▁이병	-9954
베트남	-9955
▁레이더	-9956
루냐	-9957
▁두꺼	-9958
▁모은	-9959
▁원료	-9960
▁잘라	-9961
▁엇	-9962
rop	-9963
▁침체	-9964
▁교도소	-9965
▁미네소	-9966
▁버클리	-9967
▁김창	-9968
▁분출	-9969
▁정문	-9970
▁함선	-9971
▁부드러운	-9972
부리	-9973
▁EX	-9974
▁염소	-9975
▁바이킹	-9976
▁챌린지	-9977
▁아라비아	-9978
▁공리	-9979
▁실무	-9980
▁휴가	-9981
▁450	-9982
▁우루스	-9983
▁찰리	-9984
▁코믹	-9985
라이어	-9986
▁트로피	-9987
▁LA	-9988
▁울프	-9989
▁바르샤바	-9990
▁국보	-9991
▁군함	-9992
▁저렴	-9993
▁으려고	-9994
chn	-9995
▁일산	-9996
▁쯔	-9997
▁맥도	-9998
▁모모	-9999
▁벌인	-10000
▁직결	-10001
▁상응	-10002
▁태그	-10003
▁거짓말	-10004
자르	-10005
▁LC	-10006
▁경성부	-10007
▁파라과이	-10008
▁음향	-10009
▁청산	-10010
▁그레이트	-10011
▁일러스트	-10012
▁크리스티안	-10013
크로	-10014
▁BM	-10015
▁쓰촨	-10016
▁되돌아	-10017
50	-10018
▁경과	-10019
▁사살	-10020
▁실버	-10021
▁입양	-10022
▁옥수수	-10023
▁Your	-10024
▁볼리비아	-10025
▁능선	-10026
▁동학	-10027
▁피아니스트	-10028
▁가도	-10029
▁공고	-10030
▁마우	-10031
▁무로	-10032
▁무슨	-10033
▁정유	-10034
▁진료	-10035
테리아	-10036
▁공용어	-10037
▁대문	-10038
▁당연히	-10039
▁공관	-10040
▁관음	-10041
▁파벌	-10042
▁무너지	-10043
TP	-10044
▁GN	-10045
▁강대	-10046
▁노보	-10047
▁제리	-10048
▁스토어	-10049
아키	-10050
천리	-10051
▁간신	-10052
▁땃쥐	-10053
▁우치	-10054
네시	-10055
럴드	-10056
모스	-10057
▁김민	-10058
▁위스	-10059
▁팰	-10060
라기	-10061
히토	-10062
▁가환	-10063
▁모나	-10064
▁속주	-10065
▁아소	-10066
▁유대교	-10067
▁컨트리	-10068
▁산호	-10069
▁아닐	-10070
▁총대주교	-10071
도스	-10072
▁당수	-10073
▁물가	-10074
▁살라	-10075
▁상법	-10076
▁세키	-10077
▁취미	-10078
▁니카	-10079
▁대두	-10080
▁버마	-10081
▁상고	-10082
▁스텔	-10083
▁탄도	-10084
▁공황	-10085
▁천하	-10086
▁카스티	-10087
▁고토	-10088
▁성지	-10089
▁실재	-10090
▁요법	-10091
ific	-10092
▁240	-10093
▁Vol	-10094
▁중앙아시아	-10095
▁후쿠시마현	-10096
텍처	-10097
▁SL	-10098
▁깨끗	-10099
▁지녔	-10100
▁이성계	-10101
▁제작사	-10102
▁파이프	-10103
▁아키텍처	-10104
▁알렉산드리아	-10105
올로	-10106
▁qu	-10107
▁맞붙	-10108
▁".	-10109
▁밝힌	-10110
▁이건	-10111
▁양성자	-10112
▁High	-10113
▁번성	-10114
▁보강	-10115
▁청소	-10116
▁기념비	-10117
라이언트	-10118
교통	-10119
기념	-10120
▁Sk	-10121
▁달걀	-10122
▁자형	-10123
▁옮겨졌	-10124
▁콤팩트	-10125
▁토착종	-10126
토르	-10127
▁박지	-10128
▁활주	-10129
▁노태우	-10130
▁클라이언트	-10131
방울	-10132
어졌	-10133
▁데카	-10134
▁영등	-10135
▁1848	-10136
▁충청도	-10137
ave	-10138
▁ac	-10139
▁강철	-10140
▁공예	-10141
ions	-10142
▁극작가	-10143
가르	-10144
▁Im	-10145
▁도사	-10146
▁인디애나	-10147
▁함부르크	-10148
▁크롬	-10149
▁1891	-10150
▁광명	-10151
▁마카오	-10152
▁연기자	-10153
▁듀오	-10154
▁세바	-10155
▁나간다	-10156
▁새겨진	-10157
▁엘리트	-10158
ull	-10159
▁1886	-10160
▁더글러스	-10161
ris	-10162
▁단면	-10163
▁반전	-10164
▁이태	-10165
▁에디션	-10166
▁주어진다	-10167
▁례	-10168
그래	-10169
▁시야	-10170
▁유령	-10171
▁이북	-10172
▁카즈	-10173
▁폭로	-10174
▁둘러싸여	-10175
▁가열	-10176
▁명하	-10177
▁충북	-10178
▁청동기	-10179
▁비뉴	-10180
▁넘기	-10181
▁어로	-10182
▁진전	-10183
▁타지	-10184
▁어뢰	-10185
▁뻔	-10186
▁강동	-10187
▁팔레	-10188
▁그려진	-10189
곡동	-10190
처스	-10191
쿠버	-10192
▁DM	-10193
▁다를	-10194
▁조형	-10195
▁1887	-10196
고스	-10197
▁가계	-10198
▁그대	-10199
▁상경	-10200
▁버드	-10201
▁신축	-10202
▁여운	-10203
▁CBS	-10204
▁구마모토	-10205
▁얕	-10206
▁수료	-10207
▁시리	-10208
클레스	-10209
▁편집자	-10210
DA	-10211
그레	-10212
▁반공	-10213
▁약하	-10214
▁접수	-10215
▁조이	-10216
▁몰아내	-10217
▁앰	-10218
▁따랐	-10219
▁장원	-10220
▁피치	-10221
▁방사성	-10222
▁잡아먹	-10223
▁Star	-10224
▁텍사스주	-10225
ax	-10226
▁사적	-10227
▁역사가	-10228
▁마니	-10229
▁무명	-10230
▁브란	-10231
▁팟	-10232
▁극도	-10233
▁심화	-10234
▁종말	-10235
부르	-10236
▁마가	-10237
▁스님	-10238
▁싸워	-10239
테이션	-10240
▁가져오	-10241
▁도널드	-10242
▁홉	-10243
▁대관	-10244
▁장자	-10245
▁토요	-10246
▁쓰레기	-10247
▁페이스북	-10248
▁리히	-10249
▁인칭	-10250
▁현직	-10251
▁교육부	-10252
▁진행자	-10253
▁까닭	-10254
▁출석	-10255
해튼	-10256
▁농사	-10257
▁NGC	-10258
▁앨리스	-10259
▁씌	-10260
▁그림자	-10261
▁사카이	-10262
▁Geor	-10263
▁륜	-10264
루아	-10265
▁관행	-10266
▁축조	-10267
▁프란체	-10268
▁Girl	-10269
니지	-10270
반구	-10271
▁단의	-10272
▁불타	-10273
▁적군	-10274
▁des	-10275
▁나란히	-10276
▁만주국	-10277
▁Comm	-10278
테면	-10279
▁IV	-10280
▁거처	-10281
▁광저우	-10282
▁이를테면	-10283
나우	-10284
▁북경	-10285
▁이룬	-10286
▁중공	-10287
▁브레이크	-10288
▁At	-10289
▁글래	-10290
▁카프	-10291
▁흥선	-10292
브리아	-10293
▁디트로	-10294
▁디트로이트	-10295
ym	-10296
▁온대	-10297
▁추종	-10298
▁포도당	-10299
파리	-10300
▁일간	-10301
▁전복	-10302
▁캐서	-10303
▁이주하	-10304
UC	-10305
▁상가	-10306
▁안산	-10307
▁안치	-10308
▁입주	-10309
▁평민	-10310
ield	-10311
▁Eng	-10312
▁데스크	-10313
▁푸에르	-10314
▁애틀랜타	-10315
▁수녀	-10316
▁수중	-10317
▁일명	-10318
▁정관	-10319
▁치른	-10320
▁마르코	-10321
▁이동하	-10322
▁무함마드	-10323
▁궁중	-10324
▁메릴	-10325
▁한층	-10326
▁혀	-10327
미트	-10328
푸르	-10329
▁밀란	-10330
▁빈번	-10331
▁양육	-10332
▁용서	-10333
▁철폐	-10334
▁청색	-10335
▁취항	-10336
▁배우자	-10337
▁쓰시마	-10338
▁그렇지만	-10339
▁그리스인	-10340
푸아	-10341
▁대성당	-10342
▁올드	-10343
▁다항식	-10344
▁복소수	-10345
▁조반니	-10346
기구	-10347
▁의의	-10348
▁아나키	-10349
▁쟈	-10350
뜨렸	-10351
▁국유	-10352
▁신정	-10353
▁원격	-10354
▁재해	-10355
▁기관총	-10356
▁지방산	-10357
바른	-10358
▁워치	-10359
▁갤러리	-10360
▁일부분	-10361
▁스크립트	-10362
▁낮추	-10363
▁내성	-10364
▁대본	-10365
▁무술	-10366
▁안방	-10367
▁미주리	-10368
ative	-10369
포터	-10370
질러	-10371
ger	-10372
▁발칸	-10373
▁아브	-10374
▁파병	-10375
▁줄거리	-10376
원장	-10377
▁연동	-10378
▁창의	-10379
▁Air	-10380
EM	-10381
US	-10382
▁가볍	-10383
▁오락	-10384
▁이바라키	-10385
yd	-10386
▁보수당	-10387
▁아름답	-10388
▁시켰으며	-10389
its	-10390
▁라그	-10391
▁열심	-10392
▁통틀어	-10393
▁거뒀	-10394
▁광무	-10395
▁하타	-10396
스카르	-10397
▁레이싱	-10398
구역	-10399
▁김홍	-10400
▁수목	-10401
▁쿠니	-10402
ara	-10403
▁타협	-10404
▁확고	-10405
▁리프트	-10406
티넘	-10407
▁샌드	-10408
▁가브리	-10409
▁중공업	-10410
▁후반기	-10411
▁플래티넘	-10412
사우	-10413
▁등용	-10414
▁피로	-10415
▁셜	-10416
▁교실	-10417
▁돌입	-10418
▁실적	-10419
▁SA	-10420
▁Up	-10421
▁구약	-10422
▁다나카	-10423
▁무조건	-10424
▁우상	-10425
▁자카	-10426
▁창시자	-10427
▁가산	-10428
▁도우	-10429
▁준주	-10430
▁헬륨	-10431
▁자세히	-10432
▁콘스탄티노폴리스	-10433
운다	-10434
으니	-10435
▁모호	-10436
▁애리	-10437
▁지성	-10438
▁징병	-10439
▁찬사	-10440
▁프레드	-10441
▁im	-10442
▁델타	-10443
▁영산	-10444
▁제왕	-10445
▁스타리그	-10446
▁준결승전	-10447
▁원더	-10448
▁일파	-10449
▁패럴	-10450
▁포식	-10451
▁된다면	-10452
▁삼국지	-10453
▁홍문관	-10454
▁다마	-10455
▁삼림	-10456
▁우물	-10457
▁지켰	-10458
▁콘솔	-10459
▁태백	-10460
ille	-10461
▁새로이	-10462
컨대	-10463
▁스노	-10464
▁다케다	-10465
▁1866	-10466
쩌둥	-10467
▁이득	-10468
▁소행성	-10469
▁마오쩌둥	-10470
▁무궁	-10471
▁신동	-10472
▁재난	-10473
▁테라	-10474
▁GB	-10475
▁다툼	-10476
▁델라	-10477
▁막스	-10478
▁명분	-10479
▁Good	-10480
▁부조	-10481
▁윤보	-10482
▁정맥	-10483
▁호의	-10484
텔레스	-10485
▁유권자	-10486
▁엮	-10487
▁루크	-10488
▁무스	-10489
▁민정	-10490
▁집결	-10491
▁선거법	-10492
▁클라크	-10493
콥터	-10494
▁도선	-10495
▁맹세	-10496
▁벽화	-10497
▁블리	-10498
▁자칭	-10499
▁현행	-10500
▁사무총장	-10501
가미	-10502
▁림프	-10503
▁왜구	-10504
▁해저	-10505
▁붙여진	-10506
▁갑옷	-10507
▁연못	-10508
▁의과	-10509
▁중서	-10510
▁칼뱅	-10511
vent	-10512
▁쥐과	-10513
▁1881	-10514
▁니콜라이	-10515
▁가네	-10516
▁로마인	-10517
▁리조트	-10518
에미	-10519
▁Kn	-10520
▁돌출	-10521
▁주이	-10522
▁진수	-10523
▁타우	-10524
▁경쟁력	-10525
elf	-10526
ior	-10527
air	-10528
▁갈리	-10529
▁르노	-10530
▁유료	-10531
▁호리	-10532
▁리더십	-10533
▁뉴클	-10534
▁로라	-10535
▁상기	-10536
▁소행	-10537
▁호응	-10538
▁int	-10539
▁매거진	-10540
▁맨해튼	-10541
사관학교	-10542
▁줘	-10543
여래	-10544
▁모인	-10545
▁안경	-10546
▁어리	-10547
▁이시카와	-10548
▁서리	-10549
▁이데	-10550
▁1876	-10551
▁DD	-10552
▁살려	-10553
▁세손	-10554
▁대웅전	-10555
ael	-10556
▁들려	-10557
하이오	-10558
▁카를로	-10559
▁오하이오	-10560
▁station	-10561
▁찐	-10562
▁-,	-10563
▁가오	-10564
▁공표	-10565
▁장제	-10566
▁타석	-10567
▁특색	-10568
▁티켓	-10569
erson	-10570
▁집정	-10571
▁Sci	-10572
▁실험실	-10573
▁아리스토텔레스	-10574
▁페미	-10575
▁합당	-10576
▁호스	-10577
▁내야수	-10578
▁자유민주당	-10579
▁네오	-10580
▁선장	-10581
▁후진	-10582
▁보헤미아	-10583
사업	-10584
▁불행	-10585
▁이모	-10586
▁ATP	-10587
▁흥선대원군	-10588
▁닫힌	-10589
▁매끄	-10590
▁심야	-10591
▁종양	-10592
▁줄여	-10593
▁겉보기	-10594
▁프라하	-10595
▁랍	-10596
니시	-10597
▁복권	-10598
▁페로	-10599
▁한국방송공사	-10600
▁넌	-10601
▁남용	-10602
▁마당	-10603
▁밀러	-10604
▁샌디	-10605
▁퍼포	-10606
▁동유럽	-10607
▁루돌프	-10608
uth	-10609
▁리만	-10610
▁아산	-10611
▁여권	-10612
▁강남구	-10613
불교	-10614
▁빛나	-10615
▁선우	-10616
▁다카라	-10617
▁단행본	-10618
▁미스터리	-10619
▁퍼포먼스	-10620
리언	-10621
▁기념관	-10622
▁생겨나	-10623
▁온다	-10624
▁자결	-10625
▁짐작	-10626
▁현감	-10627
▁법정동	-10628
▁우즈베키스탄	-10629
거래	-10630
▁아빠	-10631
▁보라	-10632
▁앞장	-10633
any	-10634
▁김제	-10635
▁비엔	-10636
▁표창	-10637
▁섀	-10638
▁감동	-10639
▁기성	-10640
▁드레	-10641
▁맞대	-10642
▁엄밀	-10643
▁정경	-10644
▁종파	-10645
▁넘어갔	-10646
▁였으므로	-10647
바흐	-10648
▁개항	-10649
▁동요	-10650
▁등극	-10651
▁라오	-10652
▁아데	-10653
▁을까	-10654
▁몸통	-10655
▁발각	-10656
▁소자	-10657
▁수교	-10658
▁마우스	-10659
▁정착지	-10660
▁일으킨다	-10661
산성	-10662
▁수심	-10663
▁연립	-10664
▁줄어	-10665
▁후작	-10666
자치시	-10667
▁from	-10668
▁특별자치시	-10669
▁vs	-10670
▁루비	-10671
▁본작	-10672
▁증인	-10673
▁마다가	-10674
▁과실	-10675
▁항원	-10676
▁Nor	-10677
▁Pol	-10678
▁토리노	-10679
▁뾰	-10680
멘스	-10681
▁공손	-10682
▁국악	-10683
▁만년	-10684
▁왕정	-10685
▁이완	-10686
▁전날	-10687
▁센고쿠	-10688
▁스트라이커	-10689
매매	-10690
▁강풍	-10691
▁압둘	-10692
▁총무	-10693
ange	-10694
공산	-10695
티시	-10696
▁끝났	-10697
▁문고	-10698
▁상연	-10699
▁카니	-10700
▁열린다	-10701
▁커리어	-10702
▁조인	-10703
▁스트라이크	-10704
▁낙동	-10705
▁약혼	-10706
▁호쿠	-10707
벨라	-10708
▁리보	-10709
▁모터스	-10710
▁쾰	-10711
▁보행	-10712
▁차용	-10713
▁쳐들	-10714
▁탁월	-10715
▁그레고리	-10716
▁Er	-10717
▁조지프	-10718
▁시즈오카	-10719
▁바트	-10720
▁용암	-10721
충류	-10722
▁결제	-10723
▁김병	-10724
▁말년	-10725
▁붙여졌	-10726
▁카탈루냐	-10727
▁가솔	-10728
▁흉노	-10729
▁내무부	-10730
난성	-10731
▁무척	-10732
▁위생	-10733
CC	-10734
EG	-10735
▁고추	-10736
▁고쿠	-10737
▁다테	-10738
▁배양	-10739
▁이점	-10740
▁포고	-10741
ator	-10742
▁고등교육	-10743
▁중원	-10744
▁투항	-10745
▁요제프	-10746
▁봉해	-10747
▁경질	-10748
▁신종	-10749
▁콘테	-10750
▁가이드	-10751
▁American	-10752
▁샐	-10753
▁낙하	-10754
▁난이	-10755
▁반역	-10756
▁평평	-10757
▁포착	-10758
▁Che	-10759
▁지지율	-10760
▁경인	-10761
▁정선	-10762
▁지로	-10763
▁마르틴	-10764
▁반란군	-10765
▁프랭클린	-10766
퍼슨	-10767
▁더비	-10768
▁배속	-10769
▁입수	-10770
▁중상	-10771
▁헛	-10772
▁내면	-10773
▁동참	-10774
▁색소	-10775
▁생계	-10776
▁아이폰	-10777
▁볼셰비키	-10778
헌영	-10779
▁카바	-10780
면체	-10781
▁공약	-10782
▁급수	-10783
▁라디	-10784
▁유스	-10785
▁리모	-10786
▁상급	-10787
▁소울	-10788
▁실존	-10789
▁프롤	-10790
▁Out	-10791
▁대합실	-10792
▁유정	-10793
▁해리슨	-10794
▁Tour	-10795
사리	-10796
▁군산	-10797
▁제동	-10798
▁오로지	-10799
▁모용	-10800
▁정인	-10801
▁선보이	-10802
▁마르크스주의	-10803
맥스	-10804
홀름	-10805
▁벤치	-10806
▁정제	-10807
lin	-10808
▁메틸	-10809
▁유부	-10810
▁교통국	-10811
▁활주로	-10812
▁AV	-10813
▁아날	-10814
▁재활	-10815
소통	-10816
▁도네	-10817
▁독창	-10818
▁듀얼	-10819
▁파나마	-10820
▁beta	-10821
십자	-10822
▁콜레	-10823
▁우왕	-10824
▁정국	-10825
▁대장군	-10826
▁올바른	-10827
▁화강암	-10828
▁나인	-10829
▁메라	-10830
▁문종	-10831
▁이장	-10832
▁마라톤	-10833
▁애리조	-10834
▁의사소통	-10835
▁괘	-10836
버리	-10837
▁가타	-10838
▁Super	-10839
▁걸린	-10840
▁모국	-10841
▁주지	-10842
▁Str	-10843
▁부드럽	-10844
▁인테르	-10845
▁Open	-10846
위성	-10847
▁시애	-10848
▁Sec	-10849
▁게릴라	-10850
▁분류군	-10851
▁성남시	-10852
▁아무것	-10853
▁투자자	-10854
▁1873	-10855
RT	-10856
▁예약	-10857
▁이반	-10858
▁수원시	-10859
▁러시아인	-10860
▁사운드트랙	-10861
LA	-10862
OV	-10863
지능	-10864
▁마차	-10865
▁우아	-10866
▁주화	-10867
▁호족	-10868
iver	-10869
▁대지진	-10870
▁올랐으며	-10871
▁인공지능	-10872
▁그레고리오	-10873
▁리마	-10874
▁본성	-10875
▁창문	-10876
▁Mic	-10877
▁Song	-10878
▁삼국사기	-10879
▁Korea	-10880
▁Li	-10881
▁구니	-10882
▁울리	-10883
▁멍	-10884
사와	-10885
▁신발	-10886
▁오로	-10887
▁중앙부	-10888
▁1861	-10889
▁다카라즈카	-10890
▁et	-10891
▁마에	-10892
▁주입	-10893
▁하류	-10894
▁동시대	-10895
▁프레이	-10896
▁괄	-10897
▁욕망	-10898
▁친분	-10899
▁바디	-10900
▁비늘	-10901
▁사탕	-10902
▁전산	-10903
▁칙령	-10904
▁프렌	-10905
▁시애틀	-10906
▁컴퓨팅	-10907
▁David	-10908
바오	-10909
틀리	-10910
▁각성	-10911
▁려던	-10912
▁슈테	-10913
▁퇴장	-10914
▁두려움	-10915
▁복음서	-10916
▁아키라	-10917
▁Wind	-10918
▁뉴클레오	-10919
RE	-10920
RI	-10921
▁활발히	-10922
나드	-10923
미즈	-10924
▁ad	-10925
▁악보	-10926
▁출가	-10927
▁기병대	-10928
▁예수회	-10929
▁계시	-10930
▁이언	-10931
▁1872	-10932
▁낚	-10933
들여	-10934
▁관동	-10935
▁이송	-10936
▁충렬	-10937
▁카테	-10938
파이	-10939
▁"-	-10940
▁전단	-10941
▁투여	-10942
ited	-10943
▁나트륨	-10944
▁1864	-10945
▁아케이드	-10946
▁정려	-10947
▁카터	-10948
▁Ber	-10949
▁오른손	-10950
▁후쿠오카현	-10951
▁슛	-10952
mun	-10953
▁야드	-10954
▁이규	-10955
▁비타민	-10956
▁후지와라노	-10957
▁쉴	-10958
거지	-10959
▁저격	-10960
▁세워져	-10961
▁신상	-10962
▁법조인	-10963
▁가의	-10964
▁관청	-10965
▁리비	-10966
▁전격	-10967
▁당내	-10968
▁오미	-10969
▁커플	-10970
▁케인	-10971
▁Des	-10972
▁꼽힌다	-10973
▁발라드	-10974
▁by	-10975
▁고든	-10976
▁아니하	-10977
▁우체국	-10978
▁NASA	-10979
▁광양	-10980
▁뾰족	-10981
▁이룩	-10982
▁하반	-10983
몰로지	-10984
▁이뤄졌	-10985
▁브룩	-10986
▁ABC	-10987
▁Mac	-10988
▁1592	-10989
▁북아일랜드	-10990
▁마다가스카르	-10991
▁만장	-10992
▁정부군	-10993
▁골격	-10994
▁스태	-10995
▁제너	-10996
▁조례	-10997
▁앤더슨	-10998
amb	-10999
▁NP	-11000
▁배려	-11001
▁아스널	-11002
▁Mich	-11003
co	-11004
파크	-11005
▁감금	-11006
▁감싸	-11007
▁보성	-11008
▁원심	-11009
▁자생	-11010
▁지쿠	-11011
gu	-11012
▁소음	-11013
▁켈트	-11014
▁테일	-11015
▁교육청	-11016
▁시달리	-11017
▁브랜	-11018
▁조병	-11019
버러	-11020
▁경시	-11021
▁단과	-11022
▁불어	-11023
▁시종	-11024
▁향했	-11025
▁Pre	-11026
케이	-11027
▁오지	-11028
▁처하	-11029
▁MTV	-11030
▁어려웠	-11031
▁AI	-11032
▁간첩	-11033
▁로페	-11034
▁성실	-11035
▁는다면	-11036
▁댓	-11037
▁개개	-11038
▁분파	-11039
▁선천	-11040
▁수필	-11041
▁절정	-11042
▁해져	-11043
▁대사헌	-11044
▁보낸다	-11045
▁자란다	-11046
▁하노이	-11047
▁1878	-11048
▁떡	-11049
▁쾨	-11050
▁넷째	-11051
▁대중교통	-11052
▁유니버설	-11053
▁평안북도	-11054
▁쑤	-11055
▁조계	-11056
▁기관지	-11057
▁박헌영	-11058
▁헬리콥터	-11059
▁송신	-11060
▁아쿠	-11061
▁온갖	-11062
▁지청	-11063
▁총기	-11064
▁클러	-11065
▁팔렸	-11066
▁허드	-11067
▁주차장	-11068
▁평안남도	-11069
▁돌보	-11070
▁벤처	-11071
▁스로	-11072
▁시중	-11073
▁미군정	-11074
▁총사령관	-11075
▁볼트	-11076
▁의류	-11077
▁하키	-11078
▁나타냈	-11079
▁퍼스트	-11080
▁어군	-11081
체고	-11082
▁재질	-11083
▁준수	-11084
체고비나	-11085
▁1863	-11086
▁반성	-11087
▁이양	-11088
빌라이	-11089
▁세군다	-11090
▁해리스	-11091
aster	-11092
▁딥	-11093
▁라자	-11094
▁마술	-11095
▁수락	-11096
▁장대	-11097
▁진해	-11098
▁똑같이	-11099
▁마르쿠스	-11100
정리	-11101
▁영예	-11102
▁도피	-11103
▁섬세	-11104
▁1850	-11105
▁1865	-11106
▁궁궐	-11107
▁다투	-11108
▁대대로	-11109
▁윤보선	-11110
▁Best	-11111
▁Park	-11112
▁ww	-11113
▁복식	-11114
▁블레	-11115
▁일당	-11116
▁가토	-11117
▁김옥	-11118
▁동이	-11119
▁리코	-11120
▁이겨	-11121
▁펌프	-11122
▁황도	-11123
페스트	-11124
▁가져온	-11125
▁알래스카	-11126
MP	-11127
▁리바	-11128
▁제노	-11129
▁센티미터	-11130
▁kt	-11131
▁김유	-11132
▁반하	-11133
▁성령	-11134
▁세븐	-11135
▁평형	-11136
▁가솔린	-11137
▁알렉스	-11138
ze	-11139
CAF	-11140
▁광도	-11141
▁도둑	-11142
▁사쿠	-11143
▁시부	-11144
▁펜싱	-11145
▁선구자	-11146
▁캐서린	-11147
▁나루	-11148
▁로리	-11149
▁메카	-11150
▁수염	-11151
▁시국	-11152
▁워커	-11153
▁올라갔	-11154
▁가늘	-11155
▁씨앗	-11156
▁조광	-11157
▁채취	-11158
다르	-11159
▁경호	-11160
▁이방	-11161
▁호크	-11162
▁헤르체고비나	-11163
▁취했	-11164
▁통용	-11165
▁브루스	-11166
▁상행	-11167
▁생선	-11168
▁수인	-11169
▁마닐라	-11170
▁미륵	-11171
▁민요	-11172
▁Red	-11173
▁www	-11174
ena	-11175
ery	-11176
▁김원	-11177
▁대국	-11178
▁불변	-11179
▁해남	-11180
▁비주얼	-11181
▁미야자키	-11182
▁느린	-11183
▁리옹	-11184
▁통역	-11185
▁피지	-11186
ella	-11187
▁Pla	-11188
▁신문사	-11189
▁Paul	-11190
▁우림	-11191
▁주임	-11192
▁타스	-11193
▁파문	-11194
▁사각형	-11195
▁사라진	-11196
▁솔로몬	-11197
▁1875	-11198
메다	-11199
무소	-11200
▁메뉴	-11201
▁무실	-11202
▁장시	-11203
▁숀	-11204
로쿠	-11205
삭스	-11206
▁하행	-11207
▁화기	-11208
▁Val	-11209
▁놀라운	-11210
▁스폰서	-11211
▁쿠빌라이	-11212
▁침묵	-11213
바야시	-11214
▁스톡홀름	-11215
▁James	-11216
EP	-11217
▁노론	-11218
▁협업	-11219
▁화랑	-11220
▁비밀리	-11221
▁컬렉션	-11222
지기	-11223
▁ab	-11224
▁상어	-11225
▁소프	-11226
▁파손	-11227
▁휴게	-11228
▁만화가	-11229
▁쓰여진	-11230
▁그저	-11231
▁오클랜드	-11232
ux	-11233
▁대각	-11234
▁샤프	-11235
▁유목	-11236
▁창녕	-11237
▁초빙	-11238
▁노미야	-11239
▁케플러	-11240
테인	-11241
▁루키	-11242
▁분과	-11243
▁스가	-11244
▁정거	-11245
▁하시	-11246
01	-11247
▁맷	-11248
테쓰	-11249
▁급여	-11250
▁메일	-11251
▁부다	-11252
▁자제	-11253
▁전무	-11254
▁총애	-11255
▁Dream	-11256
마리	-11257
으로	-11258
▁목회	-11259
▁그래도	-11260
▁내려졌	-11261
▁튀르크	-11262
ations	-11263
들이	-11264
▁별세	-11265
▁이렇	-11266
▁즐길	-11267
▁쿠퍼	-11268
▁로렌스	-11269
▁아나톨	-11270
▁용인시	-11271
▁벅	-11272
▁경희	-11273
▁모차	-11274
▁이의	-11275
▁매직	-11276
▁정종	-11277
ough	-11278
코토	-11279
▁관문	-11280
▁로트	-11281
▁웨인	-11282
▁전담	-11283
▁철종	-11284
▁무궁화	-11285
▁왕세자	-11286
▁국수	-11287
▁제물	-11288
기념물	-11289
사고	-11290
▁RS	-11291
▁맞춘	-11292
▁비야	-11293
▁라이더	-11294
▁요지	-11295
▁지오	-11296
▁치환	-11297
공산당	-11298
국사	-11299
러지	-11300
려서	-11301
도르프	-11302
▁알파벳	-11303
▁플라톤	-11304
ros	-11305
▁강령	-11306
▁격리	-11307
▁국당	-11308
▁어쩔	-11309
▁찬양	-11310
▁칼럼	-11311
▁IOC	-11312
▁노동력	-11313
▁동물원	-11314
▁밴쿠버	-11315
▁여배우	-11316
▁gr	-11317
▁강렬	-11318
▁대법관	-11319
▁소피아	-11320
▁요시다	-11321
메스	-11322
ows	-11323
▁다윈	-11324
▁몽고	-11325
▁시합	-11326
▁경영자	-11327
▁천왕	-11328
▁동대문	-11329
▁친위대	-11330
▁Instit	-11331
▁샀	-11332
플로	-11333
▁방콕	-11334
▁전래	-11335
▁브레이	-11336
▁카메룬	-11337
▁프랜차	-11338
▁아름다움	-11339
▁라서	-11340
▁무작	-11341
▁위그	-11342
▁종식	-11343
▁한신	-11344
▁아이즈	-11345
에미리트	-11346
▁아랍에미리트	-11347
li	-11348
할시	-11349
eck	-11350
▁tr	-11351
▁루체	-11352
▁메스	-11353
▁문경	-11354
▁신지	-11355
▁학설	-11356
▁김정은	-11357
▁테무르	-11358
▁야마가타	-11359
▁함경남도	-11360
▁앗	-11361
▁고생	-11362
▁트릭	-11363
▁Bre	-11364
▁장학금	-11365
▁정의당	-11366
▁방치	-11367
▁슈타	-11368
▁익숙	-11369
미스	-11370
▁불참	-11371
▁연정	-11372
▁유의	-11373
▁케라	-11374
덴부르크	-11375
▁사서	-11376
▁시노	-11377
▁재팬	-11378
▁타일	-11379
▁레이크	-11380
제품	-11381
통일	-11382
rag	-11383
ype	-11384
▁로크	-11385
▁합친	-11386
▁거주자	-11387
▁클린턴	-11388
▁프랜차이즈	-11389
▁싣	-11390
▁미셸	-11391
▁박종	-11392
▁슬픔	-11393
관계	-11394
▁끼치	-11395
▁절망	-11396
▁직통	-11397
▁카지	-11398
▁테리	-11399
▁목요일	-11400
▁1867	-11401
▁프랑스인	-11402
▁강해	-11403
▁김규식	-11404
▁바이트	-11405
사상	-11406
ety	-11407
▁감상	-11408
▁삽화	-11409
▁카툰	-11410
▁스트로	-11411
yr	-11412
▁결별	-11413
▁퇴직	-11414
▁화약	-11415
▁방어선	-11416
▁튀니지	-11417
▁중퇴	-11418
▁블로	-11419
▁헬싱	-11420
raph	-11421
▁210	-11422
▁안테나	-11423
▁타이베이	-11424
▁플로리다주	-11425
▁이븐	-11426
▁빅토르	-11427
▁생존자	-11428
▁김형	-11429
▁실권	-11430
▁황소	-11431
▁다람쥐	-11432
▁죽인	-11433
▁쾰른	-11434
▁가브리엘	-11435
덕왕	-11436
▁메소	-11437
▁제명	-11438
▁글로브	-11439
▁타이어	-11440
▁펩	-11441
▁대영	-11442
▁수로	-11443
▁Cal	-11444
▁Mor	-11445
▁시네마	-11446
▁프랑스령	-11447
원수	-11448
▁나아	-11449
▁넘치	-11450
▁비대	-11451
▁정형	-11452
▁항체	-11453
illa	-11454
▁1869	-11455
▁King	-11456
▁즘	-11457
▁쿡	-11458
▁Sw	-11459
▁가혹	-11460
▁당연	-11461
▁로키	-11462
▁법관	-11463
▁차출	-11464
▁EBS	-11465
▁에이즈	-11466
환경	-11467
▁구두	-11468
▁역도	-11469
▁폐렴	-11470
▁가맹	-11471
▁냐는	-11472
▁매트	-11473
▁잠정	-11474
▁파도	-11475
▁하야	-11476
▁예컨대	-11477
▁아날로그	-11478
▁기전	-11479
▁너머	-11480
▁아츠	-11481
▁용액	-11482
▁자란	-11483
▁총통	-11484
▁티아	-11485
▁열심히	-11486
▁천연기념물	-11487
ney	-11488
▁왕권	-11489
▁치과	-11490
▁카피	-11491
▁펠트	-11492
▁330	-11493
석탑	-11494
치히	-11495
▁NT	-11496
▁연한	-11497
▁장단	-11498
▁쥐속	-11499
▁API	-11500
▁나타낸	-11501
▁스타트	-11502
▁소말리아	-11503
▁라흐	-11504
▁척도	-11505
▁평창	-11506
▁Thom	-11507
부로	-11508
수스	-11509
▁부각	-11510
▁장흥	-11511
▁전전	-11512
층석탑	-11513
▁케이프	-11514
▁극우	-11515
▁불량	-11516
▁송도	-11517
▁실정	-11518
▁탄약	-11519
▁해독	-11520
▁위나라	-11521
▁잇따	-11522
▁절벽	-11523
▁탑신	-11524
▁판례	-11525
▁후배	-11526
▁간신히	-11527
▁다저스	-11528
▁도교	-11529
▁생긴다	-11530
▁엔트리	-11531
▁https	-11532
▁구실	-11533
▁니혼	-11534
▁러서	-11535
▁사방	-11536
▁애정	-11537
▁야외	-11538
▁칸국	-11539
▁대성전	-11540
▁오바마	-11541
▁Po	-11542
▁글러	-11543
▁모욕	-11544
▁소중	-11545
▁야전	-11546
▁재외	-11547
▁종자	-11548
▁추리	-11549
▁유격수	-11550
▁슬하	-11551
▁부르고	-11552
▁제퍼슨	-11553
▁찾아내	-11554
▁클레이	-11555
▁Club	-11556
▁Heart	-11557
▁CG	-11558
▁김선	-11559
▁유선	-11560
▁탄자	-11561
▁특전	-11562
▁화순	-11563
블랜드	-11564
테이너	-11565
▁검은색	-11566
▁서대문	-11567
▁초신성	-11568
▁프랜시스	-11569
▁가고	-11570
▁라리	-11571
▁보로	-11572
▁플리	-11573
▁예정자	-11574
히트	-11575
▁걸어	-11576
▁모세	-11577
▁영유	-11578
▁응급	-11579
▁징수	-11580
▁처지	-11581
▁캐리	-11582
▁형질	-11583
▁Ang	-11584
▁정치학	-11585
▁토스카	-11586
▁클리블랜드	-11587
리코	-11588
바나	-11589
ari	-11590
▁개헌	-11591
▁모셔	-11592
▁져서	-11593
▁크라이	-11594
OP	-11595
▁모의	-11596
▁연말	-11597
▁예의	-11598
▁원통	-11599
▁이터	-11600
▁드러냈	-11601
▁스카우트	-11602
칼리	-11603
▁겹쳐	-11604
▁공존	-11605
▁볼로	-11606
▁수복	-11607
▁SNS	-11608
▁긴테쓰	-11609
▁서재필	-11610
천면	-11611
▁설문	-11612
▁포털	-11613
▁폭파	-11614
▁개구리	-11615
▁대리인	-11616
▁예선전	-11617
▁가로지르	-11618
▁국한	-11619
▁모금	-11620
▁소극	-11621
▁여유	-11622
메이카	-11623
▁해상도	-11624
▁자메이카	-11625
▁늙	-11626
▁담보	-11627
▁드미	-11628
▁비추	-11629
▁카네	-11630
▁브루클린	-11631
▁챙	-11632
정원	-11633
▁감찰	-11634
▁검정	-11635
▁무네	-11636
▁세습	-11637
▁유혹	-11638
▁음절	-11639
▁초고	-11640
▁레이트	-11641
▁1830	-11642
▁고딕	-11643
▁삼중	-11644
▁외치	-11645
▁최선	-11646
▁패러디	-11647
▁필립스	-11648
▁타수	-11649
ray	-11650
▁++	-11651
▁암스	-11652
▁편향	-11653
▁교통부	-11654
천동	-11655
▁동진	-11656
▁드루	-11657
▁모하	-11658
▁앙골	-11659
▁트렌	-11660
▁메이커	-11661
유예	-11662
트르	-11663
▁바꿀	-11664
바이트	-11665
▁기차역	-11666
AI	-11667
휴일	-11668
app	-11669
▁격추	-11670
▁피리	-11671
▁타이거스	-11672
▁감성	-11673
▁다우	-11674
▁수양	-11675
▁은거	-11676
▁함자	-11677
네그로	-11678
▁적외선	-11679
▁1862	-11680
놀이	-11681
▁코소	-11682
▁농산물	-11683
▁명확히	-11684
▁헤이안	-11685
▁부르고뉴	-11686
애미	-11687
▁OB	-11688
▁거미	-11689
▁로버	-11690
▁서임	-11691
▁시몬	-11692
▁파일럿	-11693
▁Euro	-11694
▁마이애미	-11695
▁알렉산드로스	-11696
▁구내	-11697
▁산둥	-11698
▁농어	-11699
▁모빌	-11700
▁벌여	-11701
▁치유	-11702
▁현황	-11703
파니아	-11704
나마	-11705
▁성화	-11706
▁휩쓸	-11707
▁Act	-11708
▁라인업	-11709
▁부총리	-11710
ensis	-11711
▁뇨	-11712
대표	-11713
▁베트	-11714
▁순종	-11715
▁이회	-11716
▁청룡	-11717
▁City	-11718
AE	-11719
▁깜	-11720
▁묘비	-11721
▁비준	-11722
▁송출	-11723
▁정작	-11724
▁마법사	-11725
▁시코쿠	-11726
▁Rich	-11727
▁모차르트	-11728
▁캅	-11729
에몽	-11730
▁도래	-11731
▁독도	-11732
▁모색	-11733
▁묻혔	-11734
워하	-11735
▁일리	-11736
해살이	-11737
▁오리온	-11738
▁comp	-11739
gan	-11740
▁공양	-11741
▁릴리	-11742
▁마땅	-11743
▁미친	-11744
▁바꿨	-11745
▁스텝	-11746
▁와라	-11747
cess	-11748
▁280	-11749
▁정거장	-11750
▁>	-11751
▁놈	-11752
어내	-11753
▁시크	-11754
▁플랑크	-11755
암동	-11756
▁관상	-11757
▁리베	-11758
▁사역	-11759
▁Mer	-11760
▁콘테스트	-11761
▁누렸	-11762
▁업자	-11763
▁총격	-11764
▁기숙사	-11765
▁자치주	-11766
메니	-11767
▁명소	-11768
웨이트	-11769
▁구금	-11770
▁벨리	-11771
▁양심	-11772
▁천거	-11773
▁편견	-11774
▁경전철	-11775
ision	-11776
▁올림피아	-11777
나기	-11778
▁사쓰	-11779
▁안녕	-11780
▁칼슘	-11781
▁320	-11782
▁리믹스	-11783
▁테네시	-11784
▁피라미	-11785
▁활동가	-11786
▁그라운드	-11787
▁엑스박스	-11788
▁프란체스코	-11789
▁sy	-11790
▁럭비	-11791
▁해태	-11792
▁나타날	-11793
ek	-11794
합성	-11795
▁요충	-11796
▁자서	-11797
▁시트콤	-11798
▁흐른다	-11799
▁연극배우	-11800
신문	-11801
▁경복	-11802
▁끝날	-11803
▁다치	-11804
▁메디치	-11805
▁간사	-11806
▁모어	-11807
▁방대	-11808
▁평판	-11809
▁이치현	-11810
▁박테리아	-11811
▁톡	-11812
망디	-11813
제이	-11814
▁Tw	-11815
▁객차	-11816
▁무형	-11817
▁참사	-11818
berg	-11819
▁부원군	-11820
▁히브리	-11821
▁츄	-11822
▁문단	-11823
▁오만	-11824
▁스트리밍	-11825
▁율리우스	-11826
▁가락	-11827
▁든다	-11828
▁톱니	-11829
▁허정	-11830
▁지배자	-11831
의사	-11832
▁as	-11833
▁남해	-11834
▁몰타	-11835
▁열강	-11836
▁주계	-11837
▁추존	-11838
▁타현	-11839
▁파란	-11840
▁헤일	-11841
위원회	-11842
▁공휴일	-11843
▁달라지	-11844
▁드디어	-11845
▁NS	-11846
▁Rh	-11847
▁가중	-11848
▁유희	-11849
▁자명	-11850
▁Let	-11851
▁유적지	-11852
▁일본국	-11853
▁카스티야	-11854
수원	-11855
▁고쳤	-11856
▁리본	-11857
▁사설	-11858
▁악어	-11859
▁천국	-11860
▁치카	-11861
▁특화	-11862
▁저지대	-11863
▁쿠웨이트	-11864
▁가쿠	-11865
▁고노	-11866
▁어찌	-11867
▁에이전	-11868
▁이뤄지	-11869
▁굴절	-11870
▁내걸	-11871
▁무언	-11872
▁수위	-11873
▁스칸	-11874
▁실록	-11875
▁적료	-11876
▁힘썼	-11877
atch	-11878
uss	-11879
▁AL	-11880
▁검거	-11881
▁공파	-11882
▁관례	-11883
▁김광	-11884
▁신곡	-11885
▁OST	-11886
▁경주시	-11887
▁프로리그	-11888
지부	-11889
▁가우	-11890
▁산시	-11891
▁접종	-11892
▁1874	-11893
eb	-11894
▁부평	-11895
▁초안	-11896
▁함량	-11897
▁TBS	-11898
▁섰	-11899
피언	-11900
▁리카	-11901
▁Inc	-11902
▁유아기	-11903
▁관계없이	-11904
lation	-11905
▁Af	-11906
▁추력	-11907
▁다이쇼	-11908
▁마천루	-11909
▁말미암	-11910
카리	-11911
▁관용	-11912
▁레오폴	-11913
▁공소	-11914
▁노면	-11915
▁백두	-11916
▁심문	-11917
▁요절	-11918
▁Min	-11919
▁마이어	-11920
▁봇	-11921
▁바그너	-11922
레시	-11923
▁Sa	-11924
▁랴오	-11925
▁말단	-11926
▁아메	-11927
▁초콜	-11928
▁형벌	-11929
▁신도비	-11930
▁프린스	-11931
▁가고시마	-11932
BI	-11933
▁거란	-11934
▁국교	-11935
▁숙부	-11936
▁포토	-11937
▁김인	-11938
▁꼽히	-11939
▁맞춤	-11940
▁선명	-11941
work	-11942
▁지상파	-11943
za	-11944
▁성악	-11945
▁약해	-11946
▁조교	-11947
▁베이시스트	-11948
▁찢	-11949
말로	-11950
ero	-11951
▁ML	-11952
▁귀신	-11953
▁마켓	-11954
▁사민	-11955
▁실증	-11956
▁씨족	-11957
▁여사	-11958
▁카카오	-11959
▁어시스트	-11960
번뇌	-11961
▁리사	-11962
▁부양	-11963
▁서산	-11964
▁시켜서	-11965
▁통신사	-11966
▁나카무라	-11967
▁댄서	-11968
▁배드	-11969
▁비정	-11970
▁요격	-11971
▁키예프	-11972
▁4000	-11973
▁갈아	-11974
▁국외	-11975
▁금호	-11976
▁라기	-11977
▁무르	-11978
▁부교	-11979
▁외과	-11980
▁차선	-11981
▁몬테네그로	-11982
▁멧	-11983
▁녹화	-11984
▁달랐	-11985
▁봉인	-11986
▁심부	-11987
▁재편	-11988
스트리	-11989
▁...	-11990
▁가져다	-11991
▁단체전	-11992
▁미토콘	-11993
▁프란치	-11994
▁미토콘드리아	-11995
▁베어	-11996
▁부합	-11997
▁안개	-11998
▁케르	-11999
▁국제법	-12000
BL	-12001
▁엣	-12002
▁남산	-12003
▁배달	-12004
▁양보	-12005
▁제위	-12006
▁집정관	-12007
동자	-12008
▁김준	-12009
▁도키	-12010
▁백과	-12011
▁서태	-12012
▁엔드	-12013
▁합치	-12014
▁황색	-12015
마르크	-12016
▁연장전	-12017
▁왕건	-12018
▁중수	-12019
▁큐브	-12020
▁해치	-12021
▁iOS	-12022
▁방사능	-12023
oo	-12024
▁몹	-12025
▁도박	-12026
▁회귀	-12027
스탄불	-12028
ular	-12029
▁이스탄불	-12030
ha	-12031
▁촐	-12032
ula	-12033
▁국철	-12034
▁램프	-12035
▁톈진	-12036
▁만난다	-12037
▁영원히	-12038
▁위구르	-12039
▁카스트	-12040
▁찔	-12041
브로	-12042
iew	-12043
▁아와	-12044
▁증폭	-12045
▁항만	-12046
로이드	-12047
▁뮐	-12048
워서	-12049
클레	-12050
풀이	-12051
▁계주	-12052
▁예종	-12053
▁위로	-12054
▁대원군	-12055
▁마누엘	-12056
▁중소기업	-12057
▁GM	-12058
▁tv	-12059
▁성곽	-12060
▁절감	-12061
▁절제	-12062
▁도자기	-12063
천사	-12064
▁Hol	-12065
▁뛰어났	-12066
▁졌으나	-12067
gy	-12068
▁DF	-12069
▁글꼴	-12070
▁기해	-12071
▁느낄	-12072
▁대북	-12073
▁반포	-12074
ling	-12075
▁일리노이주	-12076
돌이	-12077
amm	-12078
▁고의	-12079
▁모건	-12080
▁소외	-12081
▁커서	-12082
▁사회민주당	-12083
▁기이	-12084
▁사치	-12085
▁산성	-12086
▁서스	-12087
▁후예	-12088
▁인플레이션	-12089
프로	-12090
▁바젤	-12091
▁이메	-12092
▁중엽	-12093
▁230	-12094
▁College	-12095
RS	-12096
▁간략	-12097
▁모범	-12098
▁바지	-12099
▁AKB	-12100
▁부상자	-12101
▁줄기세포	-12102
▁늪	-12103
bur	-12104
▁김명	-12105
▁모라	-12106
▁접합	-12107
▁카세	-12108
▁한림	-12109
▁함양	-12110
▁페트로	-12111
▁Great	-12112
림픽	-12113
사카	-12114
센스	-12115
▁공성	-12116
▁배트	-12117
▁유서	-12118
▁타락	-12119
▁가면라이더	-12120
란토	-12121
▁수식	-12122
▁안무	-12123
▁위조	-12124
▁진로	-12125
▁마이크로	-12126
OU	-12127
▁공무	-12128
▁구독	-12129
▁그릴	-12130
▁긴밀	-12131
▁토트	-12132
▁Lou	-12133
CACAF	-12134
▁CONCACAF	-12135
ody	-12136
▁공영	-12137
▁덮개	-12138
▁때려	-12139
▁분사	-12140
▁선대	-12141
▁접한	-12142
▁준장	-12143
▁앤드루	-12144
▁여의도	-12145
▁피라미드	-12146
▁건전	-12147
▁유러	-12148
▁콜럼	-12149
▁시멘트	-12150
▁댈	-12151
por	-12152
▁Lo	-12153
▁라르	-12154
▁라바	-12155
▁주선	-12156
▁히토	-12157
▁270	-12158
▁LED	-12159
▁유러피언	-12160
▁노프	-12161
▁잠깐	-12162
▁독수리	-12163
▁동맹국	-12164
▁시켜야	-12165
▁영화상	-12166
▁메릴랜드	-12167
▁Michael	-12168
▁니키	-12169
▁리즈	-12170
▁부류	-12171
▁사림	-12172
▁습윤	-12173
▁점포	-12174
▁친족	-12175
▁피드	-12176
▁접어들	-12177
▁과테	-12178
▁만점	-12179
▁발상	-12180
▁소사	-12181
▁1200	-12182
▁고속버스	-12183
▁과테말라	-12184
대사	-12185
erv	-12186
▁근사	-12187
▁현은	-12188
대교	-12189
식성	-12190
헤드	-12191
▁머스	-12192
▁산요	-12193
▁임정	-12194
▁주심	-12195
▁260	-12196
▁낙동강	-12197
▁란트	-12198
▁사수	-12199
▁아유	-12200
▁온난	-12201
▁재일	-12202
▁조니	-12203
▁천천	-12204
▁이와테	-12205
▁Mart	-12206
거스	-12207
▁권역	-12208
▁치하	-12209
▁평지	-12210
▁표정	-12211
나갔	-12212
프턴	-12213
▁수다	-12214
추부사	-12215
클리드	-12216
▁뛰어들	-12217
▁컨트롤러	-12218
▁프로그래머	-12219
▁en	-12220
▁te	-12221
▁국공	-12222
▁최진	-12223
▁캐롤	-12224
▁대표자	-12225
▁뫼	-12226
▁요양	-12227
자동	-12228
▁대마	-12229
▁마셜	-12230
▁우시	-12231
프랑크	-12232
▁끝난다	-12233
▁스캔들	-12234
▁천천히	-12235
포시	-12236
▁남군	-12237
▁동적	-12238
▁은혜	-12239
▁JTBC	-12240
▁보수주의	-12241
▁패럴림픽	-12242
사태	-12243
정동	-12244
ope	-12245
▁마테	-12246
▁유공	-12247
▁종군	-12248
▁Rev	-12249
지아	-12250
▁KO	-12251
▁기량	-12252
▁박성	-12253
▁아이언	-12254
▁삼층석탑	-12255
캐슬	-12256
oid	-12257
▁단결	-12258
▁맡기	-12259
▁외래	-12260
▁하급	-12261
▁항우	-12262
▁흩어져	-12263
▁콥	-12264
▁거성	-12265
▁도출	-12266
▁어파	-12267
▁바스크	-12268
▁비서관	-12269
▁탄자니아	-12270
▁선봉	-12271
▁군사력	-12272
▁산스크	-12273
▁원산지	-12274
▁클라우	-12275
▁1879	-12276
▁산스크리트	-12277
▁쪼	-12278
▁TC	-12279
▁급증	-12280
▁리트	-12281
▁피할	-12282
▁미친다	-12283
xt	-12284
▁u	-12285
▁나간	-12286
▁바쳤	-12287
▁천주	-12288
▁로마자	-12289
▁세비야	-12290
▁어울리	-12291
▁제우스	-12292
▁야마모토	-12293
스기	-12294
팡이	-12295
▁밸리	-12296
▁종영	-12297
▁올리브	-12298
워스	-12299
▁무과	-12300
▁범행	-12301
▁연희	-12302
▁월터	-12303
▁정반	-12304
▁욱	-12305
▁훙	-12306
▁고로	-12307
▁딜런	-12308
▁모던	-12309
▁서면	-12310
▁앞선	-12311
▁하남	-12312
▁선진국	-12313
▁프레데	-12314
▁호스트	-12315
▁잃어버린	-12316
관리	-12317
▁기세	-12318
▁플러	-12319
▁흥분	-12320
▁wh	-12321
▁남방	-12322
▁셀레	-12323
▁았었	-12324
▁재래	-12325
▁화엄	-12326
▁공식전	-12327
▁스테파	-12328
▁하노버	-12329
▁해안선	-12330
ublic	-12331
▁Associ	-12332
화문	-12333
▁배아	-12334
▁병자	-12335
▁우한	-12336
▁정월	-12337
▁너무나	-12338
▁대단히	-12339
▁Inter	-12340
▁놓인	-12341
▁다듬	-12342
티모어	-12343
▁떠난다	-12344
▁체인지	-12345
▁노르망디	-12346
▁떨어진다	-12347
라니	-12348
아나	-12349
▁부름	-12350
▁시속	-12351
▁직속	-12352
▁뉴캐슬	-12353
▁로드리	-12354
▁연구회	-12355
▁쵸	-12356
자루	-12357
▁막판	-12358
▁봉화	-12359
▁즐거	-12360
▁하코	-12361
▁우울증	-12362
▁프로모	-12363
비크	-12364
셔주	-12365
▁데드	-12366
▁떠오르	-12367
▁경위	-12368
▁단속	-12369
▁마트	-12370
▁사비	-12371
▁안드	-12372
▁여도	-12373
데라	-12374
▁게끔	-12375
▁서귀	-12376
▁위함	-12377
▁은신	-12378
라이드	-12379
▁750	-12380
▁알아보	-12381
▁어긋나	-12382
yp	-12383
업자	-12384
▁주창	-12385
ates	-12386
▁도로는	-12387
▁치러졌	-12388
▁상관없이	-12389
▁와이번스	-12390
▁코스타리카	-12391
▁기쁨	-12392
▁미미	-12393
▁왕궁	-12394
▁프루	-12395
▁Bab	-12396
▁그랜트	-12397
▁다이어	-12398
▁북유럽	-12399
▁시간대	-12400
▁쳐들어	-12401
▁패트릭	-12402
▁맬	-12403
현동	-12404
▁능동	-12405
▁떠올	-12406
▁류큐	-12407
▁송파	-12408
▁외형	-12409
▁태후	-12410
▁혼다	-12411
▁App	-12412
▁단조	-12413
▁당뇨	-12414
▁우월	-12415
▁204	-12416
▁걸쳐서	-12417
▁무실점	-12418
▁스칼라	-12419
마주	-12420
화학	-12421
▁잔인	-12422
▁피크	-12423
웍스	-12424
▁결핵	-12425
▁노현	-12426
▁대도	-12427
▁비토	-12428
▁양수	-12429
▁자수	-12430
▁첼로	-12431
▁타로	-12432
▁루이지애나	-12433
▁세련	-12434
▁원군	-12435
▁정령	-12436
▁파푸아	-12437
▁미수	-12438
▁장덕	-12439
▁하의	-12440
▁1877	-12441
▁미나모토	-12442
NG	-12443
라고	-12444
히사	-12445
▁극락	-12446
▁신입	-12447
▁심근	-12448
▁대나무	-12449
▁법원장	-12450
▁레드삭스	-12451
▁관목	-12452
▁단정	-12453
▁뒤이	-12454
▁무서	-12455
▁반기	-12456
▁속력	-12457
▁지극	-12458
▁민병대	-12459
▁보너스	-12460
▁성매매	-12461
▁지닌다	-12462
▁달라진다	-12463
OD	-12464
다운	-12465
▁Ev	-12466
▁습관	-12467
▁저조	-12468
BT	-12469
uch	-12470
▁직행	-12471
▁산티아	-12472
▁}	-12473
▁랙	-12474
▁버터	-12475
▁상록	-12476
▁에른	-12477
▁우연	-12478
▁항로	-12479
▁공화정	-12480
▁대상자	-12481
▁Stud	-12482
▁줌	-12483
어사	-12484
용차	-12485
우회	-12486
▁교의	-12487
▁스루	-12488
▁장녀	-12489
▁캐피	-12490
▁학장	-12491
▁허블	-12492
▁후유	-12493
▁서바이	-12494
net	-12495
▁SH	-12496
▁복종	-12497
▁코리	-12498
▁키워	-12499
▁사이먼	-12500
▁생리학	-12501
▁Mi	-12502
▁새우	-12503
펜하겐	-12504
▁부르주	-12505
▁천안시	-12506
▁Phil	-12507
▁코펜하겐	-12508
▁사학	-12509
▁식스	-12510
▁전보	-12511
▁학력	-12512
▁헬레	-12513
▁달아났	-12514
▁라파엘	-12515
▁Center	-12516
▁가했	-12517
▁대차	-12518
▁조롱	-12519
▁줄리	-12520
▁아브라	-12521
▁토마토	-12522
▁싼	-12523
나오	-12524
▁기와	-12525
▁바울	-12526
▁에로	-12527
▁우산	-12528
▁지르	-12529
▁코네	-12530
▁신주쿠	-12531
▁앙골라	-12532
▁전반기	-12533
▁네이션스컵	-12534
ization	-12535
시노	-12536
▁대인	-12537
▁수력	-12538
▁트램	-12539
▁숨기	-12540
▁슬램	-12541
▁조영	-12542
▁할인	-12543
▁해피	-12544
▁내세우	-12545
▁판소리	-12546
▁고온	-12547
▁규탄	-12548
▁금전	-12549
▁대좌	-12550
▁매킨	-12551
▁북군	-12552
▁상국	-12553
▁헤어	-12554
▁휘말	-12555
▁비해서	-12556
▁암스테르담	-12557
위안	-12558
창호	-12559
oun	-12560
ura	-12561
▁각료	-12562
▁교직	-12563
▁군벌	-12564
▁라카	-12565
▁문무	-12566
▁미성	-12567
▁옮긴	-12568
▁유생	-12569
▁종신	-12570
▁서사시	-12571
네임	-12572
▁격려	-12573
▁교인	-12574
▁최영	-12575
▁헌장	-12576
▁San	-12577
▁다스렸	-12578
▁신세계	-12579
▁가와사키	-12580
토프	-12581
▁교부	-12582
▁보름	-12583
▁증오	-12584
▁Wii	-12585
▁둘러싸인	-12586
▁컨테이너	-12587
▁번갈	-12588
▁보령	-12589
▁부왕	-12590
▁성동	-12591
▁염려	-12592
▁족보	-12593
span	-12594
▁Fri	-12595
RC	-12596
▁갚	-12597
융합	-12598
▁덴쇼	-12599
▁발동	-12600
▁배분	-12601
▁백악	-12602
▁방위군	-12603
▁브뤼셀	-12604
▁파충류	-12605
퍼레이션	-12606
▁대승불교	-12607
▁사천	-12608
▁정정	-12609
▁에스페	-12610
du	-12611
▁배기	-12612
▁산물	-12613
▁소아	-12614
▁재앙	-12615
▁피우	-12616
▁니가타	-12617
▁노스캐롤라이나	-12618
▁샨	-12619
세유	-12620
▁관악	-12621
▁김윤	-12622
▁마요	-12623
▁가라앉	-12624
▁보여준	-12625
▁파시즘	-12626
▁핵융합	-12627
▁Stre	-12628
▁유클리드	-12629
▁덱	-12630
걸이	-12631
내리	-12632
▁고마	-12633
▁군데	-12634
▁레트	-12635
▁생모	-12636
▁자재	-12637
▁한문	-12638
▁데이브	-12639
▁1840	-12640
▁남하	-12641
▁당할	-12642
▁번창	-12643
▁진한	-12644
▁형용	-12645
▁초콜릿	-12646
▁요하네스	-12647
▁HP	-12648
▁동산	-12649
▁순차	-12650
▁원활	-12651
▁일각	-12652
▁일괄	-12653
▁현도	-12654
▁무작위	-12655
레반	-12656
▁가닥	-12657
▁거세	-12658
▁병마	-12659
▁형편	-12660
▁덩어리	-12661
▁MA	-12662
▁동포	-12663
▁쌍대	-12664
▁유우	-12665
▁이니	-12666
▁퍼즐	-12667
▁덧붙였	-12668
▁세네갈	-12669
▁스탠드	-12670
등식	-12671
▁결사	-12672
▁겹치	-12673
▁꿈꾸	-12674
▁약사	-12675
▁추서	-12676
▁출동	-12677
▁글래스	-12678
▁아라곤	-12679
▁윗부분	-12680
▁Mark	-12681
▁무안	-12682
▁었었	-12683
▁파편	-12684
▁헤로	-12685
▁장로교	-12686
▁미야기현	-12687
국적	-12688
▁라시	-12689
▁위력	-12690
▁co	-12691
▁워즈	-12692
▁픽셀	-12693
▁Met	-12694
▁이용객	-12695
▁해결책	-12696
▁관현악단	-12697
▁함경북도	-12698
▁농지	-12699
▁무색	-12700
▁무수	-12701
▁발목	-12702
▁Way	-12703
▁다이빙	-12704
▁박자	-12705
▁반동	-12706
▁정했	-12707
▁컨설	-12708
루이스	-12709
▁Sun	-12710
▁Tom	-12711
▁생겨난	-12712
디나비아	-12713
▁스칸디나비아	-12714
상어	-12715
셀러	-12716
▁꾀하	-12717
▁전세	-12718
▁제단	-12719
▁Mod	-12720
▁지리학	-12721
누마	-12722
▁UC	-12723
▁노후	-12724
▁밀레	-12725
▁온화	-12726
▁카마	-12727
▁한큐	-12728
▁Hen	-12729
▁피의자	-12730
▁Gener	-12731
버른	-12732
▁본체	-12733
▁오아	-12734
▁전락	-12735
▁수요일	-12736
▁포르노	-12737
▁후원자	-12738
▁1859	-12739
에고	-12740
▁등등	-12741
▁시비	-12742
▁요충지	-12743
▁프린스턴	-12744
▁냥	-12745
▁'-	-12746
▁백악기	-12747
oot	-12748
▁거지	-12749
▁닉슨	-12750
▁물결	-12751
▁사안	-12752
▁전학	-12753
▁조슈	-12754
▁파열	-12755
▁	-12756
▃	-12757
이	-12758
다	-12759
.	-12760
에	-12761
의	-12762
는	-12763
로	-12764
,	-12765
하	-12766
1	-12767
을	-12768
가	-12769
지	-12770
고	-12771
서	-12772
한	-12773
은	-12774
0	-12775
기	-12776
2	-12777
으	-12778
)	-12779
(	-12780
사	-12781
리	-12782
시	-12783
대	-12784
년	-12785
스	-12786
를	-12787
인	-12788
도	-12789
일	-12790
아	-12791
9	-12792
자	-12793
어	-12794
라	-12795
있	-12796
수	-12797
나	-12798
부	-12799
그	-12800
전	-12801
되	-12802
정	-12803
국	-12804
과	-12805
해	-12806
주	-12807
었	-12808
제	-12809
들	-12810
e	-12811
3	-12812
성	-12813
구	-12814
장	-12815
적	-12816
여	-12817
했	-12818
상	-12819
a	-12820
동	-12821
5	-12822
월	-12823
8	-12824
위	-12825
와	-12826
4	-12827
원	-12828
선	-12829
게	-12830
트	-12831
공	-12832
마	-12833
였	-12834
6	-12835
o	-12836
보	-12837
드	-12838
만	-12839
7	-12840
중	-12841
며	-12842
조	-12843
화	-12844
우	-12845
i	-12846
미	-12847
r	-12848
경	-12849
소	-12850
유	-12851
세	-12852
비	-12853
학	-12854
교	-12855
n	-12856
오	-12857
르	-12858
신	-12859
"	-12860
치	-12861
명	-12862
개	-12863
문	-12864
연	-12865
계	-12866
역	-12867
후	-12868
된	-12869
회	-12870
t	-12871
면	-12872
관	-12873
것	-12874
영	-12875
진	-12876
터	-12877
등	-12878
모	-12879
용	-12880
발	-12881
프	-12882
l	-12883
군	-12884
작	-12885
음	-12886
러	-12887
당	-12888
'	-12889
타	-12890
니	-12891
무	-12892
산	-12893
s	-12894
재	-12895
레	-12896
방	-12897
m	-12898
단	-12899
데	-12900
민	-12901
거	-12902
카	-12903
반	-12904
통	-12905
간	-12906
분	-12907
바	-12908
생	-12909
크	-12910
포	-12911
체	-12912
안	-12913
차	-12914
행	-12915
내	-12916
현	-12917
u	-12918
호	-12919
노	-12920
운	-12921
식	-12922
본	-12923
할	-12924
파	-12925
물	-12926
출	-12927
남	-12928
종	-12929
요	-12930
양	-12931
-	-12932
때	-12933
임	-12934
S	-12935
속	-12936
실	-12937
두	-12938
야	-12939
토	-12940
함	-12941
C	-12942
던	-12943
c	-12944
결	-12945
A	-12946
루	-12947
설	-12948
형	-12949
코	-12950
표	-12951
강	-12952
려	-12953
키	-12954
히	-12955
각	-12956
h	-12957
독	-12958
초	-12959
디	-12960
법	-12961
배	-12962
업	-12963
태	-12964
d	-12965
승	-12966
까	-12967
건	-12968
직	-12969
래	-12970
버	-12971
매	-12972
입	-12973
불	-12974
또	-12975
합	-12976
록	-12977
력	-12978
점	-12979
번	-12980
피	-12981
예	-12982
않	-12983
최	-12984
른	-12985
받	-12986
았	-12987
같	-12988
약	-12989
베	-12990
티	-12991
T	-12992
권	-12993
메	-12994
M	-12995
브	-12996
천	-12997
더	-12998
말	-12999
감	-13000
알	-13001
B	-13002
심	-13003
판	-13004
왕	-13005
격	-13006
투	-13007
립	-13008
~	-13009
목	-13010
금	-13011
처	-13012
추	-13013
g	-13014
달	-13015
청	-13016
f	-13017
없	-13018
F	-13019
I	-13020
네	-13021
북	-13022
란	-13023
평	-13024
린	-13025
항	-13026
따	-13027
활	-13028
외	-13029
열	-13030
P	-13031
저	-13032
특	-13033
D	-13034
언	-13035
집	-13036
준	-13037
테	-13038
p	-13039
즈	-13040
편	-13041
복	-13042
석	-13043
y	-13044
향	-13045
변	-13046
류	-13047
k	-13048
병	-13049
질	-13050
근	-13051
E	-13052
광	-13053
령	-13054
족	-13055
름	-13056
난	-13057
페	-13058
랑	-13059
람	-13060
급	-13061
존	-13062
총	-13063
올	-13064
황	-13065
많	-13066
쪽	-13067
능	-13068
축	-13069
참	-13070
송	-13071
론	-13072
L	-13073
술	-13074
R	-13075
철	-13076
김	-13077
박	-13078
N	-13079
별	-13080
및	-13081
살	-13082
울	-13083
환	-13084
증	-13085
악	-13086
품	-13087
온	-13088
쿠	-13089
O	-13090
곡	-13091
절	-13092
료	-13093
G	-13094
플	-13095
창	-13096
:	-13097
육	-13098
백	-13099
망	-13100
새	-13101
K	-13102
졌	-13103
든	-13104
확	-13105
께	-13106
필	-13107
애	-13108
쓰	-13109
머	-13110
돌	-13111
순	-13112
글	-13113
져	-13114
량	-13115
H	-13116
케	-13117
b	-13118
림	-13119
탈	-13120
규	-13121
워	-13122
패	-13123
색	-13124
팀	-13125
범	-13126
클	-13127
극	-13128
V	-13129
날	-13130
견	-13131
째	-13132
너	-13133
련	-13134
쟁	-13135
탄	-13136
랜	-13137
친	-13138
v	-13139
막	-13140
삼	-13141
접	-13142
충	-13143
손	-13144
책	-13145
션	-13146
봉	-13147
완	-13148
츠	-13149
퍼	-13150
협	-13151
_	-13152
U	-13153
못	-13154
뒤	-13155
런	-13156
%	-13157
밀	-13158
담	-13159
채	-13160
/	-13161
블	-13162
골	-13163
길	-13164
습	-13165
엔	-13166
측	-13167
녀	-13168
W	-13169
취	-13170
혼	-13171
누	-13172
럽	-13173
험	-13174
슈	-13175
즌	-13176
슬	-13177
커	-13178
곳	-13179
암	-13180
갈	-13181
귀	-13182
났	-13183
첫	-13184
겨	-13185
칭	-13186
벌	-13187
찰	-13188
웨	-13189
높	-13190
앙	-13191
w	-13192
효	-13193
침	-13194
뉴	-13195
뜻	-13196
널	-13197
허	-13198
쳐	-13199
획	-13200
볼	-13201
씨	-13202
착	-13203
응	-13204
죽	-13205
센	-13206
큰	-13207
락	-13208
례	-13209
징	-13210
검	-13211
득	-13212
렸	-13213
움	-13214
폭	-13215
잡	-13216
J	-13217
헌	-13218
농	-13219
희	-13220
]	-13221
[	-13222
논	-13223
캐	-13224
럼	-13225
틀	-13226
섬	-13227
걸	-13228
엘	-13229
폴	-13230
택	-13231
퇴	-13232
느	-13233
될	-13234
싱	-13235
홍	-13236
폐	-13237
왔	-13238
풍	-13239
층	-13240
헤	-13241
픽	-13242
끝	-13243
먼	-13244
줄	-13245
즉	-13246
압	-13247
앞	-13248
좌	-13249
율	-13250
념	-13251
맞	-13252
킨	-13253
덕	-13254
맡	-13255
찬	-13256
턴	-13257
긴	-13258
혁	-13259
윤	-13260
빌	-13261
늘	-13262
슨	-13263
릭	-13264
촌	-13265
링	-13266
염	-13267
델	-13268
익	-13269
램	-13270
갖	-13271
벨	-13272
잘	-13273
억	-13274
빈	-13275
써	-13276
텔	-13277
균	-13278
콘	-13279
얼	-13280
닌	-13281
묘	-13282
몇	-13283
냈	-13284
렌	-13285
칸	-13286
엄	-13287
맹	-13288
궁	-13289
팔	-13290
앨	-13291
밝	-13292
쇼	-13293
객	-13294
휘	-13295
훈	-13296
맥	-13297
컵	-13298
됐	-13299
얻	-13300
x	-13301
흥	-13302
칼	-13303
옥	-13304
숙	-13305
괴	-13306
갔	-13307
콜	-13308
푸	-13309
넘	-13310
뷔	-13311
흐	-13312
샤	-13313
좋	-13314
덴	-13315
므	-13316
X	-13317
템	-13318
몰	-13319
액	-13320
률	-13321
떠	-13322
룹	-13323
릴	-13324
핵	-13325
빠	-13326
붙	-13327
둘	-13328
찾	-13329
혹	-13330
z	-13331
낸	-13332
켰	-13333
몬	-13334
혀	-13335
욕	-13336
뿐	-13337
컴	-13338
굴	-13339
끌	-13340
힘	-13341
놓	-13342
잠	-13343
죄	-13344
롯	-13345
십	-13346
떨	-13347
Y	-13348
탑	-13349
칙	-13350
핀	-13351
싸	-13352
척	-13353
벤	-13354
쥐	-13355
갑	-13356
벽	-13357
먹	-13358
졸	-13359
략	-13360
몸	-13361
맨	-13362
눈	-13363
잉	-13364
녹	-13365
컬	-13366
틴	-13367
렉	-13368
끼	-13369
몽	-13370
밴	-13371
풀	-13372
휴	-13373
잔	-13374
춘	-13375
켜	-13376
쳤	-13377
뮤	-13378
곤	-13379
칠	-13380
홈	-13381
폰	-13382
밖	-13383
렇	-13384
털	-13385
혈	-13386
셀	-13387
뛰	-13388
앤	-13389
!	-13390
멸	-13391
솔	-13392
륙	-13393
렀	-13394
탁	-13395
톤	-13396
겼	-13397
텐	-13398
둥	-13399
꾸	-13400
탕	-13401
혜	-13402
쿄	-13403
낮	-13404
롤	-13405
웠	-13406
혔	-13407
돈	-13408
홀	-13409
팅	-13410
딸	-13411
컨	-13412
둔	-13413
넷	-13414
랐	-13415
겸	-13416
냐	-13417
윈	-13418
님	-13419
탐	-13420
톨	-13421
퓨	-13422
랙	-13423
촉	-13424
킬	-13425
헨	-13426
욱	-13427
?	-13428
펜	-13429
겠	-13430
떤	-13431
셔	-13432
콩	-13433
튜	-13434
낙	-13435
넓	-13436
덜	-13437
옹	-13438
멘	-13439
겐	-13440
뇌	-13441
융	-13442
렬	-13443
꽃	-13444
왜	-13445
흔	-13446
킹	-13447
젤	-13448
섭	-13449
붕	-13450
슷	-13451
놀	-13452
읍	-13453
듬	-13454
깨	-13455
옮	-13456
넣	-13457
닝	-13458
힌	-13459
헬	-13460
빛	-13461
롭	-13462
땅	-13463
멤	-13464
윌	-13465
곧	-13466
답	-13467
룬	-13468
딩	-13469
쇄	-13470
팬	-13471
쉬	-13472
젠	-13473
흑	-13474
듀	-13475
켓	-13476
쌍	-13477
큐	-13478
즘	-13479
챔	-13480
닉	-13481
짓	-13482
값	-13483
룡	-13484
튼	-13485
뢰	-13486
렵	-13487
흡	-13488
옛	-13489
밤	-13490
Z	-13491
웅	-13492
랫	-13493
=	-13494
릉	-13495
j	-13496
닥	-13497
랭	-13498
젝	-13499
빙	-13500
납	-13501
멜	-13502
맺	-13503
씩	-13504
웃	-13505
궤	-13506
짜	-13507
&	-13508
펠	-13509
깊	-13510
롱	-13511
쉽	-13512
틱	-13513
숨	-13514
섯	-13515
잃	-13516
+	-13517
듯	-13518
멀	-13519
핑	-13520
캠	-13521
웹	-13522
꼬	-13523
뷰	-13524
즐	-13525
셰	-13526
잇	-13527
숭	-13528
쓴	-13529
믿	-13530
밍	-13531
찍	-13532
텍	-13533
끄	-13534
뜨	-13535
Q	-13536
큼	-13537
짐	-13538
;	-13539
빅	-13540
덤	-13541
틸	-13542
폼	-13543
빨	-13544
돼	-13545
멕	-13546
펼	-13547
짧	-13548
잎	-13549
롬	-13550
엽	-13551
뀌	-13552
쇠	-13553
힐	-13554
딘	-13555
삭	-13556
럭	-13557
|	-13558
곱	-13559
q	-13560
캘	-13561
켄	-13562
럴	-13563
켈	-13564
릿	-13565
혐	-13566
첨	-13567
랍	-13568
촬	-13569
겪	-13570
썼	-13571
닐	-13572
삶	-13573
낭	-13574
랄	-13575
컷	-13576
얀	-13577
콤	-13578
튀	-13579
밑	-13580
벗	-13581
싶	-13582
헝	-13583
옆	-13584
믹	-13585
낳	-13586
젊	-13587
흘	-13588
냥	-13589
곽	-13590
꿈	-13591
쌓	-13592
첩	-13593
셜	-13594
톱	-13595
됨	-13596
뉘	-13597
읽	-13598
옷	-13599
왼	-13600
듣	-13601
엑	-13602
빼	-13603
룩	-13604
닛	-13605
냉	-13606
퀴	-13607
잭	-13608
샌	-13609
픈	-13610
븐	-13611
엇	-13612
뒷	-13613
봄	-13614
숲	-13615
흰	-13616
벡	-13617
띠	-13618
낼	-13619
섰	-13620
씬	-13621
뱅	-13622
셋	-13623
슴	-13624
쿨	-13625
넬	-13626
캄	-13627
묵	-13628
괄	-13629
벼	-13630
끊	-13631
덮	-13632
뤼	-13633
팽	-13634
뿌	-13635
좀	-13636
앗	-13637
댄	-13638
붉	-13639
둑	-13640
뤄	-13641
떻	-13642
첼	-13643
맛	-13644
뱀	-13645
숫	-13646
뼈	-13647
톰	-13648
팩	-13649
찌	-13650
묻	-13651
웰	-13652
샘	-13653
훨	-13654
짝	-13655
캔	-13656
앵	-13657
륜	-13658
렴	-13659
춤	-13660
녕	-13661
쓸	-13662
늬	-13663
엠	-13664
렐	-13665
덩	-13666
탱	-13667
밥	-13668
늄	-13669
셈	-13670
쾌	-13671
쫓	-13672
팝	-13673
봇	-13674
꺼	-13675
겔	-13676
꼽	-13677
닫	-13678
깔	-13679
늦	-13680
렘	-13681
횡	-13682
흉	-13683
룸	-13684
뽑	-13685
꼭	-13686
옌	-13687
앉	-13688
륨	-13689
랩	-13690
끈	-13691
멍	-13692
딜	-13693
끔	-13694
좁	-13695
갤	-13696
펙	-13697
룰	-13698
훗	-13699
꾼	-13700
춰	-13701
깃	-13702
퀘	-13703
뚜	-13704
햄	-13705
툰	-13706
첸	-13707
륭	-13708
긍	-13709
빗	-13710
윗	-13711
탠	-13712
덧	-13713
딕	-13714
퀸	-13715
뮌	-13716
쿼	-13717
삽	-13718
홋	-13719
듭	-13720
셉	-13721
넨	-13722
킴	-13723
싼	-13724
펴	-13725
묶	-13726
궐	-13727
꺾	-13728
슐	-13729
윙	-13730
펑	-13731
렛	-13732
녔	-13733
섞	-13734
펄	-13735
쌀	-13736
겹	-13737
훌	-13738
뉜	-13739
눌	-13740
꼴	-13741
섹	-13742
녁	-13743
넌	-13744
낌	-13745
돔	-13746
깥	-13747
엉	-13748
띄	-13749
펀	-13750
돕	-13751
넥	-13752
뿔	-13753
곰	-13754
툴	-13755
밭	-13756
콰	-13757
갱	-13758
랴	-13759
핸	-13760
똑	-13761
깝	-13762
빵	-13763
*	-13764
톡	-13765
딱	-13766
힙	-13767
닷	-13768
셸	-13769
콧	-13770
틈	-13771
뇨	-13772
옵	-13773
훼	-13774
굽	-13775
콕	-13776
턱	-13777
컫	-13778
늑	-13779
팡	-13780
굳	-13781
핫	-13782
킷	-13783
흙	-13784
콥	-13785
닭	-13786
겁	-13787
빚	-13788
맷	-13789
뮬	-13790
풋	-13791
멈	-13792
껍	-13793
룽	-13794
죠	-13795
밸	-13796
캡	-13797
킥	-13798
겉	-13799
쏘	-13800
뻗	-13801
벳	-13802
딴	-13803
탓	-13804
럿	-13805
떼	-13806
푼	-13807
봐	-13808
왈	-13809
홉	-13810
샹	-13811
퉁	-13812
렷	-13813
굿	-13814
꿀	-13815
앱	-13816
눅	-13817
쁜	-13818
쯤	-13819
닮	-13820
툼	-13821
릎	-13822
붓	-13823
뚫	-13824
닿	-13825
쑤	-13826
듈	-13827
엣	-13828
굉	-13829
띤	-13830
싫	-13831
샬	-13832
댐	-13833
놈	-13834
줬	-13835
릇	-13836
칩	-13837
쉐	-13838
헐	-13839
셨	-13840
낀	-13841
쩌	-13842
옴	-13843
쿤	-13844
갓	-13845
걷	-13846
젖	-13847
냄	-13848
쥬	-13849
낱	-13850
팜	-13851
웬	-13852
슘	-13853
걱	-13854
펌	-13855
삿	-13856
퐁	-13857
솜	-13858
흠	-13859
둠	-13860
잊	-13861
핍	-13862
봤	-13863
솟	-13864
곁	-13865
$	-13866
렁	-13867
덟	-13868
얇	-13869
흩	-13870
짙	-13871
쏟	-13872
톈	-13873
껴	-13874
멋	-13875
챌	-13876
탤	-13877
긋	-13878
돋	-13879
밟	-13880
옐	-13881
휠	-13882
휩	-13883
얄	-13884
#	-13885
덱	-13886
굵	-13887
쯔	-13888
뚝	-13889
컸	-13890
꾀	-13891
쁘	-13892
훔	-13893
얘	-13894
꿔	-13895
뭉	-13896
왓	-13897
륵	-13898
맵	-13899
끓	-13900
텀	-13901
캉	-13902
떡	-13903
펫	-13904
뀐	-13905
댓	-13906
슭	-13907
햇	-13908
벵	-13909
꽤	-13910
앓	-13911
싯	-13912
썬	-13913
픔	-13914
짱	-13915
횟	-13916
맘	-13917
잦	-13918
씀	-13919
붐	-13920
{	-13921
벅	-13922
줌	-13923
>	-13924
샨	-13925
밋	-13926
꼈	-13927
엥	-13928
갇	-13929
빔	-13930
헥	-13931
촨	-13932
엿	-13933
츄	-13934
뒀	-13935
팟	-13936
눠	-13937
딪	-13938
멧	-13939
괘	-13940
랏	-13941
셴	-13942
깎	-13943
몫	-13944
낫	-13945
얹	-13946
닦	-13947
맑	-13948
`	-13949
줘	-13950
팍	-13951
깐	-13952
얽	-13953
땄	-13954
찔	-13955
맏	-13956
캅	-13957
걀	-13958
곶	-13959
텝	-13960
찐	-13961
끗	-13962
옳	-13963
씌	-13964
뻔	-13965
뭇	-13966
앰	-13967
쭉	-13968
땃	-13969
귄	-13970
윅	-13971
뱃	-13972
튬	-13973
슛	-13974
팰	-13975
촐	-13976
뚱	-13977
볍	-13978
펩	-13979
찮	-13980
}	-13981
쟈	-13982
렝	-13983
핏	-13984
얕	-13985
욘	-13986
챙	-13987
뭄	-13988
뻐	-13989
냅	-13990
삐	-13991
궈	-13992
넛	-13993
엮	-13994
쾰	-13995
헛	-13996
캣	-13997
뮈	-13998
낚	-13999
섀	-14000
쉴	-14001
쩔	-14002
뾰	-14003
뫼	-14004
꿨	-14005
탬	-14006
샐	-14007
믈	-14008
딥	-14009
뜬	-14010
쾨	-14011
싹	-14012
귤	-14013
숀	-14014
딧	-14015
랬	-14016
훙	-14017
푹	-14018
뤘	-14019
낄	-14020
돗	-14021
쿡	-14022
갯	-14023
웍	-14024
챈	-14025
샀	-14026
깜	-14027
싣	-14028
췌	-14029
렙	-14030
늙	-14031
췄	-14032
녜	-14033
댈	-14034
눔	-14035
꽂	-14036
껏	-14037
쁨	-14038
퓌	-14039
늪	-14040
갚	-14041
몹	-14042
잼	-14043
뮐	-14044
탭	-14045
쿰	-14046
찢	-14047
쵸	-14048
겟	-14049
슌	-14050
퀼	-14051
큘	-14052
즙	-14053
쪼	-14054
맬	-14055
깁	-14056
썩	-14057
뜸	-14058
샵	-14059
숍	-14060
꽝	-14061
볶	-14062
펭	-14063
넉	-14064
듐	-14065
짖	-14066
뇽	-14067
@	-14068
릅	-14069
짚	-14070
룻	-14071
퀄	-14072
츰	-14073
괌	-14074
굶	-14075
뜰	-14076
뿜	-14077
씻	-14078
빽	-14079
엎	-14080
엡	-14081
촛	-14082
샴	-14083
쩐	-14084
뵈	-14085
뭐	-14086
훤	-14087
젯	-14088
샷	-14089
뇰	-14090
촘	-14091
핼	-14092
켐	-14093
탔	-14094
썰	-14095
똥	-14096
퀀	-14097
롄	-14098
뜯	-14099
밧	-14100
괜	-14101
팻	-14102
쑨	-14103
튠	-14104
둡	-14105
윽	-14106
껑	-14107
땀	-14108
꿰	-14109
멩	-14110
벚	-14111
퓰	-14112
잣	-14113
욤	-14114
쥘	-14115
킵	-14116
팥	-14117
깅	-14118
낡	-14119
슝	-14120
낯	-14121
밈	-14122
츨	-14123
둬	-14124
쥔	-14125
뽀	-14126
벙	-14127
댕	-14128
텅	-14129
꼼	-14130
됩	-14131
젓	-14132
뎀	-14133
쉰	-14134
\	-14135
랠	-14136
좡	-14137
썸	-14138
팎	-14139
헴	-14140
딤	-14141
왁	-14142
띈	-14143
챠	-14144
멱	-14145
<	-14146
젬	-14147
쑹	-14148
웜	-14149
칫	-14150
훅	-14151
캇	-14152
짠	-14153
뱌	-14154
쏠	-14155
윔	-14156
쿵	-14157
쏜	-14158
뭔	-14159
몄	-14160
쐐	-14161
넴	-14162
캥	-14163
얌	-14164
퍽	-14165
갸	-14166
엌	-14167
꽁	-14168
칵	-14169
솥	-14170
덥	-14171
쨌	-14172
앳	-14173
돛	-14174
댁	-14175
룀	-14176
폈	-14177
눕	-14178
핌	-14179
뎅	-14180
찻	-14181
ㅣ	-14182
깡	-14183
놉	-14184
욜	-14185
먀	-14186
쩍	-14187
뺏	-14188
콴	-14189
툭	-14190
넙	-14191
뛴	-14192
잖	-14193
캬	-14194
쑥	-14195
늠	-14196
쉘	-14197
팁	-14198
^	-14199
옙	-14200
갠	-14201
옅	-14202
웁	-14203
힉	-14204
뺨	-14205
썹	-14206
읊	-14207
뮴	-14208
땐	-14209
뎌	-14210
볕	-14211
닙	-14212
뺀	-14213
쭈	-14214
뀔	-14215
딛	-14216
봅	-14217
팸	-14218
넵	-14219
샛	-14220
뛸	-14221
숄	-14222
꼰	-14223
홑	-14224
쉼	-14225
뽕	-14226
텃	-14227
꿇	-14228
냇	-14229
튿	-14230
씹	-14231
횃	-14232
깬	-14233
ㄱ	-14234
텡	-14235
엷	-14236
퀵	-14237
텟	-14238
땡	-14239
깼	-14240
웸	-14241
웡	-14242
짤	-14243
춧	-14244
긁	-14245
꽉	-14246
줍	-14247
댑	-14248
힝	-14249
펨	-14250
폄	-14251
켤	-14252
씽	-14253
쇤	-14254
젼	-14255
랗	-14256
뱉	-14257
뻘	-14258
챕	-14259
깍	-14260
솝	-14261
쏴	-14262
찼	-14263
휼	-14264
솅	-14265
쎄	-14266
귈	-14267
윳	-14268
눗	-14269
숏	-14270
뎬	-14271
뤽	-14272
륀	-14273
뷜	-14274
됭	-14275
뎃	-14276
뜩	-14277
꺽	-14278
젱	-14279
찹	-14280
얏	-14281
꿉	-14282
맴	-14283
쩡	-14284
춥	-14285
댜	-14286
빴	-14287
푀	-14288
쌈	-14289
묀	-14290
빡	-14291
쭤	-14292
ㄷ	-14293
뢴	-14294
잿	-14295
ㅇ	-14296
숯	-14297
헵	-14298
셍	-14299
ㄹ	-14300
뷘	-14301
흄	-14302
랸	-14303
ㅡ	-14304
텁	-14305
ㄴ	-14306
놔	-14307
튕	-14308
꿩	-14309
떴	-14310
맙	-14311
숱	-14312
놨	-14313
뽐	-14314
잰	-14315
찜	-14316
햐	-14317
굼	-14318
탸	-14319
ㅁ	-14320
ㅅ	-14321
샅	-14322
륄	-14323
뵤	-14324
쌌	-14325
땜	-14326
넋	-14327
헹	-14328
댔	-14329
밌	-14330
볜	-14331
뷸	-14332
뻣	-14333
좇	-14334
꿋	-14335
묄	-14336
븀	-14337
쳇	-14338
갬	-14339
낵	-14340
컹	-14341
헷	-14342
녘	-14343
볏	-14344
놋	-14345
껌	-14346
얗	-14347
첵	-14348
탉	-14349
쌔	-14350
썽	-14351
탯	-14352
핥	-14353
듦	-14354
옻	-14355
몯	-14356
앎	-14357
뎠	-14358
냔	-14359
셤	-14360
짊	-14361
줏	-14362
췬	-14363
똘	-14364
괭	-14365
쁠	-14366
펍	-14367
냑	-14368
갭	-14369
챗	-14370
툇	-14371
휜	-14372
귓	-14373
덫	-14374
겜	-14375
욧	-14376
쟝	-14377
젭	-14378
앴	-14379
꾹	-14380
넜	-14381
눴	-14382
쨩	-14383
쿱	-14384
폿	-14385
윕	-14386
튤	-14387
뉠	-14388
눙	-14389
닳	-14390
깟	-14391
뺄	-14392
뵐	-14393
숴	-14394
텨	-14395
헉	-14396
넝	-14397
몐	-14398
긱	-14399
궂	-14400
껀	-14401
듄	-14402
쭝	-14403
섣	-14404
훠	-14405
뚤	-14406
왑	-14407
콸	-14408
쥰	-14409
솽	-14410
뭘	-14411
짬	-14412
늉	-14413
뷴	-14414
ㅂ	-14415
쳅	-14416
팹	-14417
빤	-14418
돤	-14419
팠	-14420
겅	-14421
셩	-14422
숟	-14423
벰	-14424
숑	-14425
뗏	-14426
믐	-14427
껄	-14428
셧	-14429
톳	-14430
뗀	-14431
뎁	-14432
긔	-14433
욥	-14434
쬐	-14435
뀜	-14436
닻	-14437
씰	-14438
켠	-14439
ㅎ	-14440
챘	-14441
텼	-14442
끽	-14443
쏙	-14444
쫄	-14445
뻑	-14446
괵	-14447
맣	-14448
쪄	-14449
푈	-14450
ㅈ	-14451
왐	-14452
쳉	-14453
떳	-14454
쳄	-14455
힛	-14456
갉	-14457
냘	-14458
묽	-14459
쉔	-14460
욀	-14461
ㅋ	-14462
꼿	-14463
뺑	-14464
솁	-14465
꿍	-14466
껫	-14467
햅	-14468
쥴	-14469
왠	-14470
넹	-14471
륌	-14472
샥	-14473
웩	-14474
휨	-14475
믄	-14476
쭐	-14477
톄	-14478
뗄	-14479
뭍	-14480
빻	-14481
켁	-14482
튈	-14483
땔	-14484
갛	-14485
짰	-14486
횔	-14487
츤	-14488
챤	-14489
씁	-14490
넸	-14491
탰	-14492
튄	-14493
켕	-14494
칡	-14495
뒬	-14496
쯩	-14497
퉈	-14498
꽈	-14499
쫑	-14500
웽	-14501
퀜	-14502
됴	-14503
윰	-14504
쩨	-14505
틔	-14506
빳	-14507
섐	-14508
잽	-14509
뜀	-14510
죤	-14511
찧	-14512
윷	-14513
좨	-14514
깽	-14515
녓	-14516
ㅏ	-14517
퓔	-14518
뢸	-14519
멎	-14520
퓸	-14521
쾅	-14522
ㅊ	-14523
ㅌ	-14524
뵙	-14525
솀	-14526
쐈	-14527
틋	-14528
훑	-14529
뵘	-14530
빕	-14531
섕	-14532
잴	-14533
밉	-14534
휫	-14535
ㅗ	-14536
깰	-14537
뻤	-14538
퍄	-14539
냠	-14540
뺐	-14541
웻	-14542
ㅍ	-14543
쉥	-14544
쾡	-14545
셌	-14546
팃	-14547
녠	-14548
뼛	-14549
잤	-14550
쿈	-14551
궬	-14552
겊	-14553
볐	-14554
켑	-14555
꽌	-14556
맸	-14557
짭	-14558
쿳	-14559
뷧	-14560
쇳	-14561
쎈	-14562
땋	-14563
졍	-14564
홧	-14565
꽹	-14566
띵	-14567
쟌	-14568
얍	-14569
읜	-14570
햘	-14571
뱁	-14572
옘	-14573
젋	-14574
헙	-14575
낟	-14576
둣	-14577
뒹	-14578
룔	-14579
뻬	-14580
찡	-14581
큔	-14582
삯	-14583
삵	-14584
졔	-14585
뎨	-14586
멥	-14587
틍	-14588
깻	-14589
먄	-14590
묠	-14591
뻥	-14592
ㅜ	-14593
섶	-14594
홰	-14595
쌘	-14596
혓	-14597
쏭	-14598
ㅓ	-14599
쌩	-14600
짼	-14601
찟	-14602
ㅐ	-14603
ㅔ	-14604
똔	-14605
룅	-14606
쇨	-14607
얉	-14608
텄	-14609
롼	-14610
푄	-14611
듸	-14612
떫	-14613
쭌	-14614
쳔	-14615
굄	-14616
뎐	-14617
컥	-14618
귐	-14619
묜	-14620
쉿	-14621
쫒	-14622
괸	-14623
띌	-14624
뿍	-14625
큅	-14626
엾	-14627
룝	-14628
붑	-14629
씸	-14630
젹	-14631
폽	-14632
뇬	-14633
뗐	-14634
녤	-14635
뚬	-14636
벋	-14637
빰	-14638
뿡	-14639
쇽	-14640
숩	-14641
쏨	-14642
븡	-14643
읫	-14644
껐	-14645
낏	-14646
툽	-14647
ㄲ	-14648
ㅆ	-14649
갗	-14650
띨	-14651
죈	-14652
땠	-14653
쌤	-14654
뒨	-14655
쮸	-14656
퓐	-14657
뽁	-14658
쑈	-14659
옝	-14660
츈	-14661
뉼	-14662
섄	-14663
숌	-14664
읏	-14665
죌	-14666
줴	-14667
퇘	-14668
펏	-14669
ㅕ	-14670
똠	-14671
쐬	-14672
졈	-14673
짹	-14674
닢	-14675
삔	-14676
짢	-14677
퇼	-14678
툉	-14679
ㄸ	-14680
ㅠ	-14681
믜	-14682
좆	-14683
띔	-14684
뱐	-14685
졀	-14686
캑	-14687
큄	-14688
ㅃ	-14689
ㅑ	-14690
밂	-14691
갹	-14692
겡	-14693
귬	-14694
슥	-14695
툐	-14696
툠	-14697
푯	-14698
벧	-14699
솎	-14700
쓱	-14701
괼	-14702
벱	-14703
촙	-14704
ㅉ	-14705
넒	-14706
짇	-14707
짦	-14708
낑	-14709
덞	-14710
쉈	-14711
싀	-14712
왬	-14713
큇	-14714
돠	-14715
뚠	-14716
뿅	-14717
옭	-14718
쯕	-14719
큉	-14720
퉜	-14721
틂	-14722
뼉	-14723
죵	-14724
츳	-14725
쾃	-14726
갰	-14727
궉	-14728
궜	-14729
뺌	-14730
쌕	-14731
ㅛ	-14732
셱	-14733
쫀	-14734
꾐	-14735
맟	-14736
녯	-14737
캰	-14738
ㅒ	-14739
끙	-14740
떵	-14741
몌	-14742
뮨	-14743
붇	-14744
뽈	-14745
쀼	-14746
쌉	-14747
옇	-14748
쨍	-14749
캴	-14750
훵	-14751
딨	-14752
륑	-14753
뱡	-14754
ㅖ	-14755
덛	-14756
솨	-14757
꿴	-14758
쟀	-14759
ㅟ	-14760
ㅢ	-14761
곪	-14762
롸	-14763
삥	-14764
틉	-14765
푤	-14766
햏	-14767
뎡	-14768
뵌	-14769
뵬	-14770
쨋	-14771
푁	-14772
흭	-14773
걍	-14774
껩	-14775
탼	-14776
걔	-14777
꿎	-14778
묑	-14779
젔	-14780
쩜	-14781
퇀	-14782
횬	-14783
ㅚ	-14784
겋	-14785
꽥	-14786
땝	-14787
븓	-14788
쳥	-14789
휙	-14790
됸	-14791
썻	-14792
쿌	-14793
묏	-14794
샙	-14795
쉑	-14796
쒀	-14797
앏	-14798
퀠	-14799
뢱	-14800
뭣	-14801
뱟	-14802
붸	-14803
솃	-14804
쏸	-14805
퇸	-14806
펐	-14807
굠	-14808
궃	-14809
븨	-14810
쁩	-14811
얭	-14812
텬	-14813
꺅	-14814
볘	-14815
삑	-14816
슙	-14817
싁	-14818
졉	-14819
팼	-14820
퍌	-14821
곗	-14822
놘	-14823
댠	-14824
랖	-14825
륍	-14826
뭡	-14827
뼘	-14828
웟	-14829
쟤	-14830
쪘	-14831
쳬	-14832
킁	-14833
ㅘ	-14834
곬	-14835
돝	-14836
뤠	-14837
멓	-14838
왱	-14839
죗	-14840
챵	-14841
겍	-14842
굣	-14843
귿	-14844
똣	-14845
릐	-14846
몆	-14847
쫙	-14848
쳰	-14849
긷	-14850
끎	-14851
덖	-14852
떰	-14853
뜷	-14854
쎌	-14855
옯	-14856
윾	-14857
큥	-14858
큭	-14859
킈	-14860
퍈	-14861
풰	-14862
낍	-14863
뉸	-14864
닑	-14865
닯	-14866
밎	-14867
밞	-14868
슉	-14869
쫌	-14870
췐	-14871
큽	-14872
햣	-14873
똬	-14874
럅	-14875
샾	-14876
솬	-14877
엳	-14878
읗	-14879
좐	-14880
찿	-14881
햔	-14882
ㅄ	-14883
귁	-14884
뉨	-14885
됙	-14886
랼	-14887
륩	-14888
믯	-14889
뽄	-14890
쌋	-14891
쌰	-14892
얜	-14893
옉	-14894
쵤	-14895
틑	-14896
갼	-14897
뉵	-14898
늡	-14899
듕	-14900
샜	-14901
셕	-14902
셥	-14903
쉭	-14904
슯	-14905
읻	-14906
죡	-14907
쥠	-14908
쬘	-14909
찝	-14910
촤	-14911
춉	-14912
켸	-14913
쿽	-14914
튐	-14915
풂	-14916
횐	-14917
휀	-14918
흗	-14919
ㅝ	-14920
겯	-14921
긑	-14922
꾜	-14923
녬	-14924
뇩	-14925
댱	-14926
믕	-14927
섁	-14928
쟉	-14929
쨔	-14930
쬔	-14931
챨	-14932
춍	-14933
캤	-14934
햑	-14935
혠	-14936
훕	-14937
ㅙ	-14938
ㅞ	-14939
궨	-14940
냣	-14941
뉩	-14942
늴	-14943
돐	-14944
룟	-14945
먁	-14946
왝	-14947
즁	-14948
츌	-14949
튱	-14950
핬	-14951
헸	-14952
ㄺ	-14953
곯	-14954
굘	-14955
깸	-14956
뀍	-14957
됀	-14958
떄	-14959
묫	-14960
벛	-14961
슾	-14962
읕	-14963
죔	-14964
쥣	-14965
즛	-14966
짯	-14967
쳡	-14968
쾍	-14969
픙	-14970
ㅀ	-14971
꺄	-14972
꿘	-14973
뀨	-14974
녈	-14975
녑	-14976
뒴	-14977
딫	-14978
붜	-14979
삘	-14980
섥	-14981
앝	-14982
잌	-14983
쮠	-14984
쯧	-14985
캪	-14986
큠	-14987
텽	-14988
ㄳ	-14989
ㄻ	-14990
ㄼ	-14991
뉙	-14992
뙈	-14993
뚧	-14994
렜	-14995
맻	-14996
밪	-14997
뱔	-14998
봬	-14999
섈	-15000
쑬	-15001
엊	-15002
엹	-15003
읒	-15004
읺	-15005
좃	-15006
쨈	-15007
쭘	-15008
츼	-15009
퀑	-15010
푠	-15011
ㄿ	-15012
걲	-15013
겝	-15014
겻	-15015
귑	-15016
꼍	-15017
낢	-15018
떱	-15019
럇	-15020
볓	-15021
솓	-15022
쏱	-15023
얠	-15024
왹	-15025
욋	-15026
욺	-15027
윱	-15028
읖	-15029
잛	-15030
쫏	-15031
챡	-15032
츔	-15033
켯	-15034
햠	-15035
ㄽ	-15036
괏	-15037
껭	-15038
꼳	-15039
꾄	-15040
뇸	-15041
눞	-15042
눼	-15043
둗	-15044
뒈	-15045
땁	-15046
땟	-15047
멨	-15048
묭	-15049
묾	-15050
븜	-15051
뻴	-15052
썅	-15053
씐	-15054
읃	-15055
읔	-15056
읠	-15057
졋	-15058
졘	-15059
짫	-15060
쩬	-15061
쭙	-15062
퀌	-15063
튁	-15064
ㄵ	-15065
ㄶ	-15066
ㄾ	-15067
겇	-15068
껸	-15069
늣	-15070
뎜	-15071
돟	-15072
듧	-15073
땨	-15074
띡	-15075
띰	-15076
륏	-15077
맽	-15078
먕	-15079
멉	-15080
빋	-15081
뺘	-15082
뿟	-15083
삳	-15084
섦	-15085
슁	-15086
쎅	-15087
쏫	-15088
쒸	-15089
얶	-15090
엤	-15091
옜	-15092
읭	-15093
잍	-15094
좔	-15095
쨘	-15096
첬	-15097
촹	-15098
췽	-15099
콱	-15100
턔	-15101
푕	-15102
픕	-15103
홱	-15104
횻	-15105
휭	-15106
흴	-15107
겄	-15108
꽛	-15109
닜	-15110
닸	-15111
닺	-15112
듁	-15113
뙤	-15114
뛔	-15115
뜽	-15116
뫄	-15117
밷	-15118
벴	-15119
뵨	-15120
빎	-15121
뺴	-15122
쁭	-15123
씃	-15124
씼	-15125
얆	-15126
얐	-15127
옸	-15128
욷	-15129
웤	-15130
쮜	-15131
쳑	-15132
켬	-15133
쾬	-15134
퀭	-15135
탙	-15136
퍙	-15137
픠	-15138
헀	-15139
혬	-15140
휑	-15141
흝	-15142
깠	-15143
꺠	-15144
꽅	-15145
꾿	-15146
뀀	-15147
늗	-15148
덨	-15149
덪	-15150
땸	-15151
뙡	-15152
롐	-15153
몃	-15154
뭏	-15155
밣	-15156
뱄	-15157
볻	-15158
뷁	-15159
뷤	-15160
뼤	-15161
섿	-15162
슽	-15163
쓔	-15164
앟	-15165
엶	-15166
옫	-15167
왯	-15168
욈	-15169
욍	-15170
읆	-15171
읓	-15172
잗	-15173
젇	-15174
짔	-15175
챰	-15176
챱	-15177
쳘	-15178
쵹	-15179
춋	-15180
츙	-15181
컁	-15182
쿙	-15183
퀍	-15184
톺	-15185
톼	-15186
폘	-15187
핟	-15188
햤	-15189
힁	-15190
걘	-15191
겿	-15192
곂	-15193
곈	-15194
깩	-15195
깹	-15196
꽆	-15197
뀝	-15198
낻	-15199
넀	-15200
넗	-15201
넢	-15202
넫	-15203
닏	-15204
닽	-15205
뎰	-15206
됫	-15207
뒸	-15208
뗑	-15209
뚯	-15210
럄	-15211
럐	-15212
렫	-15213
뢨	-15214
룁	-15215
룐	-15216
멂	-15217
뫃	-15218
믓	-15219
믾	-15220
봔	-15221
빝	-15222
빱	-15223
싻	-15224
쌴	-15225
쎙	-15226
쐰	-15227
쑜	-15228
씅	-15229
앧	-15230
얩	-15231
얾	-15232
옰	-15233
잏	-15234
쟂	-15235
쟐	-15236
쟛	-15237
쨉	-15238
쬠	-15239
쬬	-15240
쯘	-15241
쳣	-15242
쵼	-15243
췰	-15244
쾀	-15245
텦	-15246
툥	-15247
퍠	-15248
푱	-15249
햗	-15250
헿	-15251
혤	-15252
홥	-15253
훽	-15254
휄	-15255
흫	-15256
갣	-15257
걈	-15258
걺	-15259
곙	-15260
곷	-15261
귝	-15262
깯	-15263
껶	-15264
꽐	-15265
꾕	-15266
꿏	-15267
꿕	-15268
꿸	-15269
뀠	-15270
끕	-15271
냬	-15272
넖	-15273
녣	-15274
뇻	-15275
늇	-15276
덣	-15277
뎍	-15278
뎦	-15279
돎	-15280
돴	-15281
됄	-15282
됮	-15283
뗬	-15284
뙨	-15285
띱	-15286
랟	-15287
롈	-15288
롹	-15289
뤌	-15290
뤗	-15291
륻	-15292
릌	-15293
릍	-15294
먈	-15295
몀	-15296
벉	-15297
븍	-15298
븥	-15299
뻰	-15300
삠	-15301
삡	-15302
삣	-15303
삮	-15304
샏	-15305
섓	-15306
셖	-15307
솦	-15308
솻	-15309
쇘	-15310
숳	-15311
쉡	-15312
앚	-15313
얬	-15314
얺	-15315
엵	-15316
욌	-15317
욯	-15318
윁	-15319
윘	-15320
윶	-15321
읶	-15322
읿	-15323
쟙	-15324
졷	-15325
줫	-15326
쩄	-15327
쩝	-15328
쩽	-15329
쫘	-15330
찣	-15331
찱	-15332
챦	-15333
츅	-15334
츩	-15335
콀	-15336
콬	-15337
콮	-15338
턀	-15339
퇵	-15340
툿	-15341
튝	-15342
튭	-15343
튽	-15344
퐝	-15345
핮	-15346
핳	-15347
핶	-15348
햋	-15349
헜	-15350
홤	-15351
횄	-15352
횩	-15353
훓	-15354
훝	-15355
흿	-15356
힜	-15357
갂	-15358
걑	-15359
괂	-15360
굑	-15361
굔	-15362
굥	-15363
궅	-15364
궘	-15365
귯	-15366
긜	-15367
깂	-15368
깆	-15369
깉	-15370
깢	-15371
껙	-15372
껜	-15373
꼇	-15374
낛	-15375
냡	-15376
넎	-15377
넚	-15378
넡	-15379
놂	-15380
놰	-15381
뇐	-15382
뇔	-15383
뉫	-15384
뉻	-15385
늚	-15386
늩	-15387
늰	-15388
닠	-15389
댛	-15390
댤	-15391
돚	-15392
돵	-15393
돽	-15394
됏	-15395
됬	-15396
둄	-15397
둉	-15398
둰	-15399
둴	-15400
둿	-15401
뒁	-15402
뒥	-15403
듥	-15404
듫	-15405
딷	-15406
떙	-15407
떽	-15408
뗌	-15409
뗘	-15410
뗴	-15411
뗼	-15412
똫	-15413
띳	-15414
랃	-15415
럔	-15416
렡	-15417
롑	-15418
롓	-15419
맄	-15420
맜	-15421
먗	-15422
먿	-15423
몴	-15424
뭬	-15425
뮹	-15426
믠	-15427
밒	-15428
밨	-15429
밫	-15430
밯	-15431
뱆	-15432
뱜	-15433
볠	-15434
봍	-15435
봘	-15436
봣	-15437
뵉	-15438
뵷	-15439
붏	-15440
붖	-15441
붘	-15442
뷋	-15443
뷕	-15444
빧	-15445
뺩	-15446
뺵	-15447
뻡	-15448
뻩	-15449
뽓	-15450
삻	-15451
샇	-15452
섡	-15453
섷	-15454
셑	-15455
쇗	-15456
쇵	-15457
숡	-15458
숧	-15459
숰	-15460
숸	-15461
슼	-15462
싄	-15463
싈	-15464
싲	-15465
싾	-15466
썪	-15467
쎔	-15468
쎴	-15469
쏩	-15470
쏳	-15471
쐇	-15472
쓿	-15473
씉	-15474
앃	-15475
앋	-15476
앖	-15477
얅	-15478
얖	-15479
엜	-15480
옄	-15481
옲	-15482
옺	-15483
옾	-15484
왰	-15485
웝	-15486
윋	-15487
윟	-15488
읅	-15489
읙	-15490
읹	-15491
잋	-15492
잙	-15493
잩	-15494
쟘	-15495
젿	-15496
졜	-15497
줓	-15498
쥭	-15499
즤	-15500
즨	-15501
쩰	-15502
쫃	-15503
쫍	-15504
쬼	-15505
찓	-15506
찯	-15507
첮	-15508
춈	-15509
츕	-15510
칲	-15511
칳	-15512
캌	-15513
컈	-15514
콙	-15515
콛	-15516
탇	-15517
탘	-15518
텉	-15519
텥	-15520
톹	-15521
퇌	-15522
퉤	-15523
튓	-15524
틧	-15525
팈	-15526
팤	-15527
퍅	-15528
폅	-15529
폔	-15530
퐈	-15531
푣	-15532
풜	-15533
퓟	-15534
픗	-15535
핔	-15536
핧	-15537
핲	-15538
핻	-15539
햊	-15540
혿	-15541
홅	-15542
홛	-15543
홯	-15544
횓	-15545
횰	-15546
횽	-15547
훋	-15548
훍	-15549
훜	-15550
휏	-15551
갃	-15552
갏	-15553
갘	-15554
갶	-15555
걋	-15556
걹	-15557
겂	-15558
겆	-15559
겣	-15560
곅	-15561
곌	-15562
곘	-15563
곲	-15564
곹	-15565
곺	-15566
괁	-15567
괍	-15568
괕	-15569
굇	-15570
굦	-15571
굪	-15572
굻	-15573
궇	-15574
궎	-15575
궝	-15576
궡	-15577
궴	-15578
궷	-15579
긆	-15580
긓	-15581
긧	-15582
긾	-15583
깄	-15584
깋	-15585
깓	-15586
깖	-15587
꺌	-15588
꺘	-15589
꺤	-15590
껠	-15591
껬	-15592
껼	-15593
꼐	-15594
꼮	-15595
꽦	-15596
꽨	-15597
꾈	-15598
끍	-15599
낣	-15600
낲	-15601
냤	-15602
넁	-15603
넏	-15604
넑	-15605
넞	-15606
넶	-15607
녅	-15608
녇	-15609
녋	-15610
녙	-15611
녝	-15612
놃	-15613
놧	-15614
놩	-15615
뇍	-15616
뇓	-15617
뇜	-15618
눋	-15619
눨	-15620
늅	-15621
늿	-15622
닞	-15623
댇	-15624
댚	-15625
댝	-15626
댸	-15627
덙	-15628
덝	-15629
덯	-15630
뎗	-15631
뎝	-15632
돇	-15633
돓	-15634
돨	-15635
돰	-15636
됌	-15637
됢	-15638
됰	-15639
됼	-15640
둏	-15641
둚	-15642
둟	-15643
둧	-15644
뒫	-15645
뒵	-15646
듹	-15647
듼	-15648
딀	-15649
딈	-15650
딭	-15651
딯	-15652
딲	-15653
땍	-15654
땽	-15655
떘	-15656
떢	-15657
떥	-15658
떦	-15659
떪	-15660
떯	-15661
뚷	-15662
뚸	-15663
뚼	-15664
뜁	-15665
뜹	-15666
띁	-15667
띅	-15668
랒	-15669
랓	-15670
랕	-15671
랛	-15672
랢	-15673
랰	-15674
랲	-15675
럈	-15676
럘	-15677
럲	-15678
럻	-15679
렃	-15680
렆	-15681
렋	-15682
렗	-15683
렠	-15684
렺	-15685
롲	-15686
롶	-15687
뢀	-15688
룍	-15689
룧	-15690
뤀	-15691
뤈	-15692
뤡	-15693
뤨	-15694
뤰	-15695
뤳	-15696
뤵	-15697
륐	-15698
륫	-15699
륱	-15700
륽	-15701
릊	-15702
릏	-15703
릫	-15704
릳	-15705
릷	-15706
맃	-15707
맆	-15708
맊	-15709
맍	-15710
맔	-15711
맕	-15712
맗	-15713
맠	-15714
먓	-15715
먘	-15716
멏	-15717
멪	-15718
멫	-15719
멵	-15720
몊	-15721
몪	-15722
뫂	-15723
뫈	-15724
뫔	-15725
뫙	-15726
묙	-15727
뭅	-15728
뭋	-15729
뭰	-15730
뭴	-15731
뮝	-15732
믁	-15733
믏	-15734
밓	-15735
밚	-15736
밠	-15737
밡	-15738
밬	-15739
뱍	-15740
벏	-15741
벐	-15742
벓	-15743
벜	-15744
벹	-15745
볃	-15746
볈	-15747
볙	-15748
볿	-15749
봌	-15750
봥	-15751
봭	-15752
뵛	-15753
뵜	-15754
뵝	-15755
붊	-15756
붔	-15757
붴	-15758
뷀	-15759
뷃	-15760
븃	-15761
븕	-15762
븟	-15763
빍	-15764
빞	-15765
빩	-15766
뺙	-15767
뺬	-15768
뺸	-15769
뺼	-15770
뻇	-15771
뻠	-15772
뻼	-15773
뼁	-15774
뼌	-15775
뽝	-15776
뽱	-15777
뿗	-15778
뿝	-15779
쀠	-15780
삜	-15781
샂	-15782
샆	-15783
샊	-15784
샞	-15785
샽	-15786
섧	-15787
섨	-15788
섵	-15789
섽	-15790
솏	-15791
솑	-15792
솰	-15793
쇡	-15794
쇰	-15795
숔	-15796
숖	-15797
숮	-15798
쉅	-15799
쉉	-15800
쉠	-15801
슦	-15802
슳	-15803
싡	-15804
싦	-15805
싪	-15806
싰	-15807
싵	-15808
싺	-15809
싿	-15810
쎃	-15811
쎕	-15812
쎘	-15813
쎼	-15814
쎾	-15815
쐉	-15816
쐑	-15817
쐴	-15818
쐼	-15819
쑴	-15820
쑷	-15821
쒜	-15822
쒼	-15823
쓘	-15824
쓩	-15825
쓺	-15826
씜	-15827
앆	-15828
앛	-15829
앜	-15830
앹	-15831
얂	-15832
얃	-15833
얊	-15834
얨	-15835
얫	-15836
엗	-15837
엝	-15838
엩	-15839
엪	-15840
엯	-15841
옏	-15842
옽	-15843
왇	-15844
왙	-15845
왿	-15846
욨	-15847
욿	-15848
웆	-15849
웇	-15850
웑	-15851
웥	-15852
윥	-15853
윻	-15854
읁	-15855
읂	-15856
읇	-15857
읋	-15858
읟	-15859
읨	-15860
잂	-15861
잆	-15862
잚	-15863
잧	-15864
잨	-15865
쟃	-15866
쟎	-15867
쟨	-15868
쟬	-15869
젃	-15870
젅	-15871
젏	-15872
젗	-15873
젣	-15874
젲	-15875
졩	-15876
졶	-15877
좍	-15878
좧	-15879
좽	-15880
죕	-15881
죙	-15882
죰	-15883
줃	-15884
줜	-15885
쥤	-15886
쥼	-15887
쥿	-15888
즑	-15889
즞	-15890
짎	-15891
짘	-15892
짛	-15893
짥	-15894
짪	-15895
짮	-15896
쨀	-15897
쩟	-15898
쩩	-15899
쩸	-15900
쩻	-15901
쪗	-15902
쪤	-15903
쪨	-15904
쪾	-15905
쫗	-15906
쭂	-15907
찎	-15908
첟	-15909
쳠	-15910
촏	-15911
촥	-15912
쵀	-15913
쵝	-15914
쵣	-15915
춗	-15916
춛	-15917
춝	-15918
춭	-15919
춴	-15920
췍	-15921
췡	-15922
췩	-15923
츺	-15924
칢	-15925
칯	-15926
칱	-15927
캍	-15928
캎	-15929
컅	-15930
컺	-15931
컽	-15932
켙	-15933
켭	-15934
켱	-15935
콭	-15936
쾁	-15937
쾩	-15938
쾻	-15939
쾽	-15940
쿸	-15941
쿹	-15942
퀏	-15943
퀩	-15944
큎	-15945
큣	-15946
큹	-15947
킄	-15948
킌	-15949
킽	-15950
탣	-15951
탶	-15952
탹	-15953
텕	-15954
텤	-15955
텰	-15956
텸	-15957
텻	-15958
퇻	-15959
툅	-15960
툔	-15961
툘	-15962
튻	-15963
틩	-15964
팉	-15965
팑	-15966
팦	-15967
팯	-15968
퍁	-15969
폏	-15970
폳	-15971
폶	-15972
퐅	-15973
퐌	-15974
퐷	-15975
푓	-15976
푝	-15977
푶	-15978
풔	-15979
퓬	-15980
픅	-15981
픜	-15982
픝	-15983
픞	-15984
핃	-15985
핒	-15986
핓	-15987
핝	-15988
핞	-15989
핢	-15990
핦	-15991
핱	-15992
