[PAD]	0
[UNK]	0
[BOS]	0
[EOS]	0
[CLS]	0
[SEP]	0
[MASK]	0
▁t	-0
he	-1
▁a	-2
in	-3
er	-4
▁the	-5
on	-6
re	-7
▁o	-8
ed	-9
nd	-10
▁w	-11
▁s	-12
at	-13
or	-14
is	-15
en	-16
an	-17
it	-18
ar	-19
▁in	-20
▁of	-21
al	-22
▁f	-23
▁c	-24
es	-25
▁b	-26
as	-27
▁p	-28
▁and	-29
ing	-30
ic	-31
ro	-32
ion	-33
▁to	-34
▁m	-35
le	-36
▁d	-37
▁h	-38
▁T	-39
ou	-40
▁S	-41
▁A	-42
il	-43
ent	-44
▁C	-45
▁1	-46
▁re	-47
st	-48
am	-49
om	-50
el	-51
▁M	-52
ol	-53
▁was	-54
▁l	-55
ct	-56
ad	-57
▁I	-58
▁e	-59
▁n	-60
▁th	-61
▁B	-62
ur	-63
▁"	-64
▁The	-65
iv	-66
et	-67
ch	-68
▁H	-69
▁on	-70
▁for	-71
▁2	-72
ation	-73
ly	-74
▁P	-75
▁is	-76
id	-77
ir	-78
ce	-79
ig	-80
im	-81
ot	-82
us	-83
▁g	-84
▁as	-85
ut	-86
la	-87
ter	-88
ith	-89
ow	-90
ra	-91
▁be	-92
▁R	-93
▁D	-94
▁19	-95
▁he	-96
▁(	-97
ers	-98
▁st	-99
▁with	-100
▁F	-101
un	-102
em	-103
▁L	-104
▁20	-105
▁G	-106
▁N	-107
▁by	-108
▁W	-109
ist	-110
ul	-111
th	-112
ver	-113
▁at	-114
▁al	-115
▁wh	-116
rom	-117
▁J	-118
os	-119
▁an	-120
ay	-121
▁con	-122
▁E	-123
her	-124
um	-125
▁that	-126
ge	-127
est	-128
▁In	-129
ri	-130
▁O	-131
▁from	-132
▁de	-133
▁se	-134
op	-135
oc	-136
▁v	-137
▁pro	-138
▁com	-139
ain	-140
▁it	-141
pe	-142
ity	-143
and	-144
ber	-145
od	-146
av	-147
art	-148
▁his	-149
ac	-150
res	-151
up	-152
ate	-153
ies	-154
ud	-155
if	-156
▁K	-157
▁U	-158
ew	-159
ab	-160
all	-161
ort	-162
ian	-163
ich	-164
ard	-165
ore	-166
▁or	-167
se	-168
ated	-169
ld	-170
ia	-171
ub	-172
ak	-173
igh	-174
ill	-175
qu	-176
▁are	-177
ere	-178
ip	-179
ess	-180
▁r	-181
ag	-182
ant	-183
▁201	-184
▁St	-185
ive	-186
▁ch	-187
ov	-188
ment	-189
▁ex	-190
▁were	-191
ary	-192
ug	-193
ap	-194
ong	-195
oun	-196
▁He	-197
ial	-198
ame	-199
und	-200
our	-201
ear	-202
▁Ch	-203
ast	-204
▁which	-205
▁le	-206
red	-207
ell	-208
ine	-209
ction	-210
ust	-211
ost	-212
so	-213
▁V	-214
ish	-215
ord	-216
▁y	-217
uc	-218
▁200	-219
▁sh	-220
te	-221
ical	-222
▁comp	-223
▁pla	-224
ther	-225
og	-226
mer	-227
ork	-228
ran	-229
cl	-230
▁had	-231
ue	-232
ts	-233
▁k	-234
irst	-235
▁also	-236
ie	-237
▁un	-238
ep	-239
ous	-240
▁has	-241
ition	-242
▁not	-243
▁It	-244
ure	-245
▁first	-246
ff	-247
fter	-248
▁whe	-249
ign	-250
ok	-251
▁18	-252
ry	-253
ave	-254
ric	-255
erv	-256
▁te	-257
iz	-258
▁Un	-259
▁ar	-260
ire	-261
ome	-262
ass	-263
ight	-264
rit	-265
per	-266
ide	-267
port	-268
own	-269
",	-270
▁cont	-271
hed	-272
▁us	-273
ond	-274
wo	-275
▁their	-276
▁ro	-277
ater	-278
▁its	-279
▁Th	-280
▁part	-281
▁ad	-282
man	-283
ren	-284
ice	-285
▁ap	-286
▁who	-287
▁her	-288
ree	-289
▁res	-290
▁cl	-291
ount	-292
▁but	-293
sh	-294
ect	-295
amp	-296
),	-297
clud	-298
00	-299
to	-300
▁3	-301
ational	-302
ime	-303
age	-304
▁play	-305
low	-306
ang	-307
▁j	-308
▁year	-309
ach	-310
▁one	-311
ence	-312
land	-313
ack	-314
ound	-315
ould	-316
cc	-317
▁ab	-318
ens	-319
".	-320
orn	-321
ult	-322
ib	-323
▁Al	-324
out	-325
ugh	-326
ally	-327
▁ag	-328
▁includ	-329
▁have	-330
▁bec	-331
▁two	-332
over	-333
ru	-334
▁Y	-335
ations	-336
ember	-337
uring	-338
▁per	-339
fer	-340
wn	-341
▁rec	-342
▁this	-343
ke	-344
ted	-345
ade	-346
▁man	-347
ory	-348
ark	-349
tern	-350
▁been	-351
oin	-352
ile	-353
ates	-354
ild	-355
▁On	-356
ool	-357
).	-358
▁work	-359
ubl	-360
ased	-361
▁199	-362
▁other	-363
old	-364
▁sc	-365
ck	-366
for	-367
▁after	-368
ied	-369
▁en	-370
ited	-371
ces	-372
▁comm	-373
ely	-374
act	-375
▁dis	-376
we	-377
vel	-378
urn	-379
uch	-380
gh	-381
▁Ar	-382
▁im	-383
ite	-384
are	-385
ents	-386
les	-387
aw	-388
▁sp	-389
▁Mar	-390
▁out	-391
▁up	-392
▁des	-393
▁over	-394
ey	-395
▁she	-396
pt	-397
ced	-398
ivers	-399
▁As	-400
ason	-401
ec	-402
ress	-403
▁they	-404
chool	-405
▁fin	-406
▁spe	-407
iss	-408
oy	-409
ors	-410
▁off	-411
able	-412
▁ra	-413
ail	-414
▁new	-415
gan	-416
▁4	-417
ward	-418
▁An	-419
▁serv	-420
ph	-421
▁into	-422
ase	-423
▁Le	-424
▁loc	-425
▁ev	-426
▁und	-427
ions	-428
ath	-429
ance	-430
▁all	-431
▁pre	-432
ough	-433
ob	-434
▁ne	-435
cted	-436
▁New	-437
▁form	-438
ilm	-439
ings	-440
▁ele	-441
▁tra	-442
▁time	-443
outh	-444
ood	-445
ican	-446
▁De	-447
▁gro	-448
pl	-449
rough	-450
ton	-451
▁198	-452
▁sec	-453
▁can	-454
▁Com	-455
▁under	-456
io	-457
ose	-458
one	-459
▁col	-460
als	-461
ished	-462
ons	-463
▁kn	-464
rib	-465
▁him	-466
▁5	-467
du	-468
way	-469
▁bet	-470
ious	-471
▁pl	-472
▁reg	-473
▁bu	-474
▁would	-475
ollow	-476
oth	-477
orld	-478
ily	-479
▁when	-480
ft	-481
▁more	-482
ind	-483
▁team	-484
▁where	-485
▁Amer	-486
ake	-487
ram	-488
ral	-489
▁again	-490
ans	-491
▁years	-492
▁publ	-493
orth	-494
ween	-495
▁cons	-496
0,	-497
▁197	-498
ince	-499
19	-500
ship	-501
ick	-502
▁during	-503
▁ret	-504
▁op	-505
▁rep	-506
rad	-507
▁Re	-508
▁She	-509
▁film	-510
▁season	-511
▁stud	-512
oh	-513
▁En	-514
ook	-515
ident	-516
▁ind	-517
form	-518
ener	-519
▁This	-520
▁cent	-521
▁pr	-522
ating	-523
▁sub	-524
▁sup	-525
The	-526
▁Sh	-527
▁we	-528
▁me	-529
ics	-530
▁only	-531
▁ear	-532
▁found	-533
iversity	-534
ision	-535
▁rele	-536
▁pol	-537
▁6	-538
▁ass	-539
▁between	-540
▁most	-541
ular	-542
ix	-543
▁act	-544
ative	-545
ron	-546
▁inter	-547
▁pe	-548
ered	-549
olog	-550
▁qu	-551
▁att	-552
rans	-553
ah	-554
▁fam	-555
use	-556
▁three	-557
duc	-558
che	-559
▁acc	-560
ouse	-561
▁follow	-562
▁app	-563
▁spec	-564
end	-565
▁made	-566
fore	-567
ict	-568
overn	-569
▁fe	-570
▁through	-571
▁co	-572
▁196	-573
."	-574
any	-575
▁rem	-576
▁there	-577
▁later	-578
iel	-579
ins	-580
▁pres	-581
▁them	-582
▁then	-583
pr	-584
aj	-585
1,	-586
ual	-587
ock	-588
ann	-589
cess	-590
ever	-591
ank	-592
oot	-593
▁Ind	-594
ities	-595
ived	-596
▁sy	-597
ik	-598
ball	-599
▁rel	-600
▁used	-601
▁mov	-602
▁num	-603
ve	-604
▁Col	-605
▁second	-606
▁about	-607
▁end	-608
ames	-609
▁such	-610
▁became	-611
ace	-612
▁Z	-613
▁pop	-614
▁United	-615
▁dist	-616
reat	-617
oci	-618
▁so	-619
ific	-620
inn	-621
ten	-622
▁known	-623
az	-624
▁American	-625
7,	-626
▁University	-627
emb	-628
▁ac	-629
air	-630
ier	-631
▁202	-632
▁inv	-633
▁def	-634
▁some	-635
▁than	-636
arg	-637
ober	-638
ale	-639
0.	-640
hen	-641
2,	-642
▁prov	-643
▁ent	-644
5,	-645
▁am	-646
▁inc	-647
att	-648
▁dec	-649
led	-650
▁194	-651
ury	-652
round	-653
▁At	-654
son	-655
velop	-656
▁being	-657
ople	-658
▁four	-659
ject	-660
▁well	-661
8,	-662
▁school	-663
eries	-664
erm	-665
▁Pro	-666
▁call	-667
bum	-668
4,	-669
til	-670
▁trans	-671
▁record	-672
▁including	-673
ines	-674
ife	-675
▁pos	-676
▁mon	-677
ather	-678
▁Con	-679
pos	-680
▁set	-681
usic	-682
une	-683
eb	-684
▁against	-685
ement	-686
6,	-687
▁art	-688
ars	-689
ley	-690
▁After	-691
9,	-692
iver	-693
▁appe	-694
ros	-695
▁dire	-696
ield	-697
ash	-698
▁195	-699
▁do	-700
ctor	-701
iam	-702
rict	-703
▁ed	-704
ional	-705
▁lead	-706
▁Joh	-707
other	-708
ina	-709
arri	-710
▁before	-711
▁while	-712
ept	-713
▁Eng	-714
very	-715
ne	-716
▁album	-717
owever	-718
▁Sc	-719
▁cre	-720
tain	-721
▁sing	-722
▁add	-723
igin	-724
▁May	-725
ists	-726
3,	-727
ired	-728
▁7	-729
▁count	-730
▁many	-731
iew	-732
ures	-733
▁sign	-734
its	-735
ern	-736
ike	-737
▁until	-738
urch	-739
▁rece	-740
▁sur	-741
▁Jan	-742
der	-743
▁For	-744
▁ph	-745
ague	-746
▁may	-747
▁est	-748
▁group	-749
stit	-750
ters	-751
▁17	-752
▁med	-753
▁own	-754
cy	-755
▁both	-756
▁main	-757
▁bro	-758
ty	-759
▁develop	-760
ise	-761
▁writ	-762
enn	-763
overnment	-764
erman	-765
ural	-766
ism	-767
ute	-768
▁Comm	-769
stem	-770
▁people	-771
▁show	-772
▁family	-773
▁John	-774
▁played	-775
ized	-776
amed	-777
▁Fran	-778
▁Is	-779
illa	-780
ower	-781
▁high	-782
ll	-783
▁cap	-784
▁–	-785
aid	-786
▁number	-787
ven	-788
▁Ju	-789
▁em	-790
▁oper	-791
▁released	-792
ting	-793
cial	-794
ek	-795
▁sever	-796
▁go	-797
▁States	-798
elf	-799
▁mod	-800
uss	-801
▁World	-802
ved	-803
▁no	-804
▁Q	-805
▁met	-806
ex	-807
▁National	-808
▁8	-809
▁song	-810
▁day	-811
tend	-812
▁name	-813
uro	-814
▁build	-815
▁min	-816
ys	-817
▁won	-818
▁start	-819
▁193	-820
▁series	-821
1.	-822
▁dif	-823
▁Aust	-824
ugust	-825
uary	-826
▁exp	-827
▁origin	-828
▁area	-829
ulation	-830
ution	-831
▁ann	-832
000	-833
▁Cl	-834
▁char	-835
ird	-836
▁fl	-837
▁mat	-838
▁Nov	-839
▁offic	-840
▁gener	-841
▁August	-842
▁Car	-843
ually	-844
▁hist	-845
ister	-846
ctions	-847
rent	-848
▁back	-849
▁design	-850
eptember	-851
▁sm	-852
▁9	-853
2.	-854
▁comple	-855
ives	-856
▁Brit	-857
▁Ph	-858
▁War	-859
ract	-860
ampion	-861
▁Sp	-862
▁called	-863
▁March	-864
▁Count	-865
▁Ad	-866
▁Wh	-867
▁var	-868
▁September	-869
ful	-870
▁following	-871
▁several	-872
▁same	-873
▁long	-874
▁June	-875
▁open	-876
ctober	-877
▁prog	-878
▁return	-879
▁game	-880
the	-881
▁German	-882
▁January	-883
▁run	-884
ause	-885
ai	-886
▁feat	-887
▁South	-888
▁His	-889
▁July	-890
ple	-891
▁ob	-892
▁16	-893
imes	-894
my	-895
ootball	-896
▁contin	-897
▁suc	-898
ternational	-899
▁system	-900
erson	-901
▁will	-902
ues	-903
▁October	-904
▁Can	-905
rid	-906
eng	-907
▁early	-908
▁15	-909
▁public	-910
pril	-911
▁city	-912
▁School	-913
▁music	-914
▁aut	-915
ajor	-916
▁192	-917
mber	-918
fess	-919
▁Be	-920
ission	-921
▁int	-922
omen	-923
▁produ	-924
▁state	-925
▁began	-926
ull	-927
ital	-928
aking	-929
▁colle	-930
▁organ	-931
ised	-932
▁They	-933
por	-934
by	-935
▁April	-936
abl	-937
ior	-938
duced	-939
rop	-940
els	-941
▁former	-942
▁these	-943
con	-944
ets	-945
ax	-946
rand	-947
cember	-948
ured	-949
ued	-950
ross	-951
icip	-952
ided	-953
ilt	-954
iving	-955
ped	-956
▁since	-957
▁bel	-958
ium	-959
▁join	-960
▁November	-961
vent	-962
▁use	-963
rist	-964
ants	-965
▁child	-966
▁10	-967
▁inst	-968
ared	-969
▁government	-970
▁near	-971
iet	-972
4.	-973
▁December	-974
▁York	-975
ene	-976
▁remain	-977
ible	-978
▁any	-979
3.	-980
▁Euro	-981
ient	-982
5.	-983
ined	-984
▁head	-985
▁town	-986
▁cur	-987
▁Cent	-988
▁prom	-989
ments	-990
ility	-991
ange	-992
▁support	-993
▁along	-994
arm	-995
▁Se	-996
xt	-997
8.	-998
▁held	-999
▁There	-1000
▁inf	-1001
▁compet	-1002
▁land	-1003
resent	-1004
▁eff	-1005
au	-1006
7.	-1007
▁commun	-1008
ically	-1009
▁place	-1010
▁air	-1011
▁did	-1012
ris	-1013
6.	-1014
▁Ge	-1015
▁located	-1016
▁bl	-1017
▁book	-1018
▁Par	-1019
oard	-1020
▁(19	-1021
oman	-1022
▁took	-1023
▁North	-1024
▁club	-1025
▁All	-1026
ebru	-1027
ology	-1028
ebruary	-1029
▁tit	-1030
▁occ	-1031
ret	-1032
▁pass	-1033
ales	-1034
▁Or	-1035
embers	-1036
9.	-1037
▁poin	-1038
▁care	-1039
▁each	-1040
arch	-1041
▁named	-1042
▁villa	-1043
▁disc	-1044
ink	-1045
▁Ass	-1046
▁local	-1047
pend	-1048
▁small	-1049
▁dr	-1050
▁polit	-1051
▁served	-1052
ica	-1053
▁member	-1054
ampionship	-1055
▁County	-1056
▁Austral	-1057
▁program	-1058
▁sim	-1059
▁differ	-1060
ox	-1061
▁desc	-1062
▁gu	-1063
▁February	-1064
min	-1065
▁rev	-1066
ae	-1067
▁population	-1068
aving	-1069
▁band	-1070
▁12	-1071
▁(1	-1072
▁'	-1073
ove	-1074
▁str	-1075
rol	-1076
▁191	-1077
▁house	-1078
▁station	-1079
▁Europe	-1080
lay	-1081
▁However	-1082
▁major	-1083
▁Te	-1084
arn	-1085
▁home	-1086
▁British	-1087
▁received	-1088
mp	-1089
▁company	-1090
raph	-1091
▁establ	-1092
▁could	-1093
▁born	-1094
illion	-1095
ery	-1096
▁City	-1097
▁event	-1098
wards	-1099
chn	-1100
▁success	-1101
stru	-1102
▁Man	-1103
ival	-1104
ices	-1105
ula	-1106
▁members	-1107
hes	-1108
▁ins	-1109
ored	-1110
▁dep	-1111
▁Pol	-1112
▁Will	-1113
augh	-1114
▁around	-1115
arge	-1116
yl	-1117
▁League	-1118
▁class	-1119
ator	-1120
▁age	-1121
tle	-1122
▁Pr	-1123
▁world	-1124
▁$	-1125
af	-1126
med	-1127
▁.	-1128
ring	-1129
▁par	-1130
▁national	-1131
ilit	-1132
ately	-1133
ats	-1134
▁due	-1135
ording	-1136
▁US	-1137
▁tr	-1138
let	-1139
▁State	-1140
lack	-1141
▁Am	-1142
ling	-1143
hor	-1144
born	-1145
▁Gu	-1146
ged	-1147
▁ref	-1148
20	-1149
ience	-1150
▁report	-1151
▁single	-1152
▁old	-1153
▁charact	-1154
▁built	-1155
▁term	-1156
ounc	-1157
▁down	-1158
▁line	-1159
▁During	-1160
▁ext	-1161
orm	-1162
ians	-1163
▁hel	-1164
ble	-1165
▁eng	-1166
▁based	-1167
cept	-1168
▁last	-1169
ony	-1170
▁left	-1171
ently	-1172
▁said	-1173
▁bus	-1174
ane	-1175
inc	-1176
alif	-1177
▁imp	-1178
▁Bro	-1179
▁Af	-1180
▁six	-1181
though	-1182
ivision	-1183
▁refer	-1184
▁deb	-1185
oss	-1186
▁Mon	-1187
▁profess	-1188
arried	-1189
▁Ed	-1190
ott	-1191
▁include	-1192
▁now	-1193
▁species	-1194
▁II	-1195
▁Canad	-1196
▁final	-1197
▁law	-1198
▁list	-1199
ality	-1200
▁Colle	-1201
me	-1202
▁football	-1203
▁published	-1204
reen	-1205
iness	-1206
▁King	-1207
▁appro	-1208
▁cour	-1209
▁within	-1210
▁century	-1211
▁north	-1212
oung	-1213
▁("	-1214
ner	-1215
pect	-1216
cer	-1217
ung	-1218
▁det	-1219
▁Co	-1220
itions	-1221
▁five	-1222
▁rest	-1223
▁West	-1224
yn	-1225
▁describ	-1226
▁represent	-1227
▁died	-1228
▁Rep	-1229
▁top	-1230
ham	-1231
get	-1232
▁Her	-1233
▁camp	-1234
–1	-1235
iod	-1236
▁Min	-1237
▁mark	-1238
▁included	-1239
▁because	-1240
uck	-1241
ille	-1242
omin	-1243
ask	-1244
▁death	-1245
▁adv	-1246
co	-1247
rew	-1248
ights	-1249
▁car	-1250
ages	-1251
ches	-1252
▁consid	-1253
▁Christ	-1254
alth	-1255
atic	-1256
▁large	-1257
ides	-1258
row	-1259
▁vers	-1260
▁ty	-1261
▁building	-1262
aster	-1263
ially	-1264
▁Har	-1265
▁present	-1266
bor	-1267
ively	-1268
rench	-1269
ze	-1270
que	-1271
▁third	-1272
▁conf	-1273
▁requ	-1274
▁Geor	-1275
lev	-1276
▁Bar	-1277
▁tri	-1278
▁village	-1279
▁result	-1280
▁Mc	-1281
iven	-1282
ature	-1283
tal	-1284
▁allow	-1285
▁11	-1286
▁south	-1287
omet	-1288
▁post	-1289
ster	-1290
▁fac	-1291
▁larg	-1292
used	-1293
▁life	-1294
▁Sw	-1295
estern	-1296
▁And	-1297
day	-1298
com	-1299
ode	-1300
ien	-1301
▁14	-1302
vious	-1303
gy	-1304
▁manag	-1305
ouncil	-1306
▁announ	-1307
uff	-1308
ief	-1309
▁-	-1310
ety	-1311
▁leg	-1312
lish	-1313
▁short	-1314
▁&	-1315
ization	-1316
ps	-1317
▁moved	-1318
laim	-1319
▁Ab	-1320
reet	-1321
▁13	-1322
amb	-1323
▁person	-1324
▁incre	-1325
▁dem	-1326
▁Dist	-1327
▁El	-1328
ese	-1329
apan	-1330
▁vis	-1331
▁just	-1332
cent	-1333
▁different	-1334
▁French	-1335
tended	-1336
ration	-1337
▁Reg	-1338
eder	-1339
ourn	-1340
▁dra	-1341
▁children	-1342
▁crit	-1343
▁William	-1344
alk	-1345
▁those	-1346
▁period	-1347
▁million	-1348
▁led	-1349
▁190	-1350
▁ep	-1351
ves	-1352
▁like	-1353
▁still	-1354
▁addition	-1355
▁Part	-1356
▁po	-1357
inning	-1358
urg	-1359
▁lit	-1360
▁son	-1361
▁career	-1362
▁war	-1363
angu	-1364
side	-1365
▁Russ	-1366
▁perform	-1367
▁current	-1368
▁av	-1369
ocial	-1370
▁High	-1371
hip	-1372
▁stand	-1373
▁trad	-1374
▁another	-1375
▁College	-1376
▁appear	-1377
▁women	-1378
ified	-1379
▁water	-1380
▁resp	-1381
▁cor	-1382
▁men	-1383
work	-1384
▁Ex	-1385
lu	-1386
▁English	-1387
▁iss	-1388
ering	-1389
alf	-1390
ining	-1391
akes	-1392
ays	-1393
▁Park	-1394
oad	-1395
▁if	-1396
▁Japan	-1397
▁exper	-1398
▁power	-1399
ograph	-1400
▁Afric	-1401
ald	-1402
▁By	-1403
par	-1404
▁very	-1405
ata	-1406
eter	-1407
▁announced	-1408
idd	-1409
ana	-1410
lor	-1411
uk	-1412
riend	-1413
ize	-1414
ency	-1415
▁Char	-1416
ondon	-1417
▁best	-1418
▁win	-1419
▁month	-1420
urs	-1421
▁Championship	-1422
▁side	-1423
▁Acc	-1424
▁constru	-1425
ody	-1426
▁often	-1427
▁X	-1428
▁father	-1429
▁among	-1430
▁Me	-1431
▁equ	-1432
▁educ	-1433
▁River	-1434
ison	-1435
ards	-1436
▁make	-1437
▁Air	-1438
ford	-1439
ched	-1440
▁country	-1441
▁though	-1442
uted	-1443
▁project	-1444
▁hand	-1445
adem	-1446
▁original	-1447
▁games	-1448
artment	-1449
▁district	-1450
▁service	-1451
▁189	-1452
▁previous	-1453
▁port	-1454
▁import	-1455
▁late	-1456
▁sold	-1457
▁level	-1458
▁When	-1459
▁la	-1460
read	-1461
attle	-1462
ino	-1463
▁non	-1464
rote	-1465
▁London	-1466
vers	-1467
▁Sy	-1468
▁hum	-1469
ilitary	-1470
▁started	-1471
osp	-1472
ges	-1473
▁Bl	-1474
▁Sec	-1475
▁even	-1476
")	-1477
▁Pres	-1478
▁pat	-1479
ases	-1480
▁came	-1481
▁role	-1482
▁District	-1483
▁vot	-1484
ument	-1485
▁attack	-1486
▁order	-1487
▁established	-1488
▁title	-1489
▁beg	-1490
aul	-1491
ugg	-1492
▁Dav	-1493
▁went	-1494
rick	-1495
yle	-1496
▁poss	-1497
▁grad	-1498
▁ship	-1499
ele	-1500
▁Med	-1501
▁history	-1502
ummer	-1503
▁kill	-1504
▁el	-1505
▁Cor	-1506
▁Cup	-1507
▁appoin	-1508
ilar	-1509
▁Ital	-1510
▁turn	-1511
▁,	-1512
▁award	-1513
ries	-1514
▁character	-1515
▁repla	-1516
▁aff	-1517
▁invol	-1518
▁init	-1519
ploy	-1520
▁every	-1521
inal	-1522
▁what	-1523
ington	-1524
ones	-1525
▁business	-1526
▁worked	-1527
▁Comp	-1528
ament	-1529
▁joined	-1530
ray	-1531
▁fore	-1532
ler	-1533
▁much	-1534
▁House	-1535
sp	-1536
ti	-1537
▁track	-1538
▁es	-1539
sk	-1540
ara	-1541
ev	-1542
▁del	-1543
urther	-1544
rest	-1545
▁contain	-1546
ociation	-1547
▁author	-1548
▁total	-1549
▁rese	-1550
ness	-1551
▁sk	-1552
ruct	-1553
epend	-1554
▁week	-1555
umb	-1556
▁Ang	-1557
conom	-1558
na	-1559
sc	-1560
ridge	-1561
▁field	-1562
▁cr	-1563
osed	-1564
-1	-1565
▁young	-1566
▁effect	-1567
levision	-1568
reg	-1569
anc	-1570
▁common	-1571
▁promot	-1572
▁various	-1573
▁histor	-1574
ense	-1575
app	-1576
▁become	-1577
▁chang	-1578
▁1,	-1579
▁described	-1580
▁val	-1581
▁rad	-1582
▁election	-1583
of	-1584
▁San	-1585
▁arch	-1586
▁One	-1587
▁Br	-1588
▁techn	-1589
▁stat	-1590
▁gen	-1591
▁Phil	-1592
▁defe	-1593
▁fact	-1594
▁sol	-1595
▁International	-1596
▁having	-1597
▁next	-1598
▁activ	-1599
▁returned	-1600
▁married	-1601
▁round	-1602
ached	-1603
eneral	-1604
▁cover	-1605
▁control	-1606
▁given	-1607
▁claim	-1608
▁cult	-1609
▁sit	-1610
posed	-1611
ert	-1612
▁Sup	-1613
eth	-1614
self	-1615
hem	-1616
▁fre	-1617
mit	-1618
▁wrote	-1619
▁tw	-1620
▁Res	-1621
▁few	-1622
hern	-1623
▁These	-1624
lin	-1625
▁England	-1626
▁general	-1627
▁Tr	-1628
▁process	-1629
▁player	-1630
▁188	-1631
▁community	-1632
oon	-1633
▁produced	-1634
ublic	-1635
▁pain	-1636
▁mag	-1637
▁Indian	-1638
▁With	-1639
iber	-1640
oph	-1641
▁using	-1642
▁East	-1643
aff	-1644
▁development	-1645
▁Dep	-1646
▁created	-1647
ords	-1648
ivid	-1649
▁fem	-1650
▁prote	-1651
avy	-1652
cast	-1653
de	-1654
ociety	-1655
ms	-1656
minist	-1657
▁langu	-1658
▁ca	-1659
omb	-1660
▁special	-1661
▁sent	-1662
astern	-1663
▁take	-1664
ront	-1665
off	-1666
isc	-1667
raft	-1668
▁From	-1669
▁tem	-1670
▁international	-1671
▁According	-1672
▁bre	-1673
▁way	-1674
forman	-1675
▁25	-1676
▁beh	-1677
lands	-1678
ead	-1679
ta	-1680
▁position	-1681
▁La	-1682
▁formula	-1683
orthern	-1684
▁political	-1685
ories	-1686
sequ	-1687
▁Church	-1688
line	-1689
ention	-1690
▁rail	-1691
▁however	-1692
▁prim	-1693
▁ren	-1694
▁continued	-1695
ush	-1696
ested	-1697
field	-1698
irc	-1699
oyal	-1700
▁hig	-1701
▁gr	-1702
urb	-1703
▁Pe	-1704
aken	-1705
▁host	-1706
hold	-1707
▁match	-1708
▁elect	-1709
▁fun	-1710
outher	-1711
▁written	-1712
ivil	-1713
▁Mich	-1714
▁European	-1715
▁We	-1716
▁production	-1717
▁popular	-1718
▁No	-1719
ops	-1720
▁students	-1721
▁great	-1722
ape	-1723
outhern	-1724
▁examp	-1725
ander	-1726
▁partic	-1727
▁need	-1728
▁186	-1729
▁church	-1730
▁particip	-1731
▁sl	-1732
▁Council	-1733
▁times	-1734
be	-1735
▁Party	-1736
ole	-1737
▁similar	-1738
▁Australia	-1739
▁site	-1740
▁(2	-1741
ests	-1742
unicip	-1743
▁sw	-1744
▁region	-1745
▁epis	-1746
▁100	-1747
▁Army	-1748
▁president	-1749
ning	-1750
▁30	-1751
▁India	-1752
▁Art	-1753
▁aver	-1754
ogn	-1755
▁Street	-1756
iron	-1757
▁intro	-1758
▁Port	-1759
▁works	-1760
▁pri	-1761
▁official	-1762
▁military	-1763
iment	-1764
▁debut	-1765
▁direct	-1766
ots	-1767
▁without	-1768
▁pract	-1769
itor	-1770
▁road	-1771
▁Bel	-1772
▁Per	-1773
▁Sch	-1774
▁lab	-1775
▁Ac	-1776
ger	-1777
▁vide	-1778
▁attem	-1779
stitute	-1780
▁Gro	-1781
▁considered	-1782
▁Mal	-1783
▁France	-1784
▁full	-1785
▁Rec	-1786
▁lost	-1787
ha	-1788
less	-1789
▁days	-1790
useum	-1791
▁brother	-1792
lect	-1793
▁President	-1794
▁squ	-1795
▁opened	-1796
ellow	-1797
reek	-1798
ountain	-1799
▁performan	-1800
▁Roman	-1801
▁Em	-1802
atter	-1803
▁Gl	-1804
▁comb	-1805
▁version	-1806
itte	-1807
▁signed	-1808
▁ter	-1809
▁disp	-1810
▁friend	-1811
uel	-1812
▁187	-1813
▁television	-1814
▁appointed	-1815
▁Division	-1816
▁party	-1817
ances	-1818
▁Cour	-1819
▁founded	-1820
▁professional	-1821
aliforn	-1822
▁Ag	-1823
▁ident	-1824
▁elected	-1825
▁Ber	-1826
utes	-1827
hib	-1828
▁individ	-1829
▁Thom	-1830
▁half	-1831
▁broad	-1832
▁lim	-1833
▁Hol	-1834
▁further	-1835
etwork	-1836
rem	-1837
ama	-1838
rated	-1839
▁social	-1840
ination	-1841
▁James	-1842
▁recorded	-1843
formation	-1844
▁story	-1845
▁indust	-1846
▁research	-1847
ream	-1848
year	-1849
▁daugh	-1850
ney	-1851
▁Pl	-1852
ius	-1853
▁mult	-1854
▁Des	-1855
ico	-1856
▁engine	-1857
alifornia	-1858
▁find	-1859
oor	-1860
key	-1861
▁General	-1862
▁invest	-1863
▁real	-1864
▁George	-1865
gether	-1866
▁influ	-1867
▁together	-1868
int	-1869
▁appeared	-1870
▁right	-1871
▁vol	-1872
▁Rober	-1873
▁deg	-1874
▁important	-1875
ological	-1876
▁Nor	-1877
▁bas	-1878
▁Sm	-1879
lex	-1880
▁California	-1881
▁view	-1882
▁proper	-1883
ying	-1884
lymp	-1885
▁Que	-1886
ville	-1887
▁econom	-1888
▁Ap	-1889
era	-1890
ising	-1891
olution	-1892
▁review	-1893
▁Val	-1894
▁surv	-1895
▁Bra	-1896
▁gradu	-1897
▁formed	-1898
aign	-1899
▁priv	-1900
▁Mor	-1901
ably	-1902
▁wife	-1903
ports	-1904
▁Canada	-1905
▁point	-1906
▁east	-1907
▁hold	-1908
▁mid	-1909
▁Ne	-1910
▁While	-1911
bs	-1912
▁Olymp	-1913
ership	-1914
uit	-1915
▁Pal	-1916
▁Act	-1917
rap	-1918
▁working	-1919
▁director	-1920
▁particular	-1921
ference	-1922
imately	-1923
▁America	-1924
▁areas	-1925
ishing	-1926
▁reported	-1927
ping	-1928
▁grow	-1929
lear	-1930
▁less	-1931
▁struct	-1932
▁Association	-1933
pecial	-1934
▁dest	-1935
▁teams	-1936
▁meet	-1937
▁offer	-1938
▁making	-1939
ls	-1940
▁Union	-1941
▁tradition	-1942
ope	-1943
▁hon	-1944
▁release	-1945
▁vict	-1946
▁mer	-1947
▁developed	-1948
tar	-1949
▁cer	-1950
▁west	-1951
ither	-1952
anish	-1953
▁Rich	-1954
▁coach	-1955
idence	-1956
wh	-1957
▁points	-1958
iol	-1959
▁cond	-1960
ained	-1961
▁arr	-1962
oe	-1963
▁low	-1964
▁ten	-1965
▁good	-1966
▁nov	-1967
ours	-1968
aper	-1969
nect	-1970
▁div	-1971
ensus	-1972
▁Dem	-1973
dom	-1974
view	-1975
ittee	-1976
▁fail	-1977
▁star	-1978
▁average	-1979
▁office	-1980
▁fund	-1981
,"	-1982
ences	-1983
▁()	-1984
▁should	-1985
BC	-1986
▁Royal	-1987
alt	-1988
▁case	-1989
most	-1990
▁gl	-1991
▁example	-1992
ee	-1993
ij	-1994
pite	-1995
▁hous	-1996
▁read	-1997
▁21	-1998
ma	-1999
▁Lou	-2000
▁others	-2001
▁himself	-2002
▁race	-2003
▁across	-2004
▁employ	-2005
ournal	-2006
▁conc	-2007
ript	-2008
ells	-2009
ocr	-2010
isted	-2011
iles	-2012
ule	-2013
itive	-2014
ills	-2015
▁ground	-2016
▁typ	-2017
cing	-2018
▁signific	-2019
▁laun	-2020
▁24	-2021
liam	-2022
iddle	-2023
▁avail	-2024
▁Award	-2025
▁Sen	-2026
▁rank	-2027
ef	-2028
ya	-2029
▁administ	-2030
▁mother	-2031
▁playing	-2032
▁video	-2033
▁Qu	-2034
▁produc	-2035
▁Tra	-2036
▁mater	-2037
nder	-2038
anted	-2039
▁get	-2040
now	-2041
▁expl	-2042
▁Kh	-2043
▁2010	-2044
▁does	-2045
▁Hall	-2046
▁rock	-2047
▁independ	-2048
liament	-2049
atch	-2050
ks	-2051
▁contrib	-2052
go	-2053
uf	-2054
van	-2055
▁Australian	-2056
▁never	-2057
▁David	-2058
▁recogn	-2059
iding	-2060
▁belie	-2061
▁Paul	-2062
ael	-2063
iting	-2064
▁modern	-2065
▁“	-2066
▁appl	-2067
▁although	-2068
olic	-2069
ways	-2070
itect	-2071
▁body	-2072
▁successful	-2073
▁cast	-2074
▁Germany	-2075
▁events	-2076
▁hy	-2077
▁Road	-2078
▁Jos	-2079
▁how	-2080
estival	-2081
▁foc	-2082
▁human	-2083
▁style	-2084
▁league	-2085
▁living	-2086
ari	-2087
▁strong	-2088
▁Hen	-2089
ont	-2090
▁mot	-2091
igned	-2092
▁Dr	-2093
▁tro	-2094
aren	-2095
▁live	-2096
▁finished	-2097
▁gave	-2098
▁campaign	-2099
▁separ	-2100
▁Court	-2101
▁months	-2102
ensive	-2103
▁Some	-2104
▁ide	-2105
▁services	-2106
utive	-2107
hel	-2108
▁followed	-2109
ipp	-2110
▁ord	-2111
▁Red	-2112
▁suff	-2113
▁Ear	-2114
ceed	-2115
oll	-2116
wood	-2117
▁Mary	-2118
▁somet	-2119
men	-2120
▁my	-2121
▁daughter	-2122
▁mar	-2123
ming	-2124
▁away	-2125
▁rul	-2126
▁completed	-2127
ought	-2128
craft	-2129
▁Pri	-2130
▁becom	-2131
ators	-2132
▁language	-2133
istic	-2134
▁contract	-2135
▁fire	-2136
▁black	-2137
▁performed	-2138
▁light	-2139
▁Company	-2140
▁education	-2141
▁remained	-2142
CA	-2143
west	-2144
ification	-2145
▁free	-2146
▁available	-2147
aut	-2148
ened	-2149
▁base	-2150
-19	-2151
ili	-2152
val	-2153
▁China	-2154
▁cross	-2155
shire	-2156
▁185	-2157
▁taken	-2158
icle	-2159
▁2011	-2160
▁agre	-2161
ademy	-2162
band	-2163
▁Hist	-2164
▁construction	-2165
▁let	-2166
eh	-2167
▁municip	-2168
pted	-2169
▁cost	-2170
▁acqu	-2171
aur	-2172
▁Pat	-2173
▁Black	-2174
▁Mart	-2175
▁Central	-2176
ential	-2177
▁regular	-2178
ibr	-2179
▁songs	-2180
▁designed	-2181
ospital	-2182
▁players	-2183
▁tour	-2184
▁Mac	-2185
▁Ste	-2186
hers	-2187
rag	-2188
ston	-2189
▁once	-2190
ederal	-2191
▁Mex	-2192
rain	-2193
▁help	-2194
pro	-2195
▁Ser	-2196
▁Stud	-2197
eal	-2198
▁impro	-2199
▁dev	-2200
▁associ	-2201
▁Island	-2202
▁put	-2203
▁seven	-2204
▁doc	-2205
▁Off	-2206
odes	-2207
▁Sam	-2208
chie	-2209
alls	-2210
▁includes	-2211
▁red	-2212
▁significant	-2213
leg	-2214
▁sour	-2215
ication	-2216
▁22	-2217
▁Wash	-2218
anding	-2219
▁tourn	-2220
▁dam	-2221
time	-2222
▁Group	-2223
acy	-2224
▁eight	-2225
▁originally	-2226
▁market	-2227
▁features	-2228
▁phys	-2229
inese	-2230
▁throughout	-2231
elling	-2232
▁Club	-2233
▁Thomas	-2234
▁Although	-2235
▁First	-2236
itz	-2237
▁material	-2238
▁largest	-2239
ani	-2240
▁Since	-2241
▁enc	-2242
ateg	-2243
▁Rail	-2244
▁study	-2245
▁sugg	-2246
▁goal	-2247
ago	-2248
▁featured	-2249
▁[	-2250
cis	-2251
▁flow	-2252
▁press	-2253
▁sele	-2254
▁Department	-2255
▁circ	-2256
▁product	-2257
atural	-2258
.,	-2259
▁leading	-2260
back	-2261
burg	-2262
▁Town	-2263
ique	-2264
rian	-2265
▁inj	-2266
hest	-2267
roy	-2268
▁Je	-2269
gin	-2270
▁Vir	-2271
▁awarded	-2272
▁UK	-2273
aged	-2274
▁household	-2275
▁stated	-2276
▁condu	-2277
▁Bay	-2278
▁directed	-2279
▁board	-2280
▁To	-2281
azine	-2282
▁forces	-2283
▁Jack	-2284
▁Robert	-2285
ett	-2286
▁subsequ	-2287
▁exec	-2288
rab	-2289
▁involved	-2290
▁tre	-2291
atory	-2292
▁earl	-2293
▁Center	-2294
▁eventually	-2295
aint	-2296
▁front	-2297
▁seen	-2298
–19	-2299
▁2012	-2300
viron	-2301
iers	-2302
▁Tur	-2303
▁plan	-2304
ades	-2305
▁Western	-2306
▁prot	-2307
icated	-2308
▁Washington	-2309
isl	-2310
▁Institute	-2311
▁access	-2312
ores	-2313
▁23	-2314
▁groups	-2315
ilies	-2316
▁entire	-2317
here	-2318
▁training	-2319
▁bank	-2320
▁Charles	-2321
▁Mag	-2322
▁health	-2323
▁relig	-2324
▁Mad	-2325
▁Cong	-2326
▁able	-2327
▁phot	-2328
ala	-2329
berg	-2330
▁exist	-2331
201	-2332
aker	-2333
▁sound	-2334
▁must	-2335
▁cand	-2336
overnor	-2337
▁Law	-2338
▁Its	-2339
▁Russian	-2340
omm	-2341
▁Cap	-2342
▁Alex	-2343
ability	-2344
▁Jew	-2345
▁liter	-2346
erous	-2347
ude	-2348
▁episode	-2349
▁reb	-2350
▁2006	-2351
▁stage	-2352
▁Gr	-2353
▁bo	-2354
▁added	-2355
▁relation	-2356
ilities	-2357
bert	-2358
asing	-2359
▁performance	-2360
▁anim	-2361
arter	-2362
▁proble	-2363
▁Society	-2364
▁2008	-2365
▁assist	-2366
▁replaced	-2367
▁2014	-2368
▁Minister	-2369
▁test	-2370
atives	-2371
▁transfer	-2372
▁Cath	-2373
▁cou	-2374
▁schools	-2375
▁wid	-2376
▁countries	-2377
▁Christian	-2378
airs	-2379
▁Fl	-2380
50	-2381
right	-2382
▁white	-2383
▁Chinese	-2384
arian	-2385
▁z	-2386
▁African	-2387
▁court	-2388
▁Sim	-2389
▁currently	-2390
ranch	-2391
▁Prov	-2392
▁respons	-2393
fic	-2394
▁(18	-2395
▁2016	-2396
aries	-2397
▁colla	-2398
head	-2399
eep	-2400
ength	-2401
▁private	-2402
▁network	-2403
▁fight	-2404
ida	-2405
▁radio	-2406
ements	-2407
Ch	-2408
▁competition	-2409
▁novel	-2410
▁Angel	-2411
▁Canadian	-2412
▁2013	-2413
▁degree	-2414
▁Music	-2415
▁you	-2416
▁architect	-2417
▁killed	-2418
▁Sal	-2419
▁fourth	-2420
▁capt	-2421
ressed	-2422
▁reached	-2423
▁police	-2424
oms	-2425
▁provided	-2426
▁close	-2427
–2	-2428
▁Academy	-2429
▁critic	-2430
▁information	-2431
▁saw	-2432
▁Sing	-2433
▁park	-2434
mercial	-2435
▁dou	-2436
iction	-2437
▁Other	-2438
▁2,	-2439
▁know	-2440
▁Not	-2441
sy	-2442
sec	-2443
▁past	-2444
▁Japanese	-2445
▁respect	-2446
▁But	-2447
▁sem	-2448
▁stri	-2449
▁either	-2450
▁2009	-2451
▁fav	-2452
eph	-2453
▁range	-2454
ults	-2455
▁Grand	-2456
▁civil	-2457
▁2015	-2458
cle	-2459
rought	-2460
▁sen	-2461
▁Scott	-2462
▁command	-2463
▁central	-2464
▁states	-2465
▁wind	-2466
▁least	-2467
▁Commun	-2468
rey	-2469
sel	-2470
▁loss	-2471
▁model	-2472
▁meth	-2473
ician	-2474
▁Tex	-2475
aching	-2476
▁184	-2477
incip	-2478
▁Italian	-2479
udd	-2480
hood	-2481
ky	-2482
▁aud	-2483
▁Lat	-2484
ka	-2485
emor	-2486
▁Serv	-2487
▁Met	-2488
▁km	-2489
▁constit	-2490
▁Ir	-2491
▁scored	-2492
utions	-2493
▁college	-2494
▁pur	-2495
▁TV	-2496
▁anal	-2497
▁decided	-2498
▁clos	-2499
▁Miss	-2500
imate	-2501
▁bar	-2502
atre	-2503
▁Louis	-2504
▁subject	-2505
medi	-2506
▁placed	-2507
oice	-2508
▁above	-2509
▁bi	-2510
▁mus	-2511
▁polic	-2512
▁occur	-2513
▁candid	-2514
▁attended	-2515
▁Don	-2516
▁space	-2517
▁discover	-2518
..	-2519
▁Great	-2520
bour	-2521
▁26	-2522
ids	-2523
ergy	-2524
board	-2525
▁ill	-2526
▁learn	-2527
▁change	-2528
▁White	-2529
▁arg	-2530
▁Democr	-2531
▁hit	-2532
▁situ	-2533
▁see	-2534
istry	-2535
vironment	-2536
▁Mark	-2537
▁approx	-2538
▁treat	-2539
▁tournament	-2540
▁usually	-2541
pon	-2542
▁2007	-2543
▁Vict	-2544
▁Africa	-2545
▁upon	-2546
▁viol	-2547
ym	-2548
za	-2549
▁rights	-2550
▁28	-2551
▁Rad	-2552
▁Follow	-2553
aled	-2554
▁50	-2555
▁travel	-2556
▁interest	-2557
ned	-2558
▁27	-2559
mar	-2560
▁introduced	-2561
▁shows	-2562
▁Wil	-2563
▁achie	-2564
-2	-2565
▁Spanish	-2566
ply	-2567
▁cop	-2568
▁prem	-2569
itch	-2570
▁plant	-2571
▁compos	-2572
▁fif	-2573
▁pot	-2574
ression	-2575
embly	-2576
lo	-2577
▁capital	-2578
▁lo	-2579
St	-2580
ems	-2581
aval	-2582
▁say	-2583
▁Film	-2584
serv	-2585
▁Following	-2586
▁nomin	-2587
▁night	-2588
▁2018	-2589
▁Lake	-2590
▁mean	-2591
rup	-2592
rd	-2593
▁Green	-2594
iff	-2595
▁effort	-2596
▁1990	-2597
▁Dan	-2598
uture	-2599
ishop	-2600
▁center	-2601
30	-2602
▁Michael	-2603
apt	-2604
▁fig	-2605
▁Gold	-2606
▁1980	-2607
▁miss	-2608
ving	-2609
▁Del	-2610
uses	-2611
▁instead	-2612
▁connect	-2613
▁1.	-2614
▁meas	-2615
gen	-2616
▁Mer	-2617
▁studio	-2618
ography	-2619
▁look	-2620
▁films	-2621
idae	-2622
▁Op	-2623
▁sil	-2624
▁Henry	-2625
annel	-2626
▁via	-2627
ump	-2628
▁2017	-2629
▁female	-2630
▁distrib	-2631
arily	-2632
▁previously	-2633
urity	-2634
▁river	-2635
vert	-2636
iation	-2637
ications	-2638
aves	-2639
▁2020	-2640
▁provide	-2641
▁hom	-2642
och	-2643
▁represented	-2644
▁Cons	-2645
face	-2646
▁rather	-2647
ground	-2648
▁reve	-2649
▁gold	-2650
tt	-2651
order	-2652
reland	-2653
▁ser	-2654
▁farm	-2655
▁Francis	-2656
▁occup	-2657
stant	-2658
▁behind	-2659
ona	-2660
▁Pet	-2661
▁Virgin	-2662
▁far	-2663
▁Museum	-2664
▁sex	-2665
▁pay	-2666
▁gun	-2667
▁listed	-2668
▁brought	-2669
▁jud	-2670
▁mix	-2671
▁broadcast	-2672
lav	-2673
▁der	-2674
▁Fin	-2675
▁aircraft	-2676
▁Republic	-2677
▁exhib	-2678
▁trib	-2679
asket	-2680
▁pred	-2681
▁parts	-2682
▁2019	-2683
▁purch	-2684
▁Mus	-2685
▁cy	-2686
ena	-2687
▁deal	-2688
▁2.	-2689
▁division	-2690
▁size	-2691
▁conv	-2692
lam	-2693
▁winning	-2694
icles	-2695
▁active	-2696
▁plann	-2697
"),	-2698
▁defeated	-2699
oul	-2700
▁championship	-2701
▁families	-2702
▁commercial	-2703
▁whose	-2704
▁neigh	-2705
0,000	-2706
ria	-2707
road	-2708
pecially	-2709
mon	-2710
▁neg	-2711
▁Tor	-2712
▁Tom	-2713
▁northern	-2714
▁Frank	-2715
▁mass	-2716
▁Paris	-2717
▁lik	-2718
▁2000	-2719
▁compan	-2720
▁Commission	-2721
▁census	-2722
▁media	-2723
oviet	-2724
rown	-2725
olf	-2726
▁method	-2727
rael	-2728
▁ended	-2729
lim	-2730
▁Kingdom	-2731
▁almost	-2732
▁Football	-2733
▁Peter	-2734
▁Kore	-2735
▁section	-2736
▁draw	-2737
▁relationship	-2738
hi	-2739
–0	-2740
ume	-2741
tained	-2742
▁railway	-2743
▁books	-2744
▁Ter	-2745
eleb	-2746
oring	-2747
▁southern	-2748
▁possible	-2749
elled	-2750
▁Smith	-2751
▁reason	-2752
▁Richard	-2753
rative	-2754
▁qualif	-2755
asc	-2756
▁Hill	-2757
▁buildings	-2758
▁changed	-2759
▁Lab	-2760
▁Catholic	-2761
▁force	-2762
▁outside	-2763
retary	-2764
▁allowed	-2765
uz	-2766
▁Che	-2767
▁My	-2768
▁Ham	-2769
uty	-2770
▁frequ	-2771
▁Zeal	-2772
▁Victor	-2773
▁data	-2774
▁movement	-2775
▁writing	-2776
ini	-2777
alled	-2778
,000	-2779
▁sch	-2780
▁investig	-2781
unn	-2782
▁hard	-2783
edy	-2784
ufact	-2785
▁Arch	-2786
▁Im	-2787
▁regard	-2788
▁chart	-2789
▁Sant	-2790
▁Ma	-2791
▁cut	-2792
elt	-2793
olk	-2794
idents	-2795
erve	-2796
▁1970	-2797
▁Pla	-2798
▁action	-2799
unk	-2800
▁runs	-2801
▁Texas	-2802
▁sym	-2803
▁Zealand	-2804
▁Committee	-2805
▁fall	-2806
▁approximately	-2807
▁units	-2808
▁organization	-2809
▁ran	-2810
▁type	-2811
▁coast	-2812
pan	-2813
irth	-2814
enced	-2815
rig	-2816
▁Cal	-2817
▁Two	-2818
clus	-2819
▁Mont	-2820
▁Dire	-2821
ux	-2822
▁journal	-2823
▁Women	-2824
▁lower	-2825
like	-2826
uals	-2827
▁island	-2828
ware	-2829
oper	-2830
▁beginning	-2831
▁Swed	-2832
ites	-2833
▁spent	-2834
▁ask	-2835
▁grand	-2836
ota	-2837
▁primary	-2838
▁Wal	-2839
▁Mel	-2840
based	-2841
gr	-2842
▁Best	-2843
▁document	-2844
inent	-2845
oint	-2846
oz	-2847
ibrary	-2848
▁sus	-2849
▁ste	-2850
▁pers	-2851
▁block	-2852
▁soon	-2853
heast	-2854
▁industry	-2855
▁Carol	-2856
▁taking	-2857
pts	-2858
uter	-2859
ancial	-2860
rel	-2861
▁0.	-2862
iences	-2863
▁itself	-2864
str	-2865
duction	-2866
▁Second	-2867
▁key	-2868
▁esc	-2869
▁according	-2870
▁Ben	-2871
ecess	-2872
▁2019,	-2873
▁length	-2874
abit	-2875
▁artist	-2876
irm	-2877
▁owned	-2878
▁multip	-2879
▁2018,	-2880
ror	-2881
▁determ	-2882
▁Most	-2883
thlet	-2884
iqu	-2885
▁Trans	-2886
▁Government	-2887
rial	-2888
▁imm	-2889
▁bur	-2890
▁stop	-2891
▁king	-2892
▁summer	-2893
▁towards	-2894
nown	-2895
ios	-2896
▁defend	-2897
▁ever	-2898
▁whom	-2899
▁2010,	-2900
▁object	-2901
▁plays	-2902
In	-2903
▁oppos	-2904
porary	-2905
not	-2906
▁plat	-2907
▁2015,	-2908
▁2017,	-2909
▁""	-2910
▁Israel	-2911
istan	-2912
▁29	-2913
▁anc	-2914
▁noted	-2915
▁2014,	-2916
▁tax	-2917
▁Year	-2918
▁Bur	-2919
▁40	-2920
▁especially	-2921
▁wood	-2922
▁Camp	-2923
▁studies	-2924
▁Day	-2925
▁2016,	-2926
...	-2927
▁Soviet	-2928
▁Cont	-2929
▁leader	-2930
▁Cast	-2931
▁transl	-2932
▁prison	-2933
▁too	-2934
▁little	-2935
▁2011,	-2936
▁Inter	-2937
▁2012,	-2938
ready	-2939
▁structure	-2940
▁Los	-2941
ows	-2942
ension	-2943
▁Fore	-2944
▁observ	-2945
▁closed	-2946
▁remov	-2947
▁Ireland	-2948
ounter	-2949
▁Just	-2950
▁natural	-2951
ita	-2952
▁higher	-2953
▁traditional	-2954
▁Rev	-2955
▁2013,	-2956
▁Saint	-2957
▁studied	-2958
▁gir	-2959
asketball	-2960
icago	-2961
▁commission	-2962
▁army	-2963
iety	-2964
▁princip	-2965
▁Festival	-2966
ires	-2967
ola	-2968
rack	-2969
▁break	-2970
ada	-2971
▁concern	-2972
▁function	-2973
pected	-2974
atal	-2975
ano	-2976
▁complex	-2977
▁highest	-2978
asion	-2979
lant	-2980
SA	-2981
▁systems	-2982
▁food	-2983
▁launched	-2984
▁collection	-2985
▁independent	-2986
ises	-2987
▁Congress	-2988
▁nar	-2989
10	-2990
▁Rock	-2991
▁celeb	-2992
▁required	-2993
▁anti	-2994
▁Super	-2995
adium	-2996
▁Flor	-2997
▁lived	-2998
▁You	-2999
▁magazine	-3000
▁Kar	-3001
▁opt	-3002
▁money	-3003
▁Arts	-3004
▁2020,	-3005
▁cred	-3006
▁operations	-3007
▁entered	-3008
hing	-3009
▁individual	-3010
▁enter	-3011
▁1960	-3012
umn	-3013
▁territ	-3014
▁future	-3015
▁Championships	-3016
▁below	-3017
▁instit	-3018
olar	-3019
aps	-3020
▁quest	-3021
▁route	-3022
▁Bu	-3023
▁generally	-3024
cher	-3025
▁senior	-3026
▁opening	-3027
wer	-3028
va	-3029
NA	-3030
▁lack	-3031
▁self	-3032
▁sett	-3033
▁county	-3034
fit	-3035
▁earlier	-3036
▁God	-3037
▁means	-3038
ocal	-3039
▁manufact	-3040
▁Many	-3041
▁ge	-3042
▁destroy	-3043
▁Records	-3044
chan	-3045
ura	-3046
aught	-3047
▁don	-3048
▁dram	-3049
▁Penn	-3050
▁Pac	-3051
▁surround	-3052
▁Play	-3053
▁centre	-3054
▁matches	-3055
▁Olympics	-3056
ibility	-3057
▁battle	-3058
aring	-3059
▁thus	-3060
orpor	-3061
▁Brown	-3062
▁settle	-3063
▁183	-3064
▁2005	-3065
oo	-3066
▁Gra	-3067
▁woman	-3068
ye	-3069
usband	-3070
▁mur	-3071
▁Rob	-3072
▁newsp	-3073
inner	-3074
▁Sir	-3075
▁except	-3076
▁personal	-3077
oid	-3078
oys	-3079
▁standard	-3080
▁increased	-3081
venue	-3082
▁come	-3083
▁staff	-3084
▁prior	-3085
ficult	-3086
▁ball	-3087
▁property	-3088
▁Force	-3089
▁Mil	-3090
▁practice	-3091
▁related	-3092
▁becoming	-3093
iled	-3094
▁victory	-3095
▁den	-3096
▁Italy	-3097
▁sometimes	-3098
▁sat	-3099
▁already	-3100
▁numerous	-3101
1)	-3102
▁genus	-3103
▁Summer	-3104
iter	-3105
oma	-3106
eg	-3107
▁adop	-3108
utch	-3109
▁Greek	-3110
▁Parliament	-3111
oke	-3112
▁selected	-3113
sych	-3114
▁attempt	-3115
▁issues	-3116
well	-3117
▁keep	-3118
enc	-3119
▁decision	-3120
▁certain	-3121
unt	-3122
▁contains	-3123
▁companies	-3124
▁Navy	-3125
▁Angeles	-3126
▁31	-3127
▁Histor	-3128
▁2004	-3129
▁difficult	-3130
▁appearance	-3131
mark	-3132
").	-3133
▁emer	-3134
ado	-3135
ban	-3136
▁manager	-3137
▁location	-3138
▁initially	-3139
▁majority	-3140
▁teac	-3141
anded	-3142
▁cal	-3143
▁competed	-3144
▁Later	-3145
reme	-3146
known	-3147
overs	-3148
▁goals	-3149
▁Georg	-3150
▁Scot	-3151
2)	-3152
lag	-3153
▁Du	-3154
▁2009,	-3155
itiz	-3156
itar	-3157
arriage	-3158
▁caused	-3159
ether	-3160
▁running	-3161
▁super	-3162
▁move	-3163
▁score	-3164
▁Mexico	-3165
▁minor	-3166
▁Chicago	-3167
▁Bank	-3168
arents	-3169
▁Board	-3170
ulated	-3171
TV	-3172
uth	-3173
▁associated	-3174
writ	-3175
▁date	-3176
ands	-3177
▁Bo	-3178
action	-3179
▁older	-3180
▁characters	-3181
▁scient	-3182
▁Games	-3183
▁environment	-3184
▁Found	-3185
FL	-3186
▁Virginia	-3187
▁additional	-3188
▁clear	-3189
3)	-3190
▁course	-3191
▁husband	-3192
▁Under	-3193
▁wide	-3194
▁hor	-3195
rying	-3196
▁emb	-3197
▁squad	-3198
teen	-3199
▁terms	-3200
▁Bet	-3201
▁pie	-3202
▁thought	-3203
▁mountain	-3204
ees	-3205
▁western	-3206
down	-3207
ils	-3208
den	-3209
▁writer	-3210
▁student	-3211
uments	-3212
▁seat	-3213
▁better	-3214
mitted	-3215
▁decl	-3216
▁Leg	-3217
▁singer	-3218
▁artists	-3219
▁2021,	-3220
zil	-3221
ras	-3222
▁annual	-3223
igan	-3224
▁Emp	-3225
▁Russia	-3226
▁2008,	-3227
ams	-3228
▁Mass	-3229
▁cases	-3230
▁(200	-3231
▁chief	-3232
▁3,	-3233
ricult	-3234
inct	-3235
▁collabor	-3236
eds	-3237
▁unit	-3238
▁retired	-3239
▁Squ	-3240
▁link	-3241
▁Fort	-3242
izing	-3243
lying	-3244
▁Joseph	-3245
5%	-3246
ublican	-3247
▁che	-3248
▁interview	-3249
▁big	-3250
▁forced	-3251
▁supported	-3252
▁legal	-3253
▁chair	-3254
▁abs	-3255
▁Liber	-3256
▁feature	-3257
▁threat	-3258
▁passed	-3259
▁prob	-3260
▁serving	-3261
▁consist	-3262
inary	-3263
▁transport	-3264
▁dom	-3265
▁immedi	-3266
▁veh	-3267
▁Old	-3268
▁mission	-3269
▁drop	-3270
▁trade	-3271
▁Northern	-3272
▁musical	-3273
▁operated	-3274
▁di	-3275
▁Cur	-3276
yr	-3277
enth	-3278
▁edition	-3279
▁dig	-3280
ingu	-3281
▁sea	-3282
▁exc	-3283
▁Mur	-3284
▁gra	-3285
▁university	-3286
▁claimed	-3287
▁ens	-3288
▁medal	-3289
▁economic	-3290
▁attend	-3291
▁financial	-3292
▁limited	-3293
▁subsequently	-3294
onn	-3295
▁officer	-3296
▁create	-3297
▁cust	-3298
▁Sk	-3299
▁forest	-3300
▁mostly	-3301
hy	-3302
▁Assembly	-3303
etic	-3304
▁Mos	-3305
▁Battle	-3306
▁quarter	-3307
▁nine	-3308
▁equip	-3309
▁percent	-3310
▁Wales	-3311
ockey	-3312
▁Mr	-3313
▁arrest	-3314
▁love	-3315
▁remains	-3316
▁Educ	-3317
▁pen	-3318
ift	-3319
arent	-3320
▁evidence	-3321
isions	-3322
▁earned	-3323
Amer	-3324
ste	-3325
▁er	-3326
ua	-3327
▁Pan	-3328
cel	-3329
anced	-3330
imb	-3331
▁shot	-3332
▁editor	-3333
plement	-3334
▁activities	-3335
5)	-3336
FA	-3337
▁income	-3338
▁complete	-3339
▁Sa	-3340
earch	-3341
▁particularly	-3342
▁Wood	-3343
▁bene	-3344
▁going	-3345
▁establish	-3346
▁changes	-3347
▁Mill	-3348
▁discuss	-3349
▁raised	-3350
▁municipality	-3351
▁religious	-3352
▁accom	-3353
▁Den	-3354
4)	-3355
▁prevent	-3356
▁medical	-3357
▁Go	-3358
▁hours	-3359
▁text	-3360
▁Er	-3361
unior	-3362
▁Brazil	-3363
▁give	-3364
gn	-3365
▁saf	-3366
▁belong	-3367
▁helped	-3368
▁weeks	-3369
▁Sl	-3370
▁hot	-3371
▁Awards	-3372
▁Irish	-3373
▁Valley	-3374
▁Pre	-3375
▁meeting	-3376
▁ded	-3377
change	-3378
▁Oper	-3379
▁2007,	-3380
▁Florida	-3381
ić	-3382
▁culture	-3383
▁Fer	-3384
rief	-3385
anda	-3386
▁job	-3387
▁sum	-3388
▁presented	-3389
▁Atlant	-3390
▁quick	-3391
▁train	-3392
▁Their	-3393
using	-3394
▁council	-3395
▁Ros	-3396
▁fle	-3397
▁Sur	-3398
▁stay	-3399
▁issue	-3400
▁syn	-3401
▁account	-3402
▁names	-3403
▁results	-3404
raw	-3405
▁Kn	-3406
▁believed	-3407
▁Ha	-3408
cement	-3409
▁famous	-3410
▁larger	-3411
▁Hot	-3412
standing	-3413
▁If	-3414
bon	-3415
uan	-3416
spe	-3417
▁Despite	-3418
▁shown	-3419
▁lines	-3420
8)	-3421
▁programs	-3422
▁got	-3423
▁longer	-3424
▁referred	-3425
▁minutes	-3426
▁Columb	-3427
▁rap	-3428
het	-3429
▁Gar	-3430
▁management	-3431
▁failed	-3432
ote	-3433
▁leaving	-3434
6)	-3435
▁insp	-3436
▁parents	-3437
60	-3438
imin	-3439
▁platform	-3440
▁news	-3441
ternal	-3442
gl	-3443
wide	-3444
▁science	-3445
▁Arab	-3446
ero	-3447
▁Bill	-3448
▁vir	-3449
▁Techn	-3450
stra	-3451
7)	-3452
ID	-3453
▁birth	-3454
house	-3455
▁Win	-3456
▁That	-3457
▁Ann	-3458
▁chall	-3459
ón	-3460
▁Lu	-3461
▁Southern	-3462
▁consider	-3463
▁Aut	-3464
▁Spe	-3465
▁et	-3466
▁bound	-3467
▁legisl	-3468
▁increase	-3469
▁seasons	-3470
▁Martin	-3471
bur	-3472
▁sports	-3473
selves	-3474
▁overall	-3475
▁themselves	-3476
▁Public	-3477
▁composed	-3478
▁CD	-3479
inet	-3480
▁multiple	-3481
▁colon	-3482
ider	-3483
itt	-3484
iring	-3485
▁carried	-3486
ato	-3487
▁Province	-3488
An	-3489
▁federal	-3490
iance	-3491
▁screen	-3492
▁remaining	-3493
▁latter	-3494
▁Pacific	-3495
▁happ	-3496
isation	-3497
▁mention	-3498
▁acquired	-3499
iy	-3500
▁foreign	-3501
▁graduated	-3502
▁offered	-3503
ients	-3504
BA	-3505
onse	-3506
▁promoted	-3507
▁Chief	-3508
▁Republican	-3509
▁professor	-3510
▁eastern	-3511
col	-3512
▁step	-3513
▁lay	-3514
▁Fred	-3515
▁ant	-3516
▁Spain	-3517
▁sister	-3518
ss	-3519
▁arm	-3520
Th	-3521
▁Democratic	-3522
▁complet	-3523
80	-3524
▁du	-3525
atively	-3526
▁word	-3527
▁altern	-3528
▁instr	-3529
azz	-3530
▁Work	-3531
rast	-3532
bre	-3533
ih	-3534
bers	-3535
obal	-3536
▁inn	-3537
▁Profess	-3538
▁Ev	-3539
itan	-3540
▁2021	-3541
▁arran	-3542
▁specific	-3543
▁politician	-3544
▁vote	-3545
aches	-3546
▁Iran	-3547
▁starting	-3548
▁status	-3549
▁takes	-3550
ulf	-3551
▁proposed	-3552
▁troops	-3553
▁Sar	-3554
▁sequ	-3555
▁regional	-3556
urban	-3557
▁forms	-3558
▁box	-3559
ging	-3560
▁phil	-3561
▁concer	-3562
▁norm	-3563
▁consists	-3564
▁elections	-3565
▁4,	-3566
▁estim	-3567
ga	-3568
▁middle	-3569
▁Class	-3570
▁Service	-3571
▁energy	-3572
▁Ol	-3573
▁rate	-3574
▁Mic	-3575
▁poet	-3576
▁visit	-3577
isk	-3578
▁policy	-3579
▁(201	-3580
▁Sun	-3581
mond	-3582
▁Times	-3583
▁today	-3584
▁inte	-3585
▁Cr	-3586
ault	-3587
▁guitar	-3588
▁!	-3589
ylvan	-3590
▁Mountain	-3591
ties	-3592
▁separate	-3593
▁department	-3594
▁Both	-3595
ols	-3596
▁Cla	-3597
▁hospital	-3598
uge	-3599
▁room	-3600
▁Jewish	-3601
▁variety	-3602
▁Do	-3603
▁individuals	-3604
ati	-3605
▁surface	-3606
imum	-3607
▁indic	-3608
enty	-3609
▁mainly	-3610
▁stations	-3611
see	-3612
arters	-3613
▁native	-3614
bury	-3615
▁Sub	-3616
▁detail	-3617
▁uses	-3618
▁Haw	-3619
▁Sil	-3620
▁soft	-3621
▁batt	-3622
▁McC	-3623
roll	-3624
▁lic	-3625
pose	-3626
▁sched	-3627
40	-3628
▁Lord	-3629
▁Uk	-3630
▁Mo	-3631
▁Pak	-3632
▁meaning	-3633
▁chap	-3634
▁response	-3635
▁mach	-3636
iro	-3637
▁targ	-3638
ette	-3639
American	-3640
▁Mod	-3641
▁fort	-3642
ipl	-3643
▁experience	-3644
reater	-3645
vention	-3646
ady	-3647
▁temper	-3648
ession	-3649
ache	-3650
▁succeed	-3651
▁Oh	-3652
▁eth	-3653
▁Cam	-3654
▁Edward	-3655
▁3.	-3656
▁Tour	-3657
▁Jim	-3658
▁depart	-3659
▁Science	-3660
▁bring	-3661
▁peak	-3662
lit	-3663
▁adj	-3664
▁theory	-3665
▁Research	-3666
▁continu	-3667
uman	-3668
▁Out	-3669
aters	-3670
▁poor	-3671
▁pra	-3672
▁turned	-3673
▁2003	-3674
9)	-3675
▁label	-3676
▁male	-3677
▁categ	-3678
▁2006,	-3679
▁More	-3680
itation	-3681
▁society	-3682
▁charg	-3683
▁Empire	-3684
play	-3685
▁Conference	-3686
▁done	-3687
▁despite	-3688
▁1950	-3689
▁basketball	-3690
▁influence	-3691
▁Over	-3692
▁arrived	-3693
▁marriage	-3694
ously	-3695
▁brief	-3696
▁Mat	-3697
▁always	-3698
▁Fre	-3699
▁heavy	-3700
▁Up	-3701
▁crew	-3702
ylvania	-3703
▁pil	-3704
▁demon	-3705
▁Mah	-3706
iger	-3707
▁Lee	-3708
▁houses	-3709
aily	-3710
▁fifth	-3711
▁recording	-3712
▁citiz	-3713
▁Poland	-3714
▁Britain	-3715
iana	-3716
▁deep	-3717
▁provides	-3718
▁might	-3719
▁historical	-3720
▁Queen	-3721
▁Def	-3722
▁bomb	-3723
▁Inc	-3724
▁require	-3725
▁diss	-3726
▁Carl	-3727
▁Education	-3728
▁serve	-3729
▁Vol	-3730
wa	-3731
▁los	-3732
▁finally	-3733
▁source	-3734
oir	-3735
▁Gal	-3736
▁appears	-3737
▁conditions	-3738
▁fellow	-3739
ken	-3740
lah	-3741
▁partn	-3742
▁Dutch	-3743
irit	-3744
▁bridge	-3745
▁Bow	-3746
▁tracks	-3747
gian	-3748
▁nearby	-3749
wan	-3750
▁Carolina	-3751
▁managed	-3752
▁transferred	-3753
▁saying	-3754
▁Ill	-3755
▁2002	-3756
▁Big	-3757
▁shoot	-3758
▁affect	-3759
emporary	-3760
▁Railway	-3761
▁182	-3762
▁ships	-3763
▁Star	-3764
▁responsible	-3765
▁mem	-3766
▁Bus	-3767
arden	-3768
ify	-3769
uries	-3770
▁Governor	-3771
▁eas	-3772
▁Jer	-3773
ares	-3774
ffic	-3775
▁nearly	-3776
▁asked	-3777
▁Eastern	-3778
▁issued	-3779
▁increasing	-3780
▁participated	-3781
▁recent	-3782
▁Ele	-3783
▁0	-3784
▁appearances	-3785
ali	-3786
▁academ	-3787
▁plans	-3788
▁enough	-3789
▁organiz	-3790
▁alongside	-3791
▁Rou	-3792
▁ver	-3793
▁producer	-3794
▁expla	-3795
▁log	-3796
▁extended	-3797
▁Cro	-3798
▁constructed	-3799
▁£	-3800
▁likely	-3801
▁Jud	-3802
▁decla	-3803
▁dise	-3804
▁Dou	-3805
antry	-3806
▁told	-3807
▁2001	-3808
▁Ro	-3809
▁Hel	-3810
▁Tw	-3811
▁operation	-3812
▁wanted	-3813
umed	-3814
▁(199	-3815
▁cell	-3816
ao	-3817
▁depend	-3818
▁administrative	-3819
bl	-3820
▁Director	-3821
▁comment	-3822
▁Book	-3823
▁concept	-3824
▁cultural	-3825
▁face	-3826
▁capac	-3827
II	-3828
▁premi	-3829
itude	-3830
esh	-3831
▁Land	-3832
light	-3833
mission	-3834
▁movie	-3835
▁Social	-3836
▁Another	-3837
▁problems	-3838
▁Line	-3839
▁Creek	-3840
▁=	-3841
ki	-3842
▁discovered	-3843
▁records	-3844
▁Long	-3845
▁Latin	-3846
0%	-3847
ugby	-3848
▁cities	-3849
▁technology	-3850
▁leave	-3851
▁makes	-3852
▁Rh	-3853
ersey	-3854
ysis	-3855
12	-3856
oura	-3857
war	-3858
▁List	-3859
▁passeng	-3860
▁Prog	-3861
▁youth	-3862
▁III	-3863
▁directly	-3864
▁Main	-3865
▁elements	-3866
▁border	-3867
▁mechan	-3868
emorial	-3869
▁webs	-3870
▁necess	-3871
awa	-3872
emic	-3873
▁Jo	-3874
▁Spr	-3875
▁Radio	-3876
ental	-3877
▁primarily	-3878
▁Men	-3879
▁Hon	-3880
ounts	-3881
▁covered	-3882
cript	-3883
▁Bas	-3884
▁Arg	-3885
▁Bh	-3886
▁prop	-3887
▁pick	-3888
▁levels	-3889
▁Tri	-3890
▁incorpor	-3891
▁cause	-3892
▁rural	-3893
▁Cle	-3894
▁People	-3895
▁candidate	-3896
▁province	-3897
fect	-3898
▁Young	-3899
iant	-3900
nding	-3901
ensity	-3902
▁#	-3903
▁5,	-3904
ador	-3905
▁prin	-3906
▁sla	-3907
add	-3908
▁ult	-3909
▁honor	-3910
itted	-3911
RA	-3912
▁nature	-3913
oston	-3914
yan	-3915
▁brand	-3916
rupt	-3917
▁residents	-3918
igr	-3919
▁Scotland	-3920
▁Penns	-3921
undred	-3922
vement	-3923
ny	-3924
▁Portug	-3925
▁domin	-3926
▁museum	-3927
▁officially	-3928
ledge	-3929
▁FC	-3930
▁psych	-3931
▁How	-3932
▁square	-3933
▁oil	-3934
▁Theatre	-3935
▁whole	-3936
aya	-3937
peror	-3938
▁newspaper	-3939
▁180	-3940
poration	-3941
3%	-3942
▁BC	-3943
class	-3944
bit	-3945
▁Series	-3946
gypt	-3947
kins	-3948
▁positive	-3949
▁grew	-3950
▁inh	-3951
▁Prem	-3952
unction	-3953
▁Luc	-3954
▁corn	-3955
▁firm	-3956
uten	-3957
ias	-3958
▁Jul	-3959
▁products	-3960
▁sn	-3961
je	-3962
▁CO	-3963
▁master	-3964
▁Av	-3965
▁our	-3966
▁whether	-3967
▁Middle	-3968
▁Health	-3969
cean	-3970
▁br	-3971
ims	-3972
▁Pennsylvania	-3973
▁households	-3974
irmed	-3975
▁Ram	-3976
▁double	-3977
rif	-3978
▁neighbor	-3979
ervation	-3980
ansas	-3981
▁Inf	-3982
▁initial	-3983
▁Coast	-3984
▁acce	-3985
▁lives	-3986
▁revealed	-3987
ech	-3988
▁conducted	-3989
▁idea	-3990
▁Open	-3991
▁think	-3992
▁Civil	-3993
aped	-3994
▁renamed	-3995
▁Bre	-3996
▁parish	-3997
illed	-3998
▁Jones	-3999
ittle	-4000
▁Asian	-4001
rich	-4002
▁Williams	-4003
▁walk	-4004
▁paper	-4005
▁Bob	-4006
▁Team	-4007
gar	-4008
▁i	-4009
▁Philipp	-4010
▁here	-4011
istics	-4012
▁ess	-4013
▁Senate	-4014
resp	-4015
▁display	-4016
▁chem	-4017
▁spread	-4018
rice	-4019
▁Bor	-4020
▁Order	-4021
70	-4022
ulations	-4023
velopment	-4024
▁Bul	-4025
▁officers	-4026
enes	-4027
iano	-4028
▁Hy	-4029
more	-4030
▁pow	-4031
▁continue	-4032
▁Islam	-4033
▁friends	-4034
▁planned	-4035
omer	-4036
abeth	-4037
▁share	-4038
▁Prince	-4039
rison	-4040
▁har	-4041
AC	-4042
ption	-4043
▁confl	-4044
▁prominent	-4045
▁Francisco	-4046
▁foot	-4047
▁headqu	-4048
▁Johnson	-4049
▁speed	-4050
▁Foundation	-4051
▁ordered	-4052
▁numbers	-4053
1%	-4054
isher	-4055
▁heart	-4056
▁follows	-4057
▁Tro	-4058
▁soldiers	-4059
Ar	-4060
▁Mot	-4061
tainment	-4062
▁Kent	-4063
▁actor	-4064
AS	-4065
▁divided	-4066
▁Hung	-4067
burgh	-4068
▁conver	-4069
▁Dar	-4070
portun	-4071
cont	-4072
ko	-4073
ocated	-4074
▁removed	-4075
part	-4076
▁intended	-4077
▁univers	-4078
▁path	-4079
▁Egypt	-4080
onic	-4081
▁Az	-4082
▁Broad	-4083
▁notable	-4084
▁Ke	-4085
▁produce	-4086
▁letter	-4087
town	-4088
ima	-4089
4%	-4090
▁drug	-4091
▁executive	-4092
▁Ur	-4093
ully	-4094
▁$1	-4095
▁workers	-4096
amily	-4097
▁Major	-4098
icted	-4099
▁Centre	-4100
▁Jac	-4101
aka	-4102
▁Boston	-4103
▁value	-4104
▁Bal	-4105
▁dark	-4106
▁kind	-4107
iga	-4108
ounds	-4109
2%	-4110
▁stories	-4111
inals	-4112
▁females	-4113
▁Sund	-4114
▁65	-4115
mir	-4116
▁Mu	-4117
▁Ty	-4118
phy	-4119
▁Os	-4120
▁dead	-4121
▁Station	-4122
▁181	-4123
▁Secretary	-4124
▁Matt	-4125
▁quickly	-4126
▁impact	-4127
▁nation	-4128
▁Michigan	-4129
▁lies	-4130
8%	-4131
▁projects	-4132
BS	-4133
▁collect	-4134
▁So	-4135
▁7,	-4136
▁rule	-4137
▁Also	-4138
7%	-4139
▁amount	-4140
▁laws	-4141
6%	-4142
▁stars	-4143
▁scene	-4144
▁ancient	-4145
akers	-4146
▁smaller	-4147
lace	-4148
▁highly	-4149
osoph	-4150
▁Sand	-4151
▁pan	-4152
▁basis	-4153
inem	-4154
▁withd	-4155
▁Stan	-4156
▁potential	-4157
▁assistant	-4158
ube	-4159
iated	-4160
isters	-4161
▁maintain	-4162
put	-4163
reng	-4164
▁Sat	-4165
▁talk	-4166
adel	-4167
▁179	-4168
ressive	-4169
law	-4170
▁Charl	-4171
ips	-4172
▁Ver	-4173
▁Add	-4174
▁growth	-4175
▁overs	-4176
ca	-4177
▁Ohio	-4178
▁Asia	-4179
no	-4180
▁2005,	-4181
ederation	-4182
bed	-4183
▁Gh	-4184
▁defeat	-4185
ellig	-4186
▁respectively	-4187
▁purs	-4188
▁Polish	-4189
▁autom	-4190
▁Scottish	-4191
▁moving	-4192
▁News	-4193
Le	-4194
ela	-4195
▁touch	-4196
▁dedicated	-4197
▁capacity	-4198
▁security	-4199
ieuten	-4200
nds	-4201
ila	-4202
▁purchased	-4203
▁sail	-4204
▁Avenue	-4205
▁Dis	-4206
ja	-4207
ricket	-4208
▁6,	-4209
▁words	-4210
▁immediately	-4211
aging	-4212
▁effects	-4213
▁assigned	-4214
▁Eliz	-4215
dney	-4216
▁15,	-4217
▁Est	-4218
▁Sea	-4219
▁extra	-4220
orning	-4221
▁channel	-4222
▁titled	-4223
▁sal	-4224
ira	-4225
▁yet	-4226
▁Ly	-4227
▁efforts	-4228
oud	-4229
▁Are	-4230
▁Camb	-4231
akh	-4232
▁floor	-4233
▁Hospital	-4234
▁implement	-4235
▁BBC	-4236
▁footballer	-4237
▁reviews	-4238
▁Van	-4239
▁Corps	-4240
▁Dev	-4241
▁Di	-4242
▁reform	-4243
▁opportun	-4244
▁color	-4245
▁upper	-4246
▁commonly	-4247
▁Born	-4248
▁forward	-4249
▁administration	-4250
ables	-4251
▁Step	-4252
▁treatment	-4253
▁Mount	-4254
▁8,	-4255
▁2010.	-4256
▁races	-4257
▁Sol	-4258
met	-4259
▁1999	-4260
greg	-4261
▁recover	-4262
▁protect	-4263
itled	-4264
▁settlement	-4265
ella	-4266
▁solo	-4267
▁featuring	-4268
▁agreed	-4269
▁wor	-4270
▁Columbia	-4271
▁Muslim	-4272
istered	-4273
▁counter	-4274
▁favor	-4275
▁Cross	-4276
▁cle	-4277
ources	-4278
▁Earth	-4279
▁Office	-4280
astic	-4281
▁question	-4282
▁dyn	-4283
▁Ox	-4284
▁Alexander	-4285
▁Tem	-4286
▁repe	-4287
▁contact	-4288
rance	-4289
▁agricult	-4290
thing	-4291
▁branch	-4292
win	-4293
▁inside	-4294
▁compared	-4295
▁median	-4296
▁historic	-4297
ening	-4298
▁focus	-4299
▁Four	-4300
▁places	-4301
▁Tim	-4302
Al	-4303
▁18,	-4304
▁Post	-4305
▁destroyed	-4306
can	-4307
▁declared	-4308
▁Engine	-4309
▁Wind	-4310
▁feel	-4311
▁Gall	-4312
ampions	-4313
ieutenant	-4314
▁direction	-4315
ora	-4316
yard	-4317
stone	-4318
▁gained	-4319
▁attention	-4320
▁gas	-4321
iest	-4322
▁lif	-4323
▁Georgia	-4324
▁ang	-4325
nam	-4326
▁reach	-4327
▁Mid	-4328
een	-4329
▁bird	-4330
▁uns	-4331
▁Song	-4332
▁Bang	-4333
▁giving	-4334
anks	-4335
▁street	-4336
dro	-4337
▁weap	-4338
▁—	-4339
▁Ak	-4340
▁activity	-4341
9%	-4342
▁Jes	-4343
ronic	-4344
rate	-4345
▁estimated	-4346
▁singles	-4347
▁vac	-4348
▁article	-4349
▁winner	-4350
chester	-4351
▁organized	-4352
▁Tod	-4353
grad	-4354
▁behav	-4355
izes	-4356
▁needed	-4357
▁physical	-4358
alle	-4359
edd	-4360
▁votes	-4361
andon	-4362
▁Tam	-4363
▁stra	-4364
500	-4365
▁Ok	-4366
zy	-4367
▁store	-4368
▁largely	-4369
▁conne	-4370
▁Jackson	-4371
stein	-4372
vis	-4373
▁Sydney	-4374
emet	-4375
▁perman	-4376
apers	-4377
▁Kong	-4378
▁cerem	-4379
▁facilities	-4380
▁online	-4381
▁leaves	-4382
▁mic	-4383
▁website	-4384
▁gain	-4385
▁10,	-4386
▁Cy	-4387
▁adopted	-4388
▁minister	-4389
▁suffered	-4390
ski	-4391
▁constitu	-4392
▁semi	-4393
▁widely	-4394
mad	-4395
chen	-4396
▁captured	-4397
▁System	-4398
▁Each	-4399
▁types	-4400
▁green	-4401
▁Far	-4402
▁parliament	-4403
▁Ash	-4404
ennis	-4405
▁Head	-4406
AF	-4407
▁territory	-4408
▁charge	-4409
▁occurred	-4410
▁accepted	-4411
▁seek	-4412
▁Top	-4413
respond	-4414
emy	-4415
▁Bern	-4416
▁drama	-4417
amin	-4418
▁typically	-4419
obile	-4420
▁leaders	-4421
án	-4422
▁roles	-4423
▁Viet	-4424
▁12,	-4425
▁agreement	-4426
▁60	-4427
ried	-4428
▁Of	-4429
etts	-4430
duce	-4431
▁elev	-4432
▁Berlin	-4433
rie	-4434
gu	-4435
▁Ott	-4436
▁ability	-4437
▁Ministry	-4438
▁Hong	-4439
▁conclud	-4440
▁comes	-4441
ogue	-4442
▁amb	-4443
ograp	-4444
▁resulted	-4445
▁housing	-4446
▁union	-4447
inois	-4448
▁1998	-4449
▁Max	-4450
▁CE	-4451
▁confirmed	-4452
ilding	-4453
rovers	-4454
▁Kenn	-4455
hew	-4456
▁slow	-4457
Sh	-4458
▁scholar	-4459
▁electric	-4460
yer	-4461
▁approach	-4462
▁rare	-4463
▁Andrew	-4464
▁nuc	-4465
rics	-4466
▁streng	-4467
▁hosted	-4468
▁Sever	-4469
▁stone	-4470
▁wing	-4471
oration	-4472
enge	-4473
▁clubs	-4474
▁municipal	-4475
▁communities	-4476
▁Mas	-4477
▁probably	-4478
▁target	-4479
▁problem	-4480
▁ut	-4481
ounded	-4482
▁thr	-4483
▁estate	-4484
▁sources	-4485
▁1930	-4486
ropical	-4487
▁champion	-4488
▁symb	-4489
da	-4490
▁episodes	-4491
▁card	-4492
▁serves	-4493
sen	-4494
nic	-4495
onia	-4496
▁Three	-4497
▁beat	-4498
▁Raj	-4499
▁operating	-4500
▁table	-4501
▁hundred	-4502
▁Brook	-4503
▁format	-4504
▁blood	-4505
▁miles	-4506
▁Olympic	-4507
umber	-4508
▁Water	-4509
uting	-4510
▁1996	-4511
ropol	-4512
lab	-4513
▁conference	-4514
▁ice	-4515
▁quality	-4516
▁rat	-4517
bo	-4518
▁Card	-4519
▁Ray	-4520
ordin	-4521
▁Tre	-4522
▁coin	-4523
onto	-4524
▁split	-4525
▁max	-4526
▁Argent	-4527
rical	-4528
▁Historic	-4529
▁Ell	-4530
▁silver	-4531
▁Federal	-4532
ancy	-4533
▁combined	-4534
▁mixed	-4535
perial	-4536
▁Minn	-4537
fort	-4538
▁fa	-4539
▁heav	-4540
▁acting	-4541
▁presence	-4542
▁awards	-4543
▁expanded	-4544
gers	-4545
hat	-4546
▁languages	-4547
▁pet	-4548
▁academic	-4549
achus	-4550
▁Illinois	-4551
▁murder	-4552
illy	-4553
▁computer	-4554
▁2011.	-4555
▁therefore	-4556
▁felt	-4557
▁Show	-4558
▁Anton	-4559
▁Field	-4560
▁recently	-4561
▁2012.	-4562
▁Jr	-4563
▁era	-4564
icine	-4565
▁yards	-4566
▁coming	-4567
▁metal	-4568
ulpt	-4569
▁taught	-4570
▁leadership	-4571
▁dance	-4572
▁trial	-4573
▁newly	-4574
▁consec	-4575
▁Elizabeth	-4576
25	-4577
▁retire	-4578
▁Development	-4579
▁Jersey	-4580
rane	-4581
ione	-4582
▁sevent	-4583
▁24,	-4584
▁Gir	-4585
▁ly	-4586
▁2014.	-4587
▁Victoria	-4588
▁Professor	-4589
▁cat	-4590
▁2013.	-4591
▁Ken	-4592
▁fell	-4593
▁recognized	-4594
▁concent	-4595
press	-4596
▁Ba	-4597
▁Fe	-4598
▁abandon	-4599
▁offers	-4600
▁peace	-4601
icient	-4602
oral	-4603
▁equipment	-4604
▁expected	-4605
▁2015.	-4606
uled	-4607
▁albums	-4608
▁identified	-4609
▁Pen	-4610
▁committee	-4611
▁nominated	-4612
▁coal	-4613
mas	-4614
▁Rome	-4615
▁mentioned	-4616
with	-4617
▁pit	-4618
▁Bec	-4619
aly	-4620
▁recomm	-4621
ishes	-4622
▁recon	-4623
▁Corporation	-4624
▁couple	-4625
▁Supreme	-4626
▁Daniel	-4627
▁/	-4628
▁doub	-4629
▁reduced	-4630
iate	-4631
▁Brig	-4632
▁Blue	-4633
▁Jean	-4634
▁interp	-4635
oles	-4636
▁Corn	-4637
▁captain	-4638
▁Li	-4639
▁11,	-4640
worth	-4641
▁buried	-4642
▁Love	-4643
▁sens	-4644
▁joint	-4645
olved	-4646
▁45	-4647
▁controvers	-4648
▁critical	-4649
IA	-4650
▁Univers	-4651
▁voice	-4652
▁plants	-4653
▁owner	-4654
▁Queens	-4655
▁flight	-4656
hens	-4657
▁content	-4658
agement	-4659
inity	-4660
▁Prime	-4661
▁pal	-4662
aug	-4663
wick	-4664
miss	-4665
edom	-4666
ronze	-4667
▁Justice	-4668
▁wa	-4669
▁scoring	-4670
▁(,	-4671
▁urban	-4672
▁Tay	-4673
IS	-4674
aces	-4675
▁correspond	-4676
ba	-4677
▁industrial	-4678
New	-4679
urt	-4680
▁pressure	-4681
▁distance	-4682
▁propos	-4683
▁granted	-4684
pass	-4685
stitution	-4686
▁resident	-4687
ologist	-4688
thur	-4689
▁positions	-4690
▁1997	-4691
achusetts	-4692
▁labor	-4693
▁Route	-4694
▁2016.	-4695
▁Before	-4696
▁affili	-4697
▁parties	-4698
▁distinct	-4699
▁..	-4700
▁losing	-4701
set	-4702
▁mill	-4703
▁stream	-4704
istance	-4705
mann	-4706
▁fr	-4707
▁Cat	-4708
osen	-4709
▁resulting	-4710
▁9,	-4711
▁2004,	-4712
wing	-4713
riz	-4714
▁suggested	-4715
li	-4716
▁Ca	-4717
▁governor	-4718
yal	-4719
emetery	-4720
resh	-4721
range	-4722
▁Turk	-4723
▁Among	-4724
▁damage	-4725
▁Wild	-4726
ibly	-4727
▁strugg	-4728
▁flag	-4729
▁ranked	-4730
▁sales	-4731
▁cars	-4732
▁Bridge	-4733
cend	-4734
▁Massachusetts	-4735
oted	-4736
ivity	-4737
▁2017.	-4738
▁rules	-4739
▁titles	-4740
▁girl	-4741
▁thous	-4742
▁Good	-4743
▁obtained	-4744
▁twice	-4745
cles	-4746
▁Base	-4747
urname	-4748
▁Hor	-4749
▁bad	-4750
▁Korea	-4751
▁digital	-4752
ctoral	-4753
iat	-4754
▁provin	-4755
▁teacher	-4756
▁performances	-4757
gg	-4758
▁2018.	-4759
▁Ul	-4760
▁recommend	-4761
▁2009.	-4762
▁billion	-4763
▁stre	-4764
encies	-4765
onom	-4766
▁Little	-4767
amber	-4768
▁Islands	-4769
▁chairman	-4770
CC	-4771
▁surrounding	-4772
▁Jeff	-4773
estic	-4774
orter	-4775
nes	-4776
▁Villa	-4777
▁prep	-4778
▁painting	-4779
▁contemporary	-4780
▁showed	-4781
▁ir	-4782
▁serious	-4783
ez	-4784
▁kept	-4785
▁vess	-4786
▁contest	-4787
▁pack	-4788
itness	-4789
▁Stadium	-4790
▁Rod	-4791
▁Pop	-4792
▁seats	-4793
uer	-4794
▁condition	-4795
TA	-4796
▁spons	-4797
▁sexual	-4798
▁4.	-4799
▁literature	-4800
▁1992	-4801
▁figure	-4802
▁paid	-4803
▁inform	-4804
▁creation	-4805
▁continues	-4806
outheast	-4807
▁distribution	-4808
▁fast	-4809
▁Lew	-4810
▁models	-4811
▁paint	-4812
▁16,	-4813
gal	-4814
▁(;	-4815
▁males	-4816
▁mess	-4817
▁Cop	-4818
ighter	-4819
▁2019.	-4820
bourne	-4821
▁motor	-4822
▁14,	-4823
▁providing	-4824
ova	-4825
water	-4826
▁campus	-4827
agon	-4828
▁2000,	-4829
han	-4830
75	-4831
▁Rog	-4832
▁fix	-4833
▁Enter	-4834
▁Swedish	-4835
rence	-4836
▁organizations	-4837
which	-4838
▁officials	-4839
▁finish	-4840
▁Highway	-4841
▁Airport	-4842
▁35	-4843
▁twenty	-4844
▁disease	-4845
alion	-4846
▁becomes	-4847
▁Pakistan	-4848
▁spring	-4849
▁Athlet	-4850
▁Common	-4851
ender	-4852
▁hop	-4853
▁nort	-4854
▁wild	-4855
▁density	-4856
tic	-4857
unte	-4858
ansion	-4859
▁suppl	-4860
ervative	-4861
▁accept	-4862
nel	-4863
▁greater	-4864
▁blue	-4865
▁pattern	-4866
▁su	-4867
book	-4868
▁formation	-4869
ented	-4870
urer	-4871
▁2022,	-4872
▁Bishop	-4873
▁secondary	-4874
▁slight	-4875
▁actually	-4876
▁Guard	-4877
90	-4878
▁comedy	-4879
▁injury	-4880
▁receive	-4881
▁task	-4882
▁Brad	-4883
MS	-4884
▁authorities	-4885
▁2008.	-4886
▁growing	-4887
▁knowledge	-4888
odies	-4889
11	-4890
rim	-4891
▁Revolution	-4892
▁Es	-4893
▁cab	-4894
▁Nether	-4895
▁Represent	-4896
.)	-4897
▁tried	-4898
▁Life	-4899
▁Police	-4900
iced	-4901
▁critics	-4902
–18	-4903
▁Nations	-4904
▁Child	-4905
▁search	-4906
▁1994	-4907
▁marked	-4908
adelph	-4909
▁1995	-4910
▁succeeded	-4911
▁Way	-4912
▁2022	-4913
▁association	-4914
ji	-4915
▁Library	-4916
▁13,	-4917
MA	-4918
igen	-4919
▁Duke	-4920
▁instrument	-4921
▁1920	-4922
▁arrested	-4923
▁Ah	-4924
▁claims	-4925
ager	-4926
▁Joe	-4927
iform	-4928
▁purpose	-4929
▁pun	-4930
▁Lim	-4931
▁prec	-4932
▁Serb	-4933
▁inspired	-4934
uation	-4935
▁Toronto	-4936
▁analysis	-4937
▁32	-4938
▁launch	-4939
▁cam	-4940
cul	-4941
▁boy	-4942
▁Bol	-4943
▁17,	-4944
▁Game	-4945
olid	-4946
▁address	-4947
ancing	-4948
FC	-4949
▁true	-4950
▁opposition	-4951
vest	-4952
▁cells	-4953
▁tells	-4954
ulty	-4955
ricts	-4956
▁younger	-4957
sex	-4958
▁loan	-4959
";	-4960
▁wall	-4961
▁designated	-4962
sky	-4963
ng	-4964
vin	-4965
▁sites	-4966
▁Independ	-4967
▁pict	-4968
▁teaching	-4969
▁Dun	-4970
▁Det	-4971
oty	-4972
▁500	-4973
▁situated	-4974
▁secret	-4975
▁aim	-4976
▁column	-4977
western	-4978
▁Boy	-4979
▁Bell	-4980
▁alone	-4981
▁Ep	-4982
▁Aff	-4983
adelphia	-4984
ctors	-4985
▁Due	-4986
hemat	-4987
▁regions	-4988
▁...	-4989
▁applied	-4990
▁sculpt	-4991
▁liber	-4992
▁says	-4993
tario	-4994
▁headquarters	-4995
bu	-4996
▁Dam	-4997
▁connected	-4998
▁Santa	-4999
▁returning	-5000
▁wear	-5001
▁Because	-5002
▁Arm	-5003
▁festival	-5004
▁Sports	-5005
-3	-5006
▁allowing	-5007
ighth	-5008
▁challeng	-5009
▁supply	-5010
▁burn	-5011
▁Ira	-5012
▁feet	-5013
▁unique	-5014
▁villages	-5015
▁Ven	-5016
rog	-5017
▁bal	-5018
▁fully	-5019
▁attacks	-5020
▁meant	-5021
▁Naz	-5022
▁Mir	-5023
iling	-5024
▁facility	-5025
▁traffic	-5026
▁spot	-5027
▁Chap	-5028
▁Through	-5029
▁Premier	-5030
weight	-5031
ker	-5032
▁gives	-5033
▁experiment	-5034
▁Str	-5035
ouri	-5036
▁Oxford	-5037
▁ve	-5038
▁Ant	-5039
aling	-5040
lers	-5041
▁existing	-5042
usion	-5043
▁sport	-5044
▁hall	-5045
▁mm	-5046
uts	-5047
▁Conf	-5048
▁Ut	-5049
▁Castle	-5050
▁trains	-5051
▁library	-5052
EC	-5053
▁sixth	-5054
▁Budd	-5055
▁actress	-5056
orney	-5057
▁commander	-5058
▁25,	-5059
▁Regiment	-5060
inger	-5061
▁extend	-5062
▁Fle	-5063
▁cannot	-5064
15	-5065
▁govern	-5066
▁Press	-5067
▁weight	-5068
▁figures	-5069
▁surname	-5070
▁concert	-5071
▁allows	-5072
▁20,	-5073
▁compon	-5074
PA	-5075
▁Bab	-5076
▁Wilson	-5077
▁(198	-5078
▁bow	-5079
▁illust	-5080
iable	-5081
▁habit	-5082
▁integ	-5083
eld	-5084
▁situation	-5085
▁suggest	-5086
▁Network	-5087
inson	-5088
▁conflict	-5089
▁Offic	-5090
▁Atlantic	-5091
▁Ger	-5092
▁mom	-5093
▁consum	-5094
▁shop	-5095
▁enj	-5096
eller	-5097
▁refused	-5098
▁spirit	-5099
▁Special	-5100
▁2007.	-5101
▁ce	-5102
▁Ontario	-5103
▁Korean	-5104
elligence	-5105
▁1940	-5106
▁scientific	-5107
▁Philadelphia	-5108
uate	-5109
▁bought	-5110
▁sides	-5111
▁achieved	-5112
ée	-5113
▁Between	-5114
▁Bir	-5115
▁tower	-5116
real	-5117
▁von	-5118
▁chosen	-5119
▁Program	-5120
load	-5121
▁simply	-5122
▁Forest	-5123
▁versions	-5124
arc	-5125
zech	-5126
▁partner	-5127
▁Jon	-5128
▁Netherlands	-5129
▁want	-5130
▁Kir	-5131
bec	-5132
asty	-5133
▁risk	-5134
▁completely	-5135
▁climate	-5136
bro	-5137
▁advanced	-5138
erved	-5139
▁athlet	-5140
▁begins	-5141
▁narrow	-5142
utional	-5143
CAA	-5144
▁rapid	-5145
▁Rel	-5146
▁settled	-5147
iser	-5148
▁theme	-5149
itzer	-5150
▁Ta	-5151
▁dial	-5152
chestra	-5153
▁brothers	-5154
▁Sher	-5155
ucky	-5156
▁suit	-5157
tra	-5158
▁aired	-5159
▁materials	-5160
▁Several	-5161
▁fish	-5162
▁sons	-5163
▁alle	-5164
▁founder	-5165
imal	-5166
▁defined	-5167
▁Hay	-5168
▁reports	-5169
▁Mun	-5170
▁thir	-5171
▁tim	-5172
▁Captain	-5173
ennes	-5174
▁fans	-5175
▁pair	-5176
▁relatively	-5177
▁Harv	-5178
SC	-5179
▁Home	-5180
uls	-5181
▁measure	-5182
▁fighting	-5183
▁1991	-5184
▁survey	-5185
▁portion	-5186
ruit	-5187
▁van	-5188
▁custom	-5189
▁History	-5190
▁tree	-5191
▁Elect	-5192
▁lot	-5193
lan	-5194
▁carri	-5195
▁politics	-5196
▁stock	-5197
▁1993	-5198
▁classes	-5199
una	-5200
▁rain	-5201
▁exam	-5202
▁Cas	-5203
ifically	-5204
osa	-5205
▁Moh	-5206
ilton	-5207
▁oldest	-5208
▁Mike	-5209
▁2003,	-5210
▁visited	-5211
▁consisted	-5212
ographic	-5213
▁ple	-5214
▁Master	-5215
▁things	-5216
▁Mov	-5217
ternet	-5218
▁holds	-5219
▁magn	-5220
▁promotion	-5221
▁Fair	-5222
▁proceed	-5223
▁graph	-5224
▁creating	-5225
▁relations	-5226
▁Tai	-5227
illery	-5228
century	-5229
room	-5230
▁Ker	-5231
HL	-5232
▁occasion	-5233
▁instru	-5234
▁UN	-5235
ava	-5236
▁image	-5237
▁reject	-5238
▁Sweden	-5239
ashion	-5240
▁portray	-5241
▁frequently	-5242
▁Band	-5243
▁conduct	-5244
▁Han	-5245
▁authority	-5246
▁publication	-5247
▁Indust	-5248
▁goes	-5249
▁audience	-5250
▁ec	-5251
occer	-5252
▁software	-5253
▁bill	-5254
▁attempted	-5255
▁Die	-5256
▁Sab	-5257
▁Nic	-5258
▁Hun	-5259
▁2020.	-5260
heim	-5261
▁ven	-5262
▁subs	-5263
▁approved	-5264
struction	-5265
▁unable	-5266
▁Kal	-5267
▁necessary	-5268
erb	-5269
▁hands	-5270
▁$2	-5271
ection	-5272
aks	-5273
▁Cub	-5274
pet	-5275
▁Mexican	-5276
itors	-5277
text	-5278
orph	-5279
▁Taylor	-5280
▁roof	-5281
▁21,	-5282
▁Czech	-5283
▁royal	-5284
▁subsequent	-5285
omot	-5286
▁Register	-5287
▁FI	-5288
▁theatre	-5289
▁flood	-5290
▁Sus	-5291
sey	-5292
▁cert	-5293
bi	-5294
▁restaur	-5295
▁Like	-5296
ropolitan	-5297
▁Township	-5298
oren	-5299
▁22,	-5300
▁Colon	-5301
▁principal	-5302
▁mut	-5303
▁temple	-5304
▁Fox	-5305
▁NA	-5306
rep	-5307
osh	-5308
▁commissioned	-5309
▁broke	-5310
▁Cult	-5311
rec	-5312
45	-5313
▁code	-5314
▁advert	-5315
▁Econom	-5316
▁Bad	-5317
raine	-5318
▁Alf	-5319
▁voc	-5320
uing	-5321
▁termin	-5322
▁baseball	-5323
idi	-5324
▁respond	-5325
▁30,	-5326
▁Indones	-5327
▁19,	-5328
▁Marsh	-5329
▁attacked	-5330
▁fought	-5331
Bill	-5332
ois	-5333
iminal	-5334
▁Emperor	-5335
kes	-5336
▁Tal	-5337
▁lake	-5338
▁Region	-5339
▁aspect	-5340
▁mis	-5341
▁underst	-5342
▁tend	-5343
urd	-5344
▁attra	-5345
▁sets	-5346
rin	-5347
▁winter	-5348
▁Legisl	-5349
▁Kel	-5350
▁opposed	-5351
▁receiving	-5352
LA	-5353
▁global	-5354
▁Addition	-5355
▁Iraq	-5356
aven	-5357
▁dropped	-5358
▁Som	-5359
▁something	-5360
▁yellow	-5361
▁defin	-5362
▁Organ	-5363
▁entitled	-5364
▁accident	-5365
▁seem	-5366
▁Pers	-5367
▁neighborhood	-5368
▁Human	-5369
pur	-5370
18	-5371
hedral	-5372
▁element	-5373
▁Maria	-5374
osophy	-5375
▁dia	-5376
▁starring	-5377
▁focused	-5378
–3	-5379
eral	-5380
▁feed	-5381
also	-5382
▁Hu	-5383
ples	-5384
▁2021.	-5385
gend	-5386
▁Arthur	-5387
VD	-5388
aret	-5389
▁shared	-5390
▁exclus	-5391
▁copies	-5392
▁founding	-5393
▁formerly	-5394
cluding	-5395
▁Chris	-5396
▁Batt	-5397
▁Der	-5398
▁Chair	-5399
▁Media	-5400
writer	-5401
▁23,	-5402
onym	-5403
▁actions	-5404
▁daily	-5405
▁dipl	-5406
▁178	-5407
▁5.	-5408
▁earth	-5409
▁metres	-5410
▁Form	-5411
cow	-5412
▁Abb	-5413
▁Da	-5414
track	-5415
▁Federation	-5416
▁occupied	-5417
▁straight	-5418
▁Technology	-5419
▁Beach	-5420
▁negot	-5421
▁Night	-5422
▁attempts	-5423
elve	-5424
yo	-5425
▁ultimately	-5426
▁effective	-5427
▁rob	-5428
▁safety	-5429
▁animals	-5430
ains	-5431
achelor	-5432
▁1988	-5433
▁unknown	-5434
▁Lady	-5435
▁combat	-5436
▁Community	-5437
▁arts	-5438
▁mayor	-5439
▁elimin	-5440
▁employed	-5441
▁Marg	-5442
);	-5443
▁expansion	-5444
▁Rac	-5445
▁shortly	-5446
▁documentary	-5447
▁Davis	-5448
▁Stephen	-5449
▁(3	-5450
▁Zh	-5451
▁scheduled	-5452
▁contributed	-5453
▁protection	-5454
▁Kim	-5455
▁journ	-5456
▁piece	-5457
▁distingu	-5458
▁retirement	-5459
▁Gen	-5460
▁adapt	-5461
lyn	-5462
▁28,	-5463
imens	-5464
▁covers	-5465
▁vocal	-5466
▁reference	-5467
▁entry	-5468
▁exchange	-5469
kin	-5470
▁faced	-5471
▁USA	-5472
▁‘	-5473
▁guest	-5474
▁bronze	-5475
▁methods	-5476
▁drive	-5477
bar	-5478
▁Circ	-5479
▁2006.	-5480
▁Light	-5481
▁Down	-5482
bra	-5483
▁agent	-5484
▁Khan	-5485
▁aged	-5486
▁performing	-5487
▁representing	-5488
▁)	-5489
▁ending	-5490
▁economy	-5491
▁morning	-5492
▁notes	-5493
▁sand	-5494
▁trees	-5495
▁Freder	-5496
bell	-5497
▁rear	-5498
▁Color	-5499
▁fair	-5500
▁architecture	-5501
▁bass	-5502
▁Po	-5503
▁extensive	-5504
iang	-5505
▁Short	-5506
▁iron	-5507
▁inhabit	-5508
athan	-5509
▁cancer	-5510
Un	-5511
▁spect	-5512
▁Tok	-5513
▁converted	-5514
▁26,	-5515
▁Wel	-5516
▁lect	-5517
▁express	-5518
▁enjoy	-5519
▁sense	-5520
▁contrast	-5521
▁qualified	-5522
▁encoura	-5523
▁crime	-5524
▁vice	-5525
▁height	-5526
▁sle	-5527
▁kil	-5528
▁horse	-5529
▁1989	-5530
▁End	-5531
▁1919	-5532
▁Prize	-5533
▁arms	-5534
▁articles	-5535
kh	-5536
▁rid	-5537
mouth	-5538
phas	-5539
▁cho	-5540
▁Administ	-5541
▁advance	-5542
▁Prior	-5543
▁permanent	-5544
uns	-5545
olished	-5546
▁Walk	-5547
▁NCAA	-5548
▁towns	-5549
▁powerful	-5550
▁vehicles	-5551
▁tal	-5552
▁simple	-5553
rip	-5554
▁prof	-5555
organ	-5556
▁Medical	-5557
▁onto	-5558
aria	-5559
▁2002,	-5560
▁27,	-5561
otic	-5562
anth	-5563
rum	-5564
▁bott	-5565
▁engineering	-5566
▁resources	-5567
▁districts	-5568
▁memory	-5569
▁sought	-5570
▁Lind	-5571
▁determined	-5572
'.	-5573
▁citizens	-5574
▁MP	-5575
▁Ra	-5576
▁maximum	-5577
▁fields	-5578
▁highway	-5579
▁80	-5580
osis	-5581
▁Marc	-5582
▁institutions	-5583
▁Greg	-5584
oln	-5585
▁domestic	-5586
▁normal	-5587
▁Les	-5588
▁touchdown	-5589
▁Su	-5590
eman	-5591
iques	-5592
inth	-5593
▁machine	-5594
ii	-5595
▁oppon	-5596
▁Wat	-5597
ureau	-5598
▁defense	-5599
▁rang	-5600
▁etc	-5601
rowd	-5602
',	-5603
▁36	-5604
14	-5605
outs	-5606
▁beaut	-5607
▁Municip	-5608
▁Rom	-5609
▁Upon	-5610
▁Anth	-5611
ses	-5612
▁samp	-5613
▁Power	-5614
13	-5615
▁alleged	-5616
▁inaug	-5617
▁2001,	-5618
wise	-5619
▁lands	-5620
▁begin	-5621
mun	-5622
▁attrib	-5623
owa	-5624
uties	-5625
inners	-5626
▁setting	-5627
SP	-5628
▁rein	-5629
▁Bla	-5630
anna	-5631
urance	-5632
▁prepar	-5633
16	-5634
▁Earl	-5635
enna	-5636
▁reasons	-5637
▁Dor	-5638
long	-5639
lywood	-5640
▁convers	-5641
▁vent	-5642
▁occurs	-5643
▁unc	-5644
▁structures	-5645
esota	-5646
▁Further	-5647
while	-5648
▁apparent	-5649
▁rot	-5650
▁expressed	-5651
▁bey	-5652
fl	-5653
▁Vi	-5654
oured	-5655
▁finishing	-5656
fully	-5657
▁Origin	-5658
▁Business	-5659
Billboard	-5660
▁letters	-5661
▁offices	-5662
▁trust	-5663
umes	-5664
▁Int	-5665
▁Slov	-5666
ading	-5667
▁avoid	-5668
▁girls	-5669
▁background	-5670
▁Melbourne	-5671
▁lyrics	-5672
car	-5673
ocese	-5674
▁Americans	-5675
▁Lewis	-5676
rect	-5677
udget	-5678
▁write	-5679
▁guns	-5680
▁decre	-5681
VID	-5682
▁wrest	-5683
▁invited	-5684
pool	-5685
▁Ross	-5686
▁matter	-5687
▁Journal	-5688
▁valley	-5689
▁Junior	-5690
▁cycl	-5691
ipe	-5692
▁successfully	-5693
ulate	-5694
▁corner	-5695
former	-5696
▁containing	-5697
▁stating	-5698
iner	-5699
▁learning	-5700
ivals	-5701
▁slightly	-5702
ns	-5703
stream	-5704
apore	-5705
▁bul	-5706
▁Moscow	-5707
-4	-5708
anning	-5709
▁beyond	-5710
▁cart	-5711
▁Leon	-5712
▁ways	-5713
▁resc	-5714
▁consult	-5715
▁locations	-5716
▁Time	-5717
▁supporting	-5718
▁identity	-5719
▁Hart	-5720
▁centuries	-5721
▁Minnesota	-5722
▁storm	-5723
▁airport	-5724
inder	-5725
▁|	-5726
▁Week	-5727
▁70	-5728
ears	-5729
▁candidates	-5730
▁Ob	-5731
gest	-5732
▁Pier	-5733
▁Us	-5734
▁influenced	-5735
▁Steve	-5736
uccess	-5737
▁rough	-5738
onsin	-5739
▁vehicle	-5740
▁Military	-5741
▁Golden	-5742
▁praised	-5743
▁application	-5744
▁Ford	-5745
▁Pit	-5746
▁walls	-5747
▁hotel	-5748
▁developing	-5749
▁33	-5750
IC	-5751
alo	-5752
▁Project	-5753
▁consecutive	-5754
▁holding	-5755
▁abandoned	-5756
▁advant	-5757
▁virt	-5758
isconsin	-5759
jan	-5760
▁Squad	-5761
▁Sav	-5762
It	-5763
▁needs	-5764
▁wealth	-5765
▁29,	-5766
▁Niger	-5767
▁decades	-5768
urches	-5769
▁1984	-5770
ropri	-5771
▁racing	-5772
life	-5773
▁derived	-5774
▁ox	-5775
▁properties	-5776
pson	-5777
asy	-5778
="	-5779
▁Ocean	-5780
▁Sciences	-5781
ami	-5782
OS	-5783
aki	-5784
▁flu	-5785
▁category	-5786
▁ends	-5787
▁judge	-5788
▁hero	-5789
▁resigned	-5790
▁argued	-5791
▁tele	-5792
▁Att	-5793
▁constituency	-5794
▁Philip	-5795
▁Queensland	-5796
▁sust	-5797
▁refers	-5798
▁fer	-5799
▁herself	-5800
iments	-5801
▁deliver	-5802
▁pieces	-5803
▁Cape	-5804
▁Nap	-5805
igration	-5806
ika	-5807
rete	-5808
▁seg	-5809
▁temperature	-5810
▁partnership	-5811
▁Today	-5812
▁speech	-5813
▁finds	-5814
lets	-5815
▁technical	-5816
▁merged	-5817
▁COVID	-5818
▁exhibition	-5819
▁Bah	-5820
▁alternative	-5821
▁Then	-5822
wegian	-5823
▁funding	-5824
▁establishment	-5825
▁enemy	-5826
▁hockey	-5827
▁Test	-5828
We	-5829
▁EP	-5830
▁emphas	-5831
▁(17	-5832
▁hired	-5833
▁dog	-5834
▁deploy	-5835
▁auth	-5836
▁Memorial	-5837
▁investigation	-5838
▁patients	-5839
▁Ho	-5840
agh	-5841
▁voted	-5842
▁Philippines	-5843
yes	-5844
ori	-5845
▁Bi	-5846
▁Wisconsin	-5847
aska	-5848
erc	-5849
▁mind	-5850
▁contained	-5851
▁try	-5852
▁fuel	-5853
▁acts	-5854
▁1987	-5855
▁Gre	-5856
ampton	-5857
▁Jews	-5858
▁ceremony	-5859
▁playoff	-5860
▁appoint	-5861
▁compar	-5862
▁Command	-5863
▁Spring	-5864
▁Kansas	-5865
AR	-5866
▁plot	-5867
▁worldwide	-5868
▁Fire	-5869
▁Turkey	-5870
▁ethnic	-5871
▁castle	-5872
▁hydro	-5873
▁guard	-5874
iations	-5875
Sp	-5876
▁collected	-5877
keep	-5878
▁Stock	-5879
▁Gil	-5880
▁Abd	-5881
▁Singapore	-5882
enz	-5883
▁Wars	-5884
▁Lt	-5885
▁basic	-5886
▁Vietnam	-5887
▁reign	-5888
mes	-5889
illing	-5890
▁Vo	-5891
anguage	-5892
▁Balt	-5893
uese	-5894
▁gar	-5895
▁Ka	-5896
fall	-5897
▁volume	-5898
▁1900	-5899
▁representative	-5900
▁multi	-5901
▁glass	-5902
▁Albert	-5903
▁Norway	-5904
▁presidential	-5905
▁generation	-5906
▁formal	-5907
▁independence	-5908
▁fresh	-5909
▁concluded	-5910
▁Country	-5911
▁stadium	-5912
▁trav	-5913
▁journalist	-5914
▁literary	-5915
▁functions	-5916
▁entrance	-5917
king	-5918
17	-5919
▁brown	-5920
▁incorporated	-5921
▁doing	-5922
▁bor	-5923
▁planning	-5924
▁Barn	-5925
▁violence	-5926
▁6.	-5927
▁pilot	-5928
▁Missouri	-5929
equ	-5930
lain	-5931
acter	-5932
▁incident	-5933
amm	-5934
▁Brother	-5935
▁300	-5936
▁heavily	-5937
▁spok	-5938
▁funds	-5939
▁existence	-5940
SR	-5941
▁(),	-5942
▁decor	-5943
▁rise	-5944
▁rival	-5945
▁Bos	-5946
▁maintained	-5947
▁1986	-5948
▁marg	-5949
aming	-5950
anger	-5951
▁(197	-5952
▁god	-5953
▁observed	-5954
▁regarding	-5955
iversary	-5956
▁Bat	-5957
ito	-5958
▁fleet	-5959
▁detect	-5960
anga	-5961
▁Labor	-5962
▁Labour	-5963
▁Native	-5964
▁environmental	-5965
iti	-5966
appe	-5967
▁Affairs	-5968
▁Malays	-5969
▁passing	-5970
▁equal	-5971
po	-5972
▁bra	-5973
TC	-5974
▁experien	-5975
▁merch	-5976
ennessee	-5977
▁sector	-5978
▁phase	-5979
▁connection	-5980
▁Cambridge	-5981
▁Trust	-5982
▁Holy	-5983
▁ring	-5984
▁Pass	-5985
▁reflect	-5986
▁proved	-5987
ateur	-5988
▁laid	-5989
▁calls	-5990
▁90	-5991
▁reaching	-5992
stead	-5993
35	-5994
▁draft	-5995
▁Cab	-5996
ão	-5997
incoln	-5998
oly	-5999
▁nob	-6000
▁composer	-6001
▁Norwegian	-6002
aded	-6003
▁installed	-6004
▁Sri	-6005
▁install	-6006
▁Ball	-6007
▁Area	-6008
▁Channel	-6009
▁doctor	-6010
▁educated	-6011
▁flat	-6012
▁inhabitants	-6013
▁junior	-6014
▁Manchester	-6015
▁Six	-6016
▁joining	-6017
uration	-6018
▁rom	-6019
▁shape	-6020
▁compete	-6021
▁accompan	-6022
abad	-6023
ante	-6024
orders	-6025
▁mel	-6026
pa	-6027
opher	-6028
▁someone	-6029
oto	-6030
▁harm	-6031
▁engaged	-6032
▁2005.	-6033
▁folk	-6034
▁carry	-6035
▁programme	-6036
▁Hou	-6037
▁kick	-6038
▁Ts	-6039
▁impl	-6040
▁escape	-6041
▁177	-6042
risis	-6043
▁premiered	-6044
omew	-6045
▁specifically	-6046
▁recognition	-6047
▁roll	-6048
▁Though	-6049
▁internal	-6050
icy	-6051
ader	-6052
▁Studies	-6053
▁educational	-6054
▁clin	-6055
▁weapons	-6056
▁Clark	-6057
▁scenes	-6058
▁quant	-6059
▁7.	-6060
▁Nick	-6061
▁Fellow	-6062
▁Bru	-6063
ource	-6064
▁failure	-6065
▁Austria	-6066
▁promote	-6067
▁compl	-6068
▁prefer	-6069
▁extrem	-6070
▁conce	-6071
▁Jacob	-6072
▁sac	-6073
▁Tennessee	-6074
▁strike	-6075
cell	-6076
isf	-6077
▁registered	-6078
▁your	-6079
▁Kr	-6080
▁request	-6081
▁Winter	-6082
▁passes	-6083
▁cricket	-6084
▁Infantry	-6085
regon	-6086
▁descend	-6087
▁Baron	-6088
▁scale	-6089
▁powers	-6090
▁Turkish	-6091
▁importance	-6092
▁nuclear	-6093
▁poly	-6094
friend	-6095
itter	-6096
▁diam	-6097
▁Armen	-6098
mb	-6099
after	-6100
Don	-6101
▁causing	-6102
▁swim	-6103
▁Final	-6104
▁Pope	-6105
▁toward	-6106
▁Colorado	-6107
▁Chen	-6108
▁Beng	-6109
place	-6110
▁script	-6111
▁constant	-6112
rizona	-6113
▁orders	-6114
La	-6115
▁producing	-6116
oster	-6117
▁Miller	-6118
▁Sem	-6119
▁secretary	-6120
▁Ali	-6121
▁reserve	-6122
▁Ot	-6123
▁ast	-6124
!"	-6125
▁1985	-6126
▁Portuguese	-6127
ographer	-6128
▁foundation	-6129
▁improve	-6130
season	-6131
▁closely	-6132
▁historian	-6133
iny	-6134
▁twelve	-6135
▁Ukraine	-6136
ikh	-6137
lines	-6138
▁Cra	-6139
▁gall	-6140
65	-6141
▁impr	-6142
▁entirely	-6143
▁views	-6144
olars	-6145
cts	-6146
▁san	-6147
▁consisting	-6148
sis	-6149
▁homes	-6150
▁trying	-6151
▁bands	-6152
▁franch	-6153
▁progress	-6154
22	-6155
▁religion	-6156
▁mile	-6157
gor	-6158
olis	-6159
–9	-6160
▁interse	-6161
▁Sunday	-6162
▁warn	-6163
▁400	-6164
▁hyp	-6165
▁negative	-6166
clusion	-6167
▁Christmas	-6168
▁opin	-6169
▁invasion	-6170
▁steel	-6171
rees	-6172
wich	-6173
▁Indiana	-6174
▁Lincoln	-6175
▁Stone	-6176
▁pul	-6177
▁Lo	-6178
▁watch	-6179
▁ideas	-6180
▁adap	-6181
▁Walter	-6182
fe	-6183
▁Id	-6184
▁suppor	-6185
then	-6186
state	-6187
▁affected	-6188
▁Od	-6189
▁heard	-6190
▁load	-6191
▁sole	-6192
▁accused	-6193
▁1983	-6194
▁creat	-6195
▁Free	-6196
tered	-6197
▁Bureau	-6198
▁Stat	-6199
▁ruled	-6200
▁starts	-6201
▁Point	-6202
▁poetry	-6203
▁Maryland	-6204
▁volunte	-6205
▁Barb	-6206
▁cas	-6207
▁Bon	-6208
▁paintings	-6209
▁employees	-6210
▁township	-6211
prise	-6212
▁1999,	-6213
▁diplom	-6214
▁Census	-6215
De	-6216
acent	-6217
ublin	-6218
▁strength	-6219
itzerland	-6220
▁describes	-6221
▁initi	-6222
▁Ten	-6223
isms	-6224
▁dates	-6225
▁protein	-6226
▁tall	-6227
▁aid	-6228
▁occas	-6229
anton	-6230
▁micro	-6231
Sc	-6232
PS	-6233
ho	-6234
going	-6235
▁trained	-6236
▁regarded	-6237
aved	-6238
▁classical	-6239
position	-6240
▁Burn	-6241
▁jur	-6242
aga	-6243
ception	-6244
▁boat	-6245
haps	-6246
1),	-6247
▁Arizona	-6248
arp	-6249
▁About	-6250
▁price	-6251
▁Pa	-6252
▁believe	-6253
▁adult	-6254
under	-6255
▁mand	-6256
▁obtain	-6257
▁Gord	-6258
usc	-6259
alty	-6260
▁Oregon	-6261
▁Hard	-6262
ushed	-6263
▁fram	-6264
isa	-6265
ghan	-6266
agues	-6267
▁McG	-6268
▁34	-6269
▁DVD	-6270
▁Eth	-6271
▁briefly	-6272
▁Hamilton	-6273
▁chose	-6274
▁statement	-6275
▁Tony	-6276
▁fashion	-6277
cies	-6278
agan	-6279
gency	-6280
▁1972	-6281
▁northeast	-6282
▁Dal	-6283
ecutive	-6284
▁opportunity	-6285
▁landsc	-6286
▁Ast	-6287
elle	-6288
▁Finn	-6289
▁Gi	-6290
▁ahead	-6291
igenous	-6292
▁Temple	-6293
ía	-6294
▁rebu	-6295
▁wins	-6296
▁killing	-6297
▁exped	-6298
hist	-6299
▁crowd	-6300
▁sale	-6301
▁calling	-6302
iva	-6303
▁page	-6304
▁NFL	-6305
▁locomot	-6306
▁rugby	-6307
▁map	-6308
entially	-6309
▁AD	-6310
▁passenger	-6311
▁Switzerland	-6312
ilation	-6313
▁1982	-6314
atures	-6315
▁cooper	-6316
▁Foreign	-6317
▁chemical	-6318
▁possess	-6319
poses	-6320
▁improved	-6321
▁driver	-6322
come	-6323
▁brick	-6324
▁animal	-6325
▁bodies	-6326
000.	-6327
father	-6328
▁Fa	-6329
▁Alb	-6330
▁standards	-6331
zen	-6332
▁cru	-6333
▁programming	-6334
▁portra	-6335
oes	-6336
▁Nich	-6337
▁profession	-6338
▁Building	-6339
zh	-6340
▁quite	-6341
▁reduce	-6342
omy	-6343
▁rating	-6344
▁Gree	-6345
▁Even	-6346
uther	-6347
▁Kat	-6348
▁Gab	-6349
▁replace	-6350
▁Forces	-6351
▁Swiss	-6352
8),	-6353
▁choice	-6354
▁Harry	-6355
▁debuted	-6356
▁Writ	-6357
4),	-6358
▁selection	-6359
▁Thus	-6360
▁behavior	-6361
▁injured	-6362
uv	-6363
▁criminal	-6364
antic	-6365
▁really	-6366
▁Square	-6367
▁edge	-6368
run	-6369
▁operate	-6370
▁Anne	-6371
▁ille	-6372
▁seventh	-6373
▁factory	-6374
▁Domin	-6375
▁Wall	-6376
▁Howard	-6377
▁Roy	-6378
▁birds	-6379
▁seconds	-6380
ques	-6381
heastern	-6382
▁analy	-6383
6),	-6384
▁favour	-6385
aro	-6386
▁Brigade	-6387
▁IV	-6388
udi	-6389
▁Turn	-6390
roke	-6391
▁armed	-6392
igation	-6393
utor	-6394
icit	-6395
▁strateg	-6396
▁1979	-6397
▁agricultural	-6398
▁limit	-6399
ré	-6400
▁Jane	-6401
▁ment	-6402
▁visual	-6403
▁Member	-6404
▁extension	-6405
▁Simon	-6406
▁substant	-6407
▁Now	-6408
▁dismiss	-6409
▁Liberal	-6410
▁Tan	-6411
▁Ron	-6412
▁regiment	-6413
▁Gram	-6414
▁agency	-6415
▁interior	-6416
icts	-6417
▁Prim	-6418
usal	-6419
▁Croat	-6420
▁Hur	-6421
▁ere	-6422
▁batter	-6423
▁paralle	-6424
▁Belg	-6425
ivalent	-6426
▁Staff	-6427
▁Medal	-6428
▁earliest	-6429
7),	-6430
▁Web	-6431
▁row	-6432
▁tor	-6433
▁Only	-6434
▁advoc	-6435
ui	-6436
▁emp	-6437
▁reserv	-6438
▁deleg	-6439
▁deliv	-6440
▁graduate	-6441
3),	-6442
▁Security	-6443
▁Coll	-6444
▁superv	-6445
▁tropical	-6446
owned	-6447
▁Ren	-6448
▁repeated	-6449
▁hun	-6450
▁demonstr	-6451
DP	-6452
point	-6453
▁Islamic	-6454
anes	-6455
▁controlled	-6456
BI	-6457
▁core	-6458
▁personnel	-6459
▁Nik	-6460
▁Whit	-6461
▁emot	-6462
ounted	-6463
weet	-6464
:00	-6465
▁Sum	-6466
antly	-6467
utation	-6468
box	-6469
▁Places	-6470
▁Review	-6471
ryst	-6472
▁1976	-6473
▁drink	-6474
▁exact	-6475
RC	-6476
▁getting	-6477
▁poll	-6478
▁assess	-6479
▁belief	-6480
▁survived	-6481
▁Adam	-6482
▁causes	-6483
iful	-6484
▁divers	-6485
▁Entertainment	-6486
▁weather	-6487
▁engineer	-6488
▁moth	-6489
urday	-6490
▁waters	-6491
▁2004.	-6492
▁Div	-6493
▁38	-6494
iants	-6495
▁Prot	-6496
▁coordin	-6497
▁residence	-6498
▁northwest	-6499
▁criticized	-6500
▁symbol	-6501
▁Cre	-6502
▁Transport	-6503
▁transform	-6504
▁cinem	-6505
actions	-6506
▁door	-6507
▁Gib	-6508
olas	-6509
▁leads	-6510
▁rejected	-6511
▁racial	-6512
▁engines	-6513
▁Naval	-6514
apes	-6515
▁consequ	-6516
▁zone	-6517
▁values	-6518
▁adjacent	-6519
▁Rose	-6520
▁distributed	-6521
▁participate	-6522
oli	-6523
ogen	-6524
▁Television	-6525
▁Kentucky	-6526
ologies	-6527
odox	-6528
▁tail	-6529
▁Tar	-6530
▁pros	-6531
orage	-6532
▁Frederick	-6533
ifying	-6534
▁objects	-6535
▁Management	-6536
igg	-6537
▁witness	-6538
▁Hockey	-6539
▁opera	-6540
▁crown	-6541
icide	-6542
▁31,	-6543
▁mathemat	-6544
▁regularly	-6545
▁acid	-6546
▁Hans	-6547
ordan	-6548
▁possibly	-6549
wealth	-6550
▁steam	-6551
▁users	-6552
▁resistance	-6553
▁Well	-6554
▁interests	-6555
▁singing	-6556
election	-6557
east	-6558
▁budget	-6559
▁Tel	-6560
▁moment	-6561
▁Dougl	-6562
▁susp	-6563
▁qual	-6564
▁Mit	-6565
▁kilomet	-6566
rator	-6567
hol	-6568
ür	-6569
icians	-6570
▁introduction	-6571
▁Front	-6572
▁surg	-6573
▁hair	-6574
including	-6575
▁mole	-6576
▁fine	-6577
▁Regional	-6578
▁apart	-6579
▁signal	-6580
▁roads	-6581
▁Author	-6582
▁Fame	-6583
▁composition	-6584
▁Colomb	-6585
▁revolution	-6586
rine	-6587
umin	-6588
▁ancest	-6589
des	-6590
▁ones	-6591
▁1998,	-6592
▁collaboration	-6593
▁writers	-6594
▁Engineering	-6595
har	-6596
US	-6597
▁Representatives	-6598
▁ped	-6599
▁applications	-6600
don	-6601
▁Early	-6602
▁1968	-6603
ieval	-6604
ommod	-6605
▁sell	-6606
▁Low	-6607
▁Vice	-6608
▁Marine	-6609
anned	-6610
▁drum	-6611
▁ax	-6612
▁sections	-6613
▁Greece	-6614
▁islands	-6615
▁enl	-6616
▁committed	-6617
eke	-6618
▁Mand	-6619
▁fiction	-6620
▁pup	-6621
lock	-6622
▁combination	-6623
–4	-6624
▁Mean	-6625
▁Diego	-6626
▁cod	-6627
stan	-6628
▁Rural	-6629
▁$3	-6630
▁Ale	-6631
▁Stand	-6632
▁corpor	-6633
▁techniques	-6634
▁Pot	-6635
uct	-6636
▁gene	-6637
▁Mississ	-6638
▁delay	-6639
▁charges	-6640
▁decade	-6641
▁Services	-6642
ducing	-6643
▁Cer	-6644
oa	-6645
▁session	-6646
▁nick	-6647
ogy	-6648
▁Hal	-6649
▁pione	-6650
adi	-6651
▁grounds	-6652
arry	-6653
▁Ku	-6654
▁shut	-6655
▁advantage	-6656
burn	-6657
▁Hin	-6658
dam	-6659
▁Squadron	-6660
▁worth	-6661
rations	-6662
▁humans	-6663
▁Anderson	-6664
▁ban	-6665
idel	-6666
▁isol	-6667
▁FM	-6668
▁pand	-6669
▁resign	-6670
▁Na	-6671
eler	-6672
▁opposite	-6673
▁convent	-6674
▁easily	-6675
▁items	-6676
▁Bou	-6677
▁1974	-6678
▁transition	-6679
▁knock	-6680
▁shell	-6681
2),	-6682
▁Samuel	-6683
▁mist	-6684
▁Prix	-6685
▁churches	-6686
Star	-6687
He	-6688
▁arrang	-6689
▁Heart	-6690
ippi	-6691
▁Tourn	-6692
▁renov	-6693
oming	-6694
▁businesses	-6695
▁seems	-6696
▁Oak	-6697
▁refuge	-6698
▁designs	-6699
▁musicians	-6700
▁defeating	-6701
▁Patrick	-6702
▁1981	-6703
▁1975	-6704
▁Dur	-6705
▁purchase	-6706
21	-6707
▁typical	-6708
▁greatest	-6709
active	-6710
▁damaged	-6711
▁dry	-6712
rome	-6713
▁(4	-6714
64	-6715
▁marine	-6716
▁Plan	-6717
▁deputy	-6718
▁Chile	-6719
▁drawn	-6720
adow	-6721
oslav	-6722
roit	-6723
▁stands	-6724
▁Brian	-6725
▁passengers	-6726
23	-6727
▁notably	-6728
eding	-6729
▁Rab	-6730
erse	-6731
▁Ukrain	-6732
▁goods	-6733
idden	-6734
▁broken	-6735
▁bishop	-6736
▁Bowl	-6737
▁Connect	-6738
▁Ark	-6739
▁Israeli	-6740
▁stores	-6741
▁Jay	-6742
▁suburb	-6743
▁medium	-6744
▁Once	-6745
Man	-6746
▁retained	-6747
▁clean	-6748
▁courses	-6749
▁descript	-6750
▁commit	-6751
pective	-6752
icial	-6753
▁Ban	-6754
▁starred	-6755
24	-6756
▁enfor	-6757
▁Space	-6758
▁Palest	-6759
▁charged	-6760
▁licens	-6761
▁Wy	-6762
▁admitted	-6763
DA	-6764
▁accommod	-6765
▁standing	-6766
▁Kam	-6767
iot	-6768
level	-6769
▁Allen	-6770
▁didn	-6771
▁railroad	-6772
▁Hotel	-6773
▁philosophy	-6774
▁Youth	-6775
▁courts	-6776
▁actual	-6777
▁1978	-6778
uma	-6779
▁skills	-6780
▁jazz	-6781
▁assumed	-6782
zo	-6783
▁why	-6784
▁reality	-6785
▁Danish	-6786
▁examples	-6787
.”	-6788
▁Pun	-6789
▁Juan	-6790
▁Farm	-6791
iller	-6792
▁Lev	-6793
▁Houston	-6794
▁capture	-6795
ello	-6796
▁Executive	-6797
▁grade	-6798
▁Ky	-6799
▁select	-6800
night	-6801
star	-6802
▁streets	-6803
▁headed	-6804
▁measures	-6805
▁operates	-6806
▁Hug	-6807
▁Additionally	-6808
▁lawyer	-6809
▁painted	-6810
▁demand	-6811
▁hour	-6812
▁comic	-6813
▁trip	-6814
lov	-6815
▁FA	-6816
▁Cemetery	-6817
▁bottom	-6818
▁franchise	-6819
▁costs	-6820
▁Lieutenant	-6821
▁150	-6822
▁Senior	-6823
▁37	-6824
▁credited	-6825
racy	-6826
▁Magazine	-6827
▁piano	-6828
▁faith	-6829
▁Communist	-6830
▁Ga	-6831
▁remark	-6832
▁ans	-6833
▁Alab	-6834
▁determine	-6835
▁Imperial	-6836
▁solid	-6837
resents	-6838
▁Commonwealth	-6839
▁benef	-6840
▁residential	-6841
▁southeast	-6842
▁experienced	-6843
ów	-6844
▁Gard	-6845
ilst	-6846
▁stood	-6847
▁documents	-6848
▁Iowa	-6849
▁catal	-6850
▁minute	-6851
raf	-6852
▁lat	-6853
othing	-6854
▁Nag	-6855
▁accompanied	-6856
▁chain	-6857
overty	-6858
▁delivered	-6859
ER	-6860
rav	-6861
▁Brand	-6862
▁immigr	-6863
▁8.	-6864
▁images	-6865
▁proced	-6866
icate	-6867
▁Sel	-6868
▁rich	-6869
▁throw	-6870
▁factors	-6871
9),	-6872
ES	-6873
dale	-6874
▁stages	-6875
abled	-6876
▁aw	-6877
ogether	-6878
▁Vis	-6879
▁Mayor	-6880
▁details	-6881
▁displa	-6882
▁selling	-6883
obe	-6884
iami	-6885
▁Quebec	-6886
▁Album	-6887
▁Shah	-6888
▁copy	-6889
ci	-6890
enh	-6891
▁strip	-6892
itage	-6893
▁showing	-6894
▁owners	-6895
▁Prin	-6896
amic	-6897
▁prize	-6898
▁Fac	-6899
▁Hollywood	-6900
▁vocals	-6901
lahoma	-6902
▁attract	-6903
▁Dick	-6904
hr	-6905
cha	-6906
▁shel	-6907
▁1977	-6908
▁Roc	-6909
▁champions	-6910
-5	-6911
▁contributions	-6912
▁soci	-6913
▁Sound	-6914
▁obl	-6915
▁Argentina	-6916
▁upd	-6917
zer	-6918
▁Jam	-6919
▁hill	-6920
▁egg	-6921
▁trail	-6922
▁renew	-6923
▁motion	-6924
▁musician	-6925
insula	-6926
▁attached	-6927
▁Family	-6928
▁significantly	-6929
▁archae	-6930
teenth	-6931
▁AC	-6932
▁reading	-6933
uerto	-6934
▁Rang	-6935
▁freedom	-6936
▁somew	-6937
rolled	-6938
▁grant	-6939
▁Rand	-6940
▁milit	-6941
▁unsuccess	-6942
arest	-6943
▁pandemic	-6944
▁shall	-6945
▁circum	-6946
▁heat	-6947
▁looking	-6948
▁1997,	-6949
▁Buck	-6950
▁Gallery	-6951
▁southwest	-6952
▁Taiwan	-6953
▁Anthony	-6954
▁1996,	-6955
▁restored	-6956
▁driving	-6957
▁releg	-6958
–8	-6959
▁rooms	-6960
▁represents	-6961
related	-6962
▁adapted	-6963
▁provincial	-6964
▁boys	-6965
▁reaction	-6966
▁Kaz	-6967
▁duty	-6968
▁1973	-6969
enny	-6970
rat	-6971
▁anniversary	-6972
▁bond	-6973
▁sequence	-6974
▁Gordon	-6975
▁Wolf	-6976
▁restrict	-6977
▁Douglas	-6978
▁web	-6979
▁depth	-6980
▁colonial	-6981
ules	-6982
▁routes	-6983
thodox	-6984
▁advent	-6985
▁Alabama	-6986
agn	-6987
▁da	-6988
▁separated	-6989
cu	-6990
▁Dublin	-6991
▁Moore	-6992
▁2003.	-6993
▁Fund	-6994
▁Ern	-6995
▁caught	-6996
▁Administration	-6997
term	-6998
▁Denmark	-6999
icut	-7000
ardo	-7001
▁purposes	-7002
▁intelligence	-7003
chi	-7004
▁Bry	-7005
▁nor	-7006
irt	-7007
agu	-7008
aux	-7009
avalry	-7010
▁tick	-7011
▁gets	-7012
▁painter	-7013
▁formally	-7014
▁Chart	-7015
▁tries	-7016
▁Hills	-7017
▁Rid	-7018
oyd	-7019
ifications	-7020
gro	-7021
▁stopped	-7022
▁aer	-7023
▁Harris	-7024
▁Clin	-7025
▁bran	-7026
▁suggests	-7027
assador	-7028
▁device	-7029
▁nothing	-7030
othes	-7031
▁repl	-7032
▁wings	-7033
found	-7034
▁Pict	-7035
who	-7036
▁save	-7037
▁check	-7038
▁Key	-7039
▁Ottoman	-7040
▁CEO	-7041
▁brig	-7042
▁Jesus	-7043
▁shooting	-7044
jo	-7045
▁alleg	-7046
▁alt	-7047
▁Alber	-7048
▁policies	-7049
▁investment	-7050
▁membership	-7051
▁Baseball	-7052
▁arrival	-7053
emble	-7054
▁recip	-7055
lad	-7056
▁conqu	-7057
▁Real	-7058
▁meters	-7059
▁flying	-7060
▁Puerto	-7061
▁degrees	-7062
onder	-7063
▁priest	-7064
▁Afghan	-7065
inburgh	-7066
▁gender	-7067
ailed	-7068
▁2002.	-7069
▁Lank	-7070
▁winners	-7071
▁Jordan	-7072
▁2000.	-7073
▁Tokyo	-7074
lades	-7075
▁coll	-7076
▁bed	-7077
▁Pap	-7078
▁Trib	-7079
olt	-7080
▁Village	-7081
▁concerns	-7082
▁Mississippi	-7083
▁Lyn	-7084
▁Rugby	-7085
▁institution	-7086
borough	-7087
▁learned	-7088
▁veter	-7089
ture	-7090
▁interested	-7091
▁garden	-7092
uster	-7093
▁arranged	-7094
▁Alban	-7095
68	-7096
▁Sky	-7097
▁journey	-7098
▁flo	-7099
▁compris	-7100
▁Belgium	-7101
argo	-7102
▁scholars	-7103
▁wounded	-7104
cious	-7105
▁vary	-7106
▁thick	-7107
▁AM	-7108
▁Oklahoma	-7109
▁fan	-7110
▁Tournament	-7111
pse	-7112
ners	-7113
aired	-7114
▁protest	-7115
–7	-7116
▁Harvard	-7117
▁accur	-7118
▁Ukrainian	-7119
▁duties	-7120
PC	-7121
▁Independent	-7122
ooth	-7123
▁carbon	-7124
▁unus	-7125
▁severe	-7126
▁popularity	-7127
▁Live	-7128
▁protected	-7129
yles	-7130
vements	-7131
▁dynasty	-7132
▁Rey	-7133
▁electronic	-7134
▁Let	-7135
▁Las	-7136
▁chance	-7137
▁neighbour	-7138
mat	-7139
IT	-7140
▁Reserve	-7141
▁1969	-7142
▁brain	-7143
▁suspend	-7144
rene	-7145
▁Legislative	-7146
▁mine	-7147
ructure	-7148
▁UC	-7149
▁1964	-7150
▁Cost	-7151
aver	-7152
▁fly	-7153
▁Hawai	-7154
▁naval	-7155
▁context	-7156
vo	-7157
▁fired	-7158
▁biggest	-7159
utt	-7160
▁Nev	-7161
▁Constitution	-7162
▁publishing	-7163
dis	-7164
▁Inn	-7165
▁windows	-7166
▁1971	-7167
▁inher	-7168
▁Palace	-7169
▁mort	-7170
▁seed	-7171
▁involving	-7172
▁demonst	-7173
▁pool	-7174
▁Deputy	-7175
▁Brazilian	-7176
▁carrying	-7177
Mar	-7178
▁eye	-7179
▁Ret	-7180
issance	-7181
▁classified	-7182
▁factor	-7183
di	-7184
▁legislation	-7185
▁Cooper	-7186
▁Stew	-7187
▁translated	-7188
▁Silver	-7189
▁crisis	-7190
agen	-7191
▁1967	-7192
▁Disney	-7193
▁Railroad	-7194
▁Antonio	-7195
▁ri	-7196
▁theater	-7197
eless	-7198
▁Detroit	-7199
pat	-7200
▁peaked	-7201
coming	-7202
▁refere	-7203
mers	-7204
▁44	-7205
▁Roberts	-7206
▁sed	-7207
27	-7208
ellite	-7209
▁Ltd	-7210
iley	-7211
ads	-7212
▁flows	-7213
coh	-7214
▁successor	-7215
▁subjects	-7216
▁defensive	-7217
▁IS	-7218
▁preced	-7219
▁Third	-7220
▁innov	-7221
▁stayed	-7222
▁Lam	-7223
hess	-7224
cop	-7225
▁Edinburgh	-7226
▁Design	-7227
gon	-7228
▁anth	-7229
▁Banglades	-7230
▁imprison	-7231
▁Meanwhile	-7232
▁returns	-7233
cription	-7234
▁tack	-7235
▁understanding	-7236
▁photograph	-7237
-18	-7238
▁citizen	-7239
▁colour	-7240
▁ham	-7241
▁grass	-7242
▁Miami	-7243
unnel	-7244
▁Battalion	-7245
▁util	-7246
▁divor	-7247
▁persons	-7248
etime	-7249
▁communication	-7250
▁publications	-7251
▁Treat	-7252
uri	-7253
▁1995,	-7254
▁Fern	-7255
ović	-7256
▁Territ	-7257
▁locality	-7258
▁Studios	-7259
▁faculty	-7260
▁prepared	-7261
▁Lanc	-7262
elson	-7263
rix	-7264
▁qualifying	-7265
span	-7266
▁1945	-7267
▁dating	-7268
▁organisation	-7269
▁Ped	-7270
▁turns	-7271
angel	-7272
▁expression	-7273
▁phen	-7274
▁Hamp	-7275
▁Phill	-7276
▁Amb	-7277
▁daughters	-7278
▁mining	-7279
▁calc	-7280
▁retail	-7281
▁Eric	-7282
▁hits	-7283
▁filed	-7284
otte	-7285
▁Matthew	-7286
▁Rights	-7287
▁Cook	-7288
▁otherwise	-7289
▁Liver	-7290
200	-7291
▁Lin	-7292
All	-7293
▁responsibility	-7294
▁ownership	-7295
▁McK	-7296
▁challenge	-7297
▁soundtrack	-7298
▁graduating	-7299
▁cycle	-7300
▁vo	-7301
▁thousands	-7302
vey	-7303
▁Margaret	-7304
▁Modern	-7305
▁advis	-7306
▁Children	-7307
28	-7308
▁Austrian	-7309
▁Polit	-7310
▁Bart	-7311
▁Express	-7312
ugar	-7313
▁Nar	-7314
finals	-7315
▁Tamil	-7316
AM	-7317
▁linked	-7318
▁x	-7319
▁Dig	-7320
ovo	-7321
▁Mountains	-7322
▁Eag	-7323
heme	-7324
ista	-7325
▁actors	-7326
▁Stra	-7327
▁myth	-7328
▁Singh	-7329
rons	-7330
▁synthe	-7331
▁divisions	-7332
▁competitions	-7333
▁commune	-7334
rong	-7335
▁difference	-7336
▁differences	-7337
▁criticism	-7338
eland	-7339
▁flowers	-7340
▁ensure	-7341
▁aspects	-7342
pir	-7343
▁justice	-7344
ymn	-7345
▁ign	-7346
▁2001.	-7347
▁bat	-7348
▁user	-7349
eas	-7350
▁window	-7351
▁missing	-7352
67	-7353
▁Maur	-7354
▁Ryan	-7355
▁medicine	-7356
aked	-7357
▁recru	-7358
▁diagn	-7359
ultan	-7360
▁assault	-7361
▁assistance	-7362
▁Dec	-7363
▁10.	-7364
▁tank	-7365
▁Son	-7366
▁mouth	-7367
▁practices	-7368
▁poverty	-7369
▁sun	-7370
IV	-7371
▁prime	-7372
–5	-7373
▁extremely	-7374
▁stret	-7375
▁Alexand	-7376
dd	-7377
eline	-7378
▁Gulf	-7379
▁Here	-7380
▁murd	-7381
imore	-7382
hab	-7383
▁Montreal	-7384
▁authors	-7385
▁interpret	-7386
▁1994,	-7387
▁terror	-7388
▁Anna	-7389
▁crossing	-7390
▁coastal	-7391
bal	-7392
oen	-7393
TS	-7394
laimed	-7395
▁Doctor	-7396
▁prosec	-7397
▁uniform	-7398
ships	-7399
▁hors	-7400
▁nickn	-7401
▁Connecticut	-7402
▁Sud	-7403
▁cold	-7404
▁Cow	-7405
istant	-7406
▁kid	-7407
▁Louisiana	-7408
▁teen	-7409
▁juris	-7410
tery	-7411
▁equivalent	-7412
odge	-7413
▁replacement	-7414
▁Rem	-7415
▁wave	-7416
LC	-7417
▁veget	-7418
▁Hand	-7419
▁39	-7420
▁Saturday	-7421
▁Indonesia	-7422
TO	-7423
▁rose	-7424
▁Lang	-7425
▁universities	-7426
69	-7427
▁48	-7428
▁classic	-7429
▁Il	-7430
63	-7431
▁Age	-7432
▁rates	-7433
▁appropri	-7434
▁Lawrence	-7435
▁herit	-7436
▁weekly	-7437
▁Sport	-7438
▁Kev	-7439
▁Notable	-7440
▁legend	-7441
rently	-7442
crib	-7443
▁teachers	-7444
Is	-7445
▁disappe	-7446
▁Internet	-7447
▁Fil	-7448
▁roughly	-7449
▁appearing	-7450
▁Portugal	-7451
▁Welsh	-7452
▁adding	-7453
▁José	-7454
▁victims	-7455
▁Alan	-7456
▁Operation	-7457
▁cous	-7458
▁evening	-7459
▁covering	-7460
▁doll	-7461
intend	-7462
inian	-7463
▁cited	-7464
▁1965	-7465
▁buy	-7466
vant	-7467
unch	-7468
▁Crown	-7469
grade	-7470
▁testing	-7471
▁occupation	-7472
▁novels	-7473
▁Johann	-7474
ogan	-7475
▁parallel	-7476
▁offensive	-7477
enez	-7478
▁relative	-7479
▁commemor	-7480
▁Hind	-7481
▁encounter	-7482
▁Heritage	-7483
▁Micro	-7484
▁explained	-7485
▁banks	-7486
▁Ow	-7487
aby	-7488
▁fixed	-7489
▁Care	-7490
▁Yug	-7491
▁signing	-7492
ctic	-7493
▁canc	-7494
▁option	-7495
top	-7496
▁Atlanta	-7497
▁2022.	-7498
estyle	-7499
▁Vienna	-7500
lected	-7501
uous	-7502
▁squadron	-7503
▁declined	-7504
▁depos	-7505
▁mobile	-7506
▁prisoners	-7507
ails	-7508
▁Aud	-7509
▁Walker	-7510
▁scheme	-7511
My	-7512
▁Pitts	-7513
▁Row	-7514
lete	-7515
aine	-7516
▁gang	-7517
▁tennis	-7518
▁sort	-7519
▁Liverpool	-7520
▁restaurant	-7521
iece	-7522
▁Cru	-7523
ocracy	-7524
▁Donald	-7525
hyth	-7526
▁Set	-7527
▁devices	-7528
▁Metropolitan	-7529
▁frag	-7530
profit	-7531
▁surre	-7532
▁Orchestra	-7533
break	-7534
▁heads	-7535
▁Var	-7536
▁1992,	-7537
▁Moon	-7538
":	-7539
▁appointment	-7540
▁ago	-7541
▁perhaps	-7542
rastructure	-7543
▁capable	-7544
rell	-7545
rant	-7546
▁Grant	-7547
nold	-7548
▁assembly	-7549
veland	-7550
mosp	-7551
▁correct	-7552
▁offering	-7553
▁Back	-7554
▁dated	-7555
▁Morgan	-7556
▁medieval	-7557
▁Prote	-7558
▁Dean	-7559
▁replacing	-7560
▁childhood	-7561
▁instance	-7562
orf	-7563
▁soil	-7564
▁Local	-7565
ridges	-7566
▁Dol	-7567
stances	-7568
▁Chall	-7569
▁unp	-7570
ishment	-7571
▁DC	-7572
zi	-7573
▁1966	-7574
▁opinion	-7575
ugu	-7576
icks	-7577
▁nomination	-7578
▁fra	-7579
▁Trump	-7580
ín	-7581
▁questions	-7582
Ne	-7583
gress	-7584
▁translation	-7585
do	-7586
▁influential	-7587
▁withdraw	-7588
▁Andre	-7589
allas	-7590
▁temporary	-7591
chang	-7592
▁studying	-7593
▁Five	-7594
▁Chairman	-7595
▁denied	-7596
IN	-7597
▁artistic	-7598
hard	-7599
rov	-7600
▁Alfred	-7601
▁increasingly	-7602
▁storage	-7603
ibl	-7604
EA	-7605
atically	-7606
▁truck	-7607
unes	-7608
▁Drag	-7609
▁competing	-7610
▁expedition	-7611
▁heritage	-7612
▁Lith	-7613
▁liqu	-7614
▁Peters	-7615
▁synd	-7616
person	-7617
ilk	-7618
Ph	-7619
▁wooden	-7620
rapy	-7621
▁Yan	-7622
▁Pear	-7623
rik	-7624
▁medals	-7625
door	-7626
edding	-7627
▁theore	-7628
▁hosts	-7629
duct	-7630
▁Ran	-7631
▁175	-7632
▁achieve	-7633
▁Agency	-7634
▁celebrated	-7635
itals	-7636
▁Phys	-7637
▁Associ	-7638
hered	-7639
rac	-7640
▁memorial	-7641
shaped	-7642
▁Officer	-7643
▁SR	-7644
▁technique	-7645
▁filmed	-7646
▁Ry	-7647
▁49	-7648
▁Cleveland	-7649
▁monument	-7650
-0	-7651
▁75	-7652
▁poem	-7653
astery	-7654
▁Iron	-7655
▁(195	-7656
▁enh	-7657
rm	-7658
▁Hispan	-7659
▁bit	-7660
aron	-7661
marine	-7662
▁contra	-7663
▁Run	-7664
▁entering	-7665
▁Colonel	-7666
▁Fal	-7667
▁Malaysia	-7668
100	-7669
29	-7670
▁tied	-7671
▁parent	-7672
▁Defense	-7673
miral	-7674
from	-7675
▁artillery	-7676
▁losses	-7677
ellect	-7678
En	-7679
▁requires	-7680
▁Kennedy	-7681
chell	-7682
▁PC	-7683
▁Rap	-7684
▁explos	-7685
▁ABC	-7686
▁(5	-7687
▁branches	-7688
ivated	-7689
inding	-7690
-8	-7691
▁kingdom	-7692
▁snow	-7693
▁Laure	-7694
▁Commander	-7695
▁proposal	-7696
▁aggreg	-7697
▁climb	-7698
▁dies	-7699
▁plate	-7700
▁forming	-7701
▁Dave	-7702
atherine	-7703
▁finding	-7704
▁threatened	-7705
▁finals	-7706
▁Hungarian	-7707
▁recept	-7708
lon	-7709
▁perfect	-7710
rage	-7711
▁Ay	-7712
▁DNA	-7713
▁bringing	-7714
▁weak	-7715
▁coverage	-7716
▁exception	-7717
▁raise	-7718
udden	-7719
▁Hop	-7720
▁Rot	-7721
▁requirements	-7722
▁appeal	-7723
ahn	-7724
▁Bush	-7725
ographical	-7726
▁downtown	-7727
▁falls	-7728
▁processes	-7729
▁Whe	-7730
▁9.	-7731
iency	-7732
▁unf	-7733
Con	-7734
▁ur	-7735
▁supposed	-7736
▁helping	-7737
▁Hungary	-7738
▁electoral	-7739
▁experiences	-7740
ania	-7741
▁vessels	-7742
▁vert	-7743
▁parliamentary	-7744
▁Upper	-7745
▁filled	-7746
▁É	-7747
ategy	-7748
▁solution	-7749
▁Global	-7750
▁forests	-7751
▁Athletic	-7752
38	-7753
▁meets	-7754
▁Alliance	-7755
▁Kevin	-7756
▁picture	-7757
rak	-7758
▁existed	-7759
pen	-7760
story	-7761
On	-7762
mi	-7763
▁imag	-7764
▁1993,	-7765
▁Seattle	-7766
▁1948	-7767
▁weeke	-7768
nal	-7769
ideo	-7770
▁strongly	-7771
emen	-7772
▁credit	-7773
igious	-7774
▁amend	-7775
▁Sym	-7776
▁struck	-7777
▁Meth	-7778
iege	-7779
▁Kelly	-7780
El	-7781
▁tie	-7782
▁debate	-7783
▁Mach	-7784
▁1990,	-7785
▁note	-7786
▁Init	-7787
ayan	-7788
▁Sha	-7789
▁expect	-7790
▁surrounded	-7791
▁Champions	-7792
▁Pow	-7793
▁expert	-7794
▁crop	-7795
tenance	-7796
sm	-7797
▁Tig	-7798
▁warm	-7799
Cl	-7800
uj	-7801
▁Rick	-7802
▁strategy	-7803
osm	-7804
▁cool	-7805
▁components	-7806
▁boundary	-7807
▁wides	-7808
▁wheel	-7809
ifer	-7810
▁indicated	-7811
▁Garden	-7812
▁accounts	-7813
gow	-7814
▁reputation	-7815
▁lasted	-7816
lie	-7817
▁manner	-7818
▁catch	-7819
▁message	-7820
xts	-7821
▁1991,	-7822
▁affairs	-7823
▁gather	-7824
▁Lane	-7825
▁nations	-7826
bishop	-7827
las	-7828
graduate	-7829
▁Ward	-7830
▁Rub	-7831
rett	-7832
▁prohib	-7833
▁mental	-7834
bach	-7835
▁Kings	-7836
ext	-7837
General	-7838
▁Roger	-7839
▁landing	-7840
ushing	-7841
▁Finland	-7842
mingham	-7843
GB	-7844
▁NY	-7845
III	-7846
▁eleven	-7847
▁instruments	-7848
ruption	-7849
▁Stewart	-7850
▁Glas	-7851
▁ru	-7852
▁Yugoslav	-7853
▁1999.	-7854
where	-7855
▁considerable	-7856
▁eliminated	-7857
▁ble	-7858
acher	-7859
ework	-7860
inch	-7861
apolis	-7862
▁64	-7863
mate	-7864
pread	-7865
▁annually	-7866
▁secure	-7867
▁Nav	-7868
▁Nazi	-7869
▁accompl	-7870
▁frame	-7871
▁fal	-7872
▁lists	-7873
▁fishing	-7874
▁rounds	-7875
▁Conservative	-7876
▁Rol	-7877
ando	-7878
▁eyes	-7879
amps	-7880
▁Rio	-7881
▁fruit	-7882
ester	-7883
ighters	-7884
arat	-7885
▁Nep	-7886
▁Baltimore	-7887
atin	-7888
▁Bull	-7889
▁Mission	-7890
ocks	-7891
▁eighth	-7892
uy	-7893
asters	-7894
called	-7895
iki	-7896
▁shif	-7897
▁Unlike	-7898
▁42	-7899
merce	-7900
aph	-7901
▁Along	-7902
sch	-7903
▁Russell	-7904
▁attorney	-7905
seud	-7906
▁completion	-7907
▁benefit	-7908
▁Thompson	-7909
▁charts	-7910
die	-7911
uda	-7912
▁markets	-7913
▁visitors	-7914
▁Convention	-7915
edia	-7916
5,000	-7917
▁suspended	-7918
cester	-7919
phone	-7920
▁relief	-7921
▁Gon	-7922
force	-7923
▁drew	-7924
OC	-7925
Be	-7926
▁Campbell	-7927
▁alcoh	-7928
▁approval	-7929
▁penalty	-7930
lac	-7931
▁Orthodox	-7932
▁Nort	-7933
▁assign	-7934
▁PA	-7935
▁rend	-7936
""	-7937
▁Crit	-7938
▁Senator	-7939
▁cup	-7940
▁net	-7941
▁pitch	-7942
▁lov	-7943
▁evolution	-7944
66	-7945
▁guitarist	-7946
▁Sarah	-7947
▁Pas	-7948
▁Originally	-7949
▁jurisd	-7950
▁output	-7951
▁collections	-7952
IP	-7953
37	-7954
▁manufacturing	-7955
▁Bangladesh	-7956
▁recre	-7957
▁Cathedral	-7958
br	-7959
idency	-7960
▁papers	-7961
▁Lower	-7962
▁surviving	-7963
▁extens	-7964
acc	-7965
▁theat	-7966
▁Peace	-7967
▁donated	-7968
▁Dream	-7969
enses	-7970
▁recordings	-7971
▁Gran	-7972
▁acted	-7973
aints	-7974
dy	-7975
▁decline	-7976
▁concrete	-7977
ensis	-7978
▁executed	-7979
pers	-7980
▁fear	-7981
▁Opera	-7982
▁emergency	-7983
▁neut	-7984
▁Pur	-7985
▁UE	-7986
▁Dyn	-7987
igrated	-7988
hus	-7989
▁Vinc	-7990
▁movements	-7991
Ind	-7992
mina	-7993
▁fit	-7994
FM	-7995
essions	-7996
km	-7997
▁subsidi	-7998
aments	-7999
▁grown	-8000
▁react	-8001
▁involvement	-8002
▁happened	-8003
▁amateur	-8004
▁Authority	-8005
▁modified	-8006
orial	-8007
▁license	-8008
▁plane	-8009
▁Non	-8010
▁rivers	-8011
▁Environment	-8012
▁Confeder	-8013
▁mountains	-8014
nia	-8015
▁elder	-8016
▁Gri	-8017
)"	-8018
▁Bruce	-8019
▁Round	-8020
As	-8021
▁reun	-8022
host	-8023
▁edited	-8024
▁Metro	-8025
▁equipped	-8026
ni	-8027
▁Disc	-8028
▁eval	-8029
olo	-8030
▁absor	-8031
▁exerc	-8032
MP	-8033
dr	-8034
▁Honor	-8035
▁habitat	-8036
▁counties	-8037
rena	-8038
▁Broadway	-8039
orer	-8040
ranean	-8041
▁mob	-8042
isi	-8043
▁somewhat	-8044
▁genre	-8045
48	-8046
▁Leban	-8047
▁satisf	-8048
▁recommended	-8049
▁Marie	-8050
▁Buff	-8051
▁tur	-8052
acon	-8053
▁Austin	-8054
▁Nelson	-8055
▁fict	-8056
▁cook	-8057
sea	-8058
ige	-8059
▁Birmingham	-8060
aman	-8061
HS	-8062
▁assass	-8063
elli	-8064
▁Ever	-8065
▁Saf	-8066
▁Mrs	-8067
▁1962	-8068
▁Voiv	-8069
▁widespread	-8070
▁dress	-8071
▁vessel	-8072
▁sufficient	-8073
▁Vik	-8074
▁directors	-8075
bridge	-8076
▁Dak	-8077
▁Morris	-8078
▁spiritual	-8079
ials	-8080
ét	-8081
▁1963	-8082
inter	-8083
tha	-8084
▁continuing	-8085
cho	-8086
▁contested	-8087
▁visiting	-8088
▁camera	-8089
▁adaptation	-8090
▁shares	-8091
▁Gene	-8092
▁huge	-8093
odeship	-8094
▁Norman	-8095
▁thirty	-8096
62	-8097
–200	-8098
▁Shortly	-8099
▁attracted	-8100
▁Nash	-8101
és	-8102
▁Cole	-8103
▁chapter	-8104
▁Ll	-8105
▁Venez	-8106
▁populations	-8107
▁pray	-8108
▁1944	-8109
▁distinguished	-8110
▁posted	-8111
▁bes	-8112
▁App	-8113
look	-8114
iders	-8115
race	-8116
▁Your	-8117
rehens	-8118
▁Chamber	-8119
▁designer	-8120
95	-8121
otype	-8122
inction	-8123
▁Within	-8124
poss	-8125
lem	-8126
rient	-8127
isition	-8128
▁illegal	-8129
pes	-8130
33	-8131
▁speak	-8132
▁Brothers	-8133
▁controversial	-8134
▁Agricult	-8135
▁infantry	-8136
▁portrayed	-8137
cknow	-8138
▁treated	-8139
▁Adams	-8140
▁participation	-8141
▁hur	-8142
▁defence	-8143
GA	-8144
▁Wol	-8145
aptist	-8146
amental	-8147
▁Wrest	-8148
▁Camer	-8149
anny	-8150
▁draf	-8151
▁Franklin	-8152
ogs	-8153
▁moder	-8154
asa	-8155
▁attributed	-8156
▁Fleet	-8157
▁traveled	-8158
▁plus	-8159
▁Horn	-8160
osph	-8161
roc	-8162
▁whereas	-8163
▁Hindu	-8164
▁intention	-8165
▁Fel	-8166
▁newspapers	-8167
▁Liter	-8168
ED	-8169
▁elevation	-8170
▁circuit	-8171
▁earn	-8172
▁occasionally	-8173
▁atmosp	-8174
▁Muham	-8175
▁couples	-8176
▁Beck	-8177
▁lieutenant	-8178
▁ster	-8179
▁Gor	-8180
▁championships	-8181
▁vic	-8182
▁Hend	-8183
▁soccer	-8184
eed	-8185
▁deaths	-8186
▁fest	-8187
▁Lithuan	-8188
▁Murray	-8189
▁associate	-8190
ounced	-8191
"-	-8192
▁Patri	-8193
▁panel	-8194
▁Robinson	-8195
▁55	-8196
▁skin	-8197
▁Fried	-8198
▁ben	-8199
▁AT	-8200
▁platforms	-8201
leased	-8202
hai	-8203
▁Carter	-8204
cular	-8205
▁voting	-8206
umbent	-8207
-20	-8208
▁hang	-8209
▁pric	-8210
▁effectively	-8211
▁Schools	-8212
leton	-8213
ET	-8214
▁emerged	-8215
▁meetings	-8216
final	-8217
▁print	-8218
▁Bed	-8219
attan	-8220
▁fled	-8221
▁minimum	-8222
▁changing	-8223
▁Bachelor	-8224
gi	-8225
▁Voivodeship	-8226
▁lin	-8227
▁spoke	-8228
▁controversy	-8229
master	-8230
▁retain	-8231
▁shore	-8232
▁Sn	-8233
▁Pittsburgh	-8234
aware	-8235
▁Energy	-8236
▁1939	-8237
▁Wright	-8238
anne	-8239
asts	-8240
▁whilst	-8241
▁themes	-8242
▁Report	-8243
▁turb	-8244
▁Prad	-8245
▁Instead	-8246
▁Invest	-8247
▁remainder	-8248
▁1956	-8249
▁Nob	-8250
▁Champion	-8251
▁Medicine	-8252
igible	-8253
▁surf	-8254
▁acknow	-8255
asure	-8256
▁bot	-8257
▁Jose	-8258
▁Chand	-8259
▁sleep	-8260
▁Market	-8261
phony	-8262
▁suicide	-8263
▁injuries	-8264
▁1989,	-8265
▁ruling	-8266
lap	-8267
▁SS	-8268
▁Marshall	-8269
▁youngest	-8270
din	-8271
▁Beg	-8272
▁drawing	-8273
▁adopt	-8274
▁cm	-8275
▁segment	-8276
▁visible	-8277
▁lob	-8278
ailand	-8279
▁cards	-8280
▁Romania	-8281
antasy	-8282
▁eld	-8283
abilities	-8284
▁Tit	-8285
▁Boys	-8286
▁1998.	-8287
This	-8288
▁expos	-8289
▁Hit	-8290
▁Around	-8291
▁frequency	-8292
DS	-8293
▁rapidly	-8294
▁1942	-8295
▁representation	-8296
▁Kon	-8297
otes	-8298
▁femin	-8299
aste	-8300
▁belonging	-8301
hand	-8302
cons	-8303
?"	-8304
▁Kan	-8305
▁endemic	-8306
erbai	-8307
▁(20	-8308
▁arc	-8309
olly	-8310
▁teach	-8311
theless	-8312
▁proport	-8313
▁Wa	-8314
▁Beat	-8315
▁tenure	-8316
▁anything	-8317
▁1946	-8318
iop	-8319
▁missions	-8320
▁Race	-8321
ultane	-8322
▁remember	-8323
▁innings	-8324
▁1961	-8325
▁die	-8326
▁honour	-8327
▁preserved	-8328
▁representatives	-8329
▁hip	-8330
▁underground	-8331
▁UEFA	-8332
▁battles	-8333
▁dream	-8334
▁Christopher	-8335
wall	-8336
▁tests	-8337
▁knew	-8338
▁classification	-8339
▁WW	-8340
ector	-8341
▁Sin	-8342
34	-8343
▁architectural	-8344
▁sentenced	-8345
▁Every	-8346
▁agriculture	-8347
▁pregn	-8348
oca	-8349
▁occasions	-8350
▁Lib	-8351
▁Si	-8352
▁intersection	-8353
▁Karl	-8354
▁Arkansas	-8355
▁Sac	-8356
▁demolished	-8357
▁cousin	-8358
▁bear	-8359
▁departure	-8360
▁Guine	-8361
▁().	-8362
▁intellect	-8363
otton	-8364
udes	-8365
ashed	-8366
▁fil	-8367
▁massive	-8368
▁landscape	-8369
ingly	-8370
▁Dallas	-8371
▁rif	-8372
▁Brooklyn	-8373
▁Architect	-8374
estone	-8375
casting	-8376
▁Mack	-8377
▁predomin	-8378
▁venue	-8379
▁depending	-8380
Bl	-8381
ologists	-8382
▁entertainment	-8383
▁surgery	-8384
▁Stanley	-8385
▁greatly	-8386
▁cabinet	-8387
▁valid	-8388
▁Judge	-8389
▁Rud	-8390
▁repro	-8391
▁tell	-8392
iors	-8393
icon	-8394
▁Graham	-8395
▁Belgian	-8396
▁understand	-8397
▁chapel	-8398
▁videos	-8399
▁1941	-8400
▁admin	-8401
▁describe	-8402
▁pron	-8403
hu	-8404
▁supporters	-8405
▁erected	-8406
▁Mong	-8407
▁tools	-8408
▁reportedly	-8409
▁infrastructure	-8410
bat	-8411
ruction	-8412
▁mir	-8413
olia	-8414
▁claiming	-8415
▁excell	-8416
▁writes	-8417
uated	-8418
▁Py	-8419
▁blocks	-8420
annels	-8421
▁defending	-8422
erg	-8423
▁encouraged	-8424
iterranean	-8425
▁Movement	-8426
▁convention	-8427
▁Victorian	-8428
▁vision	-8429
icop	-8430
oples	-8431
▁spoken	-8432
▁+	-8433
▁NBA	-8434
▁safe	-8435
▁maintenance	-8436
▁employment	-8437
▁Season	-8438
▁Thailand	-8439
▁planet	-8440
▁Information	-8441
▁cancelled	-8442
▁gradually	-8443
▁producers	-8444
▁compilation	-8445
usted	-8446
▁wick	-8447
but	-8448
▁dang	-8449
▁Equ	-8450
▁Frid	-8451
▁undert	-8452
▁predecess	-8453
▁Heb	-8454
▁uncle	-8455
rub	-8456
▁tact	-8457
▁Constant	-8458
▁longest	-8459
▁Mond	-8460
▁Azerbai	-8461
pha	-8462
▁illness	-8463
▁statue	-8464
▁Utah	-8465
amo	-8466
▁inner	-8467
▁dialect	-8468
▁furn	-8469
stic	-8470
▁Venezuel	-8471
▁Never	-8472
▁trading	-8473
▁ranking	-8474
▁regime	-8475
rang	-8476
▁inaugural	-8477
▁supplies	-8478
▁mode	-8479
▁hundreds	-8480
▁begun	-8481
▁Theater	-8482
▁concerned	-8483
▁beet	-8484
▁Muhammad	-8485
ouver	-8486
▁boats	-8487
keeper	-8488
▁relocated	-8489
mates	-8490
mod	-8491
arth	-8492
▁everything	-8493
▁highlight	-8494
▁Trophy	-8495
▁Place	-8496
▁resolution	-8497
ported	-8498
▁diameter	-8499
▁Protest	-8500
▁periods	-8501
▁missed	-8502
For	-8503
▁thousand	-8504
▁commented	-8505
▁networks	-8506
struct	-8507
▁Portland	-8508
▁afterwards	-8509
▁beach	-8510
▁12.	-8511
▁phone	-8512
▁Nord	-8513
▁unusual	-8514
ocol	-8515
▁sudden	-8516
▁Friend	-8517
▁absence	-8518
▁Derby	-8519
▁1952	-8520
▁tow	-8521
▁stress	-8522
izon	-8523
omes	-8524
▁Windows	-8525
onian	-8526
▁horses	-8527
▁centers	-8528
▁characterized	-8529
AP	-8530
–17	-8531
▁Germans	-8532
▁tempor	-8533
▁1997.	-8534
▁Trade	-8535
▁Event	-8536
▁tribe	-8537
asi	-8538
▁nav	-8539
▁cul	-8540
▁Training	-8541
orus	-8542
nik	-8543
▁satellite	-8544
erted	-8545
▁discovery	-8546
▁operational	-8547
ersed	-8548
▁Apple	-8549
▁NBC	-8550
illo	-8551
oba	-8552
Am	-8553
47	-8554
No	-8555
▁AR	-8556
▁turning	-8557
▁wine	-8558
▁Dra	-8559
▁Lud	-8560
▁colony	-8561
▁proc	-8562
▁participants	-8563
bean	-8564
▁territories	-8565
39	-8566
▁immediate	-8567
▁mart	-8568
▁domain	-8569
▁aimed	-8570
▁Dub	-8571
▁midfield	-8572
▁competitive	-8573
rama	-8574
▁1947	-8575
▁Glasgow	-8576
ancell	-8577
▁supports	-8578
▁Finnish	-8579
▁Pad	-8580
antine	-8581
▁suffering	-8582
▁abroad	-8583
▁publicly	-8584
▁wrong	-8585
▁1958	-8586
iah	-8587
▁dub	-8588
▁FIFA	-8589
▁Jimmy	-8590
opal	-8591
ilty	-8592
▁Vic	-8593
▁lock	-8594
elected	-8595
▁viewed	-8596
▁Canal	-8597
▁Soon	-8598
▁printed	-8599
▁governments	-8600
▁Dark	-8601
▁Dh	-8602
▁Bernard	-8603
▁Veg	-8604
rank	-8605
▁jobs	-8606
gie	-8607
▁exists	-8608
▁Madrid	-8609
▁subd	-8610
▁definition	-8611
▁relationships	-8612
▁Tower	-8613
▁concerts	-8614
▁astron	-8615
▁worship	-8616
▁amongst	-8617
▁mo	-8618
hythm	-8619
▁Benj	-8620
▁Hum	-8621
leans	-8622
▁send	-8623
▁Carib	-8624
▁recovered	-8625
▁Richmond	-8626
32	-8627
▁commanded	-8628
▁Method	-8629
▁behalf	-8630
▁1959	-8631
▁1996.	-8632
▁Milan	-8633
▁instrumental	-8634
▁Stev	-8635
oni	-8636
contin	-8637
▁Knight	-8638
▁premiere	-8639
▁schedule	-8640
▁toured	-8641
▁doubles	-8642
▁sustain	-8643
later	-8644
▁Serbia	-8645
▁Mediterranean	-8646
▁loyal	-8647
▁Treaty	-8648
▁Net	-8649
▁Nam	-8650
▁160	-8651
soft	-8652
▁Egyptian	-8653
▁protests	-8654
▁poems	-8655
▁Princess	-8656
archers	-8657
▁Bes	-8658
▁Cricket	-8659
▁Carlos	-8660
▁CBS	-8661
▁Ald	-8662
▁duo	-8663
Pro	-8664
▁indigenous	-8665
▁attending	-8666
cia	-8667
▁creative	-8668
▁1943	-8669
▁friendly	-8670
▁gone	-8671
ricane	-8672
ashi	-8673
oom	-8674
such	-8675
▁categories	-8676
▁pod	-8677
erk	-8678
▁agencies	-8679
ricted	-8680
▁spending	-8681
oven	-8682
▁hearing	-8683
tes	-8684
85	-8685
eta	-8686
Re	-8687
▁AS	-8688
terior	-8689
▁Hell	-8690
▁passage	-8691
Se	-8692
usalem	-8693
ocation	-8694
MC	-8695
▁Hampshire	-8696
▁facing	-8697
▁Emer	-8698
language	-8699
▁Brist	-8700
▁Works	-8701
▁Neb	-8702
▁YouT	-8703
▁Defence	-8704
high	-8705
▁useful	-8706
▁Gill	-8707
▁external	-8708
▁Maj	-8709
▁41	-8710
orship	-8711
▁frequent	-8712
iph	-8713
ripts	-8714
iration	-8715
▁makeup	-8716
▁thing	-8717
▁descent	-8718
▁See	-8719
eneration	-8720
▁Nad	-8721
▁marketing	-8722
▁characteristics	-8723
▁researchers	-8724
▁Hold	-8725
-7	-8726
Com	-8727
▁Nigeria	-8728
▁1936	-8729
athy	-8730
▁Player	-8731
▁Until	-8732
▁foss	-8733
▁Trad	-8734
▁extent	-8735
Ad	-8736
archy	-8737
NC	-8738
▁Ko	-8739
▁tribut	-8740
▁identify	-8741
▁Romanian	-8742
▁Similar	-8743
▁constitution	-8744
bound	-8745
▁chamber	-8746
▁Orleans	-8747
nce	-8748
▁Norm	-8749
▁Girls	-8750
▁rebuilt	-8751
▁Evans	-8752
encing	-8753
▁crash	-8754
rove	-8755
▁switch	-8756
▁versus	-8757
61	-8758
▁enjoyed	-8759
▁opportunities	-8760
▁sees	-8761
istical	-8762
▁Serbian	-8763
▁transportation	-8764
iri	-8765
cour	-8766
riel	-8767
▁SC	-8768
andal	-8769
irds	-8770
▁ceased	-8771
fare	-8772
▁construct	-8773
▁discip	-8774
▁Catal	-8775
▁tribes	-8776
▁none	-8777
▁phr	-8778
▁bacter	-8779
▁Capital	-8780
▁audio	-8781
▁Yorkshire	-8782
atur	-8783
▁adults	-8784
▁organised	-8785
▁Motor	-8786
geon	-8787
▁viewers	-8788
acre	-8789
oda	-8790
LS	-8791
usk	-8792
▁1957	-8793
▁Benn	-8794
▁anch	-8795
▁seeking	-8796
▁worksh	-8797
style	-8798
▁Cass	-8799
▁agents	-8800
▁indicate	-8801
▁47	-8802
▁spaces	-8803
▁contribution	-8804
▁Angl	-8805
▁sentence	-8806
▁Aqu	-8807
▁lap	-8808
▁hal	-8809
ijing	-8810
▁bid	-8811
▁1955	-8812
▁Limited	-8813
cht	-8814
emed	-8815
ivation	-8816
▁casual	-8817
▁Afghanistan	-8818
▁Indians	-8819
▁earning	-8820
ancouver	-8821
▁depict	-8822
▁Manh	-8823
rock	-8824
anner	-8825
ducted	-8826
▁ratio	-8827
▁grey	-8828
▁advertising	-8829
▁disband	-8830
▁1987,	-8831
▁Warner	-8832
▁substantial	-8833
align	-8834
ocratic	-8835
▁fictional	-8836
.'	-8837
▁merchant	-8838
▁easy	-8839
▁Bris	-8840
▁AP	-8841
▁Billy	-8842
▁athletes	-8843
mund	-8844
cut	-8845
▁transmission	-8846
▁customers	-8847
▁picked	-8848
▁belonged	-8849
▁Lanka	-8850
▁ninth	-8851
▁Athletics	-8852
▁wet	-8853
▁Kit	-8854
▁detailed	-8855
▁Bud	-8856
▁dominated	-8857
▁EU	-8858
▁Mitchell	-8859
▁percentage	-8860
cribed	-8861
▁Dance	-8862
▁responded	-8863
▁implemented	-8864
▁Again	-8865
▁Mem	-8866
avan	-8867
▁Fall	-8868
▁infl	-8869
▁grandfather	-8870
▁styles	-8871
▁Ivan	-8872
▁Kum	-8873
▁Basketball	-8874
▁1988,	-8875
▁borders	-8876
▁;	-8877
uzz	-8878
▁rescue	-8879
orous	-8880
▁disapp	-8881
iac	-8882
hetic	-8883
▁facilit	-8884
▁Iv	-8885
▁Chem	-8886
ulu	-8887
▁Delhi	-8888
▁wat	-8889
tical	-8890
uki	-8891
▁volumes	-8892
▁voters	-8893
▁Initially	-8894
▁Jun	-8895
▁secured	-8896
▁Benjamin	-8897
▁fold	-8898
RS	-8899
▁conservative	-8900
▁11.	-8901
▁Such	-8902
▁stable	-8903
lington	-8904
▁Municipality	-8905
▁Guy	-8906
▁simpl	-8907
▁Having	-8908
▁1995.	-8909
▁channels	-8910
▁fur	-8911
ulating	-8912
▁Has	-8913
oga	-8914
▁Sax	-8915
ivan	-8916
lik	-8917
▁apparently	-8918
abil	-8919
ductions	-8920
▁opponents	-8921
▁Imp	-8922
away	-8923
▁Mort	-8924
▁affiliated	-8925
▁leaf	-8926
▁cable	-8927
▁Monte	-8928
▁excav	-8929
▁170	-8930
▁yield	-8931
▁Cher	-8932
▁deployed	-8933
▁benefits	-8934
▁ranks	-8935
▁Rico	-8936
ussian	-8937
▁Fr	-8938
▁phenomen	-8939
▁restoration	-8940
▁everyone	-8941
▁description	-8942
▁Bomb	-8943
▁Mes	-8944
▁Rain	-8945
▁resemb	-8946
▁nearest	-8947
▁coalition	-8948
iture	-8949
▁Ext	-8950
▁confer	-8951
▁truth	-8952
▁Warren	-8953
▁integrated	-8954
▁Jerusalem	-8955
▁processing	-8956
▁simultane	-8957
▁patient	-8958
minute	-8959
▁dismissed	-8960
▁intent	-8961
▁Conn	-8962
▁discussed	-8963
▁substitute	-8964
▁broadcasting	-8965
▁1986,	-8966
▁nom	-8967
▁Om	-8968
▁Mi	-8969
▁component	-8970
▁pure	-8971
▁Eston	-8972
▁possession	-8973
▁Jason	-8974
▁sponsored	-8975
▁Bengal	-8976
issue	-8977
▁normally	-8978
obi	-8979
▁1945,	-8980
▁Hispanic	-8981
▁inse	-8982
▁swit	-8983
▁Natural	-8984
▁struggle	-8985
▁Organization	-8986
reck	-8987
▁margin	-8988
ser	-8989
arma	-8990
▁destruction	-8991
▁completing	-8992
▁Obl	-8993
▁1949	-8994
fish	-8995
▁experimental	-8996
ewhere	-8997
ounsel	-8998
zes	-8999
▁holid	-9000
▁Singles	-9001
▁YouTube	-9002
▁partially	-9003
▁mounted	-9004
arting	-9005
▁Mans	-9006
▁Tak	-9007
▁Gary	-9008
▁wants	-9009
▁SA	-9010
▁43	-9011
▁possibility	-9012
▁corporate	-9013
▁dual	-9014
▁businessman	-9015
▁Food	-9016
eor	-9017
▁Vancouver	-9018
▁palace	-9019
én	-9020
alia	-9021
gun	-9022
▁wel	-9023
▁Unit	-9024
▁Construction	-9025
▁drugs	-9026
▁Rena	-9027
▁assets	-9028
▁Fitz	-9029
▁apartment	-9030
44	-9031
pent	-9032
▁Throughout	-9033
sequently	-9034
commun	-9035
▁strict	-9036
▁withdrew	-9037
▁funded	-9038
▁publisher	-9039
eo	-9040
▁Girl	-9041
▁Racing	-9042
▁bon	-9043
▁Wang	-9044
▁excess	-9045
igs	-9046
▁activist	-9047
▁Arena	-9048
eria	-9049
▁hope	-9050
▁Sultan	-9051
NS	-9052
-10	-9053
bane	-9054
▁Economic	-9055
▁abuse	-9056
agre	-9057
▁Salv	-9058
–6	-9059
▁qualify	-9060
▁Michel	-9061
▁exposed	-9062
▁"",	-9063
▁subsidiary	-9064
care	-9065
uble	-9066
▁Eug	-9067
▁const	-9068
Or	-9069
▁Tun	-9070
▁ongoing	-9071
▁animated	-9072
▁Hud	-9073
▁Baker	-9074
▁Barry	-9075
▁runner	-9076
ceived	-9077
▁ready	-9078
▁Bristol	-9079
▁Rav	-9080
▁vast	-9081
▁1954	-9082
▁choose	-9083
ohn	-9084
atab	-9085
fire	-9086
▁1994.	-9087
▁cann	-9088
▁DJ	-9089
▁Abdul	-9090
▁Bible	-9091
Wh	-9092
▁1992.	-9093
orporated	-9094
▁provision	-9095
▁conj	-9096
▁Andy	-9097
▁settlers	-9098
▁wedding	-9099
▁Chel	-9100
▁Draft	-9101
▁partly	-9102
▁provinces	-9103
gate	-9104
closed	-9105
jab	-9106
▁liberal	-9107
OM	-9108
▁param	-9109
▁weekend	-9110
▁Vel	-9111
▁conservation	-9112
▁invent	-9113
▁releases	-9114
ingham	-9115
stad	-9116
▁Luther	-9117
▁immigrants	-9118
▁interpre	-9119
castle	-9120
▁Burg	-9121
▁patrol	-9122
▁honorary	-9123
▁Harrison	-9124
▁revenue	-9125
▁Jama	-9126
▁Pav	-9127
▁displayed	-9128
▁congress	-9129
▁concentration	-9130
▁Frances	-9131
▁establishing	-9132
▁1910	-9133
irates	-9134
▁Johnny	-9135
–201	-9136
▁Maine	-9137
ouses	-9138
▁insurance	-9139
arged	-9140
▁texts	-9141
▁Box	-9142
▁driven	-9143
_1	-9144
▁produces	-9145
▁monitor	-9146
26	-9147
▁extreme	-9148
▁Prom	-9149
▁patron	-9150
▁Culture	-9151
▁scientists	-9152
▁nurs	-9153
▁weapon	-9154
▁(15	-9155
▁Nicholas	-9156
len	-9157
▁asks	-9158
▁congreg	-9159
DC	-9160
ML	-9161
kee	-9162
▁drafted	-9163
▁Floren	-9164
▁Vas	-9165
▁trap	-9166
▁explo	-9167
▁Pierre	-9168
▁Publ	-9169
▁civilian	-9170
Col	-9171
▁keeping	-9172
▁principles	-9173
▁CP	-9174
▁migr	-9175
▁1,000	-9176
▁rated	-9177
▁matters	-9178
▁autonom	-9179
▁reveals	-9180
▁Shang	-9181
ivate	-9182
arus	-9183
▁talent	-9184
▁mathematics	-9185
▁Scient	-9186
▁1985,	-9187
▁120	-9188
▁gate	-9189
▁comput	-9190
▁junction	-9191
ennial	-9192
▁movies	-9193
▁initiative	-9194
▁exceed	-9195
ör	-9196
onymous	-9197
▁pursue	-9198
▁electron	-9199
▁ocean	-9200
▁Nation	-9201
arks	-9202
▁earthqu	-9203
▁legs	-9204
▁focuses	-9205
▁outbreak	-9206
uru	-9207
brid	-9208
▁scholarship	-9209
▁farmers	-9210
▁Ru	-9211
iveness	-9212
▁string	-9213
▁What	-9214
▁roots	-9215
▁outer	-9216
▁gay	-9217
▁Commissioner	-9218
▁Fine	-9219
▁judges	-9220
▁exclusively	-9221
▁Manhattan	-9222
▁kit	-9223
▁Vlad	-9224
scale	-9225
▁legislative	-9226
▁NHL	-9227
▁Mak	-9228
▁cemetery	-9229
hour	-9230
▁apply	-9231
▁imperial	-9232
▁Story	-9233
rose	-9234
▁Chang	-9235
▁Together	-9236
▁guilty	-9237
▁partners	-9238
▁1953	-9239
▁Kos	-9240
▁Ghana	-9241
▁neck	-9242
▁playoffs	-9243
▁evac	-9244
▁Beijing	-9245
▁Baptist	-9246
▁1938	-9247
▁beautiful	-9248
▁Ship	-9249
resident	-9250
▁Arabic	-9251
You	-9252
▁Wing	-9253
▁speaking	-9254
aran	-9255
borne	-9256
▁Tol	-9257
▁generated	-9258
abet	-9259
fers	-9260
▁steps	-9261
▁debt	-9262
▁anyone	-9263
▁locally	-9264
roph	-9265
▁Tob	-9266
▁swimming	-9267
▁Verm	-9268
AA	-9269
owed	-9270
Ex	-9271
▁sailed	-9272
mm	-9273
▁desire	-9274
rot	-9275
▁remove	-9276
oria	-9277
▁1951	-9278
▁Greater	-9279
▁neither	-9280
net	-9281
▁assemb	-9282
▁mac	-9283
folk	-9284
▁unsuccessful	-9285
TE	-9286
▁personality	-9287
▁diverse	-9288
▁Attorney	-9289
uits	-9290
▁municipalities	-9291
▁alliance	-9292
▁Record	-9293
acks	-9294
▁torn	-9295
anim	-9296
bel	-9297
▁signs	-9298
▁Wayne	-9299
igins	-9300
▁closer	-9301
▁Clar	-9302
West	-9303
▁hat	-9304
▁Furthermore	-9305
▁conclusion	-9306
▁requested	-9307
▁falling	-9308
▁file	-9309
▁Caribbean	-9310
▁NS	-9311
▁Josh	-9312
▁repair	-9313
▁Conserv	-9314
reprene	-9315
▁sculpture	-9316
unc	-9317
aton	-9318
▁throne	-9319
▁initiated	-9320
▁Falls	-9321
▁underw	-9322
▁charity	-9323
▁Ric	-9324
▁minority	-9325
▁advice	-9326
▁borough	-9327
▁Cart	-9328
▁rising	-9329
▁alcohol	-9330
▁sympt	-9331
▁assisted	-9332
▁Adela	-9333
▁Gray	-9334
▁Reform	-9335
otal	-9336
maker	-9337
▁romantic	-9338
▁eldest	-9339
acht	-9340
▁Cha	-9341
▁touring	-9342
▁liquid	-9343
▁Anti	-9344
▁sessions	-9345
mel	-9346
▁Jenn	-9347
▁rub	-9348
▁escort	-9349
sa	-9350
▁Last	-9351
gorith	-9352
▁decides	-9353
▁Iranian	-9354
▁banned	-9355
49	-9356
▁mor	-9357
▁labour	-9358
▁submitted	-9359
agar	-9360
▁Communications	-9361
▁Ian	-9362
▁coaching	-9363
▁Parker	-9364
amese	-9365
enson	-9366
▁Charlotte	-9367
▁Seven	-9368
uli	-9369
▁merger	-9370
▁Tib	-9371
▁Steel	-9372
▁jum	-9373
▁Lad	-9374
uper	-9375
eenth	-9376
):	-9377
▁1928	-9378
uable	-9379
▁1993.	-9380
▁Ug	-9381
▁Griff	-9382
▁Father	-9383
pany	-9384
▁tunnel	-9385
▁1991.	-9386
idal	-9387
arked	-9388
▁Phoen	-9389
▁gross	-9390
▁resort	-9391
▁lose	-9392
inental	-9393
body	-9394
▁PhD	-9395
▁acknowled	-9396
▁1918	-9397
▁Grade	-9398
▁battalion	-9399
▁Zone	-9400
▁Ins	-9401
rams	-9402
▁Charlie	-9403
▁mines	-9404
▁lowest	-9405
iciency	-9406
sters	-9407
▁upgrad	-9408
▁Tang	-9409
ancellor	-9410
▁terminus	-9411
occ	-9412
athered	-9413
RT	-9414
▁convin	-9415
▁essential	-9416
▁deck	-9417
song	-9418
unct	-9419
urers	-9420
▁cash	-9421
enger	-9422
▁beating	-9423
▁Guinea	-9424
fam	-9425
▁circumstances	-9426
▁Branch	-9427
▁moves	-9428
▁false	-9429
▁wearing	-9430
▁celebr	-9431
▁dispute	-9432
▁doesn	-9433
case	-9434
abor	-9435
▁grows	-9436
▁Orange	-9437
▁crimes	-9438
ère	-9439
▁1890	-9440
▁Goth	-9441
▁Isa	-9442
ario	-9443
▁travelled	-9444
▁Persian	-9445
▁rit	-9446
uka	-9447
▁Parish	-9448
BM	-9449
▁Therefore	-9450
▁terminal	-9451
▁isolated	-9452
▁treaty	-9453
making	-9454
▁traditions	-9455
eters	-9456
iginal	-9457
ugs	-9458
▁discontin	-9459
▁electrical	-9460
▁compla	-9461
▁traded	-9462
▁Allied	-9463
acle	-9464
▁Members	-9465
▁closing	-9466
▁decisions	-9467
rez	-9468
ching	-9469
▁Trail	-9470
▁Tu	-9471
▁Rest	-9472
hum	-9473
▁Clinton	-9474
▁Wrestling	-9475
▁1980,	-9476
▁IC	-9477
▁timber	-9478
▁1984,	-9479
▁crossed	-9480
▁Conc	-9481
▁Muslims	-9482
▁bright	-9483
▁Face	-9484
olition	-9485
-9	-9486
▁reven	-9487
eign	-9488
▁CS	-9489
▁1990.	-9490
▁spin	-9491
▁Obs	-9492
▁solar	-9493
▁communications	-9494
boy	-9495
▁regulations	-9496
▁Rangers	-9497
▁shock	-9498
▁stem	-9499
▁Mess	-9500
▁connecting	-9501
atar	-9502
▁Trinity	-9503
▁opponent	-9504
▁wire	-9505
▁Gmina	-9506
uez	-9507
vi	-9508
▁Pradesh	-9509
kov	-9510
▁jury	-9511
▁persu	-9512
▁fighter	-9513
▁compens	-9514
▁Death	-9515
▁1937	-9516
▁patterns	-9517
▁involves	-9518
mentary	-9519
▁appropriate	-9520
ambig	-9521
▁Alice	-9522
▁originated	-9523
fly	-9524
▁balance	-9525
▁Peninsula	-9526
▁Poly	-9527
▁licensed	-9528
hill	-9529
▁trials	-9530
36	-9531
celand	-9532
▁serial	-9533
rehensive	-9534
▁limits	-9535
▁housed	-9536
▁Amaz	-9537
▁profit	-9538
azines	-9539
▁Maced	-9540
▁survive	-9541
▁clinical	-9542
tr	-9543
aja	-9544
▁Hunter	-9545
certain	-9546
▁Much	-9547
▁negotiations	-9548
▁constitutional	-9549
▁jurisdiction	-9550
elect	-9551
ouncill	-9552
▁Socialist	-9553
iliar	-9554
▁clothing	-9555
ulum	-9556
▁Abbey	-9557
▁Bron	-9558
▁cargo	-9559
feld	-9560
▁MS	-9561
▁Adelaide	-9562
▁internationally	-9563
▁reduction	-9564
endar	-9565
▁settlements	-9566
▁Gaz	-9567
▁Tele	-9568
▁emperor	-9569
▁indicates	-9570
▁breaking	-9571
akia	-9572
▁agree	-9573
▁electricity	-9574
▁suitable	-9575
▁52	-9576
▁Call	-9577
▁bay	-9578
▁respective	-9579
▁temperatures	-9580
▁Electric	-9581
▁seeing	-9582
foot	-9583
▁Section	-9584
▁Peru	-9585
▁Mars	-9586
via	-9587
▁soldier	-9588
▁Hawaii	-9589
▁camps	-9590
▁exhibited	-9591
▁drummer	-9592
▁principle	-9593
▁strategic	-9594
▁Mall	-9595
▁marry	-9596
▁Liga	-9597
bes	-9598
▁strengthen	-9599
▁dominant	-9600
mont	-9601
▁Ice	-9602
▁Philippine	-9603
achment	-9604
iya	-9605
▁coff	-9606
assy	-9607
▁spr	-9608
▁1935	-9609
▁clearly	-9610
▁physics	-9611
▁Dom	-9612
–20	-9613
▁Track	-9614
uction	-9615
mediate	-9616
▁photography	-9617
▁1924	-9618
flow	-9619
▁Wes	-9620
▁continuous	-9621
▁Ple	-9622
▁increases	-9623
ipped	-9624
▁thereafter	-9625
▁stim	-9626
▁1944,	-9627
game	-9628
▁credits	-9629
aku	-9630
quir	-9631
▁Alberta	-9632
▁organis	-9633
▁integr	-9634
▁Byz	-9635
▁tort	-9636
▁Psych	-9637
▁Turner	-9638
▁notice	-9639
▁Studio	-9640
opes	-9641
▁boundaries	-9642
acts	-9643
▁Universal	-9644
▁expand	-9645
▁fitted	-9646
▁defended	-9647
▁Syria	-9648
▁monastery	-9649
ME	-9650
owski	-9651
▁Mason	-9652
leyball	-9653
▁Moham	-9654
▁agg	-9655
▁download	-9656
▁helicop	-9657
▁battery	-9658
▁manage	-9659
atus	-9660
▁Pant	-9661
itable	-9662
▁Glen	-9663
▁Barcel	-9664
▁Lis	-9665
▁comed	-9666
itime	-9667
▁pull	-9668
▁radical	-9669
andy	-9670
▁reorgan	-9671
▁assists	-9672
▁condem	-9673
▁superior	-9674
▁Sid	-9675
▁Ent	-9676
pol	-9677
overeign	-9678
▁collaborated	-9679
▁cattle	-9680
▁manif	-9681
▁productions	-9682
▁165	-9683
▁recognised	-9684
inos	-9685
▁overseas	-9686
▁Standard	-9687
▁arrangement	-9688
▁wealthy	-9689
▁sisters	-9690
▁editions	-9691
▁soul	-9692
▁Dead	-9693
onies	-9694
▁Lag	-9695
ifies	-9696
▁1929	-9697
rystal	-9698
itis	-9699
▁$4	-9700
viously	-9701
▁Municipal	-9702
▁Cuba	-9703
▁links	-9704
eton	-9705
▁propag	-9706
▁Armenian	-9707
olph	-9708
▁algorith	-9709
▁Kirk	-9710
▁diver	-9711
ierra	-9712
”.	-9713
▁cinema	-9714
aha	-9715
▁golf	-9716
▁connections	-9717
▁permission	-9718
imir	-9719
▁Sr	-9720
▁Broadcasting	-9721
▁ha	-9722
▁tons	-9723
▁vul	-9724
▁Lov	-9725
▁locomotives	-9726
▁doors	-9727
▁Barbara	-9728
▁Buffalo	-9729
▁else	-9730
▁Oblast	-9731
gam	-9732
Can	-9733
▁sight	-9734
▁participating	-9735
▁Books	-9736
▁Munich	-9737
▁kg	-9738
▁filming	-9739
▁Our	-9740
othe	-9741
▁Democrat	-9742
▁marks	-9743
▁linear	-9744
▁Cob	-9745
▁heir	-9746
▁fifteen	-9747
▁1983,	-9748
▁13.	-9749
▁manufactured	-9750
▁sang	-9751
▁mechanism	-9752
▁photographs	-9753
▁Ridge	-9754
issions	-9755
▁Diocese	-9756
▁genetic	-9757
▁Ja	-9758
▁600	-9759
▁(196	-9760
▁Brisbane	-9761
▁168	-9762
▁violent	-9763
▁1982,	-9764
▁compiled	-9765
▁eat	-9766
bus	-9767
▁drivers	-9768
amics	-9769
def	-9770
▁1914	-9771
▁Jonathan	-9772
▁1880	-9773
▁gard	-9774
aced	-9775
icular	-9776
▁demonstrated	-9777
▁prest	-9778
▁Aer	-9779
▁eggs	-9780
▁resignation	-9781
▁describing	-9782
▁(9	-9783
xual	-9784
▁operator	-9785
▁Hig	-9786
▁delivery	-9787
▁Kap	-9788
arv	-9789
▁Challenge	-9790
▁Finally	-9791
oded	-9792
▁py	-9793
▁pale	-9794
bing	-9795
▁Pon	-9796
▁rect	-9797
▁petition	-9798
▁Dakota	-9799
▁Democrats	-9800
▁acquisition	-9801
▁tanks	-9802
nex	-9803
▁Cinc	-9804
▁colors	-9805
▁Near	-9806
▁Speed	-9807
▁Wor	-9808
▁1933	-9809
bin	-9810
mo	-9811
▁Pra	-9812
▁orchestra	-9813
asant	-9814
▁Fisher	-9815
iler	-9816
family	-9817
▁managing	-9818
▁Nova	-9819
▁Theod	-9820
▁manufacturer	-9821
oked	-9822
▁wrestling	-9823
▁vs	-9824
▁dangerous	-9825
▁Tigers	-9826
▁1000	-9827
▁Advis	-9828
▁Cultural	-9829
▁surviv	-9830
▁preferred	-9831
zing	-9832
▁Grey	-9833
▁landed	-9834
▁convicted	-9835
▁1979,	-9836
works	-9837
▁hear	-9838
▁promoting	-9839
▁Daily	-9840
oj	-9841
▁Soccer	-9842
ygen	-9843
aceae	-9844
▁rebell	-9845
apping	-9846
▁Bulgar	-9847
▁1917	-9848
▁mos	-9849
▁restricted	-9850
▁narrative	-9851
ephew	-9852
▁Punjab	-9853
▁controll	-9854
▁origins	-9855
▁midfielder	-9856
▁Latino	-9857
▁discussion	-9858
ishers	-9859
▁Saudi	-9860
▁funeral	-9861
zed	-9862
▁Princip	-9863
▁Iceland	-9864
▁Buddhist	-9865
31	-9866
▁Pictures	-9867
▁magazines	-9868
aba	-9869
▁1972,	-9870
▁departed	-9871
▁Collins	-9872
elfare	-9873
rows	-9874
▁ninet	-9875
PR	-9876
▁Bour	-9877
-6	-9878
▁Pil	-9879
areness	-9880
▁accord	-9881
▁Constit	-9882
▁traditionally	-9883
othy	-9884
▁ties	-9885
▁Friday	-9886
▁hunting	-9887
inations	-9888
asha	-9889
▁Cad	-9890
▁Assistant	-9891
▁1989.	-9892
▁mechanical	-9893
▁Seb	-9894
type	-9895
▁pointed	-9896
▁Oliver	-9897
holm	-9898
agg	-9899
-201	-9900
formerly	-9901
▁1934	-9902
roid	-9903
▁rand	-9904
▁Sign	-9905
aration	-9906
trans	-9907
▁influences	-9908
▁Catherine	-9909
erior	-9910
▁Barcelona	-9911
▁alter	-9912
▁ward	-9913
▁significance	-9914
▁Comple	-9915
eli	-9916
ieth	-9917
▁ideal	-9918
▁input	-9919
omon	-9920
▁Hudson	-9921
▁festivals	-9922
▁Bey	-9923
▁reaches	-9924
▁Hav	-9925
▁conversion	-9926
enberg	-9927
▁extensively	-9928
abric	-9929
▁inducted	-9930
▁vacc	-9931
▁Digital	-9932
▁approached	-9933
▁Microsoft	-9934
itarian	-9935
▁Aber	-9936
▁Lloyd	-9937
5),	-9938
▁accessible	-9939
▁exercise	-9940
▁twin	-9941
▁conventional	-9942
pre	-9943
innati	-9944
▁flights	-9945
▁campaigns	-9946
vision	-9947
▁Springs	-9948
uart	-9949
▁wider	-9950
▁delayed	-9951
inus	-9952
▁1968,	-9953
BO	-9954
angular	-9955
▁config	-9956
esc	-9957
▁nucle	-9958
▁Late	-9959
▁believes	-9960
▁enrolled	-9961
▁devoted	-9962
▁rarely	-9963
▁Moroc	-9964
▁Vincent	-9965
▁Control	-9966
▁Advent	-9967
▁tool	-9968
▁1932	-9969
▁els	-9970
▁Shel	-9971
▁Jazz	-9972
▁Years	-9973
▁1970,	-9974
▁peoples	-9975
▁salt	-9976
▁Alt	-9977
▁Yang	-9978
▁acres	-9979
auge	-9980
▁Azerbaijan	-9981
▁AA	-9982
▁Ref	-9983
▁Appe	-9984
▁3-	-9985
▁slaves	-9986
42	-9987
▁1922	-9988
▁14.	-9989
▁Clay	-9990
▁Anglo	-9991
▁topics	-9992
▁Grad	-9993
▁1974,	-9994
incorporated	-9995
▁MA	-9996
▁Sig	-9997
▁industries	-9998
▁resumed	-9999
sha	-10000
enia	-10001
▁Saints	-10002
▁intern	-10003
▁charter	-10004
▁guar	-10005
▁Plant	-10006
▁Alaska	-10007
▁recalled	-10008
▁semif	-10009
▁Dod	-10010
▁practical	-10011
▁elsewhere	-10012
▁Students	-10013
▁Know	-10014
▁shift	-10015
bow	-10016
▁Who	-10017
▁noble	-10018
▁avo	-10019
ixon	-10020
▁rig	-10021
▁(7	-10022
ixed	-10023
▁ride	-10024
onds	-10025
eston	-10026
outheastern	-10027
May	-10028
▁incumbent	-10029
▁implementation	-10030
▁random	-10031
▁venture	-10032
▁Colombia	-10033
▁57	-10034
▁Coal	-10035
▁Territory	-10036
▁pip	-10037
▁Circuit	-10038
venth	-10039
▁tribute	-10040
▁depicted	-10041
▁Archbishop	-10042
encer	-10043
▁1975,	-10044
▁VI	-10045
▁looked	-10046
▁prices	-10047
▁bases	-10048
▁fee	-10049
▁RAF	-10050
▁empt	-10051
▁caps	-10052
▁therm	-10053
▁bachelor	-10054
▁CC	-10055
▁sequel	-10056
cient	-10057
▁Ethiop	-10058
▁proteins	-10059
▁expensive	-10060
ortion	-10061
▁46	-10062
arrier	-10063
▁Christians	-10064
▁Protestant	-10065
At	-10066
▁inspiration	-10067
oi	-10068
▁Provin	-10069
▁Borough	-10070
▁Hamb	-10071
▁clock	-10072
gel	-10073
▁Leeds	-10074
▁Faculty	-10075
-17	-10076
▁surpr	-10077
ups	-10078
▁Nepal	-10079
▁Century	-10080
▁winds	-10081
icking	-10082
urst	-10083
month	-10084
▁ranging	-10085
ean	-10086
lane	-10087
▁Luis	-10088
▁CA	-10089
▁transmit	-10090
▁tested	-10091
jection	-10092
▁1981,	-10093
▁resear	-10094
WA	-10095
ambiguation	-10096
▁keyboard	-10097
▁machines	-10098
▁Cincinnati	-10099
▁10,000	-10100
Pr	-10101
-200	-10102
▁householder	-10103
▁Cinem	-10104
▁Athens	-10105
▁corresponding	-10106
▁cooperation	-10107
Donald	-10108
▁tournaments	-10109
▁preparation	-10110
olen	-10111
▁deemed	-10112
▁Mother	-10113
▁Mult	-10114
winning	-10115
▁interviews	-10116
▁execution	-10117
"'	-10118
▁Hann	-10119
▁Ral	-10120
▁fill	-10121
▁subt	-10122
▁usual	-10123
▁Urban	-10124
▁contributing	-10125
white	-10126
▁Hugh	-10127
▁waste	-10128
▁Hebrew	-10129
▁layer	-10130
▁biological	-10131
▁°	-10132
▁eigh	-10133
▁Ye	-10134
lett	-10135
▁subsc	-10136
▁Craig	-10137
▁cavalry	-10138
tz	-10139
▁concerning	-10140
▁lingu	-10141
▁Freedom	-10142
▁inherited	-10143
▁Eventually	-10144
▁1921	-10145
HA	-10146
rupted	-10147
▁argument	-10148
ospitals	-10149
▁outstanding	-10150
▁libr	-10151
▁Code	-10152
▁Len	-10153
▁certified	-10154
▁depression	-10155
▁sounds	-10156
ivic	-10157
▁54	-10158
▁pseud	-10159
disambiguation	-10160
ibilities	-10161
▁smooth	-10162
stance	-10163
▁canal	-10164
aser	-10165
▁Abu	-10166
▁curren	-10167
▁commenced	-10168
▁Maz	-10169
▁LP	-10170
uber	-10171
▁1978,	-10172
▁Former	-10173
▁Serge	-10174
possible	-10175
OR	-10176
▁belongs	-10177
pop	-10178
▁Small	-10179
awn	-10180
▁farming	-10181
▁rum	-10182
raham	-10183
▁arriving	-10184
▁disch	-10185
▁victim	-10186
▁birthday	-10187
▁aqu	-10188
▁Commons	-10189
▁pages	-10190
▁eligible	-10191
▁1927	-10192
▁Herbert	-10193
▁rocks	-10194
▁baby	-10195
MI	-10196
▁variant	-10197
▁Hem	-10198
▁Symphony	-10199
▁Lan	-10200
▁Nevada	-10201
▁unlike	-10202
rise	-10203
▁specialized	-10204
▁Cann	-10205
▁riding	-10206
arriors	-10207
zz	-10208
▁Bog	-10209
omic	-10210
▁framework	-10211
▁Diam	-10212
onna	-10213
▁decide	-10214
▁informed	-10215
▁1912	-10216
mits	-10217
▁ju	-10218
▁brigade	-10219
▁historians	-10220
▁Bund	-10221
▁evolved	-10222
rawn	-10223
bul	-10224
ivia	-10225
▁murdered	-10226
▁spend	-10227
▁Qual	-10228
▁attempting	-10229
▁1976,	-10230
▁(8	-10231
itional	-10232
▁Herman	-10233
▁Classic	-10234
pla	-10235
▁Pack	-10236
▁1925	-10237
▁diplomatic	-10238
▁relegated	-10239
ais	-10240
1).	-10241
▁Secret	-10242
▁Kl	-10243
released	-10244
▁800	-10245
▁helps	-10246
▁pictures	-10247
▁identical	-10248
scar	-10249
▁Shar	-10250
▁exposure	-10251
▁submarine	-10252
▁difficulties	-10253
helm	-10254
▁horror	-10255
▁Woman	-10256
▁1942,	-10257
uckland	-10258
▁inhib	-10259
iour	-10260
▁1988.	-10261
▁nut	-10262
▁Had	-10263
▁Merc	-10264
ificial	-10265
igo	-10266
sterdam	-10267
▁Pay	-10268
▁decorated	-10269
▁16.	-10270
▁Alger	-10271
▁:	-10272
▁Sor	-10273
▁Fact	-10274
▁siege	-10275
▁thin	-10276
▁Masters	-10277
▁Sah	-10278
▁symptoms	-10279
apped	-10280
icing	-10281
▁Rogers	-10282
iche	-10283
▁Songs	-10284
▁challenges	-10285
strong	-10286
–10	-10287
mother	-10288
▁comfort	-10289
garian	-10290
▁cruc	-10291
▁neutral	-10292
ici	-10293
▁geomet	-10294
▁Blues	-10295
▁burned	-10296
▁slave	-10297
▁inhab	-10298
▁$5	-10299
▁1923	-10300
▁Model	-10301
rors	-10302
▁1971,	-10303
itic	-10304
▁march	-10305
SS	-10306
▁mask	-10307
▁legislature	-10308
▁Norfolk	-10309
▁por	-10310
▁reporting	-10311
–15	-10312
▁Lions	-10313
▁absol	-10314
▁1969,	-10315
▁ministry	-10316
wig	-10317
▁Fem	-10318
▁Sad	-10319
▁endors	-10320
▁designation	-10321
▁Phoenix	-10322
▁physician	-10323
raska	-10324
▁mainstream	-10325
▁summit	-10326
▁columns	-10327
isp	-10328
▁Tag	-10329
▁neuro	-10330
▁Gonz	-10331
▁1926	-10332
▁"[	-10333
▁1931	-10334
▁confess	-10335
▁tenth	-10336
▁Vegas	-10337
eties	-10338
▁Industry	-10339
ido	-10340
team	-10341
▁vertical	-10342
▁indicating	-10343
▁Gun	-10344
▁Pel	-10345
▁Pin	-10346
ipper	-10347
athon	-10348
▁tens	-10349
▁annex	-10350
▁Argentine	-10351
▁Mend	-10352
▁Ib	-10353
One	-10354
▁gallery	-10355
▁Ground	-10356
▁Tas	-10357
▁Bath	-10358
▁Ring	-10359
compass	-10360
irk	-10361
▁roster	-10362
▁visits	-10363
▁mal	-10364
▁Kenya	-10365
▁temporarily	-10366
▁portrait	-10367
▁nephew	-10368
▁shopping	-10369
▁closure	-10370
▁Confederate	-10371
▁Action	-10372
▁nam	-10373
emies	-10374
▁rib	-10375
▁efficient	-10376
yst	-10377
▁exem	-10378
▁circle	-10379
▁predecessor	-10380
▁ticket	-10381
▁index	-10382
▁Thor	-10383
▁placing	-10384
▁saved	-10385
▁permitted	-10386
▁51	-10387
▁giant	-10388
two	-10389
▁departments	-10390
▁Sche	-10391
▁Stars	-10392
▁gast	-10393
▁scope	-10394
▁moral	-10395
▁58	-10396
▁disbanded	-10397
ampa	-10398
▁Joy	-10399
▁perspective	-10400
▁15.	-10401
née	-10402
sor	-10403
▁Thir	-10404
chers	-10405
▁1973,	-10406
was	-10407
▁coinc	-10408
▁quarterback	-10409
▁references	-10410
nan	-10411
▁Industrial	-10412
▁Š	-10413
▁acceler	-10414
▁Terry	-10415
▁1987.	-10416
▁Auckland	-10417
▁Cou	-10418
▁(190	-10419
haus	-10420
▁flew	-10421
▁Those	-10422
▁Gate	-10423
▁guide	-10424
▁diseases	-10425
ected	-10426
▁Minor	-10427
▁guests	-10428
▁Buch	-10429
▁Jefferson	-10430
▁Bright	-10431
▁Hope	-10432
▁measured	-10433
enos	-10434
▁academy	-10435
▁scores	-10436
▁citing	-10437
free	-10438
rous	-10439
▁Yam	-10440
▁latest	-10441
keley	-10442
▁Costa	-10443
▁Christianity	-10444
oka	-10445
she	-10446
▁Sz	-10447
▁unincorporated	-10448
▁Mind	-10449
stery	-10450
▁1977,	-10451
▁Lock	-10452
▁les	-10453
ffect	-10454
▁abolished	-10455
▁simultaneously	-10456
nda	-10457
▁dollars	-10458
▁cyl	-10459
power	-10460
▁Á	-10461
▁reducing	-10462
▁interpretation	-10463
▁1986.	-10464
rooms	-10465
▁finance	-10466
▁removal	-10467
▁alive	-10468
▁exclusive	-10469
▁torped	-10470
▁1941,	-10471
▁walking	-10472
▁Newcastle	-10473
▁relevant	-10474
pm	-10475
▁Video	-10476
▁Lead	-10477
▁fundamental	-10478
▁Fu	-10479
▁slowly	-10480
cz	-10481
▁tag	-10482
▁copper	-10483
▁tot	-10484
▁fighters	-10485
Qu	-10486
▁enthus	-10487
▁1967,	-10488
▁fulf	-10489
▁pulled	-10490
▁demands	-10491
▁Living	-10492
▁Political	-10493
▁Yu	-10494
▁hyper	-10495
▁pairs	-10496
▁economics	-10497
▁remote	-10498
▁Bot	-10499
▁Systems	-10500
▁Full	-10501
▁Jerry	-10502
▁coached	-10503
▁tight	-10504
▁Mol	-10505
▁Tech	-10506
▁historically	-10507
▁250	-10508
iji	-10509
▁Croatia	-10510
▁consolid	-10511
▁conven	-10512
▁Mul	-10513
▁coup	-10514
▁rac	-10515
▁Currently	-10516
▁Ult	-10517
▁Brew	-10518
atra	-10519
▁Celt	-10520
▁shops	-10521
▁Magn	-10522
▁Storm	-10523
DF	-10524
▁dissolved	-10525
▁Jess	-10526
▁Edwards	-10527
▁Perry	-10528
2).	-10529
▁accompany	-10530
▁powered	-10531
▁Pedro	-10532
onda	-10533
▁gram	-10534
▁pushed	-10535
▁2–1	-10536
vol	-10537
▁beauty	-10538
▁kidn	-10539
▁Henri	-10540
▁explains	-10541
▁Warsaw	-10542
▁Napole	-10543
▁Admiral	-10544
ogle	-10545
▁1945.	-10546
▁Males	-10547
▁Historical	-10548
▁atmosphere	-10549
▁Survey	-10550
ön	-10551
iability	-10552
▁Bald	-10553
▁176	-10554
▁Giants	-10555
▁cloud	-10556
▁spir	-10557
▁Florence	-10558
oro	-10559
▁forg	-10560
46	-10561
▁Mann	-10562
ethe	-10563
▁fasc	-10564
▁Helen	-10565
▁Kab	-10566
Music	-10567
▁raising	-10568
▁options	-10569
▁internet	-10570
00,	-10571
▁reporter	-10572
▁escaped	-10573
▁clan	-10574
▁steep	-10575
▁promin	-10576
▁Holland	-10577
▁restrictions	-10578
▁ris	-10579
▁€	-10580
▁Amsterdam	-10581
four	-10582
▁writings	-10583
99	-10584
▁switched	-10585
▁PS	-10586
▁bath	-10587
▁exhibitions	-10588
▁Nebraska	-10589
▁Petersburg	-10590
▁Brun	-10591
idad	-10592
sized	-10593
▁Syn	-10594
▁Kath	-10595
▁coat	-10596
▁usage	-10597
▁characteristic	-10598
ricketer	-10599
velt	-10600
▁Mahar	-10601
▁Fif	-10602
eway	-10603
▁Professional	-10604
▁carries	-10605
icas	-10606
▁recovery	-10607
▁distinction	-10608
▁Manuel	-10609
▁sitting	-10610
angle	-10611
▁prove	-10612
▁Wu	-10613
berry	-10614
▁Steven	-10615
EP	-10616
▁1985.	-10617
Mon	-10618
▁pitched	-10619
▁sample	-10620
rimination	-10621
▁maps	-10622
▁Bav	-10623
uscript	-10624
▁receives	-10625
▁rout	-10626
▁datab	-10627
▁coins	-10628
noon	-10629
clos	-10630
rypt	-10631
▁revol	-10632
▁Players	-10633
ON	-10634
▁tub	-10635
▁mamm	-10636
cos	-10637
▁compound	-10638
▁affair	-10639
3).	-10640
▁Technical	-10641
▁Murphy	-10642
rington	-10643
▁enforcement	-10644
▁aboard	-10645
▁pharm	-10646
▁Bert	-10647
▁Gust	-10648
▁gathered	-10649
▁Cold	-10650
▁partial	-10651
▁targets	-10652
piece	-10653
▁emotional	-10654
▁Formula	-10655
Sm	-10656
▁Venice	-10657
thlete	-10658
▁virus	-10659
▁difficulty	-10660
isan	-10661
▁distinctive	-10662
alam	-10663
▁Southeast	-10664
▁Based	-10665
▁contem	-10666
▁attendance	-10667
ablished	-10668
cules	-10669
▁Production	-10670
appy	-10671
▁qualification	-10672
▁Keith	-10673
▁Curt	-10674
▁orn	-10675
▁Jar	-10676
▁feeling	-10677
▁basin	-10678
aco	-10679
▁residing	-10680
▁Shaw	-10681
▁recur	-10682
▁jump	-10683
iko	-10684
▁supplied	-10685
▁honors	-10686
IL	-10687
ilia	-10688
▁CN	-10689
▁crosses	-10690
▁167	-10691
▁1870	-10692
▁interchange	-10693
▁ski	-10694
▁Side	-10695
rague	-10696
▁Chester	-10697
gom	-10698
▁thinking	-10699
written	-10700
000,	-10701
▁Compet	-10702
▁Policy	-10703
▁stead	-10704
upt	-10705
fecture	-10706
▁colleges	-10707
lection	-10708
▁elevated	-10709
▁Yale	-10710
▁Sierra	-10711
ificate	-10712
▁tum	-10713
▁Exper	-10714
▁Esc	-10715
▁(6	-10716
▁collective	-10717
izer	-10718
oking	-10719
stown	-10720
▁speaker	-10721
▁Rivers	-10722
▁entreprene	-10723
▁chron	-10724
▁Snow	-10725
▁doct	-10726
▁collapse	-10727
▁Bulgaria	-10728
enburg	-10729
pine	-10730
▁1943,	-10731
oons	-10732
And	-10733
▁Drive	-10734
▁São	-10735
▁mans	-10736
▁gal	-10737
employ	-10738
tense	-10739
▁hence	-10740
▁Obama	-10741
org	-10742
oric	-10743
▁soph	-10744
▁Denver	-10745
▁Wellington	-10746
98	-10747
▁resid	-10748
▁Comics	-10749
▁worst	-10750
ometimes	-10751
ün	-10752
German	-10753
▁fat	-10754
▁Luke	-10755
irts	-10756
rus	-10757
▁Grace	-10758
▁excellent	-10759
▁1916	-10760
irms	-10761
▁Filip	-10762
▁rela	-10763
▁Ing	-10764
▁Ni	-10765
err	-10766
▁uncertain	-10767
rien	-10768
▁root	-10769
▁earthquake	-10770
▁chrom	-10771
▁Gas	-10772
▁Vill	-10773
▁butter	-10774
▁awareness	-10775
▁1940,	-10776
▁encompass	-10777
▁regul	-10778
▁enters	-10779
inee	-10780
▁sugar	-10781
▁aggregate	-10782
that	-10783
▁comparison	-10784
▁beetle	-10785
▁odd	-10786
▁Say	-10787
▁"".	-10788
▁voy	-10789
isting	-10790
▁Hob	-10791
child	-10792
▁hills	-10793
▁Ton	-10794
▁graduation	-10795
overed	-10796
▁gran	-10797
orp	-10798
formance	-10799
▁predominantly	-10800
rary	-10801
▁Type	-10802
▁comprises	-10803
▁Hunt	-10804
▁Chapel	-10805
▁studios	-10806
▁Bulgarian	-10807
▁corruption	-10808
▁retreat	-10809
▁assum	-10810
▁outdoor	-10811
▁reception	-10812
▁recipient	-10813
▁alternate	-10814
▁restaurants	-10815
▁hybrid	-10816
▁1984.	-10817
▁prol	-10818
▁phrase	-10819
agonist	-10820
▁widow	-10821
▁flank	-10822
▁dim	-10823
length	-10824
disc	-10825
▁elementary	-10826
weep	-10827
▁therapy	-10828
▁Sony	-10829
▁pian	-10830
▁1915	-10831
▁sket	-10832
▁worn	-10833
ullivan	-10834
▁Mig	-10835
▁scientist	-10836
▁Syrian	-10837
▁institute	-10838
▁Range	-10839
▁blow	-10840
Black	-10841
▁spell	-10842
▁seemed	-10843
▁bankrupt	-10844
ospel	-10845
▁answer	-10846
▁meat	-10847
▁Gay	-10848
▁Gw	-10849
▁thor	-10850
▁organic	-10851
▁recruited	-10852
▁1965,	-10853
▁Harbor	-10854
etta	-10855
▁documented	-10856
▁colleagues	-10857
cycl	-10858
▁approaches	-10859
▁Antar	-10860
anni	-10861
otten	-10862
▁Spirit	-10863
▁carrier	-10864
▁descendants	-10865
pression	-10866
▁collaps	-10867
▁thanks	-10868
ás	-10869
▁Get	-10870
▁Albums	-10871
▁till	-10872
▁Roose	-10873
▁retiring	-10874
▁unless	-10875
▁Hughes	-10876
▁Gilbert	-10877
▁2-	-10878
▁Lie	-10879
What	-10880
yll	-10881
▁namely	-10882
▁ruler	-10883
41	-10884
▁Nan	-10885
▁gear	-10886
aughter	-10887
dal	-10888
achi	-10889
▁talks	-10890
▁explicit	-10891
▁connects	-10892
▁ambassador	-10893
▁technologies	-10894
▁Fab	-10895
iscopal	-10896
▁argues	-10897
▁plain	-10898
▁Guardian	-10899
irect	-10900
▁theories	-10901
ju	-10902
▁Rah	-10903
▁tox	-10904
▁attacking	-10905
▁Harold	-10906
▁Support	-10907
▁choir	-10908
▁Nat	-10909
caster	-10910
▁objective	-10911
▁SP	-10912
▁improvements	-10913
ishops	-10914
▁forty	-10915
▁gardens	-10916
▁Lebanon	-10917
▁variable	-10918
▁Ottawa	-10919
front	-10920
▁undergraduate	-10921
Best	-10922
▁archaeological	-10923
▁Got	-10924
▁Ny	-10925
▁Stuart	-10926
etary	-10927
entle	-10928
▁Hitler	-10929
▁(10	-10930
▁Gregory	-10931
▁reop	-10932
▁Kay	-10933
ffield	-10934
▁Ord	-10935
stand	-10936
▁Madison	-10937
▁buses	-10938
▁reforms	-10939
▁telling	-10940
levard	-10941
▁Robin	-10942
▁vel	-10943
IM	-10944
asia	-10945
▁hypothes	-10946
▁installation	-10947
▁emphasis	-10948
▁Slav	-10949
97	-10950
▁Shanghai	-10951
eda	-10952
▁automatic	-10953
▁enemies	-10954
esty	-10955
▁1980.	-10956
▁corps	-10957
▁Salt	-10958
▁ages	-10959
▁consistent	-10960
▁1983.	-10961
▁Ve	-10962
▁Ralph	-10963
ovich	-10964
utors	-10965
kar	-10966
▁administered	-10967
▁Mey	-10968
▁volunteers	-10969
ictions	-10970
rapped	-10971
▁resol	-10972
▁leagues	-10973
Eng	-10974
▁affiliate	-10975
55	-10976
▁Anglican	-10977
▁bench	-10978
vet	-10979
ums	-10980
▁Delaware	-10981
▁failing	-10982
▁suspension	-10983
▁Ferr	-10984
▁organisations	-10985
wald	-10986
▁relay	-10987
▁kilometers	-10988
GBT	-10989
▁1982.	-10990
▁drag	-10991
▁favorite	-10992
▁Finance	-10993
▁1964,	-10994
▁Independence	-10995
▁sung	-10996
▁exhibit	-10997
▁monthly	-10998
▁consumption	-10999
▁Croatian	-11000
▁posts	-11001
lee	-11002
▁coaches	-11003
▁apprec	-11004
▁Protection	-11005
▁Larry	-11006
▁drove	-11007
▁feud	-11008
▁seeds	-11009
itro	-11010
▁instruction	-11011
giate	-11012
▁explain	-11013
▁tourist	-11014
▁breeding	-11015
acked	-11016
▁spots	-11017
▁speakers	-11018
▁drums	-11019
▁politicians	-11020
▁unanim	-11021
Car	-11022
▁impossible	-11023
▁concur	-11024
▁Hom	-11025
▁Ernest	-11026
▁tone	-11027
itary	-11028
▁1908	-11029
cur	-11030
▁experiments	-11031
▁Adv	-11032
▁intellectual	-11033
week	-11034
▁touchdowns	-11035
▁Loc	-11036
▁tributary	-11037
▁sovereign	-11038
▁Hamburg	-11039
▁referring	-11040
▁challenged	-11041
py	-11042
▁extinct	-11043
pow	-11044
▁defender	-11045
▁amounts	-11046
▁structural	-11047
▁Malay	-11048
▁judg	-11049
▁prox	-11050
▁Hein	-11051
▁Venezuela	-11052
rised	-11053
▁accum	-11054
▁56	-11055
▁taxes	-11056
▁gap	-11057
imensional	-11058
turn	-11059
▁Soph	-11060
▁gymn	-11061
▁sure	-11062
▁Butler	-11063
▁1911	-11064
▁chemistry	-11065
▁imprisoned	-11066
▁quad	-11067
▁Tibet	-11068
▁asking	-11069
▁6–	-11070
▁styl	-11071
▁Thai	-11072
▁zero	-11073
▁Cork	-11074
▁Cond	-11075
through	-11076
▁17.	-11077
▁Abraham	-11078
▁manuscript	-11079
▁Sic	-11080
▁clim	-11081
▁Nevertheless	-11082
él	-11083
▁scatter	-11084
▁rhythm	-11085
▁Moz	-11086
▁dramatic	-11087
cca	-11088
▁Kash	-11089
▁mini	-11090
▁incom	-11091
▁Berkeley	-11092
▁laboratory	-11093
▁comprehensive	-11094
ibn	-11095
▁Oil	-11096
▁parks	-11097
▁sustained	-11098
▁controls	-11099
eras	-11100
families	-11101
▁yard	-11102
rection	-11103
▁Esp	-11104
▁Bobby	-11105
▁Nathan	-11106
▁Rat	-11107
▁sharing	-11108
▁IP	-11109
namese	-11110
▁hidden	-11111
▁Lux	-11112
aurus	-11113
▁clar	-11114
▁wasn	-11115
▁permit	-11116
▁error	-11117
▁Dog	-11118
▁Workers	-11119
atta	-11120
Par	-11121
▁stake	-11122
▁Roosevelt	-11123
▁exactly	-11124
iast	-11125
iper	-11126
▁rice	-11127
▁photo	-11128
▁capita	-11129
▁bats	-11130
▁waiting	-11131
▁veteran	-11132
▁comments	-11133
▁NC	-11134
▁Exchange	-11135
▁Kun	-11136
▁symp	-11137
▁revised	-11138
oustic	-11139
▁vocalist	-11140
▁Watson	-11141
uis	-11142
▁oblig	-11143
▁aware	-11144
▁Next	-11145
alling	-11146
▁bridges	-11147
▁prev	-11148
▁1966,	-11149
▁bell	-11150
▁scen	-11151
▁perceived	-11152
▁Indonesian	-11153
6).	-11154
hn	-11155
▁parking	-11156
alymp	-11157
▁underwent	-11158
▁casualties	-11159
▁contracts	-11160
alis	-11161
▁oxygen	-11162
"|	-11163
▁plastic	-11164
▁liv	-11165
▁bonus	-11166
mn	-11167
▁compositions	-11168
▁1979.	-11169
▁orche	-11170
▁unex	-11171
▁Toy	-11172
▁53	-11173
Station	-11174
▁Crime	-11175
▁Kil	-11176
▁suspect	-11177
atorial	-11178
▁familiar	-11179
▁arrives	-11180
akespe	-11181
▁Stre	-11182
▁Yugoslavia	-11183
▁refugees	-11184
▁align	-11185
▁convinced	-11186
▁nickname	-11187
new	-11188
4).	-11189
▁Leo	-11190
▁fraud	-11191
▁vulner	-11192
▁1939,	-11193
▁Put	-11194
opol	-11195
▁mainland	-11196
sub	-11197
oses	-11198
▁fastest	-11199
ds	-11200
▁landmark	-11201
▁1913	-11202
▁disturb	-11203
join	-11204
▁Cov	-11205
▁angle	-11206
▁theatrical	-11207
▁silent	-11208
▁Eagles	-11209
▁tourism	-11210
▁disaster	-11211
▁fib	-11212
▁essentially	-11213
▁Wells	-11214
▁neighboring	-11215
▁Dennis	-11216
iden	-11217
inking	-11218
pic	-11219
▁travels	-11220
▁aims	-11221
UC	-11222
▁proof	-11223
bie	-11224
▁breast	-11225
▁Ze	-11226
▁1960,	-11227
atern	-11228
core	-11229
▁conscious	-11230
aho	-11231
▁Cruz	-11232
▁Google	-11233
▁footage	-11234
▁fifty	-11235
▁hospitals	-11236
▁allies	-11237
▁Byzantine	-11238
▁Kerala	-11239
▁reflected	-11240
▁logo	-11241
rost	-11242
▁18.	-11243
▁Stanford	-11244
onial	-11245
▁155	-11246
▁Haz	-11247
Do	-11248
regular	-11249
▁•	-11250
▁EC	-11251
▁bin	-11252
▁procedure	-11253
▁tier	-11254
▁accommodate	-11255
var	-11256
▁focusing	-11257
ocket	-11258
▁flee	-11259
arta	-11260
wright	-11261
ema	-11262
▁Guild	-11263
▁Delta	-11264
▁supplement	-11265
anta	-11266
▁bull	-11267
▁Methodist	-11268
▁tours	-11269
LP	-11270
ña	-11271
▁Ax	-11272
▁Productions	-11273
▁IT	-11274
▁Language	-11275
▁Heavy	-11276
▁Armed	-11277
VP	-11278
▁victories	-11279
verse	-11280
▁regist	-11281
▁68	-11282
▁rab	-11283
▁Bird	-11284
omed	-11285
▁abund	-11286
ashes	-11287
▁Krist	-11288
▁Sheffield	-11289
▁blind	-11290
▁worker	-11291
▁Neil	-11292
▁Susan	-11293
▁Isab	-11294
pin	-11295
▁grav	-11296
▁Blood	-11297
▁Lion	-11298
▁Newton	-11299
▁Kur	-11300
icity	-11301
▁prevented	-11302
▁Arnold	-11303
▁actively	-11304
chief	-11305
▁Hab	-11306
ropod	-11307
▁stops	-11308
yler	-11309
itol	-11310
▁Mills	-11311
▁celebration	-11312
▁Beginning	-11313
▁explan	-11314
okes	-11315
▁updated	-11316
▁bone	-11317
▁verse	-11318
airo	-11319
▁rebounds	-11320
▁ratings	-11321
▁Wallace	-11322
▁thereby	-11323
▁maintaining	-11324
▁66	-11325
▁Joint	-11326
▁lakes	-11327
amer	-11328
orious	-11329
▁Sudan	-11330
▁valuable	-11331
▁Beth	-11332
▁discontinued	-11333
named	-11334
▁diet	-11335
▁willing	-11336
▁register	-11337
omo	-11338
▁looks	-11339
▁lie	-11340
cker	-11341
boat	-11342
writing	-11343
▁dict	-11344
▁Mut	-11345
itudes	-11346
founded	-11347
RI	-11348
▁redes	-11349
▁happy	-11350
▁Kle	-11351
▁arrive	-11352
▁announcement	-11353
43	-11354
▁Horse	-11355
minster	-11356
ulus	-11357
:30	-11358
▁reservoir	-11359
▁Nashville	-11360
▁Sut	-11361
▁reviewed	-11362
cott	-11363
▁radar	-11364
▁elabor	-11365
duces	-11366
▁grandson	-11367
pled	-11368
▁prepare	-11369
zyme	-11370
▁Bass	-11371
▁Collection	-11372
akespeare	-11373
▁numbered	-11374
▁evil	-11375
▁Gang	-11376
Hz	-11377
▁Franç	-11378
▁printing	-11379
▁beaten	-11380
▁tomb	-11381
▁virtual	-11382
▁functional	-11383
▁drinking	-11384
▁id	-11385
▁Conservation	-11386
▁Bosnia	-11387
▁McM	-11388
▁culmin	-11389
▁grave	-11390
▁Operations	-11391
▁Paralymp	-11392
▁milk	-11393
▁Treas	-11394
▁faces	-11395
▁ERA	-11396
▁Artillery	-11397
ystem	-11398
▁Wed	-11399
▁flower	-11400
▁feelings	-11401
▁Must	-11402
▁afford	-11403
▁interaction	-11404
▁cave	-11405
▁handed	-11406
▁Vermont	-11407
▁violin	-11408
bek	-11409
▁Franco	-11410
▁Montana	-11411
▁lawsuit	-11412
film	-11413
▁artificial	-11414
▁Indies	-11415
iffer	-11416
▁extending	-11417
▁genes	-11418
▁20.	-11419
▁bombing	-11420
▁consumer	-11421
▁Rif	-11422
▁contribute	-11423
▁Phillips	-11424
▁Primary	-11425
aud	-11426
▁disorder	-11427
inae	-11428
▁samples	-11429
▁1972.	-11430
▁Rams	-11431
▁traveling	-11432
count	-11433
▁holiday	-11434
▁Pod	-11435
78	-11436
▁Wag	-11437
speaking	-11438
▁ol	-11439
redited	-11440
▁Sask	-11441
▁universe	-11442
▁gift	-11443
▁locomotive	-11444
▁Belarus	-11445
▁Palmer	-11446
inery	-11447
▁Marx	-11448
▁illustrated	-11449
▁Aviation	-11450
oft	-11451
▁renewed	-11452
▁flex	-11453
liminary	-11454
▁1860	-11455
▁thirteen	-11456
▁Campaign	-11457
▁passion	-11458
▁eventual	-11459
▁Sang	-11460
▁extends	-11461
otion	-11462
▁Starting	-11463
▁referend	-11464
racks	-11465
▁answ	-11466
▁demanded	-11467
▁1974.	-11468
▁Jin	-11469
▁4-	-11470
ente	-11471
▁variation	-11472
essed	-11473
▁mail	-11474
▁statements	-11475
▁Bened	-11476
▁empire	-11477
▁Romanized	-11478
▁addressed	-11479
dess	-11480
▁Hat	-11481
▁inspe	-11482
▁gaining	-11483
▁Ahmed	-11484
gence	-11485
▁golden	-11486
ansk	-11487
▁understood	-11488
▁nominations	-11489
▁Rhodes	-11490
▁Perth	-11491
▁masc	-11492
▁readers	-11493
elia	-11494
▁signals	-11495
▁Provincial	-11496
▁calendar	-11497
held	-11498
atha	-11499
▁payment	-11500
▁putting	-11501
▁Roche	-11502
▁patent	-11503
▁philos	-11504
▁triple	-11505
▁jail	-11506
▁faster	-11507
▁allegedly	-11508
▁forcing	-11509
▁bag	-11510
▁Term	-11511
▁NAS	-11512
▁Stef	-11513
▁permanently	-11514
▁Suz	-11515
▁Vietnamese	-11516
▁Deb	-11517
▁Kra	-11518
▁Cabinet	-11519
▁phosph	-11520
▁behaviour	-11521
Te	-11522
▁reinfor	-11523
▁pap	-11524
▁cad	-11525
fa	-11526
▁Prest	-11527
▁Log	-11528
oker	-11529
▁photos	-11530
▁Somers	-11531
▁loop	-11532
▁thesis	-11533
▁colonies	-11534
▁enact	-11535
▁Grammy	-11536
▁Berg	-11537
▁1963,	-11538
▁shield	-11539
▁legit	-11540
▁sav	-11541
▁preserve	-11542
▁spokes	-11543
▁metropolitan	-11544
▁flour	-11545
▁communist	-11546
▁Ec	-11547
aukee	-11548
▁85	-11549
iu	-11550
▁1–0	-11551
▁Ted	-11552
▁interesting	-11553
ubb	-11554
▁investigate	-11555
▁aviation	-11556
▁LGBT	-11557
speed	-11558
▁Chan	-11559
gov	-11560
gomery	-11561
▁cultures	-11562
▁dialogue	-11563
sburg	-11564
▁sending	-11565
his	-11566
▁Intelligence	-11567
▁crops	-11568
▁Eddie	-11569
▁artwork	-11570
▁engagement	-11571
▁fabric	-11572
▁Prague	-11573
▁hind	-11574
▁shorter	-11575
izz	-11576
▁airline	-11577
▁grades	-11578
▁programmes	-11579
rish	-11580
▁threw	-11581
umer	-11582
liga	-11583
▁Sak	-11584
▁Flow	-11585
▁firing	-11586
▁counsel	-11587
If	-11588
▁Wilhelm	-11589
▁Soft	-11590
byter	-11591
▁Shep	-11592
▁runners	-11593
▁relie	-11594
post	-11595
▁regulation	-11596
▁Leonard	-11597
▁afternoon	-11598
ussia	-11599
▁coron	-11600
▁allegations	-11601
made	-11602
▁counterpart	-11603
Big	-11604
▁sharp	-11605
▁improvement	-11606
▁lifetime	-11607
▁Ori	-11608
▁Og	-11609
Love	-11610
▁Raymond	-11611
▁mit	-11612
▁Block	-11613
▁Tong	-11614
▁cutting	-11615
▁Kol	-11616
randed	-11617
▁1978.	-11618
sur	-11619
osexual	-11620
▁Buc	-11621
▁warning	-11622
▁concepts	-11623
▁Golf	-11624
urated	-11625
acles	-11626
only	-11627
▁repeatedly	-11628
arr	-11629
▁editorial	-11630
▁intense	-11631
▁abst	-11632
▁broadcasts	-11633
▁tip	-11634
▁relating	-11635
▁desert	-11636
▁reward	-11637
▁sick	-11638
arts	-11639
▁1946,	-11640
IF	-11641
▁Tow	-11642
▁independently	-11643
spec	-11644
▁Nature	-11645
▁boss	-11646
▁animation	-11647
▁stationed	-11648
▁cogn	-11649
BL	-11650
▁ranges	-11651
▁1975.	-11652
fortun	-11653
▁noting	-11654
▁sciences	-11655
▁Harvey	-11656
▁deliber	-11657
▁fewer	-11658
artered	-11659
▁fung	-11660
BE	-11661
▁Fight	-11662
▁belt	-11663
▁Plat	-11664
background	-11665
▁promised	-11666
7).	-11667
▁revival	-11668
▁ash	-11669
ometown	-11670
▁Bond	-11671
▁curric	-11672
▁Gabriel	-11673
▁ordinary	-11674
▁efficiency	-11675
▁progressive	-11676
▁"(	-11677
▁remix	-11678
▁Academ	-11679
▁Liu	-11680
uros	-11681
▁Winn	-11682
lived	-11683
▁Vers	-11684
mid	-11685
▁Abor	-11686
▁orb	-11687
▁78	-11688
▁1962,	-11689
afe	-11690
▁venues	-11691
▁athlete	-11692
▁councill	-11693
eto	-11694
▁Aj	-11695
▁pioneer	-11696
▁requiring	-11697
▁Map	-11698
▁Stakes	-11699
▁bars	-11700
▁1948,	-11701
▁forth	-11702
▁craft	-11703
▁Cameron	-11704
illes	-11705
▁segments	-11706
▁158	-11707
▁Secondary	-11708
istani	-11709
▁1976.	-11710
▁MTV	-11711
▁Coach	-11712
▁portions	-11713
▁64,	-11714
▁athletic	-11715
uh	-11716
cluded	-11717
▁Friedrich	-11718
▁stored	-11719
aping	-11720
cat	-11721
imo	-11722
insky	-11723
▁generations	-11724
▁USS	-11725
▁Giov	-11726
hev	-11727
furt	-11728
▁morph	-11729
▁immigration	-11730
▁tru	-11731
▁Railways	-11732
▁prince	-11733
▁experts	-11734
▁Bag	-11735
▁moderate	-11736
▁shipping	-11737
▁Past	-11738
▁employee	-11739
▁manip	-11740
▁169	-11741
▁fourteen	-11742
▁1970.	-11743
▁Vent	-11744
▁1906	-11745
auer	-11746
▁Contemporary	-11747
▁Montgomery	-11748
▁patri	-11749
unny	-11750
▁1981.	-11751
ław	-11752
issa	-11753
▁Junction	-11754
▁trick	-11755
▁Rus	-11756
tingham	-11757
iao	-11758
▁flash	-11759
umi	-11760
quer	-11761
▁teeth	-11762
▁Isaac	-11763
rah	-11764
▁1973.	-11765
▁Shakespeare	-11766
▁Clarke	-11767
IR	-11768
lined	-11769
▁examination	-11770
▁memor	-11771
▁displays	-11772
▁elite	-11773
▁PlayStation	-11774
rys	-11775
▁altitude	-11776
▁solutions	-11777
▁civilians	-11778
▁Transportation	-11779
▁Price	-11780
▁pilots	-11781
▁Commerce	-11782
▁rebellion	-11783
▁advocate	-11784
▁poison	-11785
▁molecular	-11786
▁nest	-11787
▁magic	-11788
▁shifted	-11789
▁vow	-11790
▁Columbus	-11791
▁engage	-11792
▁similarly	-11793
▁77	-11794
▁Otto	-11795
eling	-11796
▁Swan	-11797
▁renowned	-11798
holders	-11799
▁Tunis	-11800
▁inscription	-11801
▁Northwest	-11802
▁Occ	-11803
▁Tasman	-11804
]]	-11805
waukee	-11806
▁surrender	-11807
orient	-11808
▁specimens	-11809
▁Bent	-11810
▁Grove	-11811
▁psychology	-11812
▁Kas	-11813
▁discovers	-11814
▁Thorn	-11815
▁Bach	-11816
00.	-11817
▁jew	-11818
▁diversity	-11819
▁reverse	-11820
rod	-11821
▁59	-11822
▁surprise	-11823
Gu	-11824
▁enroll	-11825
▁Saskat	-11826
▁Boulevard	-11827
▁1947,	-11828
oting	-11829
▁Krish	-11830
▁Carr	-11831
▁activists	-11832
▁67	-11833
▁Syl	-11834
▁72	-11835
uced	-11836
_2	-11837
▁fantasy	-11838
▁1905	-11839
▁grid	-11840
▁equation	-11841
▁freight	-11842
▁Jak	-11843
▁hardware	-11844
▁tel	-11845
▁realized	-11846
▁followers	-11847
oshi	-11848
▁Agriculture	-11849
▁Ng	-11850
▁Eld	-11851
▁peer	-11852
iffs	-11853
▁divorce	-11854
▁Doc	-11855
▁Stein	-11856
▁accurate	-11857
▁alien	-11858
itus	-11859
inated	-11860
eded	-11861
idance	-11862
▁Math	-11863
ittees	-11864
▁Arabia	-11865
▁Palestine	-11866
▁anthrop	-11867
▁ministers	-11868
▁Amazon	-11869
▁1961,	-11870
▁situations	-11871
▁Pearl	-11872
▁cathedral	-11873
▁nationally	-11874
imen	-11875
rowing	-11876
▁sixteen	-11877
▁boards	-11878
▁profile	-11879
▁Lar	-11880
▁neighbouring	-11881
borg	-11882
▁1971.	-11883
▁HD	-11884
▁exit	-11885
▁Note	-11886
acco	-11887
▁tube	-11888
▁fallen	-11889
▁rifle	-11890
▁clay	-11891
▁horn	-11892
gus	-11893
▁Marqu	-11894
▁handle	-11895
rets	-11896
Ab	-11897
▁Tommy	-11898
▁severely	-11899
▁abilities	-11900
▁Ruth	-11901
▁reserves	-11902
▁lights	-11903
▁Valent	-11904
▁tissue	-11905
▁listen	-11906
▁19.	-11907
▁succession	-11908
▁Lucas	-11909
▁Sean	-11910
GC	-11911
▁literacy	-11912
▁dism	-11913
▁Gothic	-11914
ussels	-11915
▁Vladimir	-11916
▁Shir	-11917
▁bout	-11918
▁fame	-11919
▁queen	-11920
▁arena	-11921
ahl	-11922
iago	-11923
fast	-11924
▁horizon	-11925
▁Monday	-11926
▁memb	-11927
▁friendship	-11928
▁photographer	-11929
quiry	-11930
▁Nak	-11931
icester	-11932
azi	-11933
teg	-11934
▁wish	-11935
▁diesel	-11936
▁centres	-11937
▁Shin	-11938
▁shots	-11939
▁backing	-11940
▁beam	-11941
▁suspected	-11942
ulous	-11943
overy	-11944
▁seized	-11945
▁Scar	-11946
log	-11947
▁celebrate	-11948
pton	-11949
adian	-11950
▁Higher	-11951
▁Stage	-11952
HC	-11953
umbai	-11954
▁orange	-11955
▁prestigious	-11956
▁Deep	-11957
▁Din	-11958
▁toler	-11959
istent	-11960
▁Ambassador	-11961
▁orbit	-11962
five	-11963
▁exha	-11964
anti	-11965
entieth	-11966
▁pist	-11967
lights	-11968
▁gauge	-11969
▁fortress	-11970
ultural	-11971
▁Representative	-11972
▁confused	-11973
▁Bennett	-11974
▁Joan	-11975
▁prisoner	-11976
▁circulation	-11977
wings	-11978
▁Jur	-11979
▁Iraqi	-11980
▁intervention	-11981
▁manages	-11982
/1	-11983
▁Serie	-11984
▁Ara	-11985
▁provisions	-11986
▁Economics	-11987
elin	-11988
▁21.	-11989
ovsky	-11990
gio	-11991
▁beliefs	-11992
▁seriously	-11993
▁audiences	-11994
hibition	-11995
–199	-11996
▁Oscar	-11997
▁hometown	-11998
▁advertis	-11999
▁1918,	-12000
▁Lamb	-12001
▁telephone	-12002
EN	-12003
▁martial	-12004
ichi	-12005
▁abb	-12006
▁handling	-12007
▁Jen	-12008
▁suspic	-12009
▁missile	-12010
arvae	-12011
▁Facebook	-12012
▁commitment	-12013
▁Pul	-12014
ateral	-12015
▁orient	-12016
asan	-12017
▁Raf	-12018
▁Formation	-12019
▁Panama	-12020
▁conspir	-12021
▁dealing	-12022
ourg	-12023
▁raid	-12024
▁universal	-12025
adier	-12026
▁130	-12027
▁Devon	-12028
▁dependent	-12029
iblings	-12030
common	-12031
▁presents	-12032
▁ordained	-12033
▁computers	-12034
lair	-12035
▁discrimination	-12036
entry	-12037
▁22.	-12038
▁enzyme	-12039
▁Stockholm	-12040
roe	-12041
▁1977.	-12042
▁personally	-12043
ointed	-12044
▁Anim	-12045
▁drain	-12046
▁cricketer	-12047
ocent	-12048
▁infection	-12049
▁Flight	-12050
▁tackles	-12051
▁Jamaica	-12052
▁releasing	-12053
▁Gand	-12054
▁statistics	-12055
▁exile	-12056
omorph	-12057
▁Renaissance	-12058
aus	-12059
▁graphics	-12060
apur	-12061
▁Besides	-12062
▁goalkeeper	-12063
▁Mang	-12064
▁25.	-12065
▁coffee	-12066
▁McL	-12067
▁developments	-12068
▁enabled	-12069
▁1907	-12070
▁remembered	-12071
ambers	-12072
▁mixture	-12073
▁Bruns	-12074
▁anticip	-12075
▁enlisted	-12076
▁varied	-12077
▁praise	-12078
▁transit	-12079
▁Bear	-12080
▁upcoming	-12081
▁floors	-12082
▁Midd	-12083
▁referendum	-12084
kan	-12085
reated	-12086
▁Sof	-12087
▁Marvel	-12088
▁tasks	-12089
▁Brah	-12090
took	-12091
▁1968.	-12092
▁cuts	-12093
thal	-12094
▁Daw	-12095
▁44,	-12096
▁targeted	-12097
▁brew	-12098
▁pursued	-12099
▁Aw	-12100
cycle	-12101
▁Sebast	-12102
fol	-12103
▁governing	-12104
▁hyd	-12105
▁Twenty	-12106
legraph	-12107
intendo	-12108
▁Celtic	-12109
▁Days	-12110
pit	-12111
▁1909	-12112
▁journalists	-12113
▁comprising	-12114
forming	-12115
▁cow	-12116
▁soc	-12117
▁tape	-12118
ocy	-12119
▁Revival	-12120
▁Gener	-12121
makers	-12122
ete	-12123
▁Spencer	-12124
▁width	-12125
▁Essex	-12126
▁Revolutionary	-12127
▁shrub	-12128
▁decrease	-12129
uba	-12130
▁pitcher	-12131
ancer	-12132
▁waves	-12133
▁hoped	-12134
species	-12135
uto	-12136
▁potentially	-12137
aca	-12138
▁HMS	-12139
▁considering	-12140
▁privile	-12141
▁breaks	-12142
▁1969.	-12143
▁Lok	-12144
▁Interstate	-12145
avia	-12146
▁Ful	-12147
enhagen	-12148
▁societies	-12149
▁empty	-12150
ctorate	-12151
▁variations	-12152
GM	-12153
▁Congo	-12154
whe	-12155
▁confron	-12156
▁manufacturers	-12157
▁skill	-12158
▁requirement	-12159
brev	-12160
▁moll	-12161
▁Reed	-12162
selling	-12163
asp	-12164
isha	-12165
unning	-12166
▁bord	-12167
LB	-12168
▁1904	-12169
ska	-12170
▁export	-12171
▁Diamond	-12172
▁Miguel	-12173
▁Laura	-12174
▁burial	-12175
▁specialist	-12176
▁Environmental	-12177
▁Kazakh	-12178
▁cotton	-12179
▁observation	-12180
▁aest	-12181
▁magnetic	-12182
central	-12183
chair	-12184
half	-12185
▁Boe	-12186
▁dancing	-12187
▁memoir	-12188
▁MC	-12189
▁canon	-12190
▁Leader	-12191
▁suggesting	-12192
alin	-12193
vanced	-12194
umberland	-12195
▁unve	-12196
▁1950,	-12197
▁separation	-12198
▁brings	-12199
▁streams	-12200
▁Appl	-12201
▁package	-12202
▁presentation	-12203
8).	-12204
▁Motors	-12205
isch	-12206
▁encountered	-12207
Euro	-12208
▁Wald	-12209
▁Mathemat	-12210
▁Exped	-12211
▁Pep	-12212
▁2,000	-12213
▁bare	-12214
▁ft	-12215
▁Bak	-12216
adh	-12217
▁radiation	-12218
▁criteria	-12219
▁rainfall	-12220
▁concentrated	-12221
▁fisher	-12222
▁gif	-12223
▁exterior	-12224
▁maintains	-12225
▁punk	-12226
▁Bros	-12227
▁Kem	-12228
▁convert	-12229
▁André	-12230
▁rivals	-12231
onso	-12232
▁criticised	-12233
▁encourage	-12234
▁23.	-12235
▁Concer	-12236
▁63	-12237
▁Cox	-12238
▁findings	-12239
ST	-12240
▁relatives	-12241
taining	-12242
▁Dominican	-12243
▁merely	-12244
apest	-12245
▁wore	-12246
▁Foster	-12247
▁Airlines	-12248
▁Pent	-12249
▁dogs	-12250
▁congregation	-12251
▁chapters	-12252
▁Friends	-12253
▁lad	-12254
▁clients	-12255
inf	-12256
▁pole	-12257
▁ibn	-12258
habilit	-12259
▁syndrome	-12260
▁autobi	-12261
▁bears	-12262
yers	-12263
▁chest	-12264
▁Danny	-12265
▁Cec	-12266
Co	-12267
▁Rut	-12268
▁Any	-12269
axy	-12270
shore	-12271
▁MD	-12272
▁doctorate	-12273
▁dubbed	-12274
arted	-12275
▁Mik	-12276
▁commentary	-12277
si	-12278
▁garn	-12279
omber	-12280
▁flav	-12281
▁Sou	-12282
umni	-12283
HF	-12284
▁signature	-12285
▁Carn	-12286
▁professionals	-12287
▁Manila	-12288
brook	-12289
▁songwriter	-12290
▁Person	-12291
vens	-12292
▁ports	-12293
▁rever	-12294
▁Lear	-12295
ben	-12296
▁averaged	-12297
▁divorced	-12298
inyl	-12299
▁62	-12300
▁adjust	-12301
▁anime	-12302
boro	-12303
▁Aires	-12304
▁indeed	-12305
▁Leicester	-12306
John	-12307
▁cancel	-12308
▁Mold	-12309
▁applic	-12310
▁survivors	-12311
Aust	-12312
▁autumn	-12313
00,000	-12314
iw	-12315
▁transformed	-12316
ignated	-12317
▁1.5	-12318
cor	-12319
▁Zhang	-12320
osophical	-12321
▁Triple	-12322
▁cir	-12323
▁Ferdin	-12324
▁recognize	-12325
▁Pic	-12326
atri	-12327
▁Suff	-12328
▁creates	-12329
▁Craw	-12330
▁Jacques	-12331
▁survival	-12332
▁files	-12333
▁Bod	-12334
ulture	-12335
alla	-12336
ovan	-12337
▁garrison	-12338
▁Altern	-12339
▁24.	-12340
▁prototype	-12341
▁Ronald	-12342
▁symmet	-12343
▁volunteer	-12344
orey	-12345
▁threats	-12346
zig	-12347
▁Financial	-12348
mill	-12349
▁founders	-12350
Sw	-12351
senal	-12352
▁164	-12353
harm	-12354
died	-12355
▁1958,	-12356
South	-12357
▁quiet	-12358
Nov	-12359
▁Weekly	-12360
▁1956,	-12361
▁weaken	-12362
▁wars	-12363
urse	-12364
irus	-12365
▁110	-12366
▁rebels	-12367
▁hole	-12368
oslov	-12369
hop	-12370
▁Presbyter	-12371
▁Instit	-12372
▁Lot	-12373
ocene	-12374
▁arrangements	-12375
▁CDP	-12376
▁Uganda	-12377
▁Buddh	-12378
▁Films	-12379
▁Still	-12380
▁Raid	-12381
▁nationwide	-12382
▁improving	-12383
▁1967.	-12384
munition	-12385
▁Pand	-12386
▁Chron	-12387
▁GT	-12388
ión	-12389
▁Mumbai	-12390
▁resource	-12391
▁inhabited	-12392
▁Lak	-12393
▁Owen	-12394
▁Ahmad	-12395
She	-12396
iev	-12397
ieties	-12398
▁[[	-12399
▁Palestinian	-12400
▁Fish	-12401
▁auction	-12402
▁Arc	-12403
▁Sey	-12404
▁Todd	-12405
▁integration	-12406
avian	-12407
▁Brunswick	-12408
▁Computer	-12409
▁fairly	-12410
▁Lac	-12411
▁Lem	-12412
–12	-12413
▁democracy	-12414
▁1944.	-12415
▁client	-12416
▁conflicts	-12417
▁destination	-12418
gra	-12419
▁Sex	-12420
imm	-12421
▁chronic	-12422
imination	-12423
CD	-12424
▁restore	-12425
March	-12426
atoes	-12427
▁Cand	-12428
▁Tir	-12429
▁Liberty	-12430
▁Inv	-12431
▁clergy	-12432
▁push	-12433
▁pregnant	-12434
▁indoor	-12435
▁Edmund	-12436
▁adventure	-12437
ahan	-12438
EL	-12439
▁expanding	-12440
▁announc	-12441
▁fluid	-12442
▁Literature	-12443
▁panels	-12444
mus	-12445
▁BA	-12446
▁diocese	-12447
▁trio	-12448
iman	-12449
ragon	-12450
▁Maurice	-12451
▁Amend	-12452
▁Milwaukee	-12453
▁maid	-12454
▁closest	-12455
▁Georgian	-12456
▁interact	-12457
▁1:	-12458
▁psychological	-12459
▁Using	-12460
▁intermediate	-12461
▁assessment	-12462
▁Forum	-12463
▁stones	-12464
▁Laboratory	-12465
▁Lakes	-12466
Jan	-12467
▁Java	-12468
had	-12469
▁166	-12470
▁Princ	-12471
▁varies	-12472
▁conjunction	-12473
▁Kor	-12474
”,	-12475
▁recruit	-12476
▁Aaron	-12477
▁Hus	-12478
▁Somerset	-12479
icia	-12480
▁conductor	-12481
▁stolen	-12482
▁plates	-12483
▁scandal	-12484
▁urg	-12485
▁Fourth	-12486
iens	-12487
boys	-12488
ilian	-12489
▁lighting	-12490
▁(16	-12491
▁suddenly	-12492
▁Kate	-12493
▁Where	-12494
▁CF	-12495
▁12-	-12496
▁10-	-12497
▁topped	-12498
▁shelter	-12499
▁Fat	-12500
▁Oakland	-12501
▁ber	-12502
iatric	-12503
▁siblings	-12504
▁McD	-12505
▁BM	-12506
▁mall	-12507
unda	-12508
▁Johannes	-12509
▁Dy	-12510
▁acknowledged	-12511
bet	-12512
dem	-12513
▁staged	-12514
lend	-12515
▁88	-12516
▁altered	-12517
▁Apart	-12518
▁Cycl	-12519
UN	-12520
▁Justin	-12521
▁Sussex	-12522
▁Wool	-12523
▁citizenship	-12524
▁farms	-12525
▁authorized	-12526
▁69	-12527
▁revolutionary	-12528
▁1959,	-12529
▁RA	-12530
▁conducting	-12531
▁toll	-12532
▁Albanian	-12533
list	-12534
inguished	-12535
▁Nottingham	-12536
▁Kin	-12537
▁variants	-12538
▁matrix	-12539
▁sweet	-12540
dire	-12541
▁Franz	-12542
▁Outstanding	-12543
vironments	-12544
▁Vern	-12545
▁Gy	-12546
:#	-12547
ourag	-12548
founder	-12549
page	-12550
handed	-12551
▁pianist	-12552
▁epit	-12553
▁reveal	-12554
▁associations	-12555
▁LA	-12556
▁1949,	-12557
▁proportion	-12558
▁mentions	-12559
▁NASA	-12560
omi	-12561
world	-12562
▁achievement	-12563
▁consultant	-12564
▁destro	-12565
▁174	-12566
▁electro	-12567
▁messages	-12568
▁coc	-12569
▁journals	-12570
phan	-12571
▁optim	-12572
▁consensus	-12573
▁procedures	-12574
▁volleyball	-12575
mail	-12576
▁perpet	-12577
▁Buenos	-12578
ija	-12579
ouch	-12580
▁honored	-12581
▁confidence	-12582
▁Knights	-12583
▁noise	-12584
▁1965.	-12585
terbury	-12586
▁tram	-12587
▁liver	-12588
gebra	-12589
erness	-12590
▁danger	-12591
▁advisor	-12592
...]	-12593
▁lecturer	-12594
▁oral	-12595
▁Yellow	-12596
▁Sullivan	-12597
▁Hous	-12598
▁Twitter	-12599
▁Guide	-12600
▁Ecu	-12601
inda	-12602
▁Westminster	-12603
▁Lor	-12604
▁trouble	-12605
▁50%	-12606
▁Article	-12607
▁Paulo	-12608
math	-12609
▁prospect	-12610
ilo	-12611
▁upgraded	-12612
OP	-12613
–16	-12614
▁Durham	-12615
lic	-12616
▁doubt	-12617
▁prompt	-12618
▁Sox	-12619
▁kitchen	-12620
▁withdrawn	-12621
about	-12622
▁Cardinal	-12623
offs	-12624
▁boot	-12625
▁BCE	-12626
▁overlook	-12627
▁singers	-12628
▁Roll	-12629
▁1850	-12630
▁freestyle	-12631
▁shed	-12632
▁Soul	-12633
▁minimal	-12634
Christ	-12635
▁imposed	-12636
irl	-12637
amine	-12638
esters	-12639
Time	-12640
▁Nine	-12641
ucks	-12642
second	-12643
▁proceeded	-12644
▁emerging	-12645
▁guidance	-12646
▁Cuban	-12647
▁disappeared	-12648
▁Mam	-12649
RL	-12650
arms	-12651
▁Copenhagen	-12652
▁transported	-12653
ctuary	-12654
▁storyline	-12655
▁headquartered	-12656
inite	-12657
▁operators	-12658
vy	-12659
▁knee	-12660
▁Cred	-12661
▁lux	-12662
ashire	-12663
▁cla	-12664
▁invented	-12665
▁batting	-12666
▁essay	-12667
▁practiced	-12668
▁kills	-12669
▁southeastern	-12670
lia	-12671
▁27.	-12672
izard	-12673
ussion	-12674
▁codice	-12675
▁hub	-12676
aders	-12677
▁lectures	-12678
▁95	-12679
▁binding	-12680
auc	-12681
▁grants	-12682
▁travelling	-12683
▁Heights	-12684
backs	-12685
Ju	-12686
▁judicial	-12687
▁privately	-12688
▁Writing	-12689
▁1957,	-12690
▁warfare	-12691
▁lineup	-12692
▁irregular	-12693
▁priests	-12694
▁learns	-12695
quet	-12696
▁125	-12697
▁blues	-12698
▁rally	-12699
▁prey	-12700
angered	-12701
▁Cant	-12702
tor	-12703
▁deeply	-12704
▁entity	-12705
first	-12706
▁Room	-12707
▁onwards	-12708
▁analog	-12709
▁trend	-12710
▁Nintendo	-12711
▁Aboriginal	-12712
▁Kurd	-12713
▁shaped	-12714
athi	-12715
leep	-12716
GO	-12717
▁automatically	-12718
9).	-12719
▁pupils	-12720
▁Gardens	-12721
orge	-12722
▁Loren	-12723
▁Ancient	-12724
iology	-12725
▁owns	-12726
CAR	-12727
▁monarch	-12728
▁exchang	-12729
▁VII	-12730
itely	-12731
▁61	-12732
hall	-12733
▁banking	-12734
▁Rovers	-12735
▁Indianapolis	-12736
▁blog	-12737
▁Rank	-12738
▁157	-12739
▁Morocco	-12740
anthrop	-12741
▁Magic	-12742
▁Dame	-12743
▁26.	-12744
woman	-12745
▁Scout	-12746
▁Nas	-12747
built	-12748
enesis	-12749
▁rede	-12750
-12	-12751
▁Source	-12752
▁Urugu	-12753
▁Plate	-12754
▁Cyr	-12755
▁striking	-12756
▁Moreover	-12757
▁confront	-12758
umph	-12759
▁prosper	-12760
▁Pakistani	-12761
ér	-12762
▁doctors	-12763
August	-12764
▁mineral	-12765
▁acquire	-12766
▁Cypr	-12767
▁interface	-12768
▁1901	-12769
▁wickets	-12770
–14	-12771
▁Vil	-12772
icken	-12773
▁cartoon	-12774
▁Guards	-12775
▁Armenia	-12776
IDS	-12777
▁Grande	-12778
building	-12779
▁hydrogen	-12780
▁larvae	-12781
▁deals	-12782
▁engineers	-12783
▁2–0	-12784
World	-12785
▁unemploy	-12786
▁Ober	-12787
abe	-12788
▁Manit	-12789
▁supporter	-12790
▁devast	-12791
▁deposits	-12792
▁ampl	-12793
▁heading	-12794
ucker	-12795
▁Lithuania	-12796
▁Return	-12797
▁database	-12798
▁5-	-12799
▁duration	-12800
nut	-12801
Red	-12802
▁Eight	-12803
▁Ecuador	-12804
▁denomin	-12805
▁Czechoslov	-12806
▁surrend	-12807
▁acclaim	-12808
▁Hass	-12809
▁Tat	-12810
▁stability	-12811
▁159	-12812
▁interpreted	-12813
▁Direct	-12814
▁Similarly	-12815
▁Ages	-12816
▁reads	-12817
▁steal	-12818
usa	-12819
▁Zimb	-12820
▁1964.	-12821
▁rocket	-12822
▁streak	-12823
▁forb	-12824
oucester	-12825
▁140	-12826
aire	-12827
▁favourite	-12828
▁Scotia	-12829
▁Manager	-12830
▁manga	-12831
▁neighbourhood	-12832
▁carved	-12833
▁Davies	-12834
▁span	-12835
acional	-12836
▁Lancashire	-12837
▁governed	-12838
▁1903	-12839
▁Guang	-12840
▁Student	-12841
onnell	-12842
▁obsc	-12843
uta	-12844
▁Julian	-12845
phis	-12846
▁hem	-12847
League	-12848
▁struggled	-12849
erves	-12850
beat	-12851
oints	-12852
▁Rhode	-12853
▁Karn	-12854
▁migration	-12855
▁Chi	-12856
quarters	-12857
▁Expedition	-12858
▁wait	-12859
▁sailing	-12860
▁ESP	-12861
▁acoustic	-12862
▁hung	-12863
▁torpedo	-12864
▁Legion	-12865
▁investors	-12866
▁dors	-12867
▁enable	-12868
▁metre	-12869
▁flooding	-12870
▁Future	-12871
▁biography	-12872
bank	-12873
▁cens	-12874
▁welfare	-12875
▁Kid	-12876
▁punishment	-12877
▁circular	-12878
▁Artist	-12879
▁Nancy	-12880
▁consent	-12881
EM	-12882
▁stroke	-12883
sterious	-12884
▁Imm	-12885
▁mutual	-12886
▁infer	-12887
odia	-12888
▁drawings	-12889
▁Reading	-12890
▁99	-12891
▁Circle	-12892
ipher	-12893
▁receiver	-12894
▁chore	-12895
amy	-12896
isons	-12897
intendent	-12898
▁Rice	-12899
▁immun	-12900
bery	-12901
▁Elementary	-12902
▁Subsequently	-12903
oku	-12904
▁Data	-12905
▁76	-12906
▁Pi	-12907
ulsion	-12908
▁Beh	-12909
▁Cardinals	-12910
▁backed	-12911
alan	-12912
sted	-12913
▁upset	-12914
▁CR	-12915
atories	-12916
▁northeastern	-12917
▁preliminary	-12918
▁1955,	-12919
adows	-12920
▁ridge	-12921
▁prompted	-12922
▁competitors	-12923
▁quoted	-12924
▁towers	-12925
▁lobby	-12926
erts	-12927
▁conferences	-12928
▁Eis	-12929
amation	-12930
▁sequences	-12931
aji	-12932
three	-12933
abwe	-12934
▁easier	-12935
produced	-12936
▁Laz	-12937
VA	-12938
▁phenomenon	-12939
▁Pos	-12940
▁1966.	-12941
aning	-12942
ormal	-12943
iliary	-12944
▁overw	-12945
▁impressive	-12946
mented	-12947
▁2.5	-12948
▁algorithm	-12949
▁performers	-12950
▁imprisonment	-12951
▁Duc	-12952
▁democratic	-12953
▁happen	-12954
▁Ports	-12955
▁Morning	-12956
▁1902	-12957
▁Gam	-12958
▁Expl	-12959
▁Crow	-12960
▁presidency	-12961
▁Holmes	-12962
▁Artists	-12963
▁estates	-12964
▁Stevens	-12965
▁deriv	-12966
▁Brussels	-12967
▁teammate	-12968
▁Performance	-12969
▁(188	-12970
rates	-12971
▁hect	-12972
▁Dragon	-12973
south	-12974
▁artif	-12975
▁entrepreneur	-12976
▁Newport	-12977
▁Fig	-12978
▁Cort	-12979
▁Eagle	-12980
zhou	-12981
▁bicy	-12982
cano	-12983
▁wreck	-12984
lies	-12985
ymph	-12986
▁Hindi	-12987
FF	-12988
▁Quarter	-12989
▁explore	-12990
▁particles	-12991
▁Continental	-12992
eer	-12993
▁ruins	-12994
▁ammunition	-12995
▁shallow	-12996
▁Emma	-12997
▁Louise	-12998
▁merc	-12999
▁curriculum	-13000
To	-13001
▁ferry	-13002
▁Less	-13003
green	-13004
▁Hir	-13005
▁solely	-13006
▁environments	-13007
▁Meh	-13008
iscal	-13009
▁Ferdinand	-13010
▁Canterbury	-13011
▁decreased	-13012
▁fru	-13013
▁polar	-13014
▁premier	-13015
DI	-13016
▁ov	-13017
▁haz	-13018
▁publish	-13019
▁enhance	-13020
▁precip	-13021
▁absent	-13022
▁testim	-13023
▁1917,	-13024
▁voyage	-13025
▁topic	-13026
uchy	-13027
▁Site	-13028
▁temples	-13029
▁Cavalry	-13030
iffe	-13031
lacier	-13032
▁Malta	-13033
▁verte	-13034
▁impressed	-13035
aining	-13036
▁Lisa	-13037
avier	-13038
bone	-13039
▁Pont	-13040
▁dock	-13041
gart	-13042
▁Gloucester	-13043
▁hier	-13044
▁secular	-13045
▁helicopter	-13046
▁identification	-13047
▁Raw	-13048
▁Transit	-13049
alysis	-13050
▁hosting	-13051
▁Ess	-13052
rift	-13053
▁unions	-13054
ocity	-13055
stage	-13056
▁kings	-13057
▁soap	-13058
gener	-13059
▁nineteenth	-13060
▁armies	-13061
Sch	-13062
onal	-13063
▁varying	-13064
▁arbit	-13065
▁Volunte	-13066
▁flowering	-13067
▁altar	-13068
▁generate	-13069
alions	-13070
–13	-13071
▁Dj	-13072
awks	-13073
▁Belgrade	-13074
▁assembled	-13075
▁Franc	-13076
▁territorial	-13077
▁Citiz	-13078
▁journalism	-13079
There	-13080
▁Bark	-13081
▁predict	-13082
▁Napoleon	-13083
▁occurring	-13084
▁inclusion	-13085
▁ow	-13086
uscripts	-13087
ailing	-13088
▁Ach	-13089
▁Piet	-13090
dimensional	-13091
than	-13092
ellers	-13093
▁bapt	-13094
▁1953,	-13095
▁relegation	-13096
ritic	-13097
▁Pom	-13098
▁comics	-13099
olith	-13100
▁Bears	-13101
eme	-13102
▁tea	-13103
▁Isle	-13104
▁graphic	-13105
▁pub	-13106
effic	-13107
▁layers	-13108
▁bearing	-13109
▁attraction	-13110
▁Mario	-13111
▁handled	-13112
▁1954,	-13113
▁hook	-13114
shi	-13115
▁Armstrong	-13116
▁vital	-13117
▁Kw	-13118
▁reass	-13119
▁Salvador	-13120
▁Belf	-13121
▁slavery	-13122
▁feels	-13123
▁metab	-13124
ollo	-13125
▁Dob	-13126
izations	-13127
▁interim	-13128
▁1938,	-13129
▁firms	-13130
▁customer	-13131
▁pill	-13132
him	-13133
▁compounds	-13134
▁militia	-13135
▁beneath	-13136
aturally	-13137
▁apprent	-13138
▁Cyprus	-13139
▁ghost	-13140
NT	-13141
▁sheep	-13142
▁Phot	-13143
King	-13144
▁theology	-13145
▁Walt	-13146
▁interactions	-13147
osing	-13148
▁lift	-13149
▁Giovanni	-13150
▁Pick	-13151
illon	-13152
awk	-13153
ounters	-13154
dist	-13155
▁Geoff	-13156
▁Presbyterian	-13157
ensen	-13158
ridor	-13159
▁rook	-13160
▁populated	-13161
▁Drama	-13162
ieu	-13163
▁transp	-13164
▁muscle	-13165
▁Woods	-13166
▁stronger	-13167
cap	-13168
earing	-13169
▁unclear	-13170
▁Right	-13171
▁paying	-13172
ologically	-13173
Mad	-13174
eting	-13175
▁Wildlife	-13176
▁1952,	-13177
▁occasional	-13178
▁quantum	-13179
▁Brooks	-13180
sts	-13181
eri	-13182
alties	-13183
▁faction	-13184
veloped	-13185
▁airfield	-13186
▁Cornwall	-13187
▁fossil	-13188
▁vector	-13189
▁southwestern	-13190
▁Roth	-13191
▁entries	-13192
▁cabin	-13193
chewan	-13194
▁hopes	-13195
▁Kumar	-13196
▁bold	-13197
▁distinguish	-13198
▁Peak	-13199
▁mansion	-13200
▁fo	-13201
▁Tax	-13202
Me	-13203
yd	-13204
Af	-13205
▁Zimbabwe	-13206
▁pace	-13207
▁1920,	-13208
▁dying	-13209
▁pm	-13210
▁watching	-13211
▁reconstruction	-13212
▁Dest	-13213
DR	-13214
▁dece	-13215
▁revenge	-13216
▁Chelsea	-13217
ursday	-13218
▁Geneva	-13219
▁Finals	-13220
oye	-13221
▁moments	-13222
▁Santiago	-13223
essa	-13224
▁stretch	-13225
▁kilometres	-13226
▁ballot	-13227
▁achievements	-13228
role	-13229
▁Ellis	-13230
▁lessons	-13231
▁Left	-13232
imer	-13233
77	-13234
edge	-13235
▁Constantin	-13236
▁HIV	-13237
▁prayer	-13238
▁ing	-13239
▁Page	-13240
▁ware	-13241
itting	-13242
▁ic	-13243
▁bore	-13244
▁cleared	-13245
Family	-13246
▁Amy	-13247
▁bypass	-13248
uke	-13249
best	-13250
▁farmer	-13251
▁expelled	-13252
NP	-13253
▁Fras	-13254
▁tale	-13255
▁consequence	-13256
▁Hod	-13257
▁Heath	-13258
tage	-13259
ilion	-13260
nesday	-13261
▁rational	-13262
▁shoulder	-13263
▁Trin	-13264
▁developer	-13265
▁vegetation	-13266
government	-13267
▁Compan	-13268
colspan	-13269
▁configuration	-13270
agger	-13271
nai	-13272
▁hull	-13273
both	-13274
▁comprom	-13275
▁bulk	-13276
▁explosion	-13277
▁observations	-13278
▁wheels	-13279
icz	-13280
phabet	-13281
vas	-13282
aru	-13283
▁Qing	-13284
▁colspan	-13285
▁Hull	-13286
▁Pir	-13287
▁fron	-13288
▁Rodrig	-13289
▁Cardiff	-13290
▁aerial	-13291
▁libraries	-13292
▁colours	-13293
▁reluct	-13294
▁Princeton	-13295
▁airing	-13296
▁Kingston	-13297
▁Aub	-13298
dorf	-13299
▁ritual	-13300
▁28.	-13301
▁accomplished	-13302
▁Cauc	-13303
▁colonel	-13304
▁jet	-13305
▁cock	-13306
//	-13307
oque	-13308
ndez	-13309
▁developers	-13310
▁insects	-13311
▁Fernando	-13312
horn	-13313
prises	-13314
–198	-13315
▁involve	-13316
▁convey	-13317
▁thorough	-13318
▁Observ	-13319
grand	-13320
arded	-13321
apa	-13322
untary	-13323
▁cosm	-13324
estrian	-13325
ishi	-13326
▁continental	-13327
▁Lodge	-13328
▁bassist	-13329
elong	-13330
▁dozen	-13331
rating	-13332
▁centered	-13333
▁100,000	-13334
▁terrain	-13335
▁sulf	-13336
▁[...]	-13337
ordinary	-13338
▁Mé	-13339
usters	-13340
hin	-13341
▁Gael	-13342
non	-13343
▁Ply	-13344
eness	-13345
▁compact	-13346
▁sits	-13347
är	-13348
▁tom	-13349
▁pink	-13350
roscop	-13351
▁attitude	-13352
onne	-13353
techn	-13354
isle	-13355
oko	-13356
▁complain	-13357
▁alumin	-13358
▁authen	-13359
▁favorable	-13360
▁Estate	-13361
▁stick	-13362
▁renovation	-13363
base	-13364
▁rapper	-13365
▁collapsed	-13366
▁intens	-13367
▁collecting	-13368
stock	-13369
▁condemned	-13370
▁Lig	-13371
▁1919,	-13372
▁disagre	-13373
▁preparing	-13374
▁Rush	-13375
▁tornado	-13376
hal	-13377
▁Bil	-13378
▁sacrif	-13379
▁ensemble	-13380
▁Apost	-13381
rano	-13382
▁bacteria	-13383
▁Engineers	-13384
▁Advisory	-13385
▁Pain	-13386
▁regardless	-13387
▁unexpected	-13388
thouse	-13389
▁oct	-13390
▁lease	-13391
uchi	-13392
▁properly	-13393
▁furniture	-13394
▁Solomon	-13395
▁Gol	-13396
bian	-13397
▁clothes	-13398
▁investigated	-13399
rike	-13400
▁manor	-13401
official	-13402
▁posthum	-13403
uras	-13404
▁treas	-13405
▁habitats	-13406
▁literally	-13407
▁Distinguished	-13408
▁Monten	-13409
songwriter	-13410
GS	-13411
▁Actor	-13412
▁amph	-13413
▁Cut	-13414
▁Gren	-13415
▁confirm	-13416
▁View	-13417
▁Saskatchewan	-13418
▁fault	-13419
▁Dund	-13420
lif	-13421
agi	-13422
stanbul	-13423
▁Individ	-13424
▁tribal	-13425
▁proposals	-13426
▁accordance	-13427
▁missionary	-13428
▁Mull	-13429
_5	-13430
▁naming	-13431
▁Basin	-13432
▁varieties	-13433
Tr	-13434
▁fate	-13435
▁Republicans	-13436
▁XV	-13437
▁compensation	-13438
▁blocked	-13439
▁Bonn	-13440
▁1914,	-13441
▁Ming	-13442
cal	-13443
▁define	-13444
▁craf	-13445
pri	-13446
▁Prefecture	-13447
▁intensity	-13448
▁Tampa	-13449
▁OS	-13450
▁$1.	-13451
▁Pete	-13452
▁renovated	-13453
▁Link	-13454
▁surfaces	-13455
▁Foot	-13456
▁trips	-13457
amous	-13458
▁Cu	-13459
▁Capitol	-13460
▁poorly	-13461
▁Examp	-13462
▁Agre	-13463
▁depicting	-13464
▁Idaho	-13465
▁buff	-13466
▁Additional	-13467
▁workshops	-13468
▁corporation	-13469
▁inaugurated	-13470
rising	-13471
TP	-13472
fr	-13473
▁Shield	-13474
▁Schw	-13475
▁zones	-13476
▁Aur	-13477
▁riders	-13478
▁Private	-13479
▁commanding	-13480
▁Lauren	-13481
▁1946.	-13482
▁reactions	-13483
▁undertaken	-13484
▁Legislature	-13485
acular	-13486
▁preval	-13487
▁Andrews	-13488
▁Worcester	-13489
▁XI	-13490
▁adoption	-13491
▁1960.	-13492
ardi	-13493
ophone	-13494
▁advised	-13495
▁subspecies	-13496
▁epid	-13497
▁Gö	-13498
▁finale	-13499
▁Fighter	-13500
▁Dim	-13501
▁preservation	-13502
oan	-13503
▁Emmy	-13504
Brit	-13505
▁1942.	-13506
▁specified	-13507
atem	-13508
▁thrown	-13509
▁sou	-13510
rier	-13511
▁30.	-13512
▁transformation	-13513
▁remn	-13514
annon	-13515
ublished	-13516
▁FBI	-13517
▁Marcus	-13518
▁Canton	-13519
▁semifinals	-13520
▁revived	-13521
▁Flag	-13522
▁Amendment	-13523
▁assignment	-13524
EF	-13525
▁doctrine	-13526
▁registration	-13527
▁gameplay	-13528
▁moist	-13529
mons	-13530
▁Benedict	-13531
▁screenplay	-13532
olics	-13533
▁Richardson	-13534
▁1962.	-13535
▁Flying	-13536
▁Oz	-13537
▁portraits	-13538
astics	-13539
▁Baronet	-13540
umps	-13541
▁Episcopal	-13542
▁Fly	-13543
imensions	-13544
▁burning	-13545
▁virtually	-13546
airy	-13547
,”	-13548
▁Liv	-13549
▁172	-13550
USA	-13551
▁Luxemb	-13552
▁Param	-13553
▁Ana	-13554
▁depicts	-13555
▁withdrawal	-13556
▁magnitude	-13557
canic	-13558
▁74	-13559
▁Advanced	-13560
▁pounds	-13561
▁fatal	-13562
▁slopes	-13563
▁Crist	-13564
▁Albania	-13565
▁Gibson	-13566
vor	-13567
▁uncon	-13568
gary	-13569
▁Critics	-13570
-15	-13571
▁Edition	-13572
▁botan	-13573
▁equally	-13574
▁stepped	-13575
▁Actress	-13576
CS	-13577
▁girlfriend	-13578
▁bread	-13579
manuel	-13580
shaw	-13581
▁"...	-13582
▁AFL	-13583
upe	-13584
▁Va	-13585
uin	-13586
▁gathering	-13587
ipur	-13588
▁Machine	-13589
▁Ö	-13590
▁Tab	-13591
Ireland	-13592
▁Nigerian	-13593
▁RBI	-13594
plete	-13595
rators	-13596
▁Path	-13597
▁1951,	-13598
▁Colin	-13599
▁Evangel	-13600
▁interviewed	-13601
When	-13602
▁lying	-13603
▁watched	-13604
arre	-13605
▁Duncan	-13606
hou	-13607
▁nominee	-13608
National	-13609
▁3,000	-13610
▁rape	-13611
▁tourists	-13612
▁grain	-13613
▁evident	-13614
▁encourag	-13615
▁sword	-13616
atics	-13617
▁consequences	-13618
▁inches	-13619
layer	-13620
course	-13621
inned	-13622
▁1937,	-13623
▁promotional	-13624
etry	-13625
▁voiced	-13626
▁exploration	-13627
▁limestone	-13628
▁anchor	-13629
▁Bryan	-13630
▁comprised	-13631
▁streaming	-13632
▁NATO	-13633
anyon	-13634
edo	-13635
▁fees	-13636
▁aftermath	-13637
comp	-13638
▁rejoin	-13639
▁schem	-13640
naissance	-13641
▁sin	-13642
▁1936,	-13643
oding	-13644
▁Voice	-13645
quest	-13646
▁2"	-13647
▁162	-13648
▁clerk	-13649
Los	-13650
▁Chase	-13651
OT	-13652
ilda	-13653
▁Powell	-13654
▁Prison	-13655
▁questioned	-13656
▁vicinity	-13657
ategory	-13658
▁sporting	-13659
▁Surrey	-13660
▁Vid	-13661
▁opposing	-13662
▁Lex	-13663
▁architects	-13664
▁marking	-13665
▁Soci	-13666
fortunately	-13667
▁Lutheran	-13668
▁Mine	-13669
▁Bradford	-13670
eu	-13671
▁UA	-13672
▁refuses	-13673
pring	-13674
▁chlor	-13675
▁absorbed	-13676
▁1963.	-13677
▁Ek	-13678
▁array	-13679
ān	-13680
gends	-13681
▁genera	-13682
▁theorem	-13683
▁wake	-13684
▁predicted	-13685
▁legacy	-13686
▁biology	-13687
▁argue	-13688
▁Indigenous	-13689
▁mosque	-13690
lez	-13691
▁Dale	-13692
▁overwhel	-13693
▁gla	-13694
▁rivalry	-13695
▁manuscripts	-13696
▁rounded	-13697
member	-13698
▁Simpson	-13699
▁allocated	-13700
▁Allan	-13701
▁capabilities	-13702
▁anten	-13703
▁protagonist	-13704
▁Annual	-13705
://	-13706
ahu	-13707
▁unw	-13708
▁1898	-13709
300	-13710
▁codes	-13711
▁dancer	-13712
▁badly	-13713
▁confusion	-13714
▁researcher	-13715
▁0.0	-13716
▁talking	-13717
▁Kurt	-13718
missions	-13719
▁Hopkins	-13720
▁absolute	-13721
▁Henderson	-13722
path	-13723
▁twentieth	-13724
▁Scientific	-13725
▁Cust	-13726
▁Competition	-13727
inas	-13728
▁calcul	-13729
▁Kill	-13730
▁Reich	-13731
▁Rachel	-13732
▁theoretical	-13733
▁depends	-13734
▁symbols	-13735
artet	-13736
heng	-13737
▁joins	-13738
▁troubl	-13739
▁weigh	-13740
▁cant	-13741
▁Emily	-13742
▁Meg	-13743
▁AFC	-13744
immer	-13745
▁5,000	-13746
▁Located	-13747
▁dynamic	-13748
June	-13749
arrior	-13750
▁constantly	-13751
▁*	-13752
▁Julia	-13753
anch	-13754
▁breed	-13755
▁Ard	-13756
▁discussions	-13757
▁Herald	-13758
▁acclaimed	-13759
Ap	-13760
▁edges	-13761
▁motif	-13762
▁advocated	-13763
▁Manitoba	-13764
UP	-13765
▁lung	-13766
erals	-13767
▁manufacture	-13768
ento	-13769
▁skull	-13770
▁phon	-13771
▁173	-13772
▁mild	-13773
▁separately	-13774
▁northwestern	-13775
▁surpass	-13776
▁monitoring	-13777
▁accus	-13778
▁mathematical	-13779
▁knows	-13780
listed	-13781
▁ion	-13782
ango	-13783
▁Clif	-13784
▁discipline	-13785
▁Wonder	-13786
▁suburbs	-13787
▁hitting	-13788
ylum	-13789
▁Ras	-13790
▁considers	-13791
▁boarding	-13792
iblical	-13793
▁smart	-13794
▁71	-13795
▁abbrev	-13796
▁delegation	-13797
▁Chin	-13798
▁Gerald	-13799
▁assassination	-13800
▁87	-13801
ouns	-13802
▁sculptor	-13803
Mal	-13804
▁unveiled	-13805
▁introduce	-13806
▁Parks	-13807
▁Rabbi	-13808
▁Bailey	-13809
▁facade	-13810
etheless	-13811
▁administrator	-13812
▁rotation	-13813
▁legally	-13814
▁currency	-13815
▁gastropod	-13816
▁Guj	-13817
rica	-13818
▁Bran	-13819
▁ESPN	-13820
▁marri	-13821
▁sacred	-13822
▁Dum	-13823
▁measuring	-13824
▁Ley	-13825
hl	-13826
▁mysterious	-13827
▁PR	-13828
imity	-13829
▁chorus	-13830
▁Archae	-13831
idelines	-13832
▁desired	-13833
▁Fun	-13834
–11	-13835
▁Natal	-13836
▁sheet	-13837
400	-13838
East	-13839
▁embarked	-13840
5).	-13841
▁diagnosed	-13842
▁IBM	-13843
ictionary	-13844
adal	-13845
▁Ster	-13846
▁distant	-13847
uxiliary	-13848
▁Bradley	-13849
▁(194	-13850
▁laps	-13851
▁Arsenal	-13852
▁instructions	-13853
dan	-13854
▁Desert	-13855
▁deterior	-13856
▁postpon	-13857
▁Saw	-13858
▁Porter	-13859
deen	-13860
▁customs	-13861
group	-13862
bern	-13863
-21	-13864
▁Nikol	-13865
▁repairs	-13866
▁Was	-13867
cock	-13868
quin	-13869
Sec	-13870
▁wound	-13871
▁Relations	-13872
▁estimates	-13873
▁(0.	-13874
▁Others	-13875
▁integral	-13876
asium	-13877
▁Hurricane	-13878
▁Bloom	-13879
uclear	-13880
▁conceived	-13881
gs	-13882
▁Memphis	-13883
▁curve	-13884
▁servant	-13885
▁Blake	-13886
▁Parliamentary	-13887
laus	-13888
▁convoy	-13889
arity	-13890
▁GP	-13891
▁lib	-13892
monton	-13893
▁telev	-13894
arin	-13895
Per	-13896
▁frust	-13897
▁Caroline	-13898
▁fla	-13899
▁#1	-13900
▁Estonia	-13901
▁1940.	-13902
Pol	-13903
fin	-13904
▁layout	-13905
▁mechanisms	-13906
▁Anat	-13907
▁mount	-13908
▁conquest	-13909
▁Sep	-13910
▁Plaza	-13911
▁Campus	-13912
▁manual	-13913
▁aster	-13914
▁conversation	-13915
ribution	-13916
▁af	-13917
▁paras	-13918
▁boxing	-13919
▁sky	-13920
Life	-13921
▁wildlife	-13922
▁Kenneth	-13923
ukh	-13924
gue	-13925
lando	-13926
nolds	-13927
▁Ł	-13928
▁Bend	-13929
hero	-13930
▁traff	-13931
avi	-13932
▁scattered	-13933
ár	-13934
▁beer	-13935
▁bankruptcy	-13936
▁vulnerable	-13937
holder	-13938
▁Universe	-13939
tlement	-13940
▁Palm	-13941
icus	-13942
gae	-13943
▁AB	-13944
addy	-13945
▁1899	-13946
▁Balk	-13947
▁harass	-13948
▁manifest	-13949
▁considerably	-13950
esar	-13951
▁Teh	-13952
▁opens	-13953
center	-13954
awi	-13955
▁incidents	-13956
▁Vij	-13957
▁Emb	-13958
▁arguing	-13959
▁1943.	-13960
▁Calgary	-13961
▁Pink	-13962
▁Scholar	-13963
▁kin	-13964
omatic	-13965
▁Beaut	-13966
zon	-13967
▁innovative	-13968
▁Eugene	-13969
▁crucial	-13970
▁Lah	-13971
screen	-13972
▁Chad	-13973
▁Tall	-13974
eastern	-13975
▁1/	-13976
hurst	-13977
▁listing	-13978
▁ske	-13979
oux	-13980
April	-13981
▁premises	-13982
-16	-13983
chel	-13984
oline	-13985
structed	-13986
OW	-13987
▁Nadu	-13988
▁subfamily	-13989
▁Cinema	-13990
October	-13991
▁sponsor	-13992
▁Leslie	-13993
Pe	-13994
▁fertil	-13995
▁Tyler	-13996
▁Deuts	-13997
▁recreational	-13998
▁2:	-13999
▁Brighton	-14000
▁emigrated	-14001
▁Veter	-14002
ints	-14003
▁abd	-14004
▁peninsula	-14005
▁1941.	-14006
▁Burton	-14007
▁29.	-14008
▁Wednesday	-14009
rium	-14010
▁mature	-14011
▁aggressive	-14012
▁autonomous	-14013
ivo	-14014
▁Dow	-14015
ighthouse	-14016
ductive	-14017
▁outcome	-14018
Brien	-14019
iott	-14020
▁Chapter	-14021
▁1896	-14022
onomic	-14023
▁spectrum	-14024
este	-14025
San	-14026
card	-14027
▁Oslo	-14028
ovi	-14029
▁Herm	-14030
▁creek	-14031
▁Plymouth	-14032
icals	-14033
▁Frankfurt	-14034
▁nicknamed	-14035
oriented	-14036
▁intend	-14037
▁prohibited	-14038
▁promise	-14039
▁oxid	-14040
▁Worth	-14041
▁estimate	-14042
itory	-14043
How	-14044
jud	-14045
electric	-14046
unal	-14047
▁consideration	-14048
▁Tiger	-14049
▁borrow	-14050
▁statistical	-14051
▁Safety	-14052
▁vinyl	-14053
▁1961.	-14054
▁sculptures	-14055
▁Lucy	-14056
▁loved	-14057
▁Watch	-14058
linary	-14059
▁directing	-14060
Ed	-14061
algam	-14062
▁activated	-14063
▁Feder	-14064
▁boost	-14065
▁Eve	-14066
▁persec	-14067
▁163	-14068
▁navig	-14069
▁marble	-14070
▁Founded	-14071
▁agrees	-14072
▁Made	-14073
▁Folk	-14074
▁Kang	-14075
▁arose	-14076
▁eighteen	-14077
▁socialist	-14078
mal	-14079
▁Warwick	-14080
▁Tree	-14081
▁Preston	-14082
▁reconc	-14083
has	-14084
▁1948.	-14085
▁probability	-14086
▁trig	-14087
music	-14088
▁Blu	-14089
▁adequ	-14090
▁Tanz	-14091
football	-14092
▁conspiracy	-14093
▁necessarily	-14094
▁	-14095
e	-14096
a	-14097
t	-14098
n	-14099
i	-14100
o	-14101
r	-14102
s	-14103
h	-14104
l	-14105
d	-14106
c	-14107
u	-14108
m	-14109
f	-14110
g	-14111
p	-14112
w	-14113
y	-14114
b	-14115
,	-14116
.	-14117
v	-14118
k	-14119
1	-14120
"	-14121
S	-14122
T	-14123
0	-14124
A	-14125
C	-14126
2	-14127
M	-14128
9	-14129
I	-14130
B	-14131
P	-14132
H	-14133
-	-14134
D	-14135
R	-14136
F	-14137
L	-14138
'	-14139
x	-14140
N	-14141
)	-14142
(	-14143
G	-14144
8	-14145
W	-14146
E	-14147
5	-14148
J	-14149
3	-14150
O	-14151
4	-14152
6	-14153
z	-14154
7	-14155
K	-14156
j	-14157
U	-14158
q	-14159
V	-14160
:	-14161
–	-14162
Y	-14163
;	-14164
%	-14165
Z	-14166
/	-14167
Q	-14168
é	-14169
X	-14170
$	-14171
&	-14172
’	-14173
á	-14174
—	-14175
_	-14176
ó	-14177
!	-14178
]	-14179
[	-14180
í	-14181
ü	-14182
=	-14183
“	-14184
”	-14185
ö	-14186
ā	-14187
ć	-14188
#	-14189
ä	-14190
|	-14191
?	-14192
è	-14193
ō	-14194
+	-14195
£	-14196
ç	-14197
š	-14198
ł	-14199
ñ	-14200
ø	-14201
‘	-14202
č	-14203
°	-14204
ã	-14205
ú	-14206
É	-14207
ū	-14208
â	-14209
ı	-14210
*	-14211
ī	-14212
ă	-14213
à	-14214
å	-14215
ë	-14216
ń	-14217
ô	-14218
а	-14219
ș	-14220
ž	-14221
ş	-14222
о	-14223
×	-14224
α	-14225
и	-14226
ß	-14227
Š	-14228
ê	-14229
Á	-14230
€	-14231
æ	-14232
е	-14233
−	-14234
•	-14235
н	-14236
ę	-14237
ğ	-14238
Ö	-14239
р	-14240
ś	-14241
ا	-14242
′	-14243
μ	-14244
ï	-14245
Ł	-14246
Đ	-14247
с	-14248
в	-14249
ο	-14250
ð	-14251
Č	-14252
ý	-14253
ř	-14254
т	-14255
к	-14256
ț	-14257
ą	-14258
⁄	-14259
л	-14260
β	-14261
Ž	-14262
~	-14263
ν	-14264
ʼ	-14265
İ	-14266
ι	-14267
Ś	-14268
ě	-14269
>	-14270
Ó	-14271
î	-14272
Ō	-14273
ρ	-14274
Ç	-14275
Å	-14276
ż	-14277
ʻ	-14278
τ	-14279
ò	-14280
ς	-14281
ε	-14282
ل	-14283
}	-14284
{	-14285
ē	-14286
ė	-14287
ź	-14288
λ	-14289
đ	-14290
д	-14291
ì	-14292
ő	-14293
σ	-14294
·	-14295
ə	-14296
õ	-14297
κ	-14298
ा	-14299
\	-14300
у	-14301
Ø	-14302
ر	-14303
م	-14304
м	-14305
Ş	-14306
ن	-14307
»	-14308
ư	-14309
π	-14310
ي	-14311
«	-14312
γ	-14313
<	-14314
ệ	-14315
ʿ	-14316
→	-14317
्	-14318
Ż	-14319
@	-14320
و	-14321
ù	-14322
Ü	-14323
η	-14324
й	-14325
ḥ	-14326
Æ	-14327
ơ	-14328
δ	-14329
§	-14330
र	-14331
ạ	-14332
Ú	-14333
я	-14334
±	-14335
Î	-14336
د	-14337
г	-14338
ṣ	-14339
υ	-14340
ب	-14341
Ā	-14342
п	-14343
י	-14344
ṭ	-14345
ả	-14346
ω	-14347
́	-14348
‐	-14349
ч	-14350
ễ	-14351
ь	-14352
†	-14353
б	-14354
`	-14355
ί	-14356
ṇ	-14357
С	-14358
з	-14359
ы	-14360
س	-14361
ň	-14362
û	-14363
ά	-14364
ו	-14365
θ	-14366
ŏ	-14367
Í	-14368
ی	-14369
œ	-14370
ế	-14371
ό	-14372
Ș	-14373
ị	-14374
φ	-14375
Δ	-14376
न	-14377
்	-14378
त	-14379
ि	-14380
ت	-14381
ầ	-14382
Ä	-14383
म	-14384
ع	-14385
Þ	-14386
ר	-14387
क	-14388
大	-14389
М	-14390
ه	-14391
К	-14392
^	-14393
х	-14394
ţ	-14395
А	-14396
א	-14397
ồ	-14398
ה	-14399
स	-14400
า	-14401
П	-14402
¥	-14403
ц	-14404
ح	-14405
В	-14406
ņ	-14407
村	-14408
ל	-14409
व	-14410
χ	-14411
、	-14412
ộ	-14413
₹	-14414
े	-14415
ी	-14416
Ḥ	-14417
Σ	-14418
中	-14419
ա	-14420
ů	-14421
έ	-14422
ш	-14423
州	-14424
ร	-14425
य	-14426
і	-14427
ة	-14428
ḍ	-14429
ב	-14430
Α	-14431
া	-14432
Б	-14433
ल	-14434
ύ	-14435
प	-14436
द	-14437
Ć	-14438
ف	-14439
ọ	-14440
Р	-14441
„	-14442
מ	-14443
ش	-14444
ु	-14445
þ	-14446
Ḩ	-14447
ή	-14448
ج	-14449
≤	-14450
ж	-14451
ق	-14452
ー	-14453
Н	-14454
ṃ	-14455
≥	-14456
Π	-14457
山	-14458
王	-14459
Д	-14460
ש	-14461
น	-14462
Κ	-14463
ḩ	-14464
ŭ	-14465
Г	-14466
ʾ	-14467
ũ	-14468
ת	-14469
്	-14470
ं	-14471
ĩ	-14472
ह	-14473
ậ	-14474
ố	-14475
О	-14476
ờ	-14477
Ω	-14478
Ț	-14479
ǎ	-14480
Т	-14481
子	-14482
ъ	-14483
人	-14484
ắ	-14485
®	-14486
天	-14487
ŋ	-14488
ز	-14489
Ε	-14490
נ	-14491
À	-14492
ứ	-14493
ो	-14494
ك	-14495
ग	-14496
¡	-14497
И	-14498
ி	-14499
ṛ	-14500
க	-14501
َ	-14502
ד	-14503
ン	-14504
の	-14505
ज	-14506
ง	-14507
ע	-14508
Γ	-14509
Μ	-14510
≈	-14511
อ	-14512
ấ	-14513
南	-14514
ː	-14515
ÿ	-14516
文	-14517
Λ	-14518
李	-14519
র	-14520
ť	-14521
一	-14522
ớ	-14523
ľ	-14524
ħ	-14525
ม	-14526
ก	-14527
公	-14528
த	-14529
เ	-14530
ն	-14531
¢	-14532
্	-14533
ு	-14534
ა	-14535
श	-14536
ṅ	-14537
ề	-14538
ர	-14539
ک	-14540
Л	-14541
خ	-14542
э	-14543
이	-14544
ம	-14545
ζ	-14546
ი	-14547
三	-14548
Τ	-14549
Φ	-14550
道	-14551
Ñ	-14552
ļ	-14553
ว	-14554
∞	-14555
ั	-14556
ỳ	-14557
ส	-14558
平	-14559
ब	-14560
ф	-14561
ր	-14562
ล	-14563
ụ	-14564
ק	-14565
國	-14566
ξ	-14567
₱	-14568
ิ	-14569
ћ	-14570
ώ	-14571
ח	-14572
∈	-14573
ю	-14574
Ι	-14575
金	-14576
ா	-14577
Ο	-14578
ি	-14579
武	-14580
ן	-14581
国	-14582
ย	-14583
ǔ	-14584
أ	-14585
書	-14586
་	-14587
新	-14588
Â	-14589
》	-14590
《	-14591
ủ	-14592
東	-14593
ם	-14594
ص	-14595
ј	-14596
★	-14597
学	-14598
海	-14599
ġ	-14600
日	-14601
ợ	-14602
●	-14603
西	-14604
ʔ	-14605
ˈ	-14606
ǫ	-14607
่	-14608
З	-14609
사	-14610
У	-14611
Ν	-14612
פ	-14613
ط	-14614
ữ	-14615
安	-14616
ǐ	-14617
च	-14618
田	-14619
家	-14620
ス	-14621
之	-14622
ḫ	-14623
ন	-14624
太	-14625
的	-14626
ո	-14627
高	-14628
ক	-14629
神	-14630
ס	-14631
್	-14632
小	-14633
城	-14634
ɛ	-14635
ব	-14636
ப	-14637
ų	-14638
ψ	-14639
ի	-14640
‡	-14641
ക	-14642
。	-14643
ต	-14644
ण	-14645
כ	-14646
ে	-14647
ി	-14648
部	-14649
・	-14650
ỹ	-14651
ท	-14652
ե	-14653
้	-14654
်	-14655
本	-14656
明	-14657
พ	-14658
ɔ	-14659
บ	-14660
イ	-14661
ŵ	-14662
郎	-14663
Е	-14664
司	-14665
ル	-14666
ห	-14667
北	-14668
भ	-14669
ё	-14670
和	-14671
い	-14672
щ	-14673
江	-14674
上	-14675
ử	-14676
河	-14677
―	-14678
Θ	-14679
生	-14680
ध	-14681
Ф	-14682
⟩	-14683
Х	-14684
Β	-14685
ี	-14686
社	-14687
元	-14688
陽	-14689
්	-14690
会	-14691
⟨	-14692
ּ	-14693
ல	-14694
வ	-14695
ג	-14696
ด	-14697
Ṣ	-14698
ű	-14699
ე	-14700
ম	-14701
ט	-14702
林	-14703
¿	-14704
È	-14705
川	-14706
⋅	-14707
의	-14708
대	-14709
ự	-14710
ன	-14711
有	-14712
ָ	-14713
ِ	-14714
ರ	-14715
گ	-14716
ष	-14717
♭	-14718
̄	-14719
ổ	-14720
ḷ	-14721
光	-14722
ď	-14723
ാ	-14724
水	-14725
ত	-14726
ト	-14727
ุ	-14728
ड	-14729
ল	-14730
ਾ	-14731
ட	-14732
行	-14733
ƒ	-14734
門	-14735
Ī	-14736
ʽ	-14737
ะ	-14738
Ţ	-14739
ു	-14740
ւ	-14741
德	-14742
ừ	-14743
ラ	-14744
ى	-14745
石	-14746
義	-14747
年	-14748
馬	-14749
法	-14750
ू	-14751
์	-14752
ச	-14753
劉	-14754
अ	-14755
ク	-14756
學	-14757
成	-14758
­	-14759
Ч	-14760
پ	-14761
ہ	-14762
ट	-14763
Ṭ	-14764
ന	-14765
白	-14766
Ľ	-14767
ɪ	-14768
ത	-14769
下	-14770
花	-14771
十	-14772
ẹ	-14773
ッ	-14774
五	-14775
民	-14776
我	-14777
心	-14778
ค	-14779
ಾ	-14780
ַ	-14781
京	-14782
ἀ	-14783
ʃ	-14784
リ	-14785
ん	-14786
─	-14787
ẓ	-14788
기	-14789
‰	-14790
غ	-14791
不	-14792
女	-14793
ķ	-14794
한	-14795
院	-14796
리	-14797
Χ	-14798
ꞌ	-14799
方	-14800
য	-14801
რ	-14802
張	-14803
龍	-14804
ි	-14805
ಿ	-14806
ს	-14807
事	-14808
ְ	-14809
ய	-14810
학	-14811
Η	-14812
정	-14813
Ἀ	-14814
氏	-14815
Ρ	-14816
二	-14817
Œ	-14818
ু	-14819
ख	-14820
都	-14821
陳	-14822
≠	-14823
皇	-14824
স	-14825
正	-14826
ア	-14827
長	-14828
צ	-14829
지	-14830
地	-14831
美	-14832
ἐ	-14833
ْ	-14834
Ш	-14835
দ	-14836
☆	-14837
原	-14838
校	-14839
ǒ	-14840
ര	-14841
華	-14842
ช	-14843
ז	-14844
通	-14845
士	-14846
్	-14847
ා	-14848
ර	-14849
주	-14850
軍	-14851
ਰ	-14852
郡	-14853
世	-14854
し	-14855
ُ	-14856
ḳ	-14857
ை	-14858
̀	-14859
ლ	-14860
る	-14861
シ	-14862
ẩ	-14863
आ	-14864
ִ	-14865
آ	-14866
」	-14867
Ц	-14868
ै	-14869
Ħ	-14870
史	-14871
「	-14872
か	-14873
ŷ	-14874
Ř	-14875
主	-14876
동	-14877
จ	-14878
四	-14879
김	-14880
り	-14881
문	-14882
성	-14883
會	-14884
ῦ	-14885
도	-14886
ო	-14887
宗	-14888
ể	-14889
아	-14890
।	-14891
း	-14892
প	-14893
福	-14894
고	-14895
Я	-14896
な	-14897
省	-14898
थ	-14899
青	-14900
̱	-14901
න	-14902
八	-14903
た	-14904
ɑ	-14905
木	-14906
국	-14907
յ	-14908
ὶ	-14909
愛	-14910
원	-14911
う	-14912
ട	-14913
区	-14914
ṯ	-14915
同	-14916
路	-14917
인	-14918
ئ	-14919
清	-14920
Υ	-14921
≡	-14922
ض	-14923
수	-14924
Ə	-14925
阿	-14926
ು	-14927
կ	-14928
ာ	-14929
野	-14930
다	-14931
ర	-14932
ు	-14933
タ	-14934
പ	-14935
മ	-14936
가	-14937
ّ	-14938
ῖ	-14939
寺	-14940
Ж	-14941
ằ	-14942
星	-14943
真	-14944
ロ	-14945
̊	-14946
시	-14947
ా	-14948
ം	-14949
ป	-14950
尚	-14951
ɣ	-14952
ῶ	-14953
カ	-14954
서	-14955
ి	-14956
แ	-14957
യ	-14958
ở	-14959
⁠	-14960
信	-14961
宮	-14962
Ū	-14963
♯	-14964
إ	-14965
ந	-14966
Ò	-14967
春	-14968
月	-14969
古	-14970
マ	-14971
ನ	-14972
Ē	-14973
়	-14974
代	-14975
ಕ	-14976
ỗ	-14977
合	-14978
集	-14979
ї	-14980
と	-14981
자	-14982
周	-14983
ɨ	-14984
ල	-14985
永	-14986
歌	-14987
ジ	-14988
부	-14989
̃	-14990
侍	-14991
志	-14992
后	-14993
教	-14994
無	-14995
Э	-14996
വ	-14997
夫	-14998
东	-14999
ම	-15000
ド	-15001
ḵ	-15002
₩	-15003
～	-15004
상	-15005
台	-15006
立	-15007
전	-15008
化	-15009
レ	-15010
Ḫ	-15011
羅	-15012
ս	-15013
市	-15014
吉	-15015
百	-15016
տ	-15017
̓	-15018
‚	-15019
장	-15020
나	-15021
़	-15022
ല	-15023
英	-15024
신	-15025
Ọ	-15026
空	-15027
香	-15028
音	-15029
ী	-15030
口	-15031
Ψ	-15032
ව	-15033
記	-15034
ਸ	-15035
縣	-15036
第	-15037
ث	-15038
ள	-15039
ศ	-15040
¬	-15041
ნ	-15042
帝	-15043
선	-15044
ģ	-15045
하	-15046
昌	-15047
乡	-15048
君	-15049
ਿ	-15050
ṟ	-15051
ẕ	-15052
ὸ	-15053
科	-15054
မ	-15055
き	-15056
仁	-15057
黃	-15058
ක	-15059
ὐ	-15060
‒	-15061
工	-15062
陵	-15063
楊	-15064
堂	-15065
ದ	-15066
մ	-15067
你	-15068
ස	-15069
ေ	-15070
镇	-15071
华	-15072
ら	-15073
島	-15074
̈	-15075
ặ	-15076
九	-15077
定	-15078
忠	-15079
手	-15080
چ	-15081
港	-15082
限	-15083
ĭ	-15084
理	-15085
寶	-15086
全	-15087
玉	-15088
ǃ	-15089
建	-15090
스	-15091
物	-15092
비	-15093
ʊ	-15094
ĕ	-15095
მ	-15096
ු	-15097
โ	-15098
│	-15099
화	-15100
ತ	-15101
ੀ	-15102
င	-15103
ವ	-15104
ය	-15105
ํ	-15106
政	-15107
ま	-15108
조	-15109
្	-15110
宣	-15111
Ô	-15112
街	-15113
∆	-15114
শ	-15115
興	-15116
교	-15117
গ	-15118
章	-15119
₦	-15120
제	-15121
龙	-15122
ো	-15123
樂	-15124
ः	-15125
ற	-15126
雄	-15127
利	-15128
フ	-15129
জ	-15130
藤	-15131
경	-15132
六	-15133
昭	-15134
自	-15135
♦	-15136
ذ	-15137
ု	-15138
ས	-15139
博	-15140
曲	-15141
어	-15142
松	-15143
হ	-15144
名	-15145
©	-15146
ἰ	-15147
侯	-15148
師	-15149
流	-15150
ǀ	-15151
に	-15152
영	-15153
ვ	-15154
經	-15155
テ	-15156
ֹ	-15157
ಮ	-15158
常	-15159
ู	-15160
ไ	-15161
御	-15162
朝	-15163
ಲ	-15164
使	-15165
漢	-15166
語	-15167
里	-15168
風	-15169
،	-15170
उ	-15171
府	-15172
ृ	-15173
Õ	-15174
Ġ	-15175
Ю	-15176
က	-15177
ῆ	-15178
₴	-15179
胡	-15180
∂	-15181
∨	-15182
キ	-15183
黄	-15184
산	-15185
ḏ	-15186
唐	-15187
重	-15188
相	-15189
우	-15190
兵	-15191
出	-15192
ミ	-15193
ข	-15194
っ	-15195
良	-15196
ბ	-15197
コ	-15198
구	-15199
͡	-15200
మ	-15201
千	-15202
所	-15203
무	-15204
ಗ	-15205
保	-15206
̧	-15207
く	-15208
て	-15209
⊆	-15210
ަ	-15211
夏	-15212
者	-15213
ǁ	-15214
多	-15215
ċ	-15216
サ	-15217
式	-15218
민	-15219
ھ	-15220
라	-15221
న	-15222
ỏ	-15223
ⴰ	-15224
さ	-15225
井	-15226
ә	-15227
梁	-15228
治	-15229
お	-15230
ء	-15231
ం	-15232
І	-15233
ண	-15234
少	-15235
소	-15236
공	-15237
њ	-15238
ಸ	-15239
უ	-15240
ナ	-15241
朱	-15242
ธ	-15243
←	-15244
̲	-15245
န	-15246
ള	-15247
こ	-15248
プ	-15249
將	-15250
는	-15251
ల	-15252
ོ	-15253
마	-15254
ỉ	-15255
廣	-15256
ே	-15257
ಂ	-15258
時	-15259
是	-15260
沙	-15261
ိ	-15262
雲	-15263
Ķ	-15264
官	-15265
Ա	-15266
は	-15267
일	-15268
あ	-15269
ೆ	-15270
တ	-15271
로	-15272
వ	-15273
孫	-15274
Ј	-15275
ද	-15276
ウ	-15277
보	-15278
오	-15279
∧	-15280
景	-15281
ਦ	-15282
オ	-15283
谷	-15284
თ	-15285
张	-15286
연	-15287
字	-15288
思	-15289
马	-15290
↑	-15291
業	-15292
Ì	-15293
ち	-15294
ム	-15295
作	-15296
館	-15297
ィ	-15298
에	-15299
ṉ	-15300
ར	-15301
津	-15302
ག	-15303
〜	-15304
知	-15305
老	-15306
ـ	-15307
康	-15308
徐	-15309
ট	-15310
吳	-15311
園	-15312
ʒ	-15313
진	-15314
ὰ	-15315
命	-15316
ꜣ	-15317
ֵ	-15318
盧	-15319
ɡ	-15320
క	-15321
ṁ	-15322
七	-15323
バ	-15324
군	-15325
ठ	-15326
も	-15327
好	-15328
ื	-15329
秀	-15330
ブ	-15331
衛	-15332
言	-15333
ظ	-15334
ے	-15335
が	-15336
ャ	-15337
在	-15338
技	-15339
力	-15340
れ	-15341
グ	-15342
湖	-15343
虎	-15344
ા	-15345
守	-15346
ಯ	-15347
은	-15348
왕	-15349
회	-15350
Ý	-15351
÷	-15352
如	-15353
চ	-15354
鳳	-15355
エ	-15356
溪	-15357
ත	-15358
す	-15359
聖	-15360
॥	-15361
유	-15362
ା	-15363
パ	-15364
傳	-15365
趙	-15366
̥	-15367
♥	-15368
泰	-15369
飛	-15370
源	-15371
ਤ	-15372
寧	-15373
泉	-15374
천	-15375
ẵ	-15376
外	-15377
ា	-15378
호	-15379
գ	-15380
可	-15381
萬	-15382
ḗ	-15383
』	-15384
チ	-15385
ਨ	-15386
土	-15387
曹	-15388
ँ	-15389
ਹ	-15390
『	-15391
禮	-15392
љ	-15393
സ	-15394
미	-15395
ਕ	-15396
ἄ	-15397
火	-15398
დ	-15399
度	-15400
情	-15401
竹	-15402
ʕ	-15403
լ	-15404
ಪ	-15405
頭	-15406
ֶ	-15407
祖	-15408
み	-15409
魏	-15410
과	-15411
박	-15412
特	-15413
ழ	-15414
Ḳ	-15415
仙	-15416
内	-15417
റ	-15418
男	-15419
研	-15420
鄭	-15421
令	-15422
을	-15423
घ	-15424
夜	-15425
Ά	-15426
ך	-15427
į	-15428
ニ	-15429
術	-15430
ュ	-15431
前	-15432
玄	-15433
等	-15434
ோ	-15435
陈	-15436
ရ	-15437
孝	-15438
ौ	-15439
ẽ	-15440
慶	-15441
թ	-15442
ප	-15443
デ	-15444
球	-15445
育	-15446
勝	-15447
左	-15448
延	-15449
智	-15450
界	-15451
波	-15452
세	-15453
宇	-15454
여	-15455
韓	-15456
រ	-15457
Ẓ	-15458
ք	-15459
െ	-15460
乐	-15461
佛	-15462
ɾ	-15463
見	-15464
ʹ	-15465
ച	-15466
つ	-15467
ਲ	-15468
ׁ	-15469
ང	-15470
洪	-15471
छ	-15472
ੇ	-15473
ई	-15474
也	-15475
Ď	-15476
அ	-15477
ெ	-15478
ダ	-15479
阳	-15480
何	-15481
해	-15482
Ð	-15483
那	-15484
銀	-15485
錢	-15486
ٹ	-15487
究	-15488
씨	-15489
స	-15490
富	-15491
আ	-15492
ን	-15493
先	-15494
ੁ	-15495
∴	-15496
紀	-15497
안	-15498
伯	-15499
拳	-15500
현	-15501
回	-15502
要	-15503
分	-15504
宋	-15505
洋	-15506
ө	-15507
ց	-15508
弘	-15509
Ζ	-15510
ੰ	-15511
₯	-15512
後	-15513
賀	-15514
̯	-15515
长	-15516
ર	-15517
↔	-15518
壽	-15519
丸	-15520
基	-15521
ਮ	-15522
よ	-15523
以	-15524
典	-15525
加	-15526
尾	-15527
ए	-15528
త	-15529
け	-15530
୍	-15531
開	-15532
ங	-15533
ပ	-15534
影	-15535
남	-15536
േ	-15537
▪	-15538
久	-15539
越	-15540
達	-15541
Ê	-15542
ĝ	-15543
Ğ	-15544
բ	-15545
그	-15546
հ	-15547
桥	-15548
族	-15549
版	-15550
坪	-15551
次	-15552
右	-15553
ప	-15554
友	-15555
屋	-15556
来	-15557
巴	-15558
फ	-15559
ズ	-15560
隆	-15561
랑	-15562
̍	-15563
ڠ	-15564
容	-15565
鎮	-15566
ǝ	-15567
や	-15568
ղ	-15569
ノ	-15570
善	-15571
嘉	-15572
葉	-15573
ਗ	-15574
ὁ	-15575
伊	-15576
양	-15577
ണ	-15578
ณ	-15579
を	-15580
梅	-15581
ガ	-15582
最	-15583
杜	-15584
草	-15585
郭	-15586
∩	-15587
牛	-15588
ү	-15589
妃	-15590
蘭	-15591
ภ	-15592
戦	-15593
能	-15594
ビ	-15595
直	-15596
इ	-15597
⊗	-15598
ハ	-15599
承	-15600
강	-15601
ር	-15602
程	-15603
̪	-15604
万	-15605
당	-15606
හ	-15607
丹	-15608
動	-15609
摩	-15610
ȟ	-15611
ў	-15612
გ	-15613
角	-15614
間	-15615
臺	-15616
舞	-15617
論	-15618
བ	-15619
⊂	-15620
メ	-15621
Հ	-15622
վ	-15623
గ	-15624
で	-15625
解	-15626
貴	-15627
車	-15628
ں	-15629
ܐ	-15630
ூ	-15631
刘	-15632
報	-15633
柳	-15634
橋	-15635
貞	-15636
າ	-15637
場	-15638
杨	-15639
喜	-15640
町	-15641
秋	-15642
許	-15643
태	-15644
ৰ	-15645
だ	-15646
Ṛ	-15647
え	-15648
范	-15649
ް	-15650
ର	-15651
ʉ	-15652
კ	-15653
ญ	-15654
塘	-15655
駅	-15656
ު	-15657
ద	-15658
商	-15659
奇	-15660
Ἰ	-15661
ゃ	-15662
鬼	-15663
ە	-15664
ভ	-15665
克	-15666
̂	-15667
ѣ	-15668
ӏ	-15669
ད	-15670
云	-15671
刀	-15672
红	-15673
麻	-15674
명	-15675
ި	-15676
ਪ	-15677
ི	-15678
敬	-15679
殿	-15680
계	-15681
니	-15682
ẻ	-15683
∗	-15684
連	-15685
關	-15686
⊕	-15687
崔	-15688
形	-15689
親	-15690
超	-15691
居	-15692
茶	-15693
品	-15694
ਜ	-15695
ਬ	-15696
သ	-15697
ស	-15698
宝	-15699
進	-15700
ḻ	-15701
じ	-15702
号	-15703
意	-15704
蘇	-15705
ळ	-15706
修	-15707
洲	-15708
盛	-15709
佐	-15710
色	-15711
起	-15712
雅	-15713
面	-15714
∪	-15715
ẫ	-15716
丁	-15717
ञ	-15718
电	-15719
電	-15720
관	-15721
단	-15722
위	-15723
중	-15724
ধ	-15725
ষ	-15726
လ	-15727
臣	-15728
觀	-15729
ษ	-15730
蕭	-15731
风	-15732
ǂ	-15733
զ	-15734
ග	-15735
極	-15736
재	-15737
̣	-15738
ই	-15739
仲	-15740
翔	-15741
酒	-15742
ུ	-15743
体	-15744
√	-15745
モ	-15746
功	-15747
比	-15748
毛	-15749
바	-15750
ോ	-15751
ក	-15752
峰	-15753
ʀ	-15754
ት	-15755
ツ	-15756
威	-15757
察	-15758
ɲ	-15759
མ	-15760
圖	-15761
食	-15762
내	-15763
ේ	-15764
布	-15765
ି	-15766
[...]
