[PAD]	0
[UNK]	0
[BOS]	0
[EOS]	0
[CLS]	0
[SEP]	0
[MASK]	0
▁1	-0
▁이	-1
으로	-2
에서	-3
▁있	-4
▁2	-5
▁그	-6
▁대	-7
▁사	-8
이다	-9
었다	-10
▁수	-11
▁지	-12
()	-13
▁20	-14
▁19	-15
▁가	-16
▁시	-17
▁기	-18
▁아	-19
▁전	-20
▁하	-21
했다	-22
▁있다	-23
▁다	-24
▁제	-25
▁일	-26
하였	-27
▁중	-28
▁한	-29
▁정	-30
▁주	-31
하는	-32
▁것	-33
▁자	-34
▁인	-35
되었다	-36
▁공	-37
▁위	-38
▁유	-39
▁경	-40
▁보	-41
▁3	-42
하고	-43
▁등	-44
▁부	-45
하였다	-46
▁조	-47
▁미	-48
하여	-49
▁동	-50
▁발	-51
▁영	-52
▁모	-53
▁선	-54
▁나	-55
으며	-56
▁연	-57
▁의	-58
▁마	-59
▁오	-60
한다	-61
▁소	-62
에는	-63
▁고	-64
▁201	-65
▁스	-66
▁개	-67
▁세	-68
▁구	-69
▁도	-70
▁비	-71
▁상	-72
▁국	-73
▁서	-74
▁후	-75
▁여	-76
▁4	-77
▁"	-78
▁때	-79
▁200	-80
▁해	-81
▁관	-82
▁프	-83
▁성	-84
▁있는	-85
▁신	-86
▁대한	-87
부터	-88
▁5	-89
▁(	-90
▁또	-91
▁방	-92
지만	-93
▁않	-94
▁바	-95
▁'	-96
되어	-97
▁만	-98
▁통	-99
까지	-100
▁무	-101
▁장	-102
▁남	-103
▁출	-104
▁같	-105
▁내	-106
▁현	-107
▁교	-108
에게	-109
▁역	-110
▁포	-111
적인	-112
▁우	-113
▁거	-114
▁결	-115
▁6	-116
▁문	-117
적으로	-118
된다	-119
▁10	-120
이라	-121
▁작	-122
▁생	-123
▁최	-124
▁불	-125
학교	-126
▁원	-127
국의	-128
▁진	-129
▁노	-130
▁어	-131
▁알	-132
▁당	-133
▁7	-134
▁강	-135
▁반	-136
▁8	-137
▁파	-138
▁따	-139
되었	-140
▁분	-141
▁계	-142
▁사용	-143
▁리	-144
▁받	-145
▁없	-146
들이	-147
▁두	-148
들은	-149
▁말	-150
or	-151
면서	-152
▁실	-153
▁배	-154
에서는	-155
▁단	-156
년에	-157
하기	-158
▁명	-159
▁이후	-160
er	-161
▁함	-162
▁9	-163
00	-164
▁예	-165
▁차	-166
▁설	-167
▁재	-168
▁에	-169
▁안	-170
▁한다	-171
하게	-172
▁데	-173
▁로	-174
▁일본	-175
▁199	-176
았다	-177
▁요	-178
▁다음	-179
▁특	-180
▁18	-181
였다	-182
▁음	-183
▁종	-184
▁초	-185
▁감	-186
▁12	-187
▁S	-188
▁독	-189
▁추	-190
▁카	-191
▁그는	-192
▁군	-193
▁라	-194
▁많	-195
(,	-196
on	-197
리아	-198
▁~	-199
으나	-200
▁더	-201
▁및	-202
an	-203
스트	-204
▁지역	-205
▁활	-206
▁다른	-207
in	-208
▁대한민	-209
▁태	-210
▁건	-211
▁김	-212
▁타	-213
▁참	-214
▁)	-215
▁같은	-216
▁입	-217
▁위해	-218
▁되었다	-219
는데	-220
▁매	-221
▁형	-222
▁운	-223
이며	-224
▁11	-225
la	-226
▁C	-227
주의	-228
▁코	-229
▁평	-230
▁미국	-231
▁양	-232
▁산	-233
▁그리	-234
레이	-235
▁행	-236
▁피	-237
▁적	-238
▁올	-239
▁시작	-240
▁과	-241
▁베	-242
▁열	-243
▁크	-244
▁A	-245
들의	-246
▁프로	-247
▁번	-248
▁때문	-249
▁호	-250
▁본	-251
들어	-252
▁총	-253
들을	-254
▁북	-255
▁승	-256
되는	-257
▁왕	-258
▁화	-259
▁따라	-260
▁회	-261
라는	-262
▁198	-263
▁또한	-264
▁목	-265
),	-266
하며	-267
▁함께	-268
▁사람	-269
▁M	-270
기도	-271
▁변	-272
▁그러	-273
▁임	-274
▁각	-275
▁외	-276
▁표	-277
▁영화	-278
▁속	-279
▁달	-280
▁약	-281
▁처	-282
시아	-283
▁물	-284
라고	-285
▁자신	-286
이나	-287
▁경우	-288
▁게	-289
▁F	-290
▁현재	-291
en	-292
19	-293
▁드	-294
하지	-295
▁직	-296
▁새	-297
▁f	-298
▁그의	-299
▁간	-300
▁T	-301
▁학	-302
▁가장	-303
▁위치	-304
▁사이	-305
▁선수	-306
▁이름	-307
▁민	-308
ar	-309
▁집	-310
기에	-311
▁기록	-312
▁의해	-313
▁세계	-314
▁레	-315
▁또는	-316
▁저	-317
▁메	-318
▁하나	-319
하다	-320
▁당시	-321
▁존	-322
스의	-323
▁때문에	-324
▁확	-325
에도	-326
▁항	-327
▁것을	-328
mu	-329
▁체	-330
되고	-331
20	-332
기를	-333
일에	-334
▁점	-335
▁15	-336
▁197	-337
▁그러나	-338
▁국가	-339
▁것으로	-340
▁한국	-341
al	-342
▁있었다	-343
▁뒤	-344
▁박	-345
▁for	-346
▁토	-347
▁했다	-348
▁브	-349
▁B	-350
▁있으며	-351
이라고	-352
▁투	-353
▁것이	-354
▁복	-355
mula	-356
▁필	-357
▁16	-358
▁통해	-359
리는	-360
▁축	-361
▁된다	-362
지는	-363
졌다	-364
▁합	-365
▁formula	-366
▁못	-367
▁철	-368
▁청	-369
▁광	-370
▁디	-371
▁천	-372
▁증	-373
at	-374
▁프랑	-375
▁조선	-376
▁그리고	-377
▁야	-378
▁활동	-379
▁D	-380
했고	-381
▁196	-382
▁17	-383
▁법	-384
▁근	-385
▁치	-386
▁판	-387
es	-388
▁많은	-389
▁언	-390
스는	-391
▁첫	-392
▁버	-393
▁금	-394
▁삼	-395
▁편	-396
▁플	-397
▁살	-398
▁트	-399
▁P	-400
▁심	-401
▁포함	-402
▁가지	-403
리를	-404
▁창	-405
이라는	-406
▁것이다	-407
▁들어	-408
▁높	-409
▁돌	-410
▁I	-411
▁아니	-412
이었다	-413
랜드	-414
하면서	-415
하였고	-416
▁쓰	-417
는다	-418
▁하는	-419
▁황	-420
ic	-421
▁다음과	-422
▁애	-423
▁페	-424
▁완	-425
▁뜻	-426
▁K	-427
▁경기	-428
▁대해	-429
▁L	-430
등학교	-431
▁네	-432
▁충	-433
▁있었	-434
▁194	-435
▁할	-436
▁다시	-437
▁여러	-438
▁대한민국	-439
he	-440
▁14	-441
▁루	-442
▁대한민국의	-443
개의	-444
▁제작	-445
▁인구	-446
사를	-447
▁연구	-448
대로	-449
▁사회	-450
▁시즌	-451
▁큰	-452
▁병	-453
is	-454
▁독일	-455
▁백	-456
로서	-457
▁등이	-458
이는	-459
▁모두	-460
되었고	-461
이고	-462
▁13	-463
▁되	-464
보다	-465
▁서울	-466
▁패	-467
▁감독	-468
상을	-469
▁일부	-470
▁모든	-471
▁클	-472
▁팀	-473
▁은	-474
▁용	-475
▁195	-476
▁순	-477
▁권	-478
▁취	-479
라이	-480
▁R	-481
▁도시	-482
▁히	-483
km	-484
▁G	-485
위를	-486
▁죽	-487
▁처음	-488
▁발매	-489
▁알려	-490
성을	-491
니아	-492
장을	-493
▁채	-494
it	-495
▁아이	-496
▁규	-497
지를	-498
▁중국	-499
▁H	-500
▁친	-501
년부터	-502
▁위한	-503
▁하였다	-504
이었	-505
자가	-506
▁정부	-507
▁식	-508
했으며	-509
▁동안	-510
▁구성	-511
▁-	-512
▁이상	-513
▁배우	-514
▁테	-515
▁전쟁	-516
▁이루	-517
회의	-518
대의	-519
▁대표	-520
▁N	-521
부분	-522
▁존재	-523
▁정치	-524
▁등의	-525
이자	-526
▁영국	-527
▁끝	-528
▁손	-529
▁자신의	-530
거나	-531
▁러	-532
▁이어	-533
▁프랑스	-534
▁축구	-535
▁게임	-536
▁일반	-537
리에	-538
▁이용	-539
▁E	-540
▁허	-541
▁기준	-542
도의	-543
났다	-544
▁작품	-545
력을	-546
▁뉴	-547
▁리그	-548
▁즉	-549
▁개발	-550
▁있어	-551
▁길	-552
▁나타	-553
▁것은	-554
도로	-555
시에	-556
▁음반	-557
▁가능	-558
▁앞	-559
▁환	-560
▁문제	-561
년에는	-562
000	-563
▁캐	-564
(),	-565
▁맡	-566
▁온	-567
▁이러	-568
▁새로	-569
le	-570
▁중심	-571
▁월	-572
리스	-573
▁논	-574
▁같다	-575
▁접	-576
▁이러한	-577
년대	-578
▁걸	-579
▁U	-580
▁발견	-581
▁준	-582
나라	-583
▁협	-584
▁번째	-585
re	-586
▁맞	-587
▁193	-588
기의	-589
▁이는	-590
▁30	-591
▁밀	-592
ou	-593
▁미국의	-594
▁주장	-595
▁국제	-596
▁농	-597
되었으며	-598
도록	-599
통령	-600
▁발표	-601
▁W	-602
ion	-603
들과	-604
로부터	-605
▁대부분	-606
▁태어	-607
▁곳	-608
▁갖	-609
(1	-610
▁하지만	-611
▁검	-612
▁면	-613
▁의미	-614
▁사망	-615
▁등을	-616
하면	-617
▁음악	-618
로는	-619
▁향	-620
시키	-621
▁별	-622
자의	-623
▁볼	-624
▁영향	-625
기는	-626
월에	-627
▁잘	-628
리카	-629
명의	-630
년까지	-631
▁방송	-632
군의	-633
리가	-634
▁참여	-635
다는	-636
▁대회	-637
st	-638
▁설치	-639
▁사건	-640
▁키	-641
▁역사	-642
위원	-643
▁전투	-644
기가	-645
란드	-646
▁지방	-647
▁발생	-648
에서도	-649
이트	-650
▁위치한	-651
▁폭	-652
스를	-653
el	-654
▁밝	-655
서는	-656
▁담	-657
▁2010	-658
▁이를	-659
▁대통령	-660
세기	-661
▁귀	-662
했던	-663
▁,	-664
▁막	-665
▁공격	-666
다고	-667
▁되어	-668
디오	-669
정을	-670
쪽으로	-671
▁육	-672
▁우승	-673
▁진행	-674
▁결과	-675
▁문화	-676
자는	-677
▁대학	-678
▁홍	-679
▁효	-680
▁하고	-681
성이	-682
▁얻	-683
들에게	-684
인의	-685
▁프로그	-686
▁최초	-687
▁극	-688
리그	-689
▁관련	-690
어진	-691
▁곡	-692
▁특히	-693
하였으며	-694
▁t	-695
자를	-696
▁경제	-697
▁관계	-698
▁러시아	-699
▁유럽	-700
▁줄	-701
▁날	-702
▁선거	-703
▁다양	-704
▁이전	-705
스가	-706
-1	-707
와의	-708
▁25	-709
▁앨	-710
▁석	-711
om	-712
도를	-713
21	-714
ol	-715
▁블	-716
▁암	-717
▁설립	-718
▁이에	-719
▁새로운	-720
▁인해	-721
리의	-722
림픽	-723
스터	-724
사가	-725
▁책	-726
▁절	-727
▁일어	-728
▁엔	-729
▁시간	-730
▁헤	-731
▁부분	-732
요한	-733
▁갈	-734
▁글	-735
▁질	-736
▁받았다	-737
▁그녀	-738
렸다	-739
자로	-740
▁폐	-741
▁측	-742
▁수도	-743
대를	-744
번째	-745
▁생각	-746
▁된	-747
▁2008	-748
▁형태	-749
이스	-750
라마	-751
▁해당	-752
▁이탈	-753
▁만들어	-754
▁독립	-755
ch	-756
▁주로	-757
르는	-758
▁사실	-759
▁좋	-760
▁지원	-761
et	-762
▁교육	-763
▁같이	-764
▁커	-765
▁O	-766
▁로마	-767
▁와	-768
▁기술	-769
▁봉	-770
▁올림픽	-771
▁슈	-772
▁소속	-773
il	-774
(19	-775
▁이것	-776
▁참가	-777
▁범	-778
▁자유	-779
과의	-780
▁침	-781
▁받아	-782
▁출신	-783
▁머	-784
르크	-785
▁프로그램	-786
▁니	-787
▁누	-788
▁결정	-789
am	-790
지로	-791
학자	-792
▁중앙	-793
식을	-794
▁계속	-795
ing	-796
▁21	-797
도는	-798
므로	-799
▁2012	-800
▁2011	-801
리즈	-802
▁등장	-803
▁출연	-804
▁있고	-805
화국	-806
▁잡	-807
▁2007	-808
▁성공	-809
▁탈	-810
▁데뷔	-811
▁2009	-812
▁상태	-813
▁운영	-814
,000	-815
▁J	-816
▁않았다	-817
▁매우	-818
▁구조	-819
비아	-820
명을	-821
드는	-822
▁골	-823
인이	-824
▁탄	-825
▁이탈리아	-826
▁벌	-827
이션	-828
▁2014	-829
프트	-830
▁생산	-831
▁가지고	-832
▁혼	-833
▁몇	-834
▁싱	-835
부의	-836
▁있던	-837
▁차지	-838
▁넘	-839
사의	-840
ro	-841
이지	-842
▁쿠	-843
처럼	-844
10	-845
▁아버	-846
전을	-847
▁악	-848
기로	-849
▁난	-850
▁아니라	-851
다가	-852
▁케	-853
▁24	-854
▁송	-855
▁100	-856
▁2013	-857
▁여성	-858
으로서	-859
되지	-860
했지만	-861
▁없는	-862
▁전체	-863
▁섬	-864
▁돌아	-865
▁2018	-866
▁타이	-867
▁만들	-868
▁아들	-869
▁들	-870
us	-871
대에	-872
▁급	-873
우스	-874
▁일본의	-875
▁2015	-876
▁찾	-877
▁터	-878
▁제공	-879
왔다	-880
▁폴	-881
▁없다	-882
대학교	-883
▁주요	-884
▁지정	-885
▁따르	-886
도가	-887
▁라이	-888
of	-889
▁아래	-890
명이	-891
▁23	-892
장이	-893
▁운동	-894
하기도	-895
▁2016	-896
에서의	-897
사는	-898
▁고려	-899
▁0	-900
▁윤	-901
▁결국	-902
▁최고	-903
▁.	-904
▁22	-905
▁조직	-906
해서	-907
▁계획	-908
▁행정	-909
스템	-910
▁192	-911
▁업	-912
▁않고	-913
▁떨	-914
일부터	-915
권을	-916
▁다양한	-917
▁팔	-918
▁데이	-919
▁한편	-920
지의	-921
하자	-922
화를	-923
스크	-924
as	-925
▁2017	-926
▁이유	-927
▁2006	-928
스타	-929
군은	-930
운데	-931
▁떠	-932
냈다	-933
▁방법	-934
▁앨범	-935
▁많이	-936
▁둘	-937
원을	-938
부에	-939
▁스타	-940
▁V	-941
▁역할	-942
▁드라마	-943
간의	-944
▁[	-945
▁가리	-946
▁콘	-947
수를	-948
▁스페	-949
▁후보	-950
▁빠	-951
▁28	-952
FA	-953
▁26	-954
수의	-955
어로	-956
▁내용	-957
▁힘	-958
▁유명	-959
▁좌	-960
진다	-961
자인	-962
▁연결	-963
▁빌	-964
▁거의	-965
지가	-966
스와	-967
음을	-968
원의	-969
▁27	-970
")	-971
이의	-972
▁인터	-973
으로써	-974
▁2000	-975
ac	-976
됐다	-977
▁남아	-978
▁몸	-979
▁국민	-980
장은	-981
▁묘	-982
▁가운데	-983
나는	-984
▁마지	-985
▁대학교	-986
▁출전	-987
인민	-988
남도	-989
▁않는다	-990
▁헌	-991
▁2019	-992
선의	-993
▁of	-994
▁칼	-995
▁시리즈	-996
인다	-997
▁따르면	-998
▁마이	-999
▁잠	-1000
▁공식	-1001
대표	-1002
▁월드	-1003
▁높은	-1004
▁영향을	-1005
어를	-1006
장으로	-1007
▁시스템	-1008
▁열린	-1009
점을	-1010
▁표현	-1011
de	-1012
▁각각	-1013
▁모습	-1014
▁추가	-1015
▁마지막	-1016
대학	-1017
▁이루어	-1018
▁하여	-1019
▁공개	-1020
였던	-1021
가는	-1022
하려	-1023
▁컴	-1024
▁엘	-1025
▁필요	-1026
하던	-1027
▁바이	-1028
▁수상	-1029
했으나	-1030
사로	-1031
▁얼	-1032
."	-1033
으로부터	-1034
▁이미	-1035
지에	-1036
이드	-1037
▁191	-1038
머니	-1039
▁노래	-1040
▁격	-1041
▁과정	-1042
▁그룹	-1043
스로	-1044
▁작은	-1045
▁이름을	-1046
▁레이	-1047
리고	-1048
전에	-1049
▁2005	-1050
▁녹	-1051
시의	-1052
▁졸	-1053
("	-1054
▁알려져	-1055
▁능	-1056
▁보고	-1057
이가	-1058
BS	-1059
민주	-1060
▁따라서	-1061
and	-1062
▁190	-1063
수가	-1064
성의	-1065
▁정보	-1066
원이	-1067
제로	-1068
구의	-1069
▁직접	-1070
▁임명	-1071
▁진출	-1072
▁붙	-1073
▁쇼	-1074
으로는	-1075
해야	-1076
▁몰	-1077
었고	-1078
▁2020	-1079
대한	-1080
ed	-1081
▁인정	-1082
▁그것	-1083
▁기능	-1084
▁않은	-1085
▁유지	-1086
▁밴	-1087
력이	-1088
시켰	-1089
ent	-1090
▁인도	-1091
▁이야	-1092
운동	-1093
▁평가	-1094
▁센	-1095
▁대신	-1096
▁29	-1097
초등학교	-1098
.1	-1099
▁보여	-1100
위원회	-1101
▁오스트	-1102
▁상황	-1103
▁개최	-1104
▁프리	-1105
▁2004	-1106
▁철도	-1107
▁시대	-1108
지고	-1109
▁자연	-1110
제를	-1111
텔레	-1112
▁기원	-1113
▁눈	-1114
니다	-1115
▁먹	-1116
▁건설	-1117
들에	-1118
▁퍼	-1119
상의	-1120
▁뛰	-1121
▁형성	-1122
200	-1123
_1	-1124
▁기업	-1125
▁풍	-1126
▁브라	-1127
▁중요한	-1128
전히	-1129
▁변경	-1130
르트	-1131
▁건물	-1132
인은	-1133
▁경상	-1134
▁c	-1135
▁대전	-1136
▁그가	-1137
▁항공	-1138
▁제국	-1139
ur	-1140
▁모델	-1141
▁아르	-1142
위에	-1143
▁정의	-1144
▁활약	-1145
▁민주	-1146
▁않았	-1147
▁생활	-1148
▁영화이다	-1149
사에	-1150
어는	-1151
▁플레이	-1152
▁되는	-1153
ig	-1154
갔다	-1155
군이	-1156
▁그리스	-1157
▁관한	-1158
인을	-1159
▁티	-1160
▁후에	-1161
▁발전	-1162
▁핵	-1163
선을	-1164
▁낮	-1165
).	-1166
문화	-1167
▁서로	-1168
▁압	-1169
▁학교	-1170
▁정도	-1171
치는	-1172
▁졸업	-1173
▁공동	-1174
▁크게	-1175
▁홈	-1176
▁m	-1177
▁이론	-1178
▁인구는	-1179
군에	-1180
▁비롯	-1181
▁결혼	-1182
일까지	-1183
트로	-1184
▁있는데	-1185
▁응	-1186
수로	-1187
▁시작했다	-1188
전에서	-1189
킨다	-1190
레스	-1191
▁싱글	-1192
▁방식	-1193
▁워	-1194
▁지금	-1195
세의	-1196
iv	-1197
▁울	-1198
.5	-1199
▁시절	-1200
▁사이에	-1201
▁인물	-1202
▁희	-1203
▁말한다	-1204
▁여자	-1205
▁기준으로	-1206
▁뜻은	-1207
▁가진	-1208
▁역시	-1209
▁혹	-1210
북도	-1211
22	-1212
부를	-1213
ra	-1214
▁31	-1215
▁뿐	-1216
계를	-1217
▁일으	-1218
프리카	-1219
▁관리	-1220
▁분류	-1221
▁태어났다	-1222
비전	-1223
▁느	-1224
▁사업	-1225
▁노동	-1226
원은	-1227
▁반대	-1228
▁요구	-1229
인민공	-1230
스탄	-1231
적은	-1232
▁서비	-1233
치를	-1234
있다	-1235
▁원래	-1236
드의	-1237
부는	-1238
▁않는	-1239
▁기반	-1240
▁딸	-1241
▁군사	-1242
▁마을	-1243
▁현대	-1244
50	-1245
ation	-1246
ot	-1247
원으로	-1248
un	-1249
▁만든	-1250
▁기타	-1251
▁상대	-1252
▁거쳐	-1253
문을	-1254
▁색	-1255
▁학생	-1256
되면서	-1257
▁지역의	-1258
▁나라	-1259
▁연합	-1260
▁출시	-1261
▁벨	-1262
▁기간	-1263
나다	-1264
되며	-1265
임을	-1266
▁아닌	-1267
리오	-1268
▁콜	-1269
▁판매	-1270
수는	-1271
▁동시에	-1272
▁지도	-1273
▁역할을	-1274
▁FC	-1275
▁긴	-1276
장의	-1277
▁어떤	-1278
▁계약	-1279
제가	-1280
▁실시	-1281
▁2002	-1282
▁놓	-1283
▁전국	-1284
른다	-1285
대는	-1286
▁제외	-1287
▁기본	-1288
▁자동	-1289
▁2003	-1290
▁이동	-1291
대가	-1292
▁텔레	-1293
▁부산	-1294
▁운행	-1295
상이	-1296
▁지구	-1297
▁비판	-1298
▁개인	-1299
▁중화	-1300
▁특징	-1301
▁수행	-1302
운드	-1303
id	-1304
▁전통	-1305
▁하였	-1306
▁이르	-1307
▁초기	-1308
▁처음으로	-1309
▁50	-1310
회를	-1311
이었던	-1312
▁the	-1313
▁최초의	-1314
체의	-1315
▁휴	-1316
▁빈	-1317
▁소련	-1318
▁:	-1319
▁있다고	-1320
광역	-1321
▁경기도	-1322
이를	-1323
▁잉	-1324
▁개의	-1325
제의	-1326
▁샤	-1327
정한	-1328
주는	-1329
▁지하	-1330
▁증가	-1331
]]	-1332
상으로	-1333
▁푸	-1334
▁배우이다	-1335
os	-1336
장에	-1337
▁웨	-1338
▁겸	-1339
▁인간	-1340
했는데	-1341
▁도쿄	-1342
um	-1343
자와	-1344
군을	-1345
▁189	-1346
하는데	-1347
▁일반적으로	-1348
▁전문	-1349
학적	-1350
▁슬	-1351
▁연방	-1352
▁여기	-1353
▁사랑	-1354
▁그래	-1355
▁퇴	-1356
▁맥	-1357
명은	-1358
▁다이	-1359
시마	-1360
▁싸	-1361
이기도	-1362
린다	-1363
가와	-1364
▁민족	-1365
▁1,	-1366
특별	-1367
▁도입	-1368
▁명칭	-1369
하였으나	-1370
역이다	-1371
ad	-1372
▁견	-1373
단의	-1374
▁[[	-1375
▁1990	-1376
▁기관	-1377
▁애니	-1378
▁종교	-1379
▁의한	-1380
▁있을	-1381
▁공간	-1382
소를	-1383
트를	-1384
중에	-1385
트의	-1386
어가	-1387
장에서	-1388
▁혹은	-1389
▁망	-1390
▁기존	-1391
▁엄	-1392
▁정책	-1393
▁비슷	-1394
▁특별	-1395
▁산업	-1396
▁보통	-1397
▁달리	-1398
물을	-1399
od	-1400
성은	-1401
▁s	-1402
▁혁	-1403
혔다	-1404
▁스위	-1405
▁위하여	-1406
체를	-1407
격을	-1408
▁p	-1409
▁목록	-1410
▁공연	-1411
▁이때	-1412
▁승강	-1413
드로	-1414
▁지나	-1415
▁야구	-1416
ter	-1417
하지만	-1418
카이	-1419
▁작업	-1420
▁궁	-1421
적을	-1422
▁이끌	-1423
▁작곡	-1424
▁나오	-1425
시간	-1426
▁하며	-1427
키는	-1428
호를	-1429
어의	-1430
▁넓	-1431
▁지배	-1432
.2	-1433
서를	-1434
▁역임	-1435
독교	-1436
201	-1437
▁어머니	-1438
▁훈	-1439
im	-1440
▁설명	-1441
30	-1442
과는	-1443
▁옮	-1444
▁바로	-1445
▁될	-1446
▁가수	-1447
▁유일	-1448
BC	-1449
ir	-1450
리와	-1451
스코	-1452
▁추정	-1453
▁소설	-1454
▁탑	-1455
▁과거	-1456
▁주변	-1457
▁뮤	-1458
▁변화	-1459
드를	-1460
▁적용	-1461
▁탐	-1462
트는	-1463
▁국내	-1464
▁경찰	-1465
▁전라	-1466
▁경기에서	-1467
스에	-1468
▁아버지	-1469
▁40	-1470
▁월드컵	-1471
().	-1472
▁되고	-1473
▁모양	-1474
▁(19	-1475
위로	-1476
▁받은	-1477
▁동일	-1478
야마	-1479
▁노선	-1480
무를	-1481
▁지휘	-1482
학과	-1483
르게	-1484
▁있다는	-1485
▁이것은	-1486
▁교황	-1487
리로	-1488
있는	-1489
도에	-1490
가지	-1491
▁행동	-1492
▁흔	-1493
▁비교	-1494
연구	-1495
리지	-1496
명이다	-1497
▁2001	-1498
▁확인	-1499
▁받았	-1500
마다	-1501
동안	-1502
쪽에	-1503
경기	-1504
▁규모	-1505
▁이적	-1506
시켰다	-1507
▁보내	-1508
피언	-1509
▁가족	-1510
ia	-1511
기관	-1512
▁지지	-1513
▁뉴욕	-1514
▁획	-1515
의를	-1516
▁그를	-1517
▁컴퓨	-1518
메이션	-1519
▁최대	-1520
▁선정	-1521
▁없이	-1522
▁환경	-1523
ut	-1524
▁피해	-1525
▁분야	-1526
▁중심으로	-1527
쳤다	-1528
▁대부분의	-1529
▁캐나다	-1530
▁때문이다	-1531
▁텔레비전	-1532
▁먼	-1533
▁통합	-1534
▁너	-1535
▁기원전	-1536
▁상당	-1537
op	-1538
▁염	-1539
▁득	-1540
60	-1541
회는	-1542
하거나	-1543
ct	-1544
▁2021	-1545
▁우주	-1546
▁국가대표	-1547
체가	-1548
▁차량	-1549
년의	-1550
▁윌	-1551
▁건축	-1552
▁가까	-1553
▁방향	-1554
▁태양	-1555
사와	-1556
▁대체	-1557
호로	-1558
▁이상의	-1559
▁멤	-1560
▁옥	-1561
▁풀	-1562
▁담당	-1563
▁착	-1564
정에	-1565
▁스페인	-1566
광역시	-1567
▁떨어	-1568
▁밖	-1569
관은	-1570
▁곧	-1571
▁보호	-1572
▁오늘	-1573
▁열차	-1574
▁기독교	-1575
▁숙	-1576
▁현재의	-1577
em	-1578
▁개념	-1579
▁FI	-1580
고등학교	-1581
▁자기	-1582
▁Y	-1583
크로	-1584
▁어느	-1585
▁언급	-1586
▁챔	-1587
방송	-1588
▁어린	-1589
되었던	-1590
단을	-1591
세는	-1592
▁받고	-1593
▁자신이	-1594
▁실패	-1595
▁몽	-1596
드리	-1597
▁있지만	-1598
제는	-1599
했다고	-1600
▁올라	-1601
18	-1602
▁부르	-1603
▁1980	-1604
.0	-1605
호는	-1606
▁연주	-1607
▁수는	-1608
▁갑	-1609
류의	-1610
▁찾아	-1611
▁선택	-1612
▁낙	-1613
▁방영	-1614
▁이런	-1615
▁TV	-1616
자들은	-1617
▁선출	-1618
▁주연	-1619
▁되었고	-1620
▁도로	-1621
▁발매된	-1622
▁감독의	-1623
이로	-1624
▁멤버	-1625
▁이와	-1626
▁두고	-1627
▁컴퓨터	-1628
▁데이터	-1629
▁기념	-1630
▁평균	-1631
▁1999	-1632
▁활동을	-1633
했을	-1634
인으로	-1635
▁속하는	-1636
▁애니메이션	-1637
당의	-1638
▁늘	-1639
▁세포	-1640
▁클럽	-1641
움을	-1642
ag	-1643
▁칸	-1644
인민공화국	-1645
글랜드	-1646
▁베이	-1647
ow	-1648
원에	-1649
▁조사	-1650
기와	-1651
▁충청	-1652
▁그녀는	-1653
▁부족	-1654
▁사고	-1655
▁걸쳐	-1656
▁언어	-1657
▁챔피언	-1658
부가	-1659
▁최종	-1660
▁넣	-1661
▁없었다	-1662
▁흐	-1663
트리	-1664
인이다	-1665
▁수록	-1666
▁1998	-1667
종의	-1668
▁반응	-1669
일에는	-1670
단은	-1671
▁작가	-1672
성과	-1673
적이	-1674
관을	-1675
치가	-1676
조의	-1677
▁나가	-1678
▁과학	-1679
▁획득	-1680
▁런	-1681
▁제작된	-1682
▁앤	-1683
성에	-1684
▁d	-1685
면에	-1686
렇게	-1687
메리카	-1688
▁위원	-1689
▁예정	-1690
80	-1691
40	-1692
심을	-1693
겼다	-1694
교육	-1695
일을	-1696
▁최근	-1697
계의	-1698
트남	-1699
▁솔	-1700
▁효과	-1701
시켜	-1702
▁더욱	-1703
▁이름은	-1704
▁지속	-1705
세가	-1706
▁거주	-1707
▁사상	-1708
▁시민	-1709
oc	-1710
으면	-1711
-2	-1712
렀다	-1713
▁하나이다	-1714
▁잔	-1715
포츠	-1716
▁동물	-1717
▁개봉	-1718
▁등에	-1719
▁b	-1720
스카	-1721
▁옛	-1722
▁입단	-1723
▁지역에	-1724
▁하다	-1725
▁그들의	-1726
▁St	-1727
▁다음을	-1728
▁있어서	-1729
▁윈	-1730
.3	-1731
▁있었던	-1732
구에	-1733
▁지정되었다	-1734
▁사이의	-1735
▁불가	-1736
리에서	-1737
화가	-1738
▁출판	-1739
▁대하여	-1740
▁FIFA	-1741
구하고	-1742
▁정당	-1743
널리	-1744
▁유사	-1745
역을	-1746
▁땅	-1747
하도록	-1748
쪽으로는	-1749
▁조건	-1750
▁마르	-1751
스에서	-1752
▁최초로	-1753
난다	-1754
▁칭	-1755
▁내려	-1756
▁전에	-1757
나무	-1758
▁에너	-1759
▁형식	-1760
▁잉글랜드	-1761
ay	-1762
▁관할	-1763
프로	-1764
시키는	-1765
▁뛰어	-1766
▁예를	-1767
▁가리킨다	-1768
▁1997	-1769
▁결승	-1770
▁선언	-1771
▁보인다	-1772
세를	-1773
▁연속	-1774
▁조지	-1775
▁것이라고	-1776
한다는	-1777
▁소유	-1778
▁맺	-1779
▁교회	-1780
▁발매되었다	-1781
▁어려	-1782
▁등으로	-1783
▁표준	-1784
▁전기	-1785
▁물리	-1786
ce	-1787
▁액	-1788
▁말했다	-1789
이어	-1790
▁흑	-1791
▁1996	-1792
▁1995	-1793
개월	-1794
▁좋은	-1795
▁명령	-1796
▁자료	-1797
▁구간	-1798
▁헌법	-1799
▁목표	-1800
학을	-1801
덜란드	-1802
스테	-1803
▁점령	-1804
동에	-1805
▁The	-1806
자들이	-1807
▁이들은	-1808
.)	-1809
▁이해	-1810
이에	-1811
▁공산	-1812
15	-1813
소가	-1814
명으로	-1815
▁있게	-1816
▁포함한	-1817
▁컨	-1818
▁폴란드	-1819
▁알려진	-1820
이란	-1821
메달	-1822
지방	-1823
▁대중	-1824
ers	-1825
▁선발	-1826
▁예술	-1827
체는	-1828
▁아시아	-1829
▁엔진	-1830
▁정규	-1831
▁포르	-1832
함으로써	-1833
▁움	-1834
이지만	-1835
▁국립	-1836
ha	-1837
▁잃	-1838
▁후반	-1839
스턴	-1840
▁교통	-1841
▁인천	-1842
▁X	-1843
루스	-1844
cm	-1845
구를	-1846
▁서울특별	-1847
▁1970	-1848
▁덴	-1849
내는	-1850
라의	-1851
랐다	-1852
▁레코	-1853
▁버전	-1854
라도	-1855
만을	-1856
▁오늘날	-1857
▁이유로	-1858
▁크리스	-1859
▁팬	-1860
▁불구하고	-1861
상은	-1862
▁결합	-1863
▁정신	-1864
▁국가대표팀	-1865
▁제한	-1866
▁밝혔다	-1867
▁소비	-1868
▁고대	-1869
▁부문	-1870
호선	-1871
중학교	-1872
선거	-1873
mm	-1874
▁메이	-1875
▁명의	-1876
▁이름으로	-1877
만이	-1878
▁사용하는	-1879
▁징	-1880
▁겨	-1881
70	-1882
일랜드	-1883
▁모습을	-1884
▁대구	-1885
▁우리	-1886
▁네덜란드	-1887
되었으나	-1888
▁깊	-1889
▁1994	-1890
▁분석	-1891
.4	-1892
모토	-1893
▁치료	-1894
ul	-1895
상에	-1896
▁그들은	-1897
▁맡았다	-1898
▁영국의	-1899
▁흥	-1900
▁익	-1901
정부	-1902
▁거두	-1903
부르크	-1904
▁188	-1905
되기	-1906
▁실험	-1907
년간	-1908
th	-1909
▁돈	-1910
▁밴드	-1911
레일	-1912
▁제안	-1913
▁주민	-1914
▁의미한다	-1915
웠다	-1916
▁통과	-1917
▁하나로	-1918
12	-1919
▁1992	-1920
▁경험	-1921
주에	-1922
▁시설	-1923
▁믿	-1924
었으며	-1925
스티	-1926
▁승리	-1927
▁분리	-1928
배우	-1929
ov	-1930
▁프로젝	-1931
▁나머	-1932
",	-1933
▁공화국	-1934
▁북한	-1935
▁드러	-1936
▁설계	-1937
▁국회의	-1938
▁성장	-1939
▁구분	-1940
▁정확	-1941
스키	-1942
▁미국에서	-1943
▁조약	-1944
골을	-1945
▁전자	-1946
▁강화	-1947
▁왜	-1948
▁웹	-1949
가의	-1950
▁휘	-1951
ie	-1952
▁km	-1953
원에서	-1954
▁은퇴	-1955
▁덕	-1956
▁끌	-1957
▁홀	-1958
월부터	-1959
사회	-1960
정이	-1961
▁완전히	-1962
스토	-1963
비를	-1964
▁수준	-1965
학의	-1966
금을	-1967
▁제조	-1968
바이	-1969
▁자치	-1970
▁하나의	-1971
▁제품	-1972
▁음반이다	-1973
▁페르	-1974
지와	-1975
▁방문	-1976
▁베트남	-1977
▁밤	-1978
▁실제	-1979
▁달러	-1980
시대	-1981
16	-1982
월에는	-1983
▁확장	-1984
▁그런	-1985
',	-1986
▁쌍	-1987
지지	-1988
인데	-1989
▁요시	-1990
▁아프리카	-1991
관이	-1992
▁여겨	-1993
▁것에	-1994
▁유래	-1995
단이	-1996
▁찬	-1997
소의	-1998
▁가문	-1999
▁현재는	-2000
▁하지	-2001
▁크로	-2002
▁쓴	-2003
베이	-2004
▁그림	-2005
▁1991	-2006
▁혈	-2007
▁아직	-2008
단에	-2009
▁면적은	-2010
로의	-2011
▁유전	-2012
▁마음	-2013
▁이듬	-2014
▁중에	-2015
베르	-2016
▁비해	-2017
나이	-2018
▁소프트	-2019
들로	-2020
▁때까지	-2021
▁이곳	-2022
▁핀	-2023
▁기여	-2024
▁헬	-2025
직을	-2026
시는	-2027
계에	-2028
▁친구	-2029
▁런던	-2030
▁중요	-2031
▁널리	-2032
▁남자	-2033
라스	-2034
▁회사	-2035
▁하이	-2036
지역	-2037
카와	-2038
형을	-2039
▁못했다	-2040
▁발달	-2041
▁물질	-2042
▁사무	-2043
▁아마	-2044
▁비행	-2045
▁부여	-2046
트가	-2047
.6	-2048
시코	-2049
▁언론	-2050
▁접근	-2051
▁알렉	-2052
▁1960	-2053
러스	-2054
▁선수이다	-2055
▁이듬해	-2056
▁괴	-2057
▁단체	-2058
치고	-2059
▁소재	-2060
▁1993	-2061
으므로	-2062
▁영토	-2063
크라	-2064
▁사진	-2065
▁마찬	-2066
소는	-2067
▁움직	-2068
▁요청	-2069
.7	-2070
▁씨	-2071
로를	-2072
어서	-2073
▁육군	-2074
▁세워	-2075
▁멸	-2076
▁있도록	-2077
▁외국	-2078
▁나온	-2079
▁차례	-2080
-0	-2081
▁파괴	-2082
▁서울특별시	-2083
교회	-2084
정의	-2085
법을	-2086
▁오래	-2087
라인	-2088
ri	-2089
과에	-2090
아의	-2091
13	-2092
르의	-2093
산을	-2094
TV	-2095
었던	-2096
사카	-2097
감을	-2098
▁사람이	-2099
선에	-2100
▁우승을	-2101
톨릭	-2102
르고	-2103
▁불리	-2104
민주주의	-2105
▁수용	-2106
14	-2107
▁자주	-2108
▁의하여	-2109
▁록	-2110
▁오스트리아	-2111
▁선수로	-2112
▁스포츠	-2113
▁하계	-2114
▁위에	-2115
▁고등학교	-2116
주시	-2117
들도	-2118
지에서	-2119
가를	-2120
경을	-2121
NA	-2122
▁멀	-2123
▁프랑스의	-2124
▁특정	-2125
가지로	-2126
▁맨	-2127
드에	-2128
▁60	-2129
▁펼	-2130
▁지진	-2131
식이	-2132
ist	-2133
▁주의	-2134
▁1988	-2135
점이	-2136
하의	-2137
▁정도로	-2138
▁이로	-2139
규모	-2140
▁주인	-2141
▁바탕	-2142
드가	-2143
▁경쟁	-2144
▁사람들이	-2145
▁지상	-2146
▁독일의	-2147
릭터	-2148
위가	-2149
▁공항	-2150
▁배치	-2151
▁쉽	-2152
▁비롯한	-2153
▁깨	-2154
.8	-2155
17	-2156
▁지난	-2157
▁존재한다	-2158
시즌	-2159
▁근처	-2160
▁기록했다	-2161
정은	-2162
▁촉	-2163
▁않아	-2164
위는	-2165
▁식민	-2166
▁등과	-2167
▁더불	-2168
▁스웨	-2169
▁몬	-2170
▁개혁	-2171
▁추진	-2172
og	-2173
▁품	-2174
▁짧	-2175
▁정식	-2176
▁사라	-2177
▁서식	-2178
▁오른	-2179
▁을	-2180
인과	-2181
▁공립	-2182
▁연기	-2183
▁In	-2184
업을	-2185
▁스스로	-2186
▁전해	-2187
▁남부	-2188
주를	-2189
구는	-2190
_2	-2191
▁참여하였다	-2192
▁복귀	-2193
물의	-2194
▁더불어	-2195
▁밝혀	-2196
▁브라질	-2197
로나	-2198
▁빛	-2199
▁패배	-2200
▁과정에서	-2201
위의	-2202
▁지역에서	-2203
▁스튜	-2204
▁슈퍼	-2205
▁in	-2206
▁유명한	-2207
자리	-2208
▁1989	-2209
▁주연으로	-2210
받았다	-2211
장과	-2212
당은	-2213
영화	-2214
버스	-2215
▁생성	-2216
▁디자인	-2217
▁갖고	-2218
▁강력	-2219
▁만나	-2220
▁작용	-2221
▁그대로	-2222
▁해석	-2223
▁스트	-2224
▁꽃	-2225
일의	-2226
▁이들	-2227
▁인터넷	-2228
EFA	-2229
ap	-2230
많은	-2231
웨어	-2232
아가	-2233
▁해결	-2234
▁가르	-2235
▁자리	-2236
▁바뀌	-2237
▁습	-2238
크의	-2239
▁캐릭터	-2240
거리	-2241
동을	-2242
디어	-2243
▁자동차	-2244
우는	-2245
부로	-2246
▁왕국	-2247
관으로	-2248
▁아시	-2249
도와	-2250
▁스웨덴	-2251
▁잇	-2252
.9	-2253
회에서	-2254
력은	-2255
▁가져	-2256
▁KBS	-2257
지게	-2258
▁법률	-2259
▁칠	-2260
▁단순	-2261
▁기초	-2262
%)	-2263
▁도착	-2264
▁것이었다	-2265
▁제국의	-2266
신을	-2267
식은	-2268
▁분포	-2269
이기	-2270
▁주도	-2271
되기도	-2272
멕시코	-2273
되었는데	-2274
▁영어	-2275
▁경우가	-2276
▁거부	-2277
▁비디오	-2278
▁그녀의	-2279
간다	-2280
행을	-2281
▁일어나	-2282
오는	-2283
▁프레	-2284
하라	-2285
▁폐지	-2286
선이	-2287
▁사용한다	-2288
▁구성되어	-2289
졌고	-2290
▁사용된다	-2291
▁선수권	-2292
없이	-2293
▁이외	-2294
▁통일	-2295
▁불교	-2296
▁UEFA	-2297
▁먼저	-2298
▁상호	-2299
▁교수	-2300
▁가톨릭	-2301
▁외교	-2302
▁초대	-2303
▁제시	-2304
▁불리는	-2305
습니다	-2306
est	-2307
▁필리	-2308
레일리아	-2309
▁초등학교	-2310
▁중간	-2311
ard	-2312
군과	-2313
트에서	-2314
소년	-2315
▁/	-2316
▁않다	-2317
(200	-2318
▁많다	-2319
▁위험	-2320
▁70	-2321
▁나머지	-2322
▁알고	-2323
▁수많은	-2324
형의	-2325
▁부정	-2326
▁여름	-2327
화국의	-2328
The	-2329
▁가능하다	-2330
▁그린	-2331
▁187	-2332
▁아카	-2333
ne	-2334
▁술	-2335
▁스위스	-2336
▁관측	-2337
▁보다	-2338
▁들어가	-2339
▁앙	-2340
ab	-2341
oun	-2342
▁투표	-2343
48	-2344
▁겪	-2345
회사	-2346
기술	-2347
주로	-2348
▁황제	-2349
ht	-2350
웨이	-2351
전의	-2352
▁스테	-2353
▁캠	-2354
▁마찬가지로	-2355
▁비슷한	-2356
낸다	-2357
철도	-2358
▁의원	-2359
▁있었고	-2360
하기로	-2361
ess	-2362
▁동맹	-2363
량이	-2364
▁반란	-2365
▁다르	-2366
▁시행	-2367
▁이주	-2368
▁빅	-2369
자에	-2370
▁다카	-2371
▁통치	-2372
▁윌리	-2373
▁목적으로	-2374
▁라디오	-2375
고를	-2376
25	-2377
▁팀의	-2378
▁해안	-2379
▁표시	-2380
구가	-2381
하이	-2382
했다는	-2383
▁만에	-2384
▁이사	-2385
▁결성	-2386
▁놀	-2387
화된	-2388
▁186	-2389
▁노르	-2390
자이다	-2391
▁디지	-2392
트워	-2393
지션	-2394
▁야마	-2395
▁집합	-2396
미터	-2397
ine	-2398
전이	-2399
한다고	-2400
▁삶	-2401
▁출생	-2402
▁살아	-2403
▁여기서	-2404
수한	-2405
▁뇌	-2406
촬영	-2407
▁아무	-2408
35	-2409
▁것과	-2410
▁이야기	-2411
▁1950	-2412
▁상대로	-2413
조는	-2414
▁훈련	-2415
▁바르	-2416
선은	-2417
나가	-2418
▁다만	-2419
▁삼성	-2420
정보	-2421
부에서	-2422
▁조각	-2423
▁중단	-2424
▁북쪽	-2425
▁체포	-2426
▁있으나	-2427
▁흡	-2428
량을	-2429
디아	-2430
▁묘사	-2431
▁지역을	-2432
▁경영	-2433
종이다	-2434
▁시도	-2435
▁사용할	-2436
년을	-2437
일본	-2438
만의	-2439
▁and	-2440
하였는데	-2441
▁남쪽	-2442
▁오브	-2443
▁십	-2444
▁파견	-2445
▁때는	-2446
▁시기	-2447
▁의하면	-2448
전은	-2449
▁광주	-2450
▁벤	-2451
▁임시	-2452
아시아	-2453
▁감소	-2454
▁상징	-2455
였으며	-2456
▁궤	-2457
▁바꾸	-2458
티아	-2459
▁1987	-2460
▁떨어진	-2461
▁아일랜드	-2462
오카	-2463
▁근거	-2464
식의	-2465
하다가	-2466
ity	-2467
▁히로	-2468
▁발행	-2469
▁나무	-2470
▁지냈다	-2471
▁준비	-2472
90	-2473
속도로	-2474
▁캘	-2475
라우	-2476
과학	-2477
회가	-2478
▁오스트레일리아	-2479
▁유니	-2480
▁가정	-2481
▁끝에	-2482
▁대사	-2483
센터	-2484
▁대응	-2485
▁형태로	-2486
았고	-2487
▁활용	-2488
시를	-2489
▁1986	-2490
▁공작	-2491
art	-2492
▁베르	-2493
인들이	-2494
▁관련된	-2495
▁가능한	-2496
▁등록	-2497
▁보유	-2498
회에	-2499
되었지만	-2500
인트	-2501
▁곤	-2502
▁강원	-2503
▁번역	-2504
▁억	-2505
11	-2506
▁벽	-2507
▁개통	-2508
▁달성	-2509
▁센터	-2510
였고	-2511
함을	-2512
▁몇몇	-2513
▁서비스	-2514
▁방어	-2515
▁80	-2516
24	-2517
▁붕	-2518
▁있기	-2519
어나	-2520
▁재판	-2521
▁숨	-2522
▁일제	-2523
▁유대	-2524
어졌다	-2525
▁일을	-2526
▁멕시코	-2527
.(	-2528
▁이루어진	-2529
▁2,	-2530
▁처리	-2531
▁바다	-2532
▁좋아	-2533
▁연극	-2534
23	-2535
▁귀족	-2536
▁성립	-2537
두고	-2538
▁정부는	-2539
▁1984	-2540
ill	-2541
▁1945	-2542
▁체결	-2543
평양	-2544
▁포르투	-2545
▁간의	-2546
▁이렇게	-2547
▁이스	-2548
▁논란	-2549
▁따른	-2550
사에서	-2551
▁둔	-2552
▁다루	-2553
▁회의	-2554
화의	-2555
▁천황	-2556
▁안정	-2557
▁디지털	-2558
대와	-2559
▁조선민주주의	-2560
▁타이틀	-2561
▁엘리	-2562
성으로	-2563
▁시험	-2564
▁대표적인	-2565
▁뮤직	-2566
ang	-2567
▁르	-2568
▁파이	-2569
가로	-2570
프는	-2571
▁시작하였다	-2572
니는	-2573
도우	-2574
▁유일한	-2575
▁중에서	-2576
점으로	-2577
▁합류	-2578
▁윌리엄	-2579
▁대해서	-2580
▁낳	-2581
▁에이	-2582
▁유로	-2583
인지	-2584
▁규정	-2585
부와	-2586
▁금지	-2587
▁직후	-2588
▁촬영	-2589
▁여객	-2590
치로	-2591
▁지하철	-2592
▁로스	-2593
▁이름이	-2594
▁후쿠	-2595
▁멜	-2596
면을	-2597
▁종료	-2598
▁위해서	-2599
▁녹음	-2600
▁떠나	-2601
▁반면	-2602
▁꾸	-2603
▁2022	-2604
▁동생	-2605
▁혐	-2606
▁완성	-2607
▁낮은	-2608
▁부른다	-2609
▁주인공	-2610
▁살해	-2611
▁제주	-2612
▁하루	-2613
트에	-2614
▁나타나	-2615
▁카를	-2616
력의	-2617
▁얼마	-2618
▁문학	-2619
▁정착	-2620
▁싶	-2621
▁즉위	-2622
▁미사	-2623
▁1985	-2624
▁제기	-2625
▁내각	-2626
사업	-2627
▁값	-2628
선에서	-2629
▁지적	-2630
▁계열	-2631
리포	-2632
시가	-2633
▁있지	-2634
▁문서	-2635
▁전달	-2636
▁국왕	-2637
▁못한	-2638
조를	-2639
전한	-2640
버트	-2641
으면서	-2642
물이	-2643
국이	-2644
▁당선	-2645
av	-2646
ec	-2647
가이다	-2648
▁이슬	-2649
▁적이	-2650
러운	-2651
▁전환	-2652
량은	-2653
치의	-2654
▁중국의	-2655
해졌다	-2656
크라이나	-2657
롭게	-2658
▁보존	-2659
▁젊	-2660
세포	-2661
▁혁명	-2662
▁이집	-2663
▁만들었다	-2664
체로	-2665
ell	-2666
국은	-2667
▁취임	-2668
ip	-2669
▁정치적	-2670
▁아내	-2671
▁해외	-2672
▁여전히	-2673
▁제거	-2674
"(	-2675
if	-2676
안을	-2677
▁그렇	-2678
당이	-2679
▁보수	-2680
▁동쪽	-2681
▁소개	-2682
▁보여주	-2683
계가	-2684
▁홍콩	-2685
te	-2686
와는	-2687
▁대해서는	-2688
▁관계를	-2689
소에	-2690
▁강한	-2691
▁35	-2692
▁일어난	-2693
요일	-2694
▁인근	-2695
ob	-2696
▁안에	-2697
연합	-2698
▁필요한	-2699
나의	-2700
자들의	-2701
▁종합	-2702
▁폰	-2703
▁썼	-2704
로가	-2705
헝가	-2706
▁계승	-2707
▁벗	-2708
▁사이에서	-2709
▁제목	-2710
▁한국의	-2711
▁쌓	-2712
크는	-2713
▁공급	-2714
시키고	-2715
)'	-2716
▁대륙	-2717
▁스코	-2718
▁승강장	-2719
▁곳에	-2720
단으로	-2721
▁남성	-2722
▁제작에	-2723
ak	-2724
▁사용하여	-2725
▁표기	-2726
▁문제를	-2727
▁경기를	-2728
▁인식	-2729
▁의견	-2730
▁사람은	-2731
▁주목	-2732
하에	-2733
▁위치해	-2734
▁종류	-2735
시킨	-2736
▁펜	-2737
▁밑	-2738
▁관광	-2739
▁Ch	-2740
▁수비	-2741
▁영역	-2742
86	-2743
▁본래	-2744
▁1982	-2745
▁신문	-2746
▁부모	-2747
▁스튜디오	-2748
과를	-2749
학생	-2750
인들은	-2751
주교	-2752
려고	-2753
_3	-2754
▁이래	-2755
월까지	-2756
▁중의	-2757
기업	-2758
관의	-2759
피아	-2760
▁것도	-2761
▁충돌	-2762
▁못하고	-2763
수이다	-2764
작용	-2765
▁가까운	-2766
되자	-2767
▁꼬	-2768
워드	-2769
▁옮겨	-2770
▁네트워	-2771
▁승격	-2772
▁사망하였다	-2773
▁읽	-2774
력으로	-2775
▁발사	-2776
▁근무	-2777
니스	-2778
▁즐	-2779
준다	-2780
즈의	-2781
▁왼	-2782
▁굴	-2783
▁물론	-2784
임스	-2785
▁알렉산	-2786
▁류	-2787
all	-2788
45	-2789
▁1983	-2790
▁피아	-2791
세에	-2792
▁나중에	-2793
▁문제가	-2794
▁우크라이나	-2795
년대에	-2796
메달을	-2797
사이	-2798
▁집중	-2799
▁조성	-2800
프가	-2801
▁아니다	-2802
▁너무	-2803
▁미래	-2804
▁전략	-2805
나라의	-2806
권의	-2807
▁생물	-2808
▁프로듀	-2809
적으로는	-2810
▁나누	-2811
▁상업	-2812
▁오후	-2813
▁e	-2814
▁빨	-2815
▁오르	-2816
▁구역	-2817
▁최소	-2818
▁케이	-2819
▁종목	-2820
년과	-2821
ive	-2822
▁평화	-2823
▁실제로	-2824
▁지명	-2825
89	-2826
▁둘러	-2827
적이고	-2828
▁허용	-2829
백질	-2830
▁죄	-2831
리어	-2832
▁명예	-2833
시로	-2834
▁베네	-2835
▁서쪽	-2836
▁듣	-2837
계는	-2838
내고	-2839
▁스토	-2840
리히	-2841
▁기후	-2842
메이	-2843
론을	-2844
▁가는	-2845
로로	-2846
▁32	-2847
▁경상북도	-2848
▁강조	-2849
▁인한	-2850
▁인민	-2851
▁수가	-2852
▁올랐다	-2853
▁사용되는	-2854
▁경상남도	-2855
▁제도	-2856
▁경우에는	-2857
▁범죄	-2858
▁주었다	-2859
▁납	-2860
분을	-2861
▁미술	-2862
▁이용하여	-2863
▁가입	-2864
산의	-2865
은행	-2866
그룹	-2867
▁최고의	-2868
▁말을	-2869
점에서	-2870
▁보이	-2871
▁신경	-2872
▁포르투갈	-2873
▁포지션	-2874
로운	-2875
▁북부	-2876
▁이슬람	-2877
▁종종	-2878
-3	-2879
▁감염	-2880
▁비밀	-2881
ub	-2882
▁몽골	-2883
▁관찰	-2884
▁이번	-2885
▁델	-2886
량의	-2887
▁아우	-2888
▁아키	-2889
족의	-2890
▁뒤에	-2891
▁정리	-2892
▁n	-2893
▁컬	-2894
▁사실을	-2895
당을	-2896
라노	-2897
리스트	-2898
ant	-2899
▁이루어져	-2900
▁바탕으로	-2901
로스	-2902
했기	-2903
▁연장	-2904
▁전시	-2905
▁무역	-2906
▁건너	-2907
▁왔다	-2908
▁일반적인	-2909
▁빼	-2910
▁위치하고	-2911
가가	-2912
▁해군	-2913
석을	-2914
▁넘어	-2915
승을	-2916
▁구단	-2917
차를	-2918
▁배경	-2919
▁전반	-2920
분에	-2921
▁간주	-2922
▁중화인민공화국	-2923
▁셀	-2924
▁만화	-2925
▁마이크로	-2926
▁각종	-2927
▁?	-2928
만에	-2929
CA	-2930
▁만들어진	-2931
ue	-2932
▁기록을	-2933
체에	-2934
▁합병	-2935
관에	-2936
▁의사	-2937
▁작성	-2938
▁위의	-2939
▁헨	-2940
▁통하여	-2941
▁저항	-2942
▁던	-2943
▁1981	-2944
▁오사카	-2945
64	-2946
▁발표했다	-2947
)"	-2948
▁이후에	-2949
문화재	-2950
▁옆	-2951
▁a	-2952
▁기존의	-2953
▁1979	-2954
▁성우	-2955
▁MBC	-2956
트라	-2957
▁남북	-2958
▁건강	-2959
▁기능을	-2960
해를	-2961
ph	-2962
계에서	-2963
▁내부	-2964
조가	-2965
상과	-2966
▁하기	-2967
▁사회적	-2968
고로	-2969
▁출신의	-2970
졌으며	-2971
▁불린다	-2972
드와	-2973
▁편집	-2974
서로	-2975
▁대회에서	-2976
▁de	-2977
테인	-2978
▁w	-2979
▁뒷	-2980
상에서	-2981
▁계산	-2982
리포니아	-2983
▁동료	-2984
▁그해	-2985
▁맹	-2986
▁장애	-2987
(201	-2988
세기에	-2989
원과	-2990
소로	-2991
▁윈도우	-2992
▁주는	-2993
▁뿐만	-2994
▁게이	-2995
▁측정	-2996
▁마련	-2997
▁척	-2998
세이	-2999
▁실행	-3000
▁위협	-3001
지도	-3002
▁정부의	-3003
▁무렵	-3004
▁고양	-3005
92	-3006
▁갖추	-3007
▁만드는	-3008
레이션	-3009
권이	-3010
▁제외한	-3011
▁받아들	-3012
종이	-3013
▁사회주의	-3014
일은	-3015
보다는	-3016
▁성격	-3017
▁해당한다	-3018
▁v	-3019
▁구조를	-3020
▁블랙	-3021
용으로	-3022
▁채널	-3023
라고도	-3024
▁항상	-3025
▁사람들은	-3026
신의	-3027
▁그곳	-3028
▁오스	-3029
▁샌	-3030
티브	-3031
▁1972	-3032
비가	-3033
▁외에도	-3034
▁끼	-3035
파의	-3036
▁촌	-3037
▁시기에	-3038
자에게	-3039
▁충분	-3040
장이다	-3041
▁90	-3042
문에	-3043
▁바람	-3044
▁채택	-3045
산으로	-3046
85	-3047
▁유형	-3048
▁사람을	-3049
()'	-3050
▁적극	-3051
사인	-3052
▁출연하였고	-3053
▁증거	-3054
▁시작되었다	-3055
▁만약	-3056
▁재직	-3057
▁시대의	-3058
▁농업	-3059
다이	-3060
▁민간	-3061
▁1973	-3062
▁확대	-3063
75	-3064
▁노력	-3065
관리	-3066
our	-3067
▁혜	-3068
▁불러	-3069
생활	-3070
▁젊은	-3071
▁국방	-3072
▁사령	-3073
▁출발	-3074
▁그려	-3075
▁전투에서	-3076
▁년	-3077
▁계약을	-3078
사키	-3079
왕의	-3080
▁객	-3081
▁되었으며	-3082
주가	-3083
▁에피	-3084
▁튀	-3085
▁g	-3086
▁입학	-3087
▁확보	-3088
▁유리	-3089
▁점차	-3090
기고	-3091
▁인디	-3092
라엘	-3093
물로	-3094
▁겨울	-3095
▁일이	-3096
모리	-3097
미디	-3098
▁친일	-3099
전쟁	-3100
▁500	-3101
▁붕괴	-3102
▁그래서	-3103
..	-3104
문학	-3105
▁생활을	-3106
▁흰	-3107
호가	-3108
▁찰	-3109
트와	-3110
▁라이브	-3111
▁제정	-3112
공항	-3113
▁쉽게	-3114
▁국회의원	-3115
▁남동	-3116
▁옹	-3117
65	-3118
미널	-3119
▁에드	-3120
화에	-3121
▁헝가	-3122
▁엑	-3123
▁45	-3124
개를	-3125
실을	-3126
▁판단	-3127
▁침공	-3128
▁주장했다	-3129
▁그것은	-3130
▁균	-3131
▁끊	-3132
▁집단	-3133
▁보도	-3134
▁도시로	-3135
이라고도	-3136
았으며	-3137
▁관심을	-3138
▁잭	-3139
점에	-3140
하려는	-3141
교의	-3142
▁다섯	-3143
▁요리	-3144
까지의	-3145
▁남편	-3146
▁수입	-3147
▁강력한	-3148
끄는	-3149
▁매년	-3150
비는	-3151
▁있었지만	-3152
▁세르	-3153
▁사례	-3154
▁뒤를	-3155
로도	-3156
▁자본	-3157
'(	-3158
▁II	-3159
이던	-3160
▁장기	-3161
리기	-3162
ong	-3163
산업	-3164
▁캘리포니아	-3165
27	-3166
도시	-3167
47	-3168
▁아나	-3169
ice	-3170
▁전라남도	-3171
▁유엔	-3172
▁책임	-3173
▁동부	-3174
니어	-3175
▁쓰인다	-3176
▁방식으로	-3177
밖에	-3178
▁단백질	-3179
▁부근	-3180
데미	-3181
▁1974	-3182
▁안전	-3183
▁내에서	-3184
▁데이비	-3185
▁원자	-3186
98	-3187
▁교체	-3188
▁보면	-3189
대에서	-3190
▁정보를	-3191
▁인수	-3192
▁화학	-3193
ST	-3194
났으며	-3195
해의	-3196
▁승리를	-3197
라비아	-3198
▁자리를	-3199
▁여행	-3200
▁블루	-3201
키아	-3202
▁핀란드	-3203
▁이전에	-3204
▁공공	-3205
▁탑재	-3206
▁신라	-3207
▁경향	-3208
▁Z	-3209
개발	-3210
▁구축	-3211
▁등에서	-3212
▁모스크	-3213
▁서부	-3214
ran	-3215
테인먼	-3216
▁정상	-3217
▁에스	-3218
▁1976	-3219
▁마사	-3220
▁예선	-3221
▁&	-3222
경제	-3223
▁나카	-3224
▁동계	-3225
▁자신을	-3226
▁공격을	-3227
▁앞두고	-3228
화는	-3229
르타	-3230
▁연맹	-3231
네시아	-3232
▁등은	-3233
력과	-3234
▁1978	-3235
하다고	-3236
의로	-3237
법원	-3238
시오	-3239
▁대규모	-3240
사령	-3241
▁루이	-3242
95	-3243
se	-3244
▁회복	-3245
▁마리아	-3246
▁냉	-3247
▁수립	-3248
명한	-3249
FC	-3250
력에	-3251
계로	-3252
▁이스라엘	-3253
▁영화배우	-3254
터테인먼	-3255
이었고	-3256
▁쪽	-3257
로서의	-3258
▁185	-3259
▁비율	-3260
▁경우도	-3261
▁태어난	-3262
▁필리핀	-3263
▁얼굴	-3264
▁이란	-3265
▁사용한	-3266
▁덴마	-3267
설을	-3268
▁떨어져	-3269
포르	-3270
민족	-3271
▁불과	-3272
도르	-3273
▁제임스	-3274
ian	-3275
▁어떻	-3276
▁1968	-3277
동차	-3278
▁1975	-3279
▁봄	-3280
▁춘	-3281
▁파리	-3282
드에서	-3283
▁변호	-3284
타이	-3285
▁높이	-3286
▁조정	-3287
36	-3288
▁콩	-3289
▁드래	-3290
라운드	-3291
▁텍	-3292
국을	-3293
▁밖에	-3294
프의	-3295
일러	-3296
ge	-3297
▁1971	-3298
▁수정	-3299
▁해체	-3300
▁라틴	-3301
87	-3302
37	-3303
▁시장	-3304
▁구성된	-3305
▁쇠	-3306
▁전사	-3307
▁180	-3308
면의	-3309
어도	-3310
문이	-3311
▁아랍	-3312
단체	-3313
▁인간의	-3314
전으로	-3315
바르	-3316
▁플랫	-3317
▁지역은	-3318
-19	-3319
▁받는	-3320
에게는	-3321
면에서	-3322
▁l	-3323
자들을	-3324
조선	-3325
kg	-3326
구역	-3327
▁왔	-3328
당한	-3329
▁전개	-3330
틀랜드	-3331
▁차지했다	-3332
26	-3333
▁검은	-3334
▁수학	-3335
적이다	-3336
당에	-3337
▁회원	-3338
(:	-3339
▁다음은	-3340
▁1969	-3341
리학	-3342
▁과정을	-3343
▁않을	-3344
▁링	-3345
▁태평양	-3346
▁섭	-3347
▁알아	-3348
▁통신	-3349
진을	-3350
▁복잡	-3351
케이	-3352
▁개선	-3353
음이의	-3354
▁이끄는	-3355
▁나폴	-3356
▁숲	-3357
질을	-3358
▁흘	-3359
▁사용되었다	-3360
▁기획	-3361
▁카메	-3362
ry	-3363
▁롤	-3364
▁네트워크	-3365
▁하자	-3366
▁어떻게	-3367
유럽	-3368
▁길이	-3369
▁전역	-3370
▁한다는	-3371
▁특수	-3372
었는데	-3373
▁한다고	-3374
▁임명되었다	-3375
▁중학교	-3376
되었을	-3377
▁가격	-3378
▁기억	-3379
▁꿈	-3380
▁아름	-3381
▁당시의	-3382
▁원칙	-3383
▁도움을	-3384
▁보이는	-3385
인에	-3386
▁대형	-3387
46	-3388
종은	-3389
학년	-3390
시대의	-3391
▁쉬	-3392
를린	-3393
▁사후	-3394
음악	-3395
▁고구	-3396
▁기계	-3397
소에서	-3398
▁시청	-3399
▁개정	-3400
▁설정	-3401
까지는	-3402
▁잠시	-3403
약을	-3404
▁힘을	-3405
제에	-3406
▁울산	-3407
▁비용	-3408
류를	-3409
▁털	-3410
구로	-3411
▁공유	-3412
▁은행	-3413
셔널	-3414
▁대상	-3415
받아	-3416
하고자	-3417
티나	-3418
▁소프트웨어	-3419
려는	-3420
ev	-3421
▁고전	-3422
▁이승	-3423
▁해방	-3424
▁시대에	-3425
▁1963	-3426
▁1920	-3427
▁비교적	-3428
%,	-3429
▁만족	-3430
▁세운	-3431
▁가로	-3432
▁대상으로	-3433
▁마쓰	-3434
▁가리키는	-3435
어와	-3436
▁마드리	-3437
32	-3438
▁갖춘	-3439
▁재정	-3440
▁좀	-3441
▁이것이	-3442
▁사람의	-3443
▁강원도	-3444
▁중반	-3445
붉은	-3446
▁초반	-3447
▁에너지	-3448
▁훨	-3449
싱턴	-3450
▁개봉한	-3451
▁신설	-3452
▁파일	-3453
오프	-3454
▁득점	-3455
세대	-3456
▁식물	-3457
▁인기를	-3458
▁하게	-3459
▁인하여	-3460
▁북서	-3461
라가	-3462
▁수출	-3463
▁협력	-3464
▁1930	-3465
▁폭발	-3466
다른	-3467
▁도서	-3468
▁짧은	-3469
▁하면서	-3470
▁훨씬	-3471
보드	-3472
▁저장	-3473
▁짓	-3474
ight	-3475
▁기반으로	-3476
▁플로	-3477
▁단일	-3478
리트	-3479
▁형태의	-3480
식으로	-3481
▁나뉘	-3482
▁1977	-3483
슨은	-3484
후의	-3485
슈타	-3486
▁없어	-3487
▁코미디	-3488
▁1940	-3489
무원	-3490
품을	-3491
▁포지션은	-3492
▁말이다	-3493
▁1948	-3494
▁의해서	-3495
▁참석	-3496
▁트리	-3497
인들의	-3498
▁팀은	-3499
시와	-3500
ast	-3501
신이	-3502
94	-3503
▁편입	-3504
,5	-3505
▁메이저	-3506
▁자체	-3507
분의	-3508
었지만	-3509
▁시내	-3510
▁개편	-3511
▁고용	-3512
▁토론	-3513
▁핵심	-3514
▁죽은	-3515
▁클래	-3516
▁대립	-3517
동음이의	-3518
▁셰	-3519
▁뛰어난	-3520
번의	-3521
▁귀국	-3522
▁죽음	-3523
▁증명	-3524
▁박물	-3525
▁유도	-3526
▁동일한	-3527
▁불가능	-3528
▁잎	-3529
▁둥	-3530
▁전차	-3531
▁있었으며	-3532
대전	-3533
▁인사	-3534
자치	-3535
하나	-3536
리노	-3537
▁충청남도	-3538
▁우선	-3539
도에서	-3540
▁속에	-3541
▁300	-3542
▁브랜드	-3543
형이	-3544
▁사실상	-3545
▁평양	-3546
서에	-3547
▁An	-3548
었으나	-3549
▁일종이다	-3550
▁애플	-3551
▁통한	-3552
▁1964	-3553
▁나오는	-3554
▁중화민	-3555
▁고등	-3556
료를	-3557
라크	-3558
시킬	-3559
▁글로	-3560
하려고	-3561
▁세이	-3562
96	-3563
다운	-3564
▁아카데미	-3565
▁역사상	-3566
▁플랫폼	-3567
ert	-3568
데스	-3569
▁듀	-3570
▁잘못	-3571
▁본격	-3572
▁박사	-3573
대회	-3574
▁구체	-3575
같은	-3576
SA	-3577
년이	-3578
▁스파	-3579
ud	-3580
▁속에서	-3581
88	-3582
▁장착	-3583
법에	-3584
지기	-3585
▁현실	-3586
산은	-3587
▁본선	-3588
▁외에	-3589
▁등장하는	-3590
▁버스	-3591
▁본관은	-3592
▁후손	-3593
▁카이	-3594
▁홈런	-3595
▁()	-3596
▁심각	-3597
▁공부	-3598
▁경기에	-3599
▁가능성이	-3600
협회	-3601
수와	-3602
▁아르헨	-3603
룬다	-3604
▁태어나	-3605
▁모스크바	-3606
베르크	-3607
▁에피소	-3608
국에	-3609
▁편성	-3610
경에	-3611
▁행사	-3612
▁원작	-3613
▁수여	-3614
점은	-3615
▁예상	-3616
▁설치되어	-3617
▁조금	-3618
▁흔히	-3619
▁묻	-3620
▁선의	-3621
마스	-3622
▁CD	-3623
▁했지만	-3624
ib	-3625
▁고정	-3626
▁전혀	-3627
▁띠	-3628
▁북동	-3629
형은	-3630
▁일본에서	-3631
▁시각	-3632
▁비난	-3633
43	-3634
▁내용을	-3635
동의	-3636
▁공포	-3637
▁기사	-3638
▁나서	-3639
▁부인	-3640
▁확정	-3641
▁추정된다	-3642
▁덮	-3643
나미	-3644
▁스피	-3645
97	-3646
받은	-3647
▁태풍	-3648
▁세계에서	-3649
▁암살	-3650
▁발생한	-3651
▁캄	-3652
▁창설	-3653
▁33	-3654
▁위치한다	-3655
▁시의	-3656
▁조선민주주의인민공화국	-3657
▁설립된	-3658
군으로	-3659
▁반복	-3660
▁숫	-3661
▁권한	-3662
▁베이징	-3663
▁아시안	-3664
▁1967	-3665
▁때에는	-3666
▁사는	-3667
▁얻었다	-3668
OS	-3669
겠다고	-3670
소프트	-3671
▁뿌	-3672
▁근대	-3673
▁업무	-3674
93	-3675
▁Al	-3676
함에	-3677
▁트랙	-3678
▁답	-3679
았던	-3680
정책	-3681
료로	-3682
▁물러	-3683
▁펠	-3684
▁투자	-3685
어져	-3686
▁열대	-3687
종으로	-3688
브리	-3689
로드	-3690
에르	-3691
이었으나	-3692
주에서	-3693
지면서	-3694
▁유명하다	-3695
권에	-3696
▁오히	-3697
법의	-3698
세계	-3699
▁했고	-3700
▁1962	-3701
28	-3702
▁고향	-3703
수에	-3704
차례	-3705
▁교토	-3706
ort	-3707
▁발견된다	-3708
일보	-3709
▁오리	-3710
▁LG	-3711
▁아주	-3712
BO	-3713
어들	-3714
▁도달	-3715
▁오랜	-3716
▁1946	-3717
▁의료	-3718
구와	-3719
▁나이	-3720
▁도움	-3721
▁마리	-3722
▁있었으나	-3723
자이	-3724
▁내에	-3725
▁터키	-3726
▁북아	-3727
▁정복	-3728
▁욕	-3729
▁36	-3730
▁금융	-3731
▁짐	-3732
▁적은	-3733
▁타고	-3734
▁프로그램이다	-3735
가에	-3736
▁방출	-3737
▁시티	-3738
▁출마	-3739
▁족	-3740
▁노예	-3741
한국	-3742
▁앞서	-3743
▁러시아의	-3744
아버	-3745
▁음력	-3746
up	-3747
▁형제	-3748
▁찍	-3749
▁보급	-3750
▁선고	-3751
▁시간이	-3752
니의	-3753
▁탄생	-3754
qu	-3755
▁문자	-3756
▁하는데	-3757
▁융	-3758
▁옷	-3759
권은	-3760
▁있었는데	-3761
▁린	-3762
▁정도의	-3763
▁결과를	-3764
▁넓은	-3765
▁정부가	-3766
▁인터뷰	-3767
주와	-3768
테르	-3769
▁래	-3770
▁역대	-3771
▁머리	-3772
음에도	-3773
▁통제	-3774
▁국가의	-3775
경의	-3776
해진	-3777
▁구별	-3778
▁그에	-3779
▁되지	-3780
스럽	-3781
▁솔로	-3782
76	-3783
▁관심	-3784
▁세웠다	-3785
법은	-3786
▁포함되어	-3787
▁뜻이	-3788
▁무기	-3789
▁카운	-3790
스리그	-3791
신은	-3792
무라	-3793
년에서	-3794
▁1965	-3795
경찰	-3796
▁보였다	-3797
▁때에	-3798
▁맡고	-3799
으로도	-3800
▁원정	-3801
일로	-3802
하다는	-3803
▁모리	-3804
교통	-3805
▁1949	-3806
▁워싱턴	-3807
▁계급	-3808
▁되면서	-3809
her	-3810
▁추측	-3811
▁사망했다	-3812
▁오래된	-3813
마이	-3814
▁고구려	-3815
▁거대한	-3816
공업	-3817
▁오픈	-3818
▁요새	-3819
▁갈등	-3820
▁없고	-3821
▁이끌고	-3822
▁시즌을	-3823
자기	-3824
▁남서	-3825
우리	-3826
▁현재까지	-3827
▁항복	-3828
▁주교	-3829
▁1966	-3830
▁베를린	-3831
하마	-3832
▁거절	-3833
▁이중	-3834
유의	-3835
기에는	-3836
간에	-3837
ss	-3838
▁문화재	-3839
▁나와	-3840
마트	-3841
▁붉은	-3842
바라	-3843
▁선거에서	-3844
▁광고	-3845
▁전설	-3846
문의	-3847
▁길이는	-3848
ate	-3849
▁이탈리아의	-3850
쿠라	-3851
▁대항	-3852
▁첨	-3853
▁헤이	-3854
ore	-3855
▁조합	-3856
▁지원을	-3857
83	-3858
▁로버트	-3859
▁생존	-3860
▁마침	-3861
▁목적	-3862
색을	-3863
▁한때	-3864
▁판결	-3865
▁그에게	-3866
사우	-3867
항공	-3868
▁아파	-3869
당했다	-3870
41	-3871
▁요한	-3872
42	-3873
ain	-3874
▁확실	-3875
▁저지	-3876
▁엔터테인먼	-3877
▁제출	-3878
버그	-3879
▁150	-3880
▁투입	-3881
▁했으나	-3882
▁다니	-3883
▁계획을	-3884
▁머물	-3885
예술	-3886
▁점에서	-3887
나와	-3888
우고	-3889
▁이민	-3890
▁창립	-3891
▁각본	-3892
▁신앙	-3893
▁사용하고	-3894
▁오토	-3895
호의	-3896
▁무장	-3897
여자	-3898
▁만큼	-3899
▁번째로	-3900
율을	-3901
물은	-3902
▁겐	-3903
▁오히려	-3904
▁낭	-3905
▁합의	-3906
▁됐다	-3907
▁프란	-3908
초등학교는	-3909
▁하늘	-3910
▁시작한	-3911
▁이후에는	-3912
시설	-3913
ord	-3914
▁1961	-3915
▁전용	-3916
박쥐	-3917
차로	-3918
시티	-3919
키스탄	-3920
역으로	-3921
▁피아노	-3922
▁살고	-3923
일이	-3924
리게	-3925
▁하였고	-3926
▁율	-3927
서가	-3928
▁삼국	-3929
비의	-3930
자들	-3931
▁하드	-3932
경기에	-3933
49	-3934
▁초등학교이다	-3935
중앙	-3936
▁약간	-3937
축구	-3938
▁오전	-3939
▁지닌	-3940
기원	-3941
리케	-3942
▁이야기를	-3943
▁호텔	-3944
▁뜻을	-3945
▁스코틀랜드	-3946
▁어렵	-3947
받고	-3948
▁끝나	-3949
화로	-3950
▁차이가	-3951
io	-3952
▁의회	-3953
▁온라인	-3954
로마	-3955
서의	-3956
▁활발	-3957
▁반영	-3958
▁속한다	-3959
▁듯	-3960
▁인공	-3961
▁전쟁이	-3962
▁아메리카	-3963
▁작전	-3964
▁절대	-3965
아이	-3966
동이	-3967
이었으며	-3968
타를	-3969
즈는	-3970
▁명명	-3971
▁라인	-3972
▁멸망	-3973
비치	-3974
▁스크	-3975
▁논쟁	-3976
▁요소	-3977
증을	-3978
▁슬로	-3979
▁철학	-3980
안에	-3981
▁그것을	-3982
보를	-3983
▁대표팀	-3984
▁투수	-3985
▁킹	-3986
스러운	-3987
명과	-3988
지이다	-3989
▁대비	-3990
더라도	-3991
▁아침	-3992
▁서양	-3993
▁설치되었던	-3994
▁=	-3995
로그	-3996
렸고	-3997
국에서	-3998
ik	-3999
▁힐	-4000
노동	-4001
▁천문	-4002
▁생겨	-4003
▁삭	-4004
지원	-4005
▁뽑	-4006
플레이	-4007
여서	-4008
익을	-4009
▁점을	-4010
생의	-4011
▁SBS	-4012
▁비록	-4013
▁뉴스	-4014
▁동의	-4015
▁해당하는	-4016
▁금속	-4017
다면	-4018
▁하나는	-4019
의회	-4020
▁뜻한다	-4021
▁양성	-4022
지며	-4023
▁상당히	-4024
만큼	-4025
▁수원	-4026
추어	-4027
누스	-4028
▁것처럼	-4029
▁보는	-4030
▁처음에는	-4031
리아의	-4032
▁장악	-4033
(15	-4034
면이	-4035
▁발표한	-4036
▁식민지	-4037
언을	-4038
이와	-4039
▁의존	-4040
▁마이클	-4041
▁역임했다	-4042
▁이르는	-4043
▁주식	-4044
▁함수	-4045
사건	-4046
▁거리	-4047
▁통해서	-4048
▁공식적으로	-4049
조에	-4050
▁철도역이다	-4051
▁관할한다	-4052
▁산맥	-4053
판을	-4054
리우	-4055
▁이른	-4056
프리	-4057
▁약속	-4058
▁전쟁을	-4059
▁팀이	-4060
▁보냈다	-4061
91	-4062
ty	-4063
▁성인	-4064
▁나는	-4065
▁브리	-4066
▁넘는	-4067
▁했으며	-4068
ok	-4069
▁원주	-4070
▁은하	-4071
▁Q	-4072
▁전후	-4073
33	-4074
▁시간을	-4075
국민	-4076
▁벨기에	-4077
령을	-4078
▁미드	-4079
▁백작	-4080
▁일으켰	-4081
현재	-4082
▁병사	-4083
▁강제	-4084
▁취득	-4085
수록	-4086
▁부활	-4087
ae	-4088
술을	-4089
▁플라	-4090
▁이제	-4091
▁취급	-4092
▁보조	-4093
▁위해서는	-4094
▁38	-4095
▁팀을	-4096
▁보컬	-4097
에게서	-4098
▁이유는	-4099
▁기자	-4100
▁세종	-4101
▁공개된	-4102
▁주어	-4103
앤젤	-4104
제국	-4105
▁방법을	-4106
▁작품을	-4107
재를	-4108
시킨다	-4109
▁공산주의	-4110
▁경계	-4111
▁혼란	-4112
번째로	-4113
산이	-4114
▁청소년	-4115
▁되면	-4116
oh	-4117
지인	-4118
▁유사한	-4119
uc	-4120
세와	-4121
▁수상했다	-4122
미야	-4123
▁롯	-4124
ep	-4125
분류	-4126
▁인기	-4127
▁간단	-4128
▁준우	-4129
▁1000	-4130
(2	-4131
▁건립	-4132
▁트레이	-4133
▁장식	-4134
분이	-4135
▁국경	-4136
▁질병	-4137
▁높아	-4138
▁알게	-4139
end	-4140
▁무엇	-4141
의의	-4142
인민공화국의	-4143
▁프로젝트	-4144
▁빠른	-4145
화와	-4146
▁거래	-4147
▁없다고	-4148
▁삼각	-4149
문은	-4150
▁밀도는	-4151
▁숭	-4152
세로	-4153
▁스티	-4154
▁잇는	-4155
네스	-4156
▁to	-4157
▁포기	-4158
▁건조	-4159
▁현역	-4160
▁400	-4161
▁개시	-4162
▁서비스를	-4163
▁Th	-4164
ew	-4165
니아의	-4166
안의	-4167
정으로	-4168
개가	-4169
▁부임	-4170
뿐만	-4171
▁37	-4172
▁에도	-4173
▁그러한	-4174
▁받지	-4175
▁지금의	-4176
가타	-4177
치에	-4178
프레	-4179
▁규칙	-4180
▁빠르게	-4181
▁사건을	-4182
▁대략	-4183
▁1958	-4184
격으로	-4185
▁후속	-4186
▁자는	-4187
▁방향으로	-4188
▁미디어	-4189
당과	-4190
▁로스앤젤	-4191
▁소수	-4192
▁지식	-4193
▁말레이	-4194
류가	-4195
▁기록한	-4196
▁흡수	-4197
▁Un	-4198
▁레드	-4199
기에서	-4200
▁건국	-4201
라를	-4202
▁그런데	-4203
저우	-4204
▁인도네시아	-4205
44	-4206
▁때부터	-4207
▁운용	-4208
면은	-4209
▁역을	-4210
▁랭	-4211
마의	-4212
▁독자	-4213
보는	-4214
▁한번	-4215
크를	-4216
였으나	-4217
▁탈출	-4218
ys	-4219
만은	-4220
▁동남	-4221
석이	-4222
ER	-4223
▁곳에서	-4224
▁명이	-4225
▁웨스트	-4226
▁청년	-4227
▁이용해	-4228
▁좁	-4229
나이티	-4230
▁55	-4231
▁부상	-4232
씨는	-4233
▁에어	-4234
▁쫓	-4235
▁수집	-4236
에트	-4237
▁출입	-4238
▁득표	-4239
▁않았고	-4240
지자	-4241
▁주고	-4242
기압	-4243
▁베이스	-4244
▁자녀	-4245
음이	-4246
▁승인	-4247
▁쥐	-4248
▁종류의	-4249
▁댄	-4250
르가	-4251
▁진입	-4252
▁후에는	-4253
▁신인	-4254
전문	-4255
▁활동했다	-4256
▁얻어	-4257
▁렌	-4258
▁깊은	-4259
형으로	-4260
▁시작하여	-4261
▁중이다	-4262
▁중세	-4263
▁해에	-4264
▁1944	-4265
▁히데	-4266
▁니콜	-4267
▁대공	-4268
31	-4269
단과	-4270
▁두었다	-4271
▁미니	-4272
67	-4273
▁체계	-4274
▁청나라	-4275
드시	-4276
▁1956	-4277
▁도망	-4278
▁논의	-4279
▁집행	-4280
▁해서	-4281
_5	-4282
스케	-4283
SS	-4284
▁반발	-4285
▁총리	-4286
▁영입	-4287
▁강의	-4288
▁예측	-4289
▁지낸	-4290
ure	-4291
법이	-4292
▁콘서	-4293
조합	-4294
▁이뤄	-4295
▁다르다	-4296
▁육상	-4297
리즘	-4298
▁킬	-4299
▁하면	-4300
▁유나이티	-4301
▁1947	-4302
▁응용	-4303
▁도중	-4304
▁수사	-4305
▁코로나	-4306
▁공통	-4307
▁타이완	-4308
▁전라북도	-4309
▁붙여	-4310
▁발표하였다	-4311
▁제공한다	-4312
▁평가를	-4313
▁공화	-4314
▁이전의	-4315
Ch	-4316
▁프리미	-4317
소와	-4318
▁이들의	-4319
pe	-4320
▁세인트	-4321
▁선보	-4322
▁이용한	-4323
ust	-4324
▁일부는	-4325
▁진화	-4326
▁후지	-4327
38	-4328
▁탈락	-4329
▁트로	-4330
▁꼭	-4331
선으로	-4332
▁분쟁	-4333
▁레코드에	-4334
▁아테	-4335
훗날	-4336
ens	-4337
▁보장	-4338
▁이것을	-4339
▁시작으로	-4340
▁외부	-4341
▁기술을	-4342
▁특별한	-4343
▁군대를	-4344
ld	-4345
▁노부	-4346
▁행성	-4347
▁보아	-4348
에만	-4349
교를	-4350
조사	-4351
▁뜻으로	-4352
▁수송	-4353
생을	-4354
▁달라	-4355
AR	-4356
▁운전	-4357
▁그레	-4358
▁올리	-4359
▁경기는	-4360
ric	-4361
▁브루	-4362
되면	-4363
ont	-4364
▁빠져	-4365
▁전공	-4366
▁상승	-4367
리우스	-4368
▁발견된	-4369
▁아미	-4370
연맹	-4371
물이다	-4372
▁썼다	-4373
▁포위	-4374
▁사운드	-4375
▁피해를	-4376
화되어	-4377
▁불안	-4378
화되었다	-4379
▁1959	-4380
차원	-4381
론의	-4382
▁총독	-4383
▁구속	-4384
▁마지막으로	-4385
프를	-4386
▁장관	-4387
▁경성	-4388
▁생명	-4389
▁써	-4390
▁1941	-4391
▁켄	-4392
차가	-4393
one	-4394
▁보낸	-4395
▁이하	-4396
적의	-4397
▁출신으로	-4398
▁컵	-4399
페이	-4400
▁3,	-4401
모를	-4402
시스	-4403
▁대부분은	-4404
▁대학교에서	-4405
▁대성	-4406
곡을	-4407
▁각각의	-4408
▁출연하였다	-4409
iz	-4410
▁생긴	-4411
▁작품이다	-4412
▁조절	-4413
▁소장	-4414
ON	-4415
히는	-4416
▁개발한	-4417
▁k	-4418
리적	-4419
▁앞에	-4420
68	-4421
BA	-4422
▁프로세	-4423
▁h	-4424
▁존재하는	-4425
▁상륙	-4426
▁목표로	-4427
▁아사	-4428
▁연출	-4429
▁아들이	-4430
터를	-4431
▁챔피언스리그	-4432
▁맛	-4433
▁포함하여	-4434
▁나타내는	-4435
man	-4436
▁양자	-4437
씨의	-4438
통신	-4439
▁신성	-4440
▁제어	-4441
▁했던	-4442
▁사용되고	-4443
▁작품은	-4444
▁전철	-4445
▁미야	-4446
▁불법	-4447
시에서	-4448
▁1954	-4449
~)	-4450
▁제외하고	-4451
▁이후로	-4452
▁왼쪽	-4453
▁소녀	-4454
▁내의	-4455
▁능력을	-4456
▁벡	-4457
29	-4458
데이	-4459
▁완료	-4460
▁변경되었다	-4461
▁하나님	-4462
▁문헌	-4463
▁지어	-4464
▁를	-4465
▁독특	-4466
▁주둔	-4467
터는	-4468
▁PC	-4469
메리	-4470
▁요코	-4471
▁받았고	-4472
▁갈라	-4473
~19	-4474
▁그레이	-4475
▁활동하였다	-4476
▁받게	-4477
▁셋	-4478
▁1952	-4479
▁체코	-4480
▁것이며	-4481
▁갤	-4482
[]	-4483
▁정치인이다	-4484
▁잡아	-4485
▁복합	-4486
▁맡아	-4487
통을	-4488
▁돌아가	-4489
39	-4490
▁빙	-4491
▁때의	-4492
▁만주	-4493
▁선수가	-4494
평가	-4495
▁콘스탄	-4496
▁1919	-4497
▁늦	-4498
티노	-4499
▁진압	-4500
터리	-4501
▁최다	-4502
▁알려졌다	-4503
IV	-4504
▁높이는	-4505
기까지	-4506
▁기대	-4507
▁열렸다	-4508
라와	-4509
▁출시되었다	-4510
▁등급	-4511
▁박정	-4512
▁FA	-4513
▁개신	-4514
▁한반	-4515
식에	-4516
▁사건이	-4517
▁끝난	-4518
▁1939	-4519
▁스미	-4520
▁틀	-4521
해도	-4522
▁자살	-4523
▁경우는	-4524
▁논란이	-4525
▁기록하였다	-4526
▁오페	-4527
▁합성	-4528
공사	-4529
▁포함한다	-4530
▁남은	-4531
▁맞이	-4532
▁지키	-4533
▁층	-4534
▁역사적	-4535
▁향상	-4536
▁베스트	-4537
구에서	-4538
타르	-4539
▁가서	-4540
하였지만	-4541
▁장군	-4542
▁출간	-4543
ly	-4544
▁소년	-4545
▁활성	-4546
▁김영	-4547
▁연재	-4548
▁다수의	-4549
▁이집트	-4550
세한	-4551
▁연관	-4552
▁어떠	-4553
▁개최된	-4554
산에	-4555
▁합격	-4556
▁목소	-4557
▁대수	-4558
▁닥	-4559
▁나치	-4560
▁검찰	-4561
▁지니	-4562
▁차트	-4563
마르	-4564
▁감독을	-4565
▁방사	-4566
▁그와	-4567
ial	-4568
IA	-4569
▁75	-4570
▁운동을	-4571
▁인구의	-4572
미의	-4573
명에	-4574
▁동성	-4575
▁풍부	-4576
▁시즌에	-4577
▁탁	-4578
▁정확한	-4579
▁성적	-4580
▁이성	-4581
▁이시	-4582
▁카르	-4583
▁음반은	-4584
▁제대로	-4585
▁채용	-4586
▁말았다	-4587
▁배출	-4588
요시	-4589
▁반드시	-4590
▁벼	-4591
▁검사	-4592
▁고속	-4593
미는	-4594
▁선교	-4595
-5	-4596
eg	-4597
들이다	-4598
▁해양	-4599
▁전파	-4600
리나	-4601
▁st	-4602
국으로	-4603
▁정책을	-4604
▁우려	-4605
도서	-4606
▁시카	-4607
66	-4608
▁회전	-4609
국제	-4610
▁데이비드	-4611
▁전통적인	-4612
▁엄청	-4613
▁동원	-4614
▁동작	-4615
▁둘째	-4616
기원전	-4617
▁흉	-4618
▁한국에서	-4619
▁가을	-4620
▁그들이	-4621
▁방영된	-4622
▁포도	-4623
▁승진	-4624
▁학위를	-4625
▁해산	-4626
민주당	-4627
▁터널	-4628
▁보관	-4629
▁오른쪽	-4630
▁농민	-4631
치아	-4632
▁리더	-4633
▁치러	-4634
▁여기에	-4635
ind	-4636
라이언	-4637
▁세르비아	-4638
▁헨리	-4639
행위	-4640
▁사법	-4641
▁주관	-4642
▁공을	-4643
▁롯데	-4644
질랜드	-4645
▁연구를	-4646
산화	-4647
▁않으며	-4648
▁일정	-4649
▁자이	-4650
▁국제공항	-4651
▁위반	-4652
▁아들로	-4653
▁점점	-4654
▁톰	-4655
▁국무	-4656
▁Com	-4657
▁교환	-4658
▁장치	-4659
조직	-4660
체육	-4661
▁마케	-4662
▁공군	-4663
▁대기	-4664
종을	-4665
▁모아	-4666
▁촌이다	-4667
▁꺾	-4668
▁사태	-4669
▁둘러싸	-4670
▁주택	-4671
인도	-4672
34	-4673
기간	-4674
었다고	-4675
▁태어났으며	-4676
▁갖는	-4677
▁변환	-4678
▁상품	-4679
▁창조	-4680
▁가졌다	-4681
▁트랜	-4682
미를	-4683
토리	-4684
겠다	-4685
▁세력	-4686
▁파라	-4687
▁효율	-4688
▁영화는	-4689
▁인접	-4690
▁카운티	-4691
▁1955	-4692
부인	-4693
77	-4694
▁법칙	-4695
▁형태를	-4696
▁국도	-4697
▁차별	-4698
▁도쿠	-4699
부터는	-4700
▁1953	-4701
▁액션	-4702
▁교육을	-4703
▁지급	-4704
▁지붕	-4705
게임	-4706
▁의무	-4707
▁소비에트	-4708
났고	-4709
▁니시	-4710
▁스페인의	-4711
▁단독	-4712
▁왕국의	-4713
생물	-4714
섰다	-4715
▁신뢰	-4716
▁원년	-4717
▁1957	-4718
2,	-4719
▁팝	-4720
패를	-4721
▁천연	-4722
▁학문	-4723
동으로	-4724
브라	-4725
국가	-4726
▁받는다	-4727
▁는	-4728
▁거두었다	-4729
바로	-4730
왕이	-4731
ff	-4732
▁받을	-4733
그라	-4734
▁저작	-4735
주의를	-4736
항을	-4737
▁일치	-4738
▁나이로	-4739
▁상당한	-4740
머스	-4741
▁쓰는	-4742
▁재건	-4743
▁전주	-4744
▁덧	-4745
▁분할	-4746
▁무덤	-4747
ack	-4748
레오	-4749
▁프로듀서	-4750
리다	-4751
▁SK	-4752
▁파악	-4753
▁이루어졌다	-4754
▁되자	-4755
▁성능	-4756
▁나타난다	-4757
고는	-4758
크가	-4759
▁서버	-4760
▁극장	-4761
▁있음을	-4762
▁하나인	-4763
▁계기로	-4764
들로부터	-4765
▁플레이오프	-4766
▁실질	-4767
▁일찍	-4768
▁완전	-4769
▁글을	-4770
▁명확	-4771
▁DNA	-4772
석은	-4773
겠다는	-4774
▁지방의	-4775
▁아버지는	-4776
▁역은	-4777
▁올랐	-4778
▁감독이	-4779
▁뜻하는	-4780
재판	-4781
프랑	-4782
▁자신들의	-4783
AT	-4784
사관	-4785
▁어떠한	-4786
▁릴	-4787
틀러	-4788
▁34	-4789
▁학습	-4790
▁작업을	-4791
▁까	-4792
▁한정	-4793
투스	-4794
▁지냈	-4795
병을	-4796
ith	-4797
▁적절	-4798
전과	-4799
▁조작	-4800
▁쓸	-4801
for	-4802
▁창단	-4803
▁보안	-4804
▁홋	-4805
▁예비	-4806
81	-4807
▁들어서	-4808
제와	-4809
▁마이크로소프트	-4810
▁모여	-4811
▁비례	-4812
▁포함하고	-4813
면으로	-4814
▁묶	-4815
텐츠	-4816
▁많아	-4817
천시	-4818
▁음식	-4819
▁마침내	-4820
▁1942	-4821
▁진보	-4822
상태	-4823
▁닌	-4824
지컬	-4825
▁발견되었다	-4826
퍼드	-4827
이므로	-4828
▁헤르	-4829
▁제작한	-4830
산시	-4831
▁가나	-4832
▁늘어	-4833
▁코드	-4834
장인	-4835
디션	-4836
▁삽	-4837
▁켈	-4838
락을	-4839
조판	-4840
▁특이	-4841
▁반대로	-4842
▁뉴질랜드	-4843
▁연대	-4844
▁페르시아	-4845
▁분열	-4846
▁빼앗	-4847
망을	-4848
▁모양의	-4849
선과	-4850
으니	-4851
▁경주	-4852
▁후기	-4853
없는	-4854
▁아티	-4855
▁군주	-4856
▁테이	-4857
공화국	-4858
▁알파	-4859
▁없다는	-4860
▁유기	-4861
▁임진	-4862
▁것이라는	-4863
82	-4864
▁인지	-4865
▁느끼	-4866
▁시에	-4867
▁완공	-4868
▁메시	-4869
토의	-4870
▁조별	-4871
84	-4872
방을	-4873
▁말에	-4874
▁소속으로	-4875
정치	-4876
개로	-4877
▁나왔다	-4878
뮤니	-4879
▁나뉜	-4880
▁KBO	-4881
▁그렇게	-4882
▁음악을	-4883
▁불렀다	-4884
▁횡	-4885
▁테러	-4886
▁프로그램을	-4887
▁어린이	-4888
▁1943	-4889
▁미군	-4890
▁챔피언십	-4891
▁선정되었다	-4892
고속도로	-4893
▁의미를	-4894
EC	-4895
▁경제적	-4896
▁대통령이	-4897
카이도	-4898
▁샘	-4899
▁승객	-4900
▁훗날	-4901
▁재배	-4902
▁중인	-4903
성군	-4904
▁구현	-4905
▁로스앤젤레스	-4906
▁페이	-4907
일과	-4908
▁신청	-4909
▁관계가	-4910
동은	-4911
▁문제로	-4912
조로	-4913
▁레오	-4914
▁제이	-4915
▁독립운동	-4916
천군	-4917
▁갔다	-4918
▁통산	-4919
선수	-4920
▁관료	-4921
▁감독으로	-4922
▁이름의	-4923
▁정차	-4924
▁메인	-4925
▁이룬다	-4926
사이트	-4927
▁무게	-4928
미가	-4929
박물	-4930
▁바라	-4931
▁오스만	-4932
시키기	-4933
▁향해	-4934
경이	-4935
주의의	-4936
▁되며	-4937
▁아라	-4938
▁취소	-4939
토니	-4940
▁혼합	-4941
ove	-4942
▁민주당	-4943
▁속한	-4944
▁처형	-4945
▁출범	-4946
판이	-4947
연히	-4948
▁통계	-4949
▁마치	-4950
▁이후의	-4951
▁주장하였다	-4952
▁수영	-4953
▁올려	-4954
비스	-4955
우주	-4956
임이	-4957
▁기록이	-4958
거운	-4959
에이	-4960
▁시작된	-4961
▁제공하는	-4962
▁가스	-4963
▁개막	-4964
▁크고	-4965
▁당시에는	-4966
▁좌우	-4967
▁Ar	-4968
▁흘러	-4969
으로서의	-4970
▁만들어졌다	-4971
학에서	-4972
슨의	-4973
▁무시	-4974
▁택	-4975
▁오랫	-4976
경은	-4977
▁하위	-4978
▁자극	-4979
책을	-4980
▁후보로	-4981
고기	-4982
레인	-4983
▁차이	-4984
99	-4985
▁곡은	-4986
▁학술	-4987
▁캔	-4988
St	-4989
▁형사	-4990
▁부르는	-4991
▁시리즈의	-4992
드라	-4993
원이다	-4994
터의	-4995
▁스탠	-4996
▁주전	-4997
▁확률	-4998
쿠스	-4999
했었다	-5000
1,	-5001
▁로켓	-5002
▁일부를	-5003
▁하였으나	-5004
▁띄	-5005
▁등장한다	-5006
ory	-5007
▁리처	-5008
ug	-5009
▁바깥	-5010
ide	-5011
▁하였으며	-5012
▁분위	-5013
고의	-5014
▁새겨	-5015
▁덴마크	-5016
진의	-5017
▁것이라	-5018
An	-5019
슬러	-5020
▁꼽	-5021
▁인종	-5022
▁사우	-5023
▁긍	-5024
▁픽	-5025
▁스프	-5026
▁접촉	-5027
론은	-5028
▁영상	-5029
▁없으며	-5030
▁크로아	-5031
▁샤를	-5032
▁저서	-5033
▁오랫동안	-5034
현의	-5035
계획	-5036
▁방법으로	-5037
▁사람들의	-5038
▁간행	-5039
▁설립되었다	-5040
개혁	-5041
자들에게	-5042
▁성향	-5043
하였다고	-5044
▁시작한다	-5045
ational	-5046
▁합쳐	-5047
해가	-5048
▁사립	-5049
▁역으로	-5050
무부	-5051
름을	-5052
▁시리아	-5053
▁플래	-5054
▁스카	-5055
▁지내	-5056
▁발굴	-5057
▁쓰고	-5058
▁희생	-5059
▁새롭게	-5060
▁고유	-5061
ary	-5062
▁임대	-5063
▁목록이다	-5064
▁작곡가	-5065
▁역이다	-5066
▁헝가리	-5067
파는	-5068
▁진행되었다	-5069
▁마무	-5070
였지만	-5071
▁160	-5072
▁Be	-5073
타는	-5074
▁규모의	-5075
사스	-5076
ock	-5077
ood	-5078
▁황금	-5079
▁엑스	-5080
자로서	-5081
▁강점	-5082
▁스마트	-5083
▁엠	-5084
▁무너	-5085
▁추천	-5086
터가	-5087
▁조종	-5088
주었다	-5089
▁함락	-5090
입니다	-5091
자료	-5092
▁폐쇄	-5093
들에서	-5094
▁활동하고	-5095
▁경우에	-5096
▁직업	-5097
하였던	-5098
진은	-5099
▁터미널	-5100
▁훌	-5101
▁단계	-5102
화한	-5103
▁심각한	-5104
▁동아	-5105
▁부분을	-5106
오스	-5107
▁가지는	-5108
▁사냥	-5109
▁국회	-5110
▁신호	-5111
▁지은	-5112
표를	-5113
복을	-5114
▁충청북도	-5115
▁고속도로	-5116
마을	-5117
ment	-5118
▁상위	-5119
▁사용된	-5120
범위	-5121
역은	-5122
▁고문	-5123
이었지만	-5124
▁네이	-5125
▁그때	-5126
▁관련이	-5127
이센	-5128
▁개입	-5129
▁프라	-5130
▁절반	-5131
▁누구	-5132
▁아스	-5133
▁1936	-5134
년경	-5135
▁지금까지	-5136
▁항성	-5137
▁노벨	-5138
▁1951	-5139
시험	-5140
레옹	-5141
▁김정	-5142
▁변화를	-5143
▁대개	-5144
▁국민의	-5145
▁김일	-5146
▁예수	-5147
▁화물	-5148
▁내용은	-5149
▁기울	-5150
▁아르헨티나	-5151
▁행위	-5152
질이	-5153
▁실현	-5154
▁코르	-5155
▁독특한	-5156
▁정기	-5157
▁나타낸다	-5158
▁다운	-5159
▁당초	-5160
▁인구가	-5161
니가	-5162
▁시위	-5163
▁명칭은	-5164
▁주장한다	-5165
▁장교	-5166
ark	-5167
▁곡을	-5168
ond	-5169
▁65	-5170
▁주지	-5171
ace	-5172
▁얻은	-5173
▁사임	-5174
▁부산광역시	-5175
▁단편	-5176
진이	-5177
▁쳐	-5178
▁위성	-5179
▁저술	-5180
▁빌보드	-5181
▁분명	-5182
▁발발	-5183
▁일어났다	-5184
▁쓰이는	-5185
74	-5186
▁예정이다	-5187
타마	-5188
▁받아들여	-5189
▁섞	-5190
안은	-5191
▁유행	-5192
▁주어진	-5193
지어	-5194
각을	-5195
▁연결하는	-5196
▁You	-5197
▁안에서	-5198
▁잡지	-5199
▁사망한	-5200
▁파트	-5201
▁지위를	-5202
▁반도	-5203
▁혐의로	-5204
▁참전	-5205
▁기상	-5206
▁노출	-5207
야구	-5208
▁길을	-5209
우수	-5210
▁녹색	-5211
▁소송	-5212
▁유럽의	-5213
▁퀸	-5214
▁협회	-5215
방의	-5216
카가	-5217
▁발생하는	-5218
체와	-5219
▁지시	-5220
▁개신교	-5221
▁잉글랜드의	-5222
어이다	-5223
석의	-5224
▁기둥	-5225
▁언제	-5226
▁처벌	-5227
▁하에	-5228
▁확립	-5229
무늬	-5230
기념	-5231
▁부대	-5232
스트로	-5233
▁지역으로	-5234
▁1938	-5235
▁급제	-5236
▁포켓	-5237
▁않게	-5238
▁공연을	-5239
▁노래를	-5240
▁세계의	-5241
▁후계	-5242
▁돕	-5243
인들을	-5244
61	-5245
▁..	-5246
▁공업	-5247
▁편찬	-5248
▁주최	-5249
▁공헌	-5250
▁상대적으로	-5251
▁마크	-5252
해져	-5253
...	-5254
▁정지	-5255
78	-5256
▁명을	-5257
신으로	-5258
▁콤	-5259
▁펼쳐	-5260
▁받았으며	-5261
▁단위	-5262
▁유일하게	-5263
▁침략	-5264
72	-5265
▁대한민국에서는	-5266
격한	-5267
▁빅토	-5268
▁나폴레옹	-5269
▁상태로	-5270
▁아이디	-5271
▁앉	-5272
사단	-5273
▁변형	-5274
▁근본	-5275
mer	-5276
▁해리	-5277
▁입장을	-5278
▁지켜	-5279
▁도시의	-5280
련의	-5281
리그의	-5282
▁성적을	-5283
▁이들을	-5284
치게	-5285
되었다고	-5286
▁이르러	-5287
차는	-5288
ber	-5289
▁관여	-5290
▁아이돌	-5291
▁로드	-5292
내에	-5293
ies	-5294
79	-5295
▁매일	-5296
▁다다	-5297
▁올렸다	-5298
▁여겨진다	-5299
▁연구에	-5300
▁부하	-5301
▁기회를	-5302
▁마르크	-5303
▁행동을	-5304
▁저녁	-5305
의원	-5306
▁다르게	-5307
▁죽었다	-5308
구이다	-5309
린은	-5310
▁다스	-5311
▁사람들을	-5312
금의	-5313
령이	-5314
▁대리	-5315
▁중에는	-5316
▁금메달을	-5317
르기	-5318
네이	-5319
▁뚜	-5320
▁침입	-5321
드레	-5322
온은	-5323
▁방정	-5324
▁테스트	-5325
▁스키	-5326
가시	-5327
▁인쇄	-5328
▁미드필	-5329
▁보유하고	-5330
▁프리미어	-5331
▁도요	-5332
▁드라이	-5333
▁참여했다	-5334
▁전형	-5335
▁출장	-5336
▁어깨	-5337
ect	-5338
▁철수	-5339
스럽게	-5340
▁찰스	-5341
▁부상을	-5342
▁갔	-5343
▁Coun	-5344
▁대표하는	-5345
▁왕조	-5346
▁커뮤니	-5347
▁어디	-5348
건을	-5349
장군	-5350
에서만	-5351
▁제일	-5352
▁120	-5353
▁보았다	-5354
▁성을	-5355
71	-5356
▁계통	-5357
▁이기	-5358
미니	-5359
▁중화민국	-5360
재로	-5361
▁일본에	-5362
▁멀리	-5363
In	-5364
▁Me	-5365
▁졸업하고	-5366
▁뜨	-5367
라며	-5368
▁강등	-5369
동맹	-5370
▁프로그래	-5371
▁로봇	-5372
▁어려운	-5373
▁조선의	-5374
층의	-5375
▁보병	-5376
서양	-5377
행정	-5378
사무	-5379
▁긍정	-5380
▁코파	-5381
▁만들고	-5382
63	-5383
▁도와	-5384
ical	-5385
관계	-5386
▁팽	-5387
▁일으키	-5388
강의	-5389
▁전직	-5390
하지는	-5391
▁1937	-5392
함과	-5393
실은	-5394
▁번의	-5395
▁시스템을	-5396
62	-5397
티오	-5398
▁다수	-5399
▁장남	-5400
▁망명	-5401
▁후원	-5402
▁효과를	-5403
▁캐나다의	-5404
▁골을	-5405
소설	-5406
▁영웅	-5407
▁1910	-5408
체스터	-5409
루가	-5410
▁프린	-5411
▁나뉜다	-5412
▁내렸다	-5413
▁앞에서	-5414
▁가치	-5415
▁벌어	-5416
▁홍보	-5417
▁바뀌었다	-5418
▁지금은	-5419
▁미드필더	-5420
▁상황에서	-5421
고가	-5422
차전	-5423
론이	-5424
ost	-5425
동생	-5426
▁가와	-5427
▁놓고	-5428
▁타임	-5429
되었다가	-5430
관과	-5431
-4	-5432
▁그래픽	-5433
공산	-5434
▁이혼	-5435
▁분노	-5436
▁지상역이다	-5437
VD	-5438
▁거듭	-5439
주의적	-5440
▁완전한	-5441
▁전까지	-5442
▁존재하지	-5443
역의	-5444
파를	-5445
▁다소	-5446
자유	-5447
▁나타내	-5448
▁추구	-5449
▁1914	-5450
안이	-5451
▁가담	-5452
자키	-5453
▁맡은	-5454
▁등판	-5455
▁싱가	-5456
com	-5457
▁가문의	-5458
▁의식	-5459
었기	-5460
산군	-5461
▁정비	-5462
역이	-5463
▁다케	-5464
▁가슴	-5465
메리칸	-5466
시리즈	-5467
DP	-5468
▁알바	-5469
▁현상	-5470
씨가	-5471
▁대회에	-5472
▁1935	-5473
▁인권	-5474
▁성공을	-5475
▁연간	-5476
▁특정한	-5477
ire	-5478
▁뮤지컬	-5479
되는데	-5480
▁가치가	-5481
타운	-5482
▁x	-5483
▁소방	-5484
▁바닥	-5485
▁해야	-5486
총독	-5487
▁안드로	-5488
▁준다	-5489
▁지도자	-5490
69	-5491
▁계곡	-5492
▁설득	-5493
▁미사일	-5494
▁신학	-5495
▁따로	-5496
▁적합	-5497
▁Pro	-5498
▁작품으로	-5499
▁떠났다	-5500
▁나타났다	-5501
AM	-5502
▁루마	-5503
▁교향	-5504
▁느낌	-5505
▁시나	-5506
▁중부	-5507
류는	-5508
카의	-5509
▁두려	-5510
관에서	-5511
▁광범위	-5512
▁반란을	-5513
실의	-5514
▁여객철도	-5515
색의	-5516
▁필요하다	-5517
동시	-5518
로와	-5519
족이	-5520
▁브라운	-5521
▁크기	-5522
▁참가했다	-5523
리며	-5524
▁일시	-5525
ence	-5526
고등	-5527
▁돈을	-5528
▁힌	-5529
에른	-5530
트릭	-5531
▁의심	-5532
▁나아가	-5533
▁필요가	-5534
▁사용했다	-5535
ass	-5536
백만	-5537
또는	-5538
아르	-5539
물에	-5540
▁시인	-5541
▁보여준다	-5542
per	-5543
▁데에	-5544
하므로	-5545
공원	-5546
▁r	-5547
▁듣고	-5548
▁들고	-5549
▁1932	-5550
▁대부분이	-5551
eb	-5552
▁자리잡	-5553
▁재개	-5554
미르	-5555
▁이루고	-5556
왜란	-5557
▁1918	-5558
동과	-5559
▁해상	-5560
▁사업을	-5561
튜브	-5562
▁...	-5563
▁메이지	-5564
▁영국에서	-5565
▁개조	-5566
ID	-5567
▁선박	-5568
oy	-5569
▁않지만	-5570
▁일부가	-5571
▁닛	-5572
▁속해	-5573
▁전부	-5574
▁소련의	-5575
(5	-5576
73	-5577
▁돼	-5578
▁유치	-5579
▁바르셀	-5580
▁석유	-5581
▁정체	-5582
▁특징이다	-5583
구치	-5584
▁En	-5585
▁내셔널	-5586
역에서	-5587
▁가진다	-5588
▁1933	-5589
▁사실이	-5590
▁편이다	-5591
▁신체	-5592
▁접한다	-5593
▁가이	-5594
▁문을	-5595
기록	-5596
▁올림픽에	-5597
▁엄청난	-5598
▁선생	-5599
AN	-5600
▁다음의	-5601
▁스케	-5602
어야	-5603
함이	-5604
ern	-5605
▁단지	-5606
치지	-5607
▁미국과	-5608
▁라고	-5609
▁운영하고	-5610
▁법정	-5611
▁나타나는	-5612
▁뮌	-5613
▁총선	-5614
▁높다	-5615
▁벗어나	-5616
▁도시이다	-5617
iss	-5618
▁골든	-5619
▁+	-5620
▁몰아	-5621
우의	-5622
▁시상	-5623
▁오프	-5624
▁설치된	-5625
▁시카고	-5626
▁말레이시아	-5627
▁기다	-5628
▁구글	-5629
마는	-5630
▁부친	-5631
▁밝히	-5632
IN	-5633
어에서	-5634
▁유형문화재	-5635
▁살인	-5636
lat	-5637
베르트	-5638
▁라이트	-5639
▁Sh	-5640
었을	-5641
▁He	-5642
▁초에	-5643
▁그곳에서	-5644
보고	-5645
▁참조	-5646
들목	-5647
제에서	-5648
▁츠	-5649
소송	-5650
▁게임이다	-5651
니스탄	-5652
법으로	-5653
(20	-5654
▁공중	-5655
BM	-5656
▁춤	-5657
▁탈퇴	-5658
▁활약을	-5659
정과	-5660
▁곽	-5661
별로	-5662
▁개설	-5663
▁의혹	-5664
다의	-5665
▁천주교	-5666
▁논문	-5667
▁구매	-5668
▁서울대학교	-5669
▁토지	-5670
타의	-5671
달러	-5672
주고	-5673
파가	-5674
▁~)	-5675
▁군인	-5676
▁기록은	-5677
▁al	-5678
▁인용	-5679
▁군의	-5680
▁수요	-5681
▁프로이센	-5682
'()	-5683
▁전면	-5684
▁카드	-5685
▁통상	-5686
▁돌아와	-5687
▁소멸	-5688
▁공화국의	-5689
sh	-5690
▁i	-5691
▁프리드리	-5692
포를	-5693
▁대통령은	-5694
▁나누어	-5695
▁임진왜란	-5696
▁자격	-5697
▁데뷔했다	-5698
▁리버	-5699
▁포함된다	-5700
▁한글	-5701
▁노스	-5702
▁겹	-5703
▁묵	-5704
색으로	-5705
▁상하이	-5706
▁프로토	-5707
▁가게	-5708
대중	-5709
▁있었기	-5710
▁세계적으로	-5711
▁나들목	-5712
▁장비	-5713
▁로마의	-5714
▁세력을	-5715
▁조지아	-5716
▁이전에는	-5717
▁더블	-5718
▁레알	-5719
▁역사를	-5720
▁발탁	-5721
야의	-5722
▁유한	-5723
▁징역	-5724
▁투쟁	-5725
▁얻을	-5726
영은	-5727
▁벌어진	-5728
▁39	-5729
▁블라	-5730
▁창원	-5731
▁일컫	-5732
▁쓰여	-5733
▁부분이	-5734
▁일어나는	-5735
부장	-5736
▁파르	-5737
혁명	-5738
▁48	-5739
듯이	-5740
즈가	-5741
▁영업	-5742
▁갖추고	-5743
년도	-5744
▁에르	-5745
연을	-5746
왕은	-5747
▁즉시	-5748
▁평안	-5749
▁화이트	-5750
▁1934	-5751
▁커버	-5752
▁AFC	-5753
영의	-5754
▁도모	-5755
▁작동	-5756
▁부분은	-5757
▁운영하는	-5758
▁구입	-5759
▁학살	-5760
▁해도	-5761
드라마	-5762
▁남쪽으로	-5763
▁여섯	-5764
▁피터	-5765
▁박정희	-5766
▁상을	-5767
tern	-5768
▁군이다	-5769
▁명나라	-5770
▁화합	-5771
▁데뷔하였다	-5772
피스	-5773
▁만든다	-5774
▁맞아	-5775
▁진주	-5776
▁게임을	-5777
되어야	-5778
▁랜	-5779
타로	-5780
ver	-5781
▁스트리	-5782
▁그로	-5783
▁파워	-5784
루는	-5785
▁대체로	-5786
▁연예	-5787
▁바이에른	-5788
점의	-5789
▁동해	-5790
▁종사	-5791
▁외국인	-5792
퍼스	-5793
▁깃	-5794
▁IS	-5795
▁지지를	-5796
코는	-5797
▁선전	-5798
부대	-5799
비시	-5800
▁오버	-5801
▁이름이다	-5802
▁자리에	-5803
act	-5804
▁전력	-5805
▁이상이	-5806
감독	-5807
pha	-5808
ivers	-5809
▁끌어	-5810
▁1928	-5811
▁개칭	-5812
▁프랑크	-5813
▁연고	-5814
천만	-5815
▁개체	-5816
▁와이	-5817
ah	-5818
▁집권	-5819
▁곳으로	-5820
▁세상을	-5821
키의	-5822
▁사단	-5823
▁루이스	-5824
▁이끌었다	-5825
▁동양	-5826
시스코	-5827
바일	-5828
▁다리	-5829
▁오직	-5830
▁지속적으로	-5831
▁눈에	-5832
▁원주민	-5833
▁공사	-5834
▁시사	-5835
▁대통령의	-5836
나카	-5837
례를	-5838
키가	-5839
▁아름다운	-5840
▁있었다고	-5841
보살	-5842
▁무한	-5843
되지만	-5844
amp	-5845
▁NH	-5846
가인	-5847
▁순간	-5848
▁나온다	-5849
▁주장을	-5850
▁못하는	-5851
▁포함하는	-5852
Pa	-5853
▁남아프리카	-5854
직에	-5855
▁이로써	-5856
▁표면	-5857
▁내용이	-5858
데르	-5859
▁심리	-5860
▁행렬	-5861
▁1924	-5862
▁위로	-5863
▁프랭	-5864
담을	-5865
ann	-5866
▁비상	-5867
▁인디언	-5868
디움	-5869
▁주간	-5870
▁추가로	-5871
강에	-5872
학자들은	-5873
▁수석	-5874
▁앵	-5875
ich	-5876
▁방지	-5877
▁임무	-5878
▁힙	-5879
▁원소	-5880
▁아들인	-5881
▁닫	-5882
rom	-5883
▁조선시대	-5884
▁도전	-5885
▁자전	-5886
▁호소	-5887
▁어머니는	-5888
위와	-5889
▁궤도	-5890
론에	-5891
ear	-5892
페르	-5893
▁해발	-5894
▁즈	-5895
▁포켓몬	-5896
▁re	-5897
▁근육	-5898
()"	-5899
서울	-5900
▁보스	-5901
▁밝혀졌다	-5902
1)	-5903
동물	-5904
오의	-5905
▁희망	-5906
▁현지	-5907
▁굳	-5908
▁수리	-5909
▁그것이	-5910
▁불렸다	-5911
▁근처에	-5912
질의	-5913
▁일정한	-5914
년부터는	-5915
▁게다가	-5916
▁병합	-5917
▁이후에도	-5918
▁덜	-5919
-20	-5920
▁방해	-5921
▁한나라	-5922
▁기록하며	-5923
장애	-5924
▁양의	-5925
▁점이	-5926
▁태국	-5927
▁포스트	-5928
투아	-5929
▁기소	-5930
▁북쪽으로	-5931
환으로	-5932
▁초기의	-5933
2)	-5934
▁웅	-5935
코의	-5936
▁이른다	-5937
▁방식을	-5938
루의	-5939
▁나고	-5940
▁따서	-5941
3,	-5942
▁의학	-5943
▁위원회	-5944
▁1900	-5945
▁연습	-5946
▁억제	-5947
▁능력	-5948
▁사용하였다	-5949
▁분해	-5950
▁스티븐	-5951
▁권력을	-5952
라에	-5953
마를	-5954
orld	-5955
받는	-5956
100	-5957
age	-5958
▁작사	-5959
▁연결되어	-5960
중국	-5961
▁크리	-5962
▁상황을	-5963
▁남겼다	-5964
루를	-5965
▁개별	-5966
▁정권	-5967
▁다음날	-5968
▁참가한	-5969
평균	-5970
▁후임	-5971
▁아테네	-5972
▁똑	-5973
양을	-5974
▁분야에서	-5975
독립	-5976
▁사마	-5977
▁말하는	-5978
▁폴리	-5979
자동차	-5980
▁올림픽에서	-5981
▁쿠데	-5982
▁티베	-5983
처를	-5984
▁잠수	-5985
Al	-5986
▁이웃	-5987
▁한국어	-5988
츠의	-5989
▁상속	-5990
▁문제에	-5991
▁선출되었다	-5992
▁AT	-5993
▁무사	-5994
▁후쿠오카	-5995
ach	-5996
▁디스	-5997
▁명령을	-5998
▁않으면	-5999
▁도덕	-6000
▁김성	-6001
▁승려	-6002
래프트	-6003
▁패션	-6004
▁되는데	-6005
▁전쟁에	-6006
▁노르웨이	-6007
▁히트	-6008
▁이들이	-6009
한의	-6010
IC	-6011
▁유고	-6012
▁복잡한	-6013
게는	-6014
파로	-6015
▁못하였다	-6016
▁가공	-6017
▁책임을	-6018
▁텍사스	-6019
▁빚	-6020
▁암컷	-6021
▁첼	-6022
그램	-6023
▁루트	-6024
▁란	-6025
▁혈액	-6026
사람	-6027
ton	-6028
등을	-6029
리언	-6030
학자이다	-6031
연대	-6032
▁복원	-6033
▁위치를	-6034
만으로	-6035
▁검토	-6036
이상	-6037
▁조카	-6038
▁측면	-6039
▁언덕	-6040
▁멘	-6041
▁4,	-6042
▁부진	-6043
▁마무리	-6044
▁밀려	-6045
▁보건	-6046
▁화성	-6047
▁42	-6048
▁선임	-6049
AC	-6050
▁복무	-6051
▁분자	-6052
▁동안에	-6053
ction	-6054
과대학	-6055
▁준우승	-6056
▁책을	-6057
▁이어지는	-6058
▁멜로	-6059
▁갑자기	-6060
▁곳이다	-6061
▁전신	-6062
▁전쟁에서	-6063
비에	-6064
거래	-6065
는지	-6066
▁크다	-6067
▁가수이다	-6068
▁상태에서	-6069
린의	-6070
▁회장	-6071
▁유효	-6072
▁서술	-6073
▁없을	-6074
▁초기에	-6075
▁프라이	-6076
▁멸종	-6077
▁민법	-6078
인에게	-6079
▁맞서	-6080
베스	-6081
코스	-6082
단이다	-6083
▁기록되어	-6084
▁에피소드	-6085
▁리처드	-6086
에선	-6087
▁IC	-6088
▁특성	-6089
▁창작	-6090
평을	-6091
식과	-6092
son	-6093
▁의미하는	-6094
.'	-6095
▁김종	-6096
보호	-6097
▁암호	-6098
▁만한	-6099
니즘	-6100
실이	-6101
▁필수	-6102
비로	-6103
▁임의의	-6104
55	-6105
리안	-6106
▁이다	-6107
▁물을	-6108
▁민중	-6109
더스	-6110
▁1931	-6111
금이	-6112
▁핑	-6113
▁히틀러	-6114
▁달려	-6115
▁남아있	-6116
▁일련의	-6117
▁크레	-6118
▁여성의	-6119
▁에드워드	-6120
아는	-6121
▁되돌	-6122
▁열차가	-6123
sp	-6124
▁주기	-6125
(16	-6126
PS	-6127
대부	-6128
▁SS	-6129
▁돌려	-6130
▁취리히	-6131
▁수의	-6132
▁동방	-6133
▁토론토	-6134
▁넷	-6135
▁완벽	-6136
▁브레	-6137
친다	-6138
▁톱	-6139
▁화산	-6140
▁64	-6141
▁수상하였다	-6142
▁프리드리히	-6143
▁큐	-6144
▁연산	-6145
만한	-6146
▁미국은	-6147
▁핫	-6148
▁상관	-6149
▁아오	-6150
베리아	-6151
▁직원	-6152
ck	-6153
▁반응을	-6154
▁게임의	-6155
▁비롯하여	-6156
(-	-6157
행성	-6158
▁발레	-6159
▁시가	-6160
사이다	-6161
▁권력	-6162
▁지니고	-6163
▁이온	-6164
비디오	-6165
판은	-6166
▁전문가	-6167
▁(200	-6168
클리	-6169
▁글로벌	-6170
▁지구의	-6171
▁이르렀다	-6172
즈를	-6173
폴리스	-6174
▁개념을	-6175
▁확산	-6176
▁받아들이	-6177
▁계속해서	-6178
▁들어갔다	-6179
어에	-6180
강을	-6181
▁추방	-6182
▁타이거	-6183
▁포항	-6184
▁화려	-6185
▁광복	-6186
▁차지하고	-6187
▁전송	-6188
우가	-6189
지마	-6190
▁고위	-6191
▁나왔	-6192
▁왕이	-6193
▁사우스	-6194
▁짜	-6195
▁사전	-6196
시장	-6197
▁장소	-6198
▁대한민국에서	-6199
느냐	-6200
▁알고리즘	-6201
▁선포	-6202
▁이른바	-6203
아나	-6204
▁속의	-6205
▁권리를	-6206
▁전쟁의	-6207
어버	-6208
펙트	-6209
▁배포	-6210
▁바르셀로나	-6211
▁왕의	-6212
▁출전하여	-6213
타카	-6214
▁후인	-6215
▁1929	-6216
문제	-6217
▁Sp	-6218
▁당시에	-6219
▁1925	-6220
▁공개되었다	-6221
▁발음	-6222
▁자이언	-6223
▁세웠	-6224
렸으며	-6225
▁이루는	-6226
IS	-6227
▁꾸준	-6228
▁서구	-6229
▁아틀	-6230
▁사용자	-6231
먼트	-6232
스트라	-6233
▁탐사	-6234
▁아래와	-6235
▁구성된다	-6236
▁수십	-6237
▁방법은	-6238
▁밥	-6239
▁한자	-6240
했다가	-6241
▁양쪽	-6242
계약	-6243
▁(201	-6244
▁동북	-6245
▁바둑	-6246
▁사람들에게	-6247
▁에서	-6248
▁덧붙	-6249
▁단순한	-6250
가락	-6251
▁De	-6252
▁디스크	-6253
레나	-6254
▁농촌	-6255
▁이라크	-6256
▁1923	-6257
▁만다	-6258
▁롱	-6259
▁앤드	-6260
▁별도의	-6261
▁갖는다	-6262
이치	-6263
당시	-6264
▁시드	-6265
▁히로시마	-6266
속에	-6267
ath	-6268
▁1921	-6269
▁미쓰	-6270
▁조선총독	-6271
▁대량	-6272
▁아버지의	-6273
영을	-6274
▁재학	-6275
되거나	-6276
▁아래에	-6277
▁개방	-6278
▁내놓	-6279
등이	-6280
마뱀	-6281
방향	-6282
▁말이	-6283
활동을	-6284
▁노선을	-6285
▁소식을	-6286
목을	-6287
▁농구	-6288
▁좋지	-6289
남도의	-6290
▁조건을	-6291
▁고객	-6292
제르	-6293
▁파크	-6294
▁정교	-6295
ex	-6296
▁가깝	-6297
▁위에서	-6298
▁내세	-6299
▁비트	-6300
▁클라	-6301
▁형식으로	-6302
▁입단하였다	-6303
▁순환	-6304
▁무대	-6305
▁직전	-6306
▁자원	-6307
등의	-6308
중한	-6309
▁44	-6310
▁대상이	-6311
▁참여한	-6312
과정	-6313
▁사퇴	-6314
관이다	-6315
▁넓이는	-6316
렬한	-6317
조차	-6318
▁없게	-6319
▁서쪽으로	-6320
부사	-6321
▁충분히	-6322
법인	-6323
▁발간	-6324
olog	-6325
주의자	-6326
▁발언	-6327
▁칠레	-6328
다란	-6329
▁최우수	-6330
▁선호	-6331
▁오페라	-6332
▁분기	-6333
▁구성하는	-6334
▁호는	-6335
▁유학	-6336
▁달하는	-6337
▁윗	-6338
▁알레	-6339
▁북아메리카	-6340
▁문제는	-6341
ier	-6342
▁영화의	-6343
▁아티스트	-6344
▁지불	-6345
OR	-6346
▁상실	-6347
▁화장	-6348
▁드래프트	-6349
▁단순히	-6350
yn	-6351
▁부문에	-6352
프라	-6353
▁아동	-6354
하시	-6355
▁뮌헨	-6356
▁출연했다	-6357
열을	-6358
ohn	-6359
▁교차	-6360
▁일은	-6361
▁일으켜	-6362
▁수소	-6363
▁등장인	-6364
즈니	-6365
▁독립을	-6366
▁1922	-6367
이닝	-6368
▁포트	-6369
▁그들을	-6370
▁동쪽으로	-6371
주군	-6372
하기를	-6373
▁경향이	-6374
▁출신이다	-6375
▁가마	-6376
▁개인의	-6377
▁장수	-6378
▁싸움	-6379
▁입고	-6380
족은	-6381
▁지향	-6382
▁최대의	-6383
▁특징을	-6384
ee	-6385
▁몸을	-6386
분으로	-6387
▁AP	-6388
율이	-6389
lar	-6390
▁병원	-6391
원군	-6392
▁대대	-6393
▁거짓	-6394
▁추기	-6395
▁모터	-6396
▁호수	-6397
감이	-6398
▁임무를	-6399
률은	-6400
arl	-6401
▁역임하였다	-6402
▁멈	-6403
▁들면	-6404
보이	-6405
▁차단	-6406
ite	-6407
▁상태를	-6408
▁성공했다	-6409
본을	-6410
▁골드	-6411
▁명칭을	-6412
▁번호는	-6413
노스	-6414
되게	-6415
됨에	-6416
▁체육	-6417
에서부터	-6418
▁뻗	-6419
공을	-6420
▁했는데	-6421
모가	-6422
슬링	-6423
▁장르	-6424
리티	-6425
▁영구	-6426
▁코치	-6427
▁폭탄	-6428
▁유발	-6429
▁사건은	-6430
▁가까이	-6431
교는	-6432
▁벡터	-6433
▁스프링	-6434
▁손을	-6435
역에	-6436
대신	-6437
▁성직	-6438
▁1,000	-6439
름이	-6440
▁모바일	-6441
▁하나가	-6442
▁끝내	-6443
츠는	-6444
▁Re	-6445
▁메달	-6446
▁비스	-6447
▁산화	-6448
▁천안	-6449
조건	-6450
포로	-6451
▁미리	-6452
▁전투를	-6453
▁대부분을	-6454
월의	-6455
▁성경	-6456
▁재생	-6457
▁항의	-6458
▁보편	-6459
▁영화배우이다	-6460
사전	-6461
양이	-6462
아서	-6463
▁삶을	-6464
▁상호작용	-6465
▁넣어	-6466
▁연료	-6467
▁웹사이트	-6468
aw	-6469
▁클레	-6470
▁돌아온	-6471
▁사회의	-6472
▁하기도	-6473
▁격파	-6474
▁본질	-6475
▁재임	-6476
▁도쿠가와	-6477
▁사람들	-6478
▁크로아티아	-6479
프와	-6480
▁오카	-6481
유가	-6482
▁겉	-6483
▁순위	-6484
우를	-6485
▁인도의	-6486
▁카라	-6487
서와	-6488
▁벨라	-6489
▁일으켰다	-6490
▁그리하여	-6491
▁46	-6492
았으나	-6493
▁모토	-6494
▁County	-6495
(3	-6496
비트	-6497
▁흑인	-6498
발을	-6499
▁드물	-6500
▁기반을	-6501
프란	-6502
형에	-6503
기구	-6504
▁기병	-6505
▁DVD	-6506
▁170	-6507
▁유배	-6508
인조	-6509
▁근로	-6510
▁이재	-6511
▁우수	-6512
▁이상을	-6513
MA	-6514
게이	-6515
왕을	-6516
▁47	-6517
▁수컷	-6518
▁원인이	-6519
▁사건으로	-6520
▁철거	-6521
▁업무를	-6522
무장	-6523
▁배경으로	-6524
비히	-6525
▁올스타	-6526
양의	-6527
▁집에	-6528
▁이벤	-6529
▁한일	-6530
▁일종의	-6531
▁마드리드	-6532
종합	-6533
▁웨일	-6534
▁왕조의	-6535
▁걸친	-6536
중인	-6537
▁아메리칸	-6538
▁쌀	-6539
▁세우	-6540
▁정부에	-6541
▁본격적으로	-6542
▁랑	-6543
-10	-6544
▁자라	-6545
공간	-6546
로써	-6547
슬라	-6548
▁시작했고	-6549
▁북미	-6550
▁블록	-6551
▁사랑을	-6552
▁수술	-6553
하여야	-6554
▁구멍	-6555
▁이외의	-6556
▁있으므로	-6557
▁가설	-6558
▁탄압	-6559
▁드라마이다	-6560
신문	-6561
해에	-6562
▁팔레	-6563
바의	-6564
▁성남	-6565
▁1926	-6566
▁텐	-6567
전자	-6568
▁도쿄도	-6569
▁가난	-6570
▁기본적으로	-6571
호에	-6572
▁강릉	-6573
▁웃	-6574
스포	-6575
▁동성애	-6576
재가	-6577
▁속도	-6578
▁스탈	-6579
▁재능	-6580
▁판타	-6581
▁호흡	-6582
▁인기가	-6583
▁보여주는	-6584
▁쾌	-6585
▁보이지	-6586
▁그녀가	-6587
▁오키	-6588
▁앞으로	-6589
▁신고	-6590
▁체제	-6591
▁환승	-6592
▁대표로	-6593
▁마음을	-6594
크래프트	-6595
결승	-6596
마가	-6597
본부	-6598
▁갈색	-6599
유를	-6600
테이	-6601
크와	-6602
▁싱어	-6603
였는데	-6604
프가니스탄	-6605
MS	-6606
ED	-6607
▁곱	-6608
같이	-6609
ile	-6610
▁포함되었다	-6611
슬로	-6612
▁돌파	-6613
▁자가	-6614
▁향토	-6615
▁나라의	-6616
▁입단했다	-6617
집을	-6618
▁1927	-6619
미술	-6620
▁고종	-6621
▁십자	-6622
▁용어는	-6623
▁획득했다	-6624
▁멀티	-6625
▁기여했다	-6626
▁짝	-6627
실로	-6628
%),	-6629
▁식품	-6630
호와	-6631
▁마틴	-6632
▁콘텐츠	-6633
치기	-6634
▁명으로	-6635
▁밝은	-6636
▁지중	-6637
▁비판을	-6638
▁41	-6639
▁43	-6640
▁인천광역시	-6641
▁위대한	-6642
▁보냈	-6643
▁배급	-6644
▁핸	-6645
하를	-6646
▁1917	-6647
▁대장	-6648
▁마주	-6649
▁칼리	-6650
(17	-6651
키퍼	-6652
▁공장	-6653
▁보험	-6654
▁힙합	-6655
해군	-6656
▁교류	-6657
학은	-6658
▁스타디움	-6659
ick	-6660
▁세부	-6661
▁시정	-6662
로서는	-6663
▁랩	-6664
▁본다	-6665
▁줄어들	-6666
▁서서	-6667
▁주에	-6668
▁낸	-6669
▁덩	-6670
▁며	-6671
▁탓	-6672
▁입법	-6673
리코	-6674
파이	-6675
▁주장하는	-6676
기인	-6677
▁대법	-6678
하기에	-6679
59	-6680
지면	-6681
▁방언	-6682
인인	-6683
▁이명	-6684
▁콜롬	-6685
▁파키스탄	-6686
ound	-6687
▁결의	-6688
▁메탈	-6689
▁잠재	-6690
▁이외에도	-6691
,0	-6692
스팅	-6693
▁개척	-6694
▁그럼	-6695
▁일상	-6696
▁바이러스	-6697
왕후	-6698
용을	-6699
▁옵	-6700
▁되기	-6701
53	-6702
기지	-6703
▁초청	-6704
▁1912	-6705
are	-6706
▁중추	-6707
▁태양의	-6708
환을	-6709
▁고급	-6710
▁입장	-6711
▁차트에서	-6712
힌다	-6713
ung	-6714
▁개국	-6715
▁검색	-6716
▁하여금	-6717
▁가속	-6718
▁크루	-6719
▁이용할	-6720
공신	-6721
▁알리	-6722
제도	-6723
우라	-6724
▁CP	-6725
▁지칭	-6726
▁노동자	-6727
▁닌텐	-6728
▁카자	-6729
체이다	-6730
▁홋카이도	-6731
란색	-6732
너스	-6733
▁가상	-6734
▁신화	-6735
▁전화	-6736
▁처음에	-6737
▁Love	-6738
▁틈	-6739
▁대다	-6740
▁매장	-6741
단에서	-6742
▁교회의	-6743
▁모험	-6744
old	-6745
▁유통	-6746
▁1907	-6747
▁싱가포르	-6748
▁참고	-6749
▁발생하였다	-6750
▁단어	-6751
▁열었다	-6752
▁제도를	-6753
yst	-6754
▁생태	-6755
▁안토니	-6756
▁함경	-6757
▁루마니아	-6758
▁인터뷰에서	-6759
▁소프트웨	-6760
▁우리는	-6761
▁개명	-6762
▁유전자	-6763
▁1.	-6764
슨이	-6765
베리	-6766
산과	-6767
▁사항	-6768
학교를	-6769
크스	-6770
▁다큐	-6771
▁비공	-6772
▁안동	-6773
로에	-6774
파와	-6775
▁경기가	-6776
▁발표되었다	-6777
▁입은	-6778
드리아	-6779
가능	-6780
▁위치에	-6781
목에	-6782
▁강요	-6783
▁EP	-6784
▁작품의	-6785
▁발생한다	-6786
▁아버지가	-6787
▁리그의	-6788
▁수준의	-6789
▁제네	-6790
럼비아	-6791
56	-6792
▁오다	-6793
씨를	-6794
▁약칭	-6795
▁주된	-6796
▁사건의	-6797
▁사가	-6798
▁탄핵	-6799
▁살아남	-6800
▁데이터를	-6801
▁입력	-6802
▁발매한	-6803
트랙	-6804
ish	-6805
VP	-6806
▁지리	-6807
▁전동차	-6808
▁권리	-6809
▁골키퍼	-6810
▁대동	-6811
▁질량	-6812
▁중학교이다	-6813
다시	-6814
▁이익	-6815
▁행복	-6816
▁부르고	-6817
▁오케	-6818
▁원시	-6819
무네	-6820
미아	-6821
▁젠	-6822
다리	-6823
▁몬테	-6824
▁보물	-6825
▁꼬리	-6826
▁그라	-6827
▁자랑	-6828
▁진학	-6829
민의	-6830
환경	-6831
ime	-6832
차의	-6833
▁혼자	-6834
54	-6835
▁공주	-6836
율은	-6837
화하는	-6838
▁영토를	-6839
▁미국으로	-6840
▁놓여	-6841
▁말로	-6842
▁적극적으로	-6843
▁HD	-6844
특별자치	-6845
▁상대식	-6846
▁쓰러	-6847
▁편의	-6848
58	-6849
▁수를	-6850
▁하인	-6851
az	-6852
층에	-6853
▁일원	-6854
되었기	-6855
자이자	-6856
▁이즈	-6857
▁변호사	-6858
ps	-6859
역과	-6860
▁집필	-6861
▁실천	-6862
▁토착	-6863
▁열리는	-6864
▁뼈	-6865
▁140	-6866
▁펑	-6867
▁신도	-6868
▁운송	-6869
▁현존	-6870
▁아프가니스탄	-6871
등급	-6872
브로	-6873
▁소득	-6874
▁최근에는	-6875
▁사막	-6876
▁이어서	-6877
▁마감	-6878
▁주변의	-6879
▁원래는	-6880
▁베어	-6881
▁예방	-6882
▁올해의	-6883
ox	-6884
신경	-6885
▁자금	-6886
▁담고	-6887
▁부동	-6888
▁건물은	-6889
▁끝으로	-6890
▁Bl	-6891
▁Sc	-6892
▁촉진	-6893
▁나뉘어	-6894
▁특별히	-6895
odice	-6896
OM	-6897
▁화가	-6898
▁도움이	-6899
▁엘리자	-6900
▁방송된	-6901
러는	-6902
체인	-6903
▁첫째	-6904
▁영향으로	-6905
침을	-6906
▁매주	-6907
▁명시	-6908
▁오리지	-6909
▁몸길	-6910
▁레이블	-6911
▁이어졌다	-6912
▁전작	-6913
▁대학교의	-6914
▁갖게	-6915
라이터	-6916
▁영화를	-6917
▁정식으로	-6918
▁남녀	-6919
그래	-6920
▁주력	-6921
▁보스턴	-6922
ork	-6923
▁자매	-6924
▁뚜렷	-6925
▁심지어	-6926
▁감독은	-6927
미사	-6928
▁메모리	-6929
▁음반을	-6930
▁강남	-6931
▁부드	-6932
▁유대인	-6933
att	-6934
▁거느	-6935
▁서명	-6936
와이	-6937
▁위상	-6938
하라는	-6939
타가	-6940
▁할아버	-6941
지니아	-6942
▁치렀다	-6943
▁수호	-6944
▁불가리아	-6945
TA	-6946
▁US	-6947
▁타격	-6948
▁소집	-6949
▁용인	-6950
▁요코하마	-6951
조참	-6952
▁오는	-6953
▁섹	-6954
▁주재	-6955
▁죽음을	-6956
▁후보가	-6957
▁한성	-6958
▁내가	-6959
▁대학의	-6960
클레	-6961
▁파트너	-6962
치오	-6963
▁로렌	-6964
▁물려	-6965
▁발표된	-6966
스피	-6967
일리	-6968
▁감시	-6969
▁중성	-6970
▁600	-6971
▁1908	-6972
▁프로그래밍	-6973
중을	-6974
▁청구	-6975
▁않았지만	-6976
안전	-6977
학에	-6978
로미터	-6979
▁구성원	-6980
인가	-6981
▁서기	-6982
▁실업	-6983
▁약탈	-6984
▁유적	-6985
▁강하게	-6986
보다도	-6987
▁유나이티드	-6988
ey	-6989
릭스	-6990
령의	-6991
▁유튜브	-6992
▁소속의	-6993
▁초기에는	-6994
라면	-6995
절을	-6996
▁관객	-6997
▁동반	-6998
▁소규모	-6999
브레	-7000
▁인상	-7001
▁유력	-7002
▁닉	-7003
통합	-7004
▁복음	-7005
니스트	-7006
▁1905	-7007
▁""	-7008
▁그러므로	-7009
▁압도	-7010
계와	-7011
년까지는	-7012
▁싸우	-7013
우스는	-7014
▁벼슬	-7015
▁호주	-7016
식에서	-7017
▁사건에	-7018
대장	-7019
▁착용	-7020
로지	-7021
_4	-7022
▁론	-7023
▁크라	-7024
당으로	-7025
57	-7026
▁목숨	-7027
▁우리가	-7028
지방선거	-7029
나르	-7030
물과	-7031
▁주제	-7032
▁맨체스터	-7033
티스	-7034
▁집을	-7035
▁도시는	-7036
▁발렌	-7037
▁번주	-7038
▁퀘	-7039
머리	-7040
))	-7041
▁정확히	-7042
▁풋	-7043
▁개량	-7044
▁백성	-7045
나마	-7046
▁개찰	-7047
목으로	-7048
▁이적하였다	-7049
▁소스	-7050
시스트	-7051
▁진격	-7052
▁맺었다	-7053
▁어두	-7054
▁면역	-7055
▁산하	-7056
▁청주	-7057
스테이션	-7058
▁안내	-7059
았지만	-7060
▁반대하는	-7061
▁뛰고	-7062
사이드	-7063
디는	-7064
▁후퇴	-7065
시스템	-7066
▁정치인	-7067
▁가치를	-7068
▁이론을	-7069
▁공원	-7070
각형	-7071
국과	-7072
▁않기	-7073
▁공기	-7074
▁훌륭	-7075
예를	-7076
▁사도	-7077
▁신의	-7078
후에	-7079
▁소요	-7080
작으로	-7081
▁스톤	-7082
▁만들기	-7083
▁상황에	-7084
토벤	-7085
▁소리	-7086
,7	-7087
베이스	-7088
▁Sch	-7089
▁세계대전	-7090
▁군대	-7091
▁막기	-7092
▁또다른	-7093
▁기도	-7094
▁축소	-7095
▁포함된	-7096
현은	-7097
토는	-7098
▁새벽	-7099
▁시모	-7100
하르트	-7101
▁방송을	-7102
▁부르기도	-7103
판에	-7104
▁많았다	-7105
카는	-7106
▁붙어	-7107
▁새끼	-7108
▁필립	-7109
▁미국인	-7110
대문	-7111
연구소	-7112
▁다이묘	-7113
▁그렇다면	-7114
리브	-7115
▁남극	-7116
▁위키	-7117
▁적응	-7118
▁관계에	-7119
▁가고	-7120
▁연안	-7121
▁소화	-7122
▁코믹	-7123
▁투어	-7124
편의	-7125
▁감정	-7126
▁원인	-7127
SP	-7128
int	-7129
▁폭력	-7130
바키아	-7131
▁종이	-7132
▁1906	-7133
▁일단	-7134
▁올라가	-7135
토미	-7136
▁열매	-7137
수도	-7138
▁개장	-7139
▁대화	-7140
▁트라	-7141
모의	-7142
치와	-7143
실에서	-7144
land	-7145
und	-7146
▁문신	-7147
▁오이	-7148
▁말라	-7149
▁밀라노	-7150
▁정통	-7151
결을	-7152
▁관계는	-7153
▁적어도	-7154
▁조선민주주의인민공화국의	-7155
필드	-7156
▁맺고	-7157
심이	-7158
▁대변	-7159
▁전형적인	-7160
▁아리	-7161
▁역에서	-7162
▁딜	-7163
고리	-7164
행이	-7165
▁상주	-7166
▁부속	-7167
▁보르	-7168
▁후에도	-7169
배를	-7170
ium	-7171
▁그만	-7172
▁주니어	-7173
▁부담	-7174
▁사찰	-7175
▁(18	-7176
▁콘스탄티노	-7177
구조	-7178
름은	-7179
▁필라	-7180
▁리드	-7181
니와	-7182
올린	-7183
훈련	-7184
(18	-7185
pt	-7186
▁수도권	-7187
▁전체를	-7188
한다면	-7189
▁영향력을	-7190
밀한	-7191
▁발휘	-7192
▁우에	-7193
▁상태가	-7194
▁역사가	-7195
▁게르	-7196
▁구사	-7197
▁오리지널	-7198
▁조선시대의	-7199
드르	-7200
용의	-7201
▁의도	-7202
▁살았다	-7203
▁가끔	-7204
▁이수	-7205
렀고	-7206
▁공산당	-7207
▁비틀	-7208
▁허락	-7209
군에게	-7210
▁그리스의	-7211
ase	-7212
▁주거	-7213
▁재즈	-7214
▁집안	-7215
ool	-7216
▁관해	-7217
았는데	-7218
마에	-7219
▁이끌어	-7220
▁황제의	-7221
▁리그에서	-7222
금은	-7223
님의	-7224
보험	-7225
이면	-7226
곡은	-7227
▁증언	-7228
▁실내	-7229
▁회사의	-7230
▁곤충	-7231
건의	-7232
▁아르메	-7233
▁코너	-7234
▁파생	-7235
▁유용	-7236
▁결승전	-7237
▁홈런을	-7238
슬라비아	-7239
하에서	-7240
▁없지만	-7241
보로	-7242
까지도	-7243
▁허가	-7244
▁콘서트	-7245
▁다음으로	-7246
▁평론	-7247
▁사이트	-7248
▁셔	-7249
▁연구는	-7250
▁꺼	-7251
▁800	-7252
▁말해	-7253
▁차지한다	-7254
▁일본은	-7255
▁전국동시	-7256
▁닮	-7257
아웃	-7258
군에서	-7259
▁구로	-7260
▁영양	-7261
au	-7262
적이며	-7263
▁맞추	-7264
▁마법	-7265
▁베네치아	-7266
모델	-7267
유한	-7268
▁행위를	-7269
▁삽입	-7270
▁뜻이다	-7271
국인	-7272
▁데려	-7273
▁전국동시지방선거	-7274
향을	-7275
▁백제	-7276
폴리	-7277
▁심장	-7278
▁이념	-7279
▁나타난	-7280
500	-7281
▁Con	-7282
▁스크린	-7283
▁준결승	-7284
▁커다란	-7285
▁논리	-7286
▁하던	-7287
관계를	-7288
▁바이러	-7289
▁재료	-7290
▁on	-7291
▁교사	-7292
▁적도	-7293
▁원하는	-7294
▁패턴	-7295
▁아이스	-7296
운동을	-7297
▁고안	-7298
▁KT	-7299
▁예외	-7300
▁다큐멘	-7301
▁이은	-7302
▁클리	-7303
갔고	-7304
▁베른	-7305
교도	-7306
▁메트로	-7307
됐고	-7308
살이	-7309
▁무릎	-7310
▁든	-7311
플로	-7312
▁의견을	-7313
▁고고	-7314
▁단층	-7315
▁웨이	-7316
▁미국에	-7317
비행	-7318
기이다	-7319
말로	-7320
모는	-7321
▁미나	-7322
▁좁은	-7323
▁("	-7324
차에	-7325
▁과도	-7326
▁도메	-7327
▁혼인	-7328
받침	-7329
▁클로	-7330
코프	-7331
▁마그	-7332
ram	-7333
▁재위	-7334
II	-7335
▁손에	-7336
▁지었다	-7337
카르	-7338
▁땅을	-7339
▁발전을	-7340
▁트럼	-7341
세기의	-7342
▁센트	-7343
래의	-7344
▁시게	-7345
51	-7346
주의와	-7347
▁남겨	-7348
대상	-7349
▁49	-7350
▁북극	-7351
졌던	-7352
▁부탁	-7353
▁선조	-7354
▁영혼	-7355
▁다루는	-7356
▁형성된	-7357
류에	-7358
투표	-7359
▁감옥	-7360
▁그럼에도	-7361
▁군사를	-7362
sc	-7363
카미	-7364
▁타워	-7365
▁극복	-7366
▁연평균	-7367
▁이미지	-7368
▁강수	-7369
▁일으킨	-7370
버드	-7371
▁대칭	-7372
▁모습이	-7373
▁주목을	-7374
▁수직	-7375
호선의	-7376
애나	-7377
ica	-7378
▁감각	-7379
▁야스	-7380
▁시절에	-7381
▁자체가	-7382
▁MS	-7383
▁매니	-7384
▁법적	-7385
▁나이에	-7386
비와	-7387
▁석사	-7388
지구	-7389
경기에서	-7390
▁그들	-7391
▁밴드의	-7392
▁명칭으로	-7393
▁130	-7394
하면서도	-7395
청은	-7396
▁행정구	-7397
▁접속	-7398
▁그녀를	-7399
▁동일본	-7400
▁스웨덴의	-7401
▁잡고	-7402
▁국경을	-7403
▁늑	-7404
우스의	-7405
당하고	-7406
▁본선에	-7407
▁설립한	-7408
▁없었고	-7409
▁서방	-7410
오로	-7411
이게	-7412
▁에너지를	-7413
▁플로리다	-7414
▁지나지	-7415
사우루스	-7416
Hz	-7417
3)	-7418
되던	-7419
▁레코드	-7420
주년	-7421
▁나고야	-7422
OC	-7423
점과	-7424
▁지자	-7425
▁세계를	-7426
보통	-7427
학회	-7428
▁동굴	-7429
▁몸무	-7430
중의	-7431
▁성과를	-7432
▁남아메리카	-7433
ix	-7434
▁당나라	-7435
▁지역이	-7436
▁플루	-7437
쳤고	-7438
▁정수	-7439
주의는	-7440
▁참가하였다	-7441
TC	-7442
▁일곱	-7443
▁상태에	-7444
▁양산	-7445
▁음성	-7446
rist	-7447
▁레벨	-7448
▁유키	-7449
니에	-7450
▁모임	-7451
중이다	-7452
▁본명은	-7453
▁아케	-7454
▁HIV	-7455
▁의정부	-7456
▁콜롬비아	-7457
▁갱	-7458
률이	-7459
▁르네	-7460
▁모음	-7461
▁해협	-7462
▁기능이	-7463
ron	-7464
▁소형	-7465
▁승부	-7466
▁특허	-7467
▁쏘	-7468
▁싫	-7469
▁기구	-7470
▁파티	-7471
▁때마다	-7472
▁보이고	-7473
▁철저	-7474
▁클라우	-7475
▁이르기까지	-7476
▁마스터	-7477
자였다	-7478
▁시조	-7479
면과	-7480
▁콜로	-7481
병원	-7482
오고	-7483
카드	-7484
프스	-7485
▁거리를	-7486
재위	-7487
▁수백	-7488
▁중국에서	-7489
▁경남	-7490
▁규슈	-7491
▁재산	-7492
▁담은	-7493
▁본토	-7494
령으로	-7495
▁국가가	-7496
▁|	-7497
판의	-7498
ous	-7499
▁레인	-7500
▁지원하는	-7501
▁생애	-7502
노미야	-7503
권과	-7504
▁구원	-7505
▁거리에	-7506
-15	-7507
가수	-7508
▁동시	-7509
▁그려져	-7510
▁codice	-7511
▁SF	-7512
▁탑승	-7513
대사	-7514
▁기부	-7515
▁비정	-7516
▁성격을	-7517
률을	-7518
▁받으며	-7519
▁맞춰	-7520
▁51	-7521
문이다	-7522
▁폐지되었다	-7523
▁중에서도	-7524
이라며	-7525
졌으나	-7526
▁삼았다	-7527
▁제후	-7528
▁드래곤	-7529
▁사람이다	-7530
소수	-7531
프란시스코	-7532
▁하우스	-7533
▁AC	-7534
▁영원	-7535
▁힘들	-7536
발전	-7537
▁광역	-7538
▁쇠퇴	-7539
▁되기도	-7540
▁오늘날의	-7541
호쿠	-7542
▁기동	-7543
▁세리에	-7544
▁크기가	-7545
이즈	-7546
▁석방	-7547
▁해설	-7548
▁사이를	-7549
▁앨범을	-7550
▁강을	-7551
레이드	-7552
▁서쪽으로는	-7553
작가	-7554
청년	-7555
▁발명	-7556
르키	-7557
족을	-7558
▁상하	-7559
속의	-7560
▁54	-7561
되었다는	-7562
(6	-7563
함은	-7564
▁기하	-7565
▁다녔	-7566
▁1/	-7567
▁고리	-7568
▁결과로	-7569
▁커뮤니티	-7570
IT	-7571
▁빨간	-7572
▁토너	-7573
▁있어야	-7574
▁독점	-7575
▁수반	-7576
▁와서	-7577
자이너	-7578
▁김대중	-7579
▁싱어송	-7580
▁미나미	-7581
▁페이스	-7582
▁현상을	-7583
▁곳은	-7584
▁라는	-7585
▁탄소	-7586
석으로	-7587
▁노선은	-7588
당에서	-7589
문과	-7590
▁교수로	-7591
▁유고슬라비아	-7592
▁비롯해	-7593
사랑	-7594
▁OS	-7595
▁람	-7596
도니아	-7597
▁주변에	-7598
유로	-7599
▁5,	-7600
▁유입	-7601
훼손	-7602
▁앱	-7603
▁남쪽으로는	-7604
▁레지	-7605
▁음악가	-7606
▁익스	-7607
▁들었다	-7608
▁동쪽으로는	-7609
▁무관	-7610
성에서	-7611
▁베토벤	-7612
레는	-7613
hy	-7614
▁적절한	-7615
▁스트라이	-7616
▁참가하여	-7617
▁이정	-7618
▁52	-7619
▁넘겨	-7620
▁지바	-7621
나게	-7622
본은	-7623
▁풍부한	-7624
센트	-7625
▁56	-7626
▁순서	-7627
졌지만	-7628
▁세력이	-7629
▁의미가	-7630
▁권한을	-7631
개는	-7632
의가	-7633
▁브레이	-7634
▁돌아왔다	-7635
마저	-7636
▁Man	-7637
체에서	-7638
▁국정	-7639
▁인물로	-7640
▁1904	-7641
▁비례대표	-7642
▁스마트폰	-7643
▁끈	-7644
▁입사	-7645
이라면	-7646
▁세워진	-7647
▁지역에서는	-7648
▁캡	-7649
계열	-7650
오리	-7651
▁운반	-7652
▁파울	-7653
▁운동에	-7654
▁부상으로	-7655
▁했	-7656
▁감사	-7657
▁책은	-7658
▁트위	-7659
▁기본적인	-7660
▁블라디	-7661
▁포유	-7662
▁유럽에서	-7663
▁전술	-7664
▁라이프	-7665
oll	-7666
▁삭제	-7667
데이트	-7668
▁음반의	-7669
▁압축	-7670
▁순수	-7671
▁차지하였다	-7672
orn	-7673
▁무산	-7674
▁전북	-7675
▁뱀	-7676
▁아울	-7677
▁도시를	-7678
▁먹는다	-7679
▁뮤직비디오	-7680
개국	-7681
보기	-7682
다이라	-7683
▁졸업했다	-7684
▁단행	-7685
▁110	-7686
ism	-7687
▁지대	-7688
▁당사	-7689
▁예산	-7690
▁3.1	-7691
▁공무원	-7692
즈와	-7693
▁죽자	-7694
▁퓨	-7695
▁크로스	-7696
▁효과가	-7697
ET	-7698
바흐	-7699
▁거대	-7700
▁급격	-7701
▁결승전에서	-7702
▁수감	-7703
▁납치	-7704
▁이행	-7705
▁공간을	-7706
바다	-7707
ve	-7708
▁그랑	-7709
▁코스	-7710
▁뤼	-7711
▁탐험	-7712
pr	-7713
마쓰	-7714
▁Pr	-7715
▁놀라	-7716
상이다	-7717
▁덕분에	-7718
▁마치고	-7719
▁빅토리아	-7720
▁차지하는	-7721
노의	-7722
트롤	-7723
▁실제로는	-7724
AP	-7725
▁사촌	-7726
▁되었는데	-7727
타와	-7728
▁가시	-7729
자들과	-7730
▁반면에	-7731
▁대해서도	-7732
▁거둔	-7733
▁고통	-7734
▁게임은	-7735
▁배열	-7736
▁중시	-7737
▁꾸준히	-7738
▁이하의	-7739
▁수록되어	-7740
클린	-7741
▁가쓰	-7742
▁되찾	-7743
▁리듬	-7744
시즌을	-7745
▁토벌	-7746
자였던	-7747
▁이날	-7748
▁아무런	-7749
▁정도이다	-7750
▁변화가	-7751
▁빗	-7752
▁추적	-7753
▁주식회사	-7754
▁엔터테인먼트	-7755
우에	-7756
▁싱어송라이터	-7757
▁주요한	-7758
청의	-7759
고에	-7760
▁WW	-7761
▁지질	-7762
▁장례	-7763
돌프	-7764
법과	-7765
▁찬성	-7766
▁영감을	-7767
▁중립	-7768
▁휴대	-7769
▁기타리스트	-7770
▁?)	-7771
▁대원	-7772
▁보이며	-7773
▁툴	-7774
▁흰색	-7775
에게도	-7776
▁이었다	-7777
▁케이블	-7778
▁결정했다	-7779
▁독재	-7780
▁스릴	-7781
▁초래	-7782
▁패러	-7783
▁사용하지	-7784
▁모로	-7785
▁입증	-7786
노는	-7787
년만에	-7788
▁플레	-7789
▁자신은	-7790
현재의	-7791
반의	-7792
즈키	-7793
▁등장한	-7794
▁아래의	-7795
▁심사	-7796
(4	-7797
나를	-7798
▁수밖에	-7799
원숭	-7800
토가	-7801
▁상영	-7802
▁BBC	-7803
▁없었던	-7804
리케이션	-7805
▁쿼	-7806
▁내는	-7807
▁생기	-7808
▁화폐	-7809
▁정이다	-7810
▁샌프란시스코	-7811
마루	-7812
▁사로	-7813
▁현대의	-7814
▁건담	-7815
▁계층	-7816
▁매각	-7817
▁이어져	-7818
보의	-7819
▁방위	-7820
▁도중에	-7821
▁명성을	-7822
▁영국과	-7823
▁두드	-7824
▁브로	-7825
▁하사	-7826
▁상황이	-7827
▁특성을	-7828
▁모양으로	-7829
▁발생했다	-7830
▁앨런	-7831
치며	-7832
▁옮겼다	-7833
▁셋째	-7834
▁창간	-7835
▁인류	-7836
▁정부를	-7837
란다	-7838
▁겨우	-7839
▁북쪽으로는	-7840
▁JR	-7841
▁소리를	-7842
▁추락	-7843
졌는데	-7844
펙트럼	-7845
▁종교적	-7846
연의	-7847
오와	-7848
▁퀴	-7849
▁게시	-7850
▁크기는	-7851
co	-7852
실에	-7853
집합	-7854
ign	-7855
ina	-7856
▁불리며	-7857
▁약간의	-7858
기능	-7859
▁y	-7860
▁경유	-7861
▁추산으로	-7862
▁가미	-7863
▁테오	-7864
▁그랜드	-7865
?"	-7866
▁띤	-7867
▁망원	-7868
생산	-7869
▁경전	-7870
▁밀접	-7871
였다고	-7872
이었는데	-7873
▁카메라	-7874
▁학사	-7875
▁대서양	-7876
근혜	-7877
▁세월	-7878
▁유아	-7879
▁크기의	-7880
야는	-7881
▁그중	-7882
▁대학에서	-7883
▁고가	-7884
▁정류	-7885
▁1911	-7886
▁My	-7887
▁하느	-7888
▁리눅	-7889
▁왕립	-7890
▁이종	-7891
슬림	-7892
▁들여	-7893
▁예로	-7894
▁인증	-7895
▁않았으며	-7896
내의	-7897
총리	-7898
해지고	-7899
▁돔	-7900
령은	-7901
정도	-7902
▁긴급	-7903
▁노래이다	-7904
▁안드로이드	-7905
리온	-7906
▁먹는	-7907
▁문화적	-7908
졌을	-7909
카스	-7910
현을	-7911
▁등도	-7912
▁모노	-7913
▁혁신	-7914
▁졸업한	-7915
▁알렉산더	-7916
▁무리	-7917
▁운항	-7918
52	-7919
오가	-7920
해는	-7921
▁때문이었다	-7922
끼리	-7923
▁곧바로	-7924
▁목포	-7925
▁역의	-7926
▁생각을	-7927
ance	-7928
▁집에서	-7929
▁전망	-7930
▁Mar	-7931
▁개발을	-7932
▁락	-7933
▁공정	-7934
▁사람으로	-7935
터와	-7936
▁결심	-7937
▁대의	-7938
▁러브	-7939
▁선형	-7940
▁못하게	-7941
건설	-7942
▁가능성을	-7943
▁제공하고	-7944
천의	-7945
▁대선	-7946
▁한반도	-7947
▁필요로	-7948
▁최상	-7949
▁입었다	-7950
▁크림	-7951
▁넥	-7952
루살	-7953
▁트라이	-7954
▁전해진다	-7955
▁첩	-7956
"()	-7957
▁동경	-7958
▁일본인	-7959
▁뚫	-7960
러리	-7961
▁타입	-7962
페이지	-7963
관광	-7964
▁안양	-7965
▁SC	-7966
▁모듈	-7967
▁모래	-7968
▁일어난다	-7969
▁걸려	-7970
▁우라	-7971
▁과학자	-7972
▁바람에	-7973
▁성과	-7974
▁길이가	-7975
▁지연	-7976
▁방법이	-7977
▁외계	-7978
나고	-7979
주의에	-7980
제품	-7981
▁동영	-7982
▁소위	-7983
▁걷	-7984
스톤	-7985
자나	-7986
▁이세	-7987
▁진출에	-7988
든지	-7989
▁이용하는	-7990
너는	-7991
닉스	-7992
▁동아시아	-7993
▁일환으로	-7994
▁SN	-7995
▁은퇴한	-7996
ES	-7997
▁사다	-7998
▁일대	-7999
▁지표	-8000
▁디자이너	-8001
▁프랑스는	-8002
미국	-8003
ala	-8004
▁수익	-8005
▁1896	-8006
공학	-8007
북도의	-8008
▁칙	-8009
▁병력을	-8010
▁시간에	-8011
▁딴	-8012
▁붙잡	-8013
병으로	-8014
▁정권을	-8015
피를	-8016
▁Le	-8017
▁아웃	-8018
▁관심이	-8019
▁딱	-8020
디스	-8021
▁산악	-8022
▁쿠바	-8023
▁방향을	-8024
▁연락	-8025
▁자세	-8026
▁대회는	-8027
▁세우고	-8028
▁중지	-8029
합니다	-8030
▁거친	-8031
탄을	-8032
▁창당	-8033
▁에스토	-8034
▁에스파	-8035
마리	-8036
▁폭격	-8037
루살렘	-8038
▁실시된	-8039
▁나이트	-8040
▁업데이트	-8041
▁신분	-8042
류로	-8043
플러	-8044
▁습격	-8045
▁유닛	-8046
▁판타지	-8047
▁교향곡	-8048
▁역사는	-8049
AD	-8050
▁밸	-8051
▁공룡	-8052
▁예전	-8053
직에서	-8054
▁서북	-8055
▁있다가	-8056
▁부분에	-8057
▁지원한다	-8058
고자	-8059
▁김해	-8060
▁살펴	-8061
▁빌딩	-8062
ll	-8063
▁총선에서	-8064
▁시달	-8065
▁중동	-8066
▁스릴러	-8067
▁유니버	-8068
▁세계에	-8069
▁공식적인	-8070
성도	-8071
▁노무	-8072
▁색깔	-8073
▁조기	-8074
▁의미로	-8075
▁굽	-8076
▁오염	-8077
▁임신	-8078
▁않았던	-8079
▁작품이	-8080
▁Te	-8081
▁얻게	-8082
▁연설	-8083
긴다	-8084
▁관련하여	-8085
때로	-8086
iel	-8087
▁대구광역시	-8088
▁대조	-8089
▁리가	-8090
▁규모가	-8091
▁고립	-8092
▁분포한다	-8093
문으로	-8094
▁모델로	-8095
▁상의	-8096
▁시스템은	-8097
중이	-8098
▁초상	-8099
▁못한다	-8100
▁실수	-8101
▁요미	-8102
▁밖으로	-8103
▁보여주었다	-8104
▁만난	-8105
▁성질	-8106
▁합동	-8107
▁노선이	-8108
메르	-8109
ru	-8110
ree	-8111
▁압박	-8112
▁테마	-8113
▁눈을	-8114
▁전남	-8115
▁오디션	-8116
실한	-8117
▁추대	-8118
생활을	-8119
▁열차는	-8120
▁추가되었다	-8121
즈카	-8122
▁뷰	-8123
▁홀로	-8124
▁고양이	-8125
▁회색	-8126
▁흐르는	-8127
▁대회이다	-8128
▁별로	-8129
▁영광	-8130
유산	-8131
▁서울시	-8132
▁토마스	-8133
션을	-8134
▁부처	-8135
▁들어간	-8136
▁믹	-8137
들인	-8138
▁단선	-8139
▁물이	-8140
▁1909	-8141
케이팅	-8142
▁사진을	-8143
▁스펙트럼	-8144
▁이루어진다	-8145
하겠다고	-8146
▁플레이스테이션	-8147
단계	-8148
족과	-8149
▁테크	-8150
스티벌	-8151
기서	-8152
▁마카	-8153
▁아우구	-8154
▁클래식	-8155
▁벗어	-8156
된다는	-8157
널드	-8158
▁갤럭	-8159
▁곳을	-8160
▁대회를	-8161
▁것이고	-8162
꼬리	-8163
▁뒤로	-8164
식이다	-8165
중심	-8166
▁진술	-8167
▁초점을	-8168
▁모습으로	-8169
▁삼아	-8170
▁옹호	-8171
▁청동	-8172
▁브라질의	-8173
보병	-8174
앨범	-8175
▁모르	-8176
▁올린	-8177
300	-8178
▁라이벌	-8179
▁윤치	-8180
론적	-8181
own	-8182
.5%	-8183
▁깊이	-8184
▁유인	-8185
위원회가	-8186
▁전염	-8187
▁제조업	-8188
.25	-8189
▁사형	-8190
▁황태	-8191
루미	-8192
▁간섭	-8193
시대에	-8194
ley	-8195
▁입대	-8196
▁친선	-8197
▁못했고	-8198
전투	-8199
▁Cl	-8200
▁전의	-8201
▁결과는	-8202
연한	-8203
▁아나운	-8204
AS	-8205
둥이	-8206
▁Ex	-8207
▁히가시	-8208
▁영주	-8209
▁퍼져	-8210
▁엔진을	-8211
▁경험을	-8212
르바	-8213
▁참모	-8214
▁캘리포니아주	-8215
▁주말	-8216
▁두려워	-8217
▁향년	-8218
포스	-8219
▁섬식	-8220
클라	-8221
▁전한	-8222
▁문화를	-8223
▁World	-8224
▁성공적으로	-8225
▁막을	-8226
▁과거에	-8227
여래	-8228
▁Wh	-8229
나라는	-8230
위에서	-8231
보가	-8232
▁체험	-8233
▁작전을	-8234
화학	-8235
▁하다가	-8236
▁냈다	-8237
▁변신	-8238
▁죽고	-8239
론과	-8240
▁남양	-8241
▁되었다고	-8242
▁설치되었다	-8243
iversity	-8244
_10	-8245
▁기용	-8246
▁사과	-8247
▁사양	-8248
▁어드	-8249
▁무슬림	-8250
▁미얀	-8251
▁종로	-8252
복지	-8253
파에	-8254
편을	-8255
팀이	-8256
지방법원	-8257
▁레닌	-8258
▁박쥐	-8259
▁사제	-8260
▁재발	-8261
▁관하여	-8262
▁미치는	-8263
▁보기	-8264
▁동기	-8265
▁세계적인	-8266
▁다룬	-8267
▁임금	-8268
구리	-8269
▁간에	-8270
▁아마추어	-8271
황후	-8272
▁천체	-8273
▁Col	-8274
▁자유를	-8275
▁활동에	-8276
▁아들이다	-8277
▁빵	-8278
▁펄	-8279
▁극단	-8280
▁출전했다	-8281
령에	-8282
사상	-8283
▁라이온	-8284
▁우루	-8285
▁프랜	-8286
지기도	-8287
,6	-8288
타임	-8289
▁대단	-8290
▁명단에	-8291
▁전체적으로	-8292
테스	-8293
페이스	-8294
▁정교회	-8295
보면	-8296
▁가득	-8297
▁무인	-8298
면서도	-8299
▁FM	-8300
▁가야	-8301
▁동맹을	-8302
▁지정되어	-8303
류와	-8304
▁선두	-8305
▁명칭이	-8306
등한	-8307
▁거슬러	-8308
▁스페셜	-8309
▁Gr	-8310
▁고시	-8311
▁경계를	-8312
▁공동으로	-8313
▁아르메니아	-8314
▁원로	-8315
▁250	-8316
▁뿐이다	-8317
▁존재를	-8318
다니	-8319
▁마라	-8320
▁비로	-8321
▁없기	-8322
▁우익	-8323
▁비평가	-8324
ame	-8325
▁Is	-8326
리시	-8327
▁해병	-8328
▁박물관	-8329
IM	-8330
린이	-8331
▁브라이언	-8332
▁직접적인	-8333
▁스토리	-8334
▁지어진	-8335
▁미국이	-8336
▁분산	-8337
▁호르	-8338
▁자료를	-8339
광역시의	-8340
▁이야기가	-8341
ML	-8342
교가	-8343
하였을	-8344
▁말하며	-8345
▁획득하였다	-8346
우치	-8347
▁이적했다	-8348
▁과학적	-8349
투아니아	-8350
▁결과적으로	-8351
800	-8352
▁대답	-8353
▁천황의	-8354
▁램	-8355
작은	-8356
타나	-8357
▁역전	-8358
▁대만	-8359
박스	-8360
▁복수	-8361
▁손상	-8362
▁옆에	-8363
▁예능	-8364
▁나열	-8365
▁NHK	-8366
고한	-8367
재인	-8368
▁문화의	-8369
▁유지하고	-8370
가루	-8371
ale	-8372
▁일부로	-8373
아프리카	-8374
Ar	-8375
토를	-8376
▁메리	-8377
▁스승	-8378
▁모양을	-8379
▁아니었다	-8380
▁구간은	-8381
▁분야의	-8382
소리	-8383
티는	-8384
ose	-8385
▁카페	-8386
번호	-8387
으려	-8388
▁마시	-8389
▁발라	-8390
▁옛날	-8391
▁출현	-8392
습을	-8393
조판서	-8394
됐으며	-8395
▁경기장	-8396
대원	-8397
▁설이	-8398
학과를	-8399
Un	-8400
▁흙	-8401
그로	-8402
▁쓴다	-8403
▁1915	-8404
▁!	-8405
청이	-8406
-17	-8407
▁찾는	-8408
▁지방에	-8409
ult	-8410
▁전원	-8411
▁질환	-8412
▁1913	-8413
공의	-8414
▁계기가	-8415
▁때때로	-8416
▁광범위한	-8417
CD	-8418
▁수천	-8419
▁결과가	-8420
▁리이다	-8421
▁일본어	-8422
히로	-8423
▁의거	-8424
▁중화인민공화국의	-8425
▁탱	-8426
롤라	-8427
대학원	-8428
▁전체의	-8429
▁고지	-8430
▁프랑스에서	-8431
▁경력을	-8432
4)	-8433
▁에릭	-8434
▁토머스	-8435
▁일원으로	-8436
식물	-8437
편이	-8438
▁보인	-8439
▁이치	-8440
데스리가	-8441
위원회는	-8442
▁호남	-8443
▁히어로	-8444
▁료	-8445
▁벌였다	-8446
▁자전거	-8447
▁발매했다	-8448
▁가질	-8449
▁금강	-8450
▁내륙	-8451
ta	-8452
▁말은	-8453
▁소나	-8454
▁예루살렘	-8455
곡이	-8456
▁당선되었다	-8457
스포츠	-8458
▁배제	-8459
▁야기	-8460
▁염색	-8461
▁장갑	-8462
방에	-8463
▁라운드	-8464
▁그리스도	-8465
▁전승	-8466
▁한국인	-8467
▁젤	-8468
우옌	-8469
년으로	-8470
▁낳았다	-8471
▁버지니아	-8472
▁가라	-8473
▁유성	-8474
▁조약을	-8475
▁다가	-8476
▁메가	-8477
▁보좌	-8478
▁세균	-8479
▁항구	-8480
▁모순	-8481
▁시를	-8482
▁찾을	-8483
▁인간이	-8484
▁결정을	-8485
▁아니고	-8486
과도	-8487
▁57	-8488
▁구상	-8489
스트는	-8490
▁박근혜	-8491
▁접하고	-8492
▁카자흐	-8493
디의	-8494
▁원형	-8495
▁유물	-8496
▁계획은	-8497
전기	-8498
▁막부	-8499
▁적색	-8500
▁티베트	-8501
토시	-8502
활동	-8503
▁애플리케이션	-8504
▁용어	-8505
▁관광객	-8506
▁애틀	-8507
▁두번째	-8508
▁목숨을	-8509
▁빨리	-8510
▁야생	-8511
▁얼마나	-8512
▁차이를	-8513
▁데뷔전을	-8514
▁일렉	-8515
▁태조	-8516
▁봉해졌다	-8517
▁아베	-8518
▁아비	-8519
▁군대는	-8520
▁내용의	-8521
▁사용을	-8522
▁활동이	-8523
▁중심지	-8524
브를	-8525
▁95	-8526
▁서일본	-8527
▁이곳에서	-8528
▁내지	-8529
▁반사	-8530
▁계획이	-8531
▁그룹의	-8532
▁시스템의	-8533
기획	-8534
▁국가에서	-8535
하라고	-8536
해진다	-8537
▁사이클	-8538
▁지역과	-8539
안군	-8540
효소	-8541
row	-8542
글로	-8543
▁랭킹	-8544
▁활동한	-8545
▁이지	-8546
▁발견했다	-8547
민이	-8548
보에	-8549
영이	-8550
▁이익을	-8551
▁2.	-8552
▁심한	-8553
▁훈련을	-8554
▁시대에는	-8555
뱅크	-8556
▁명단	-8557
▁별도로	-8558
▁위기에	-8559
군사	-8560
▁무신	-8561
▁확인할	-8562
▁직무	-8563
IP	-8564
▁후의	-8565
▁웰	-8566
음력	-8567
▁가면	-8568
▁미시	-8569
▁피렌	-8570
반을	-8571
왔고	-8572
▁발효	-8573
▁시마	-8574
▁대한제국	-8575
리크	-8576
▁MVP	-8577
▁후반에	-8578
TS	-8579
enn	-8580
▁댄스	-8581
▁첫번째	-8582
▁합계	-8583
▁해제	-8584
▁튜	-8585
▁기재	-8586
▁떠난	-8587
▁통화	-8588
▁아직도	-8589
▁타원	-8590
▁위치하며	-8591
▁아울러	-8592
▁컬럼비아	-8593
▁진단	-8594
권으로	-8595
▁센트럴	-8596
출을	-8597
▁대로	-8598
▁빌헬	-8599
프랑스	-8600
▁않도록	-8601
▁It	-8602
년대부터	-8603
▁이곳에	-8604
석에	-8605
음에	-8606
주인	-8607
▁전향	-8608
토스	-8609
미디어	-8610
▁원자력	-8611
▁행정구역	-8612
클럽	-8613
▁대승	-8614
▁책봉	-8615
▁잊	-8616
초의	-8617
판으로	-8618
▁정리한	-8619
▁폐기	-8620
바나	-8621
▁선거에	-8622
▁좋아하는	-8623
산맥	-8624
▁신장	-8625
▁네덜란드의	-8626
EN	-8627
액을	-8628
▁충분한	-8629
▁서식한다	-8630
니를	-8631
▁구마	-8632
글라	-8633
▁역이	-8634
유키	-8635
▁장편	-8636
▁쪽으로	-8637
인들에게	-8638
▁마르크스	-8639
▁힌두	-8640
▁개념은	-8641
▁항공기	-8642
▁프리미어리그	-8643
▁요구하는	-8644
▁담당하는	-8645
진흥	-8646
▁도심	-8647
▁무료	-8648
▁New	-8649
▁능력이	-8650
말을	-8651
▁53	-8652
▁아틀레	-8653
란트	-8654
▁간단한	-8655
▁트윈	-8656
▁요소를	-8657
히고	-8658
▁미네	-8659
여성	-8660
▁대지	-8661
▁버전은	-8662
츠와	-8663
▁자손	-8664
▁당했다	-8665
▁운동의	-8666
범죄	-8667
▁아트	-8668
▁적대	-8669
▁시작했으며	-8670
분은	-8671
▁나선	-8672
▁측은	-8673
적이었다	-8674
▁행정구역이다	-8675
마자	-8676
▁호환	-8677
▁구간이	-8678
▁디즈니	-8679
시켰고	-8680
▁라틴어	-8681
▁했다고	-8682
전에서는	-8683
ise	-8684
▁무선	-8685
▁피난	-8686
▁우승에	-8687
급의	-8688
아를	-8689
▁내내	-8690
쪽의	-8691
▁모집	-8692
▁서독	-8693
▁충족	-8694
▁브라우	-8695
▁다큐멘터리	-8696
작을	-8697
▁사령관	-8698
▁역사적으로	-8699
▁사용하며	-8700
▁곁	-8701
▁험	-8702
ius	-8703
▁DJ	-8704
▁점은	-8705
▁관점에서	-8706
현이	-8707
▁건물이	-8708
▁기록하고	-8709
~3	-8710
▁선제	-8711
▁데리고	-8712
▁최근에	-8713
Mar	-8714
▁성벽	-8715
▁주제로	-8716
▁흩	-8717
회로	-8718
▁신사	-8719
▁주파	-8720
물질	-8721
▁AM	-8722
▁식별	-8723
▁연계	-8724
▁최신	-8725
▁군대가	-8726
▁영화로	-8727
▁우수한	-8728
▁거주하는	-8729
우드	-8730
지사	-8731
▁로빈	-8732
▁협상	-8733
▁이외에	-8734
▁동남아시아	-8735
▁쏟	-8736
맨스	-8737
▁타율	-8738
▁막대한	-8739
▁학교를	-8740
▁부통령	-8741
▁하나를	-8742
리자	-8743
부문	-8744
▁낱	-8745
▁당해	-8746
▁목격	-8747
▁조용	-8748
▁근처의	-8749
▁원래의	-8750
민당	-8751
코가	-8752
▁la	-8753
▁여동생	-8754
▁사장	-8755
하가	-8756
▁국가를	-8757
▁타카	-8758
▁얇	-8759
▁방면	-8760
▁1895	-8761
▁등이다	-8762
▁아들을	-8763
음의	-8764
▁메르	-8765
▁전임	-8766
▁실패했다	-8767
재의	-8768
▁동치	-8769
▁수업	-8770
▁(20	-8771
▁끝났다	-8772
▁겸임	-8773
▁재단	-8774
▁저택	-8775
▁최종적으로	-8776
▁일로	-8777
▁개최되었다	-8778
▁마친	-8779
▁두드러	-8780
▁말하고	-8781
▁읍	-8782
신과	-8783
▁잃고	-8784
▁리그에	-8785
▁보살	-8786
▁현급	-8787
▁편지를	-8788
커스	-8789
▁많고	-8790
▁성의	-8791
임은	-8792
▁후보에	-8793
▁생각했다	-8794
병이	-8795
경기를	-8796
들과의	-8797
▁타이틀을	-8798
재는	-8799
▁섬의	-8800
▁여왕	-8801
▁하노	-8802
▁활성화	-8803
▁아파트	-8804
der	-8805
▁자격을	-8806
▁지내고	-8807
▁독자적인	-8808
ii	-8809
바시	-8810
▁이글	-8811
나라를	-8812
ystem	-8813
▁급진	-8814
통일	-8815
▁짙	-8816
▁막아	-8817
▁For	-8818
▁맡았으며	-8819
▁서브	-8820
▁황후	-8821
함으로	-8822
▁있으면	-8823
건은	-8824
▁58	-8825
▁비잔	-8826
▁추산	-8827
▁페이지	-8828
▁UN	-8829
▁그동안	-8830
▁언어로	-8831
사지	-8832
▁가해	-8833
ax	-8834
바는	-8835
간을	-8836
▁간접	-8837
편성	-8838
▁왕위	-8839
▁퍼시	-8840
▁이론은	-8841
▁인물이다	-8842
▁크리스토	-8843
▁앨범은	-8844
▁SM	-8845
▁친척	-8846
▁700	-8847
▁북쪽에	-8848
▁아니며	-8849
이사	-8850
▁연구가	-8851
하러	-8852
▁섬유	-8853
▁열어	-8854
스틴	-8855
▁이복	-8856
▁내장	-8857
▁취약	-8858
▁대학원	-8859
▁주장이	-8860
▁지역이다	-8861
▁동서	-8862
▁감독이다	-8863
▁일본에서는	-8864
수엘	-8865
▁백인	-8866
,500	-8867
▁스틸	-8868
▁온도	-8869
▁좌익	-8870
▁버리고	-8871
형과	-8872
▁나의	-8873
증이	-8874
▁빛을	-8875
▁없애	-8876
▁힘이	-8877
▁회사는	-8878
악의	-8879
▁범주	-8880
▁않는다는	-8881
본이	-8882
out	-8883
▁입문	-8884
▁준공	-8885
▁코치로	-8886
ke	-8887
인치	-8888
▁99	-8889
터로	-8890
편에	-8891
▁달러를	-8892
▁발생할	-8893
▁지배를	-8894
▁플레이어	-8895
▁이토	-8896
산에서	-8897
▁성공적인	-8898
-6	-8899
공동	-8900
▁가요	-8901
▁적을	-8902
▁쿨	-8903
온다	-8904
▁메디	-8905
▁발족	-8906
▁사카	-8907
▁사용해	-8908
▁전통적으로	-8909
았을	-8910
▁제목으로	-8911
양군	-8912
▁돌아오	-8913
▁선수단	-8914
▁1916	-8915
▁경고	-8916
▁연구소	-8917
▁치료를	-8918
▁후쿠시마	-8919
미에	-8920
▁일본이	-8921
▁사유	-8922
▁우리의	-8923
▁선언했다	-8924
랑이	-8925
받지	-8926
변을	-8927
▁성균	-8928
▁일관	-8929
▁충격	-8930
▁잘못된	-8931
▁가능하게	-8932
iam	-8933
▁개성	-8934
▁주한	-8935
▁제도의	-8936
▁부정적인	-8937
문관	-8938
트르	-8939
oci	-8940
▁못해	-8941
스부르크	-8942
▁모델이다	-8943
▁문화재자료	-8944
▁금메달	-8945
▁불렀	-8946
▁엉	-8947
ome	-8948
▁브래	-8949
▁시정촌	-8950
▁출시된	-8951
▁톨	-8952
조와	-8953
▁포함해	-8954
민족행위	-8955
▁오스트레일리아의	-8956
!"	-8957
림을	-8958
▁고베	-8959
▁모니	-8960
▁들어와	-8961
▁와카	-8962
▁이자	-8963
▁디젤	-8964
▁어릴	-8965
▁깔	-8966
▁휩	-8967
▁애국	-8968
▁전투가	-8969
▁자리에서	-8970
▁월간	-8971
▁응답	-8972
▁머리를	-8973
밀리	-8974
▁어워드	-8975
▁있다면	-8976
▁뒤인	-8977
▁중이던	-8978
PC	-8979
팩트	-8980
▁김동	-8981
▁말할	-8982
▁약한	-8983
▁물리학	-8984
▁사로잡	-8985
▁사이에는	-8986
성한	-8987
▁때도	-8988
▁스콧	-8989
▁되었으나	-8990
▁왕실	-8991
▁갤럭시	-8992
▁근거로	-8993
방이	-8994
:00	-8995
▁나라를	-8996
▁남한	-8997
▁사격	-8998
▁콩고	-8999
▁평생	-9000
학자인	-9001
▁목적은	-9002
▁팽창	-9003
▁불만을	-9004
금융	-9005
▁꺾고	-9006
▁포맷	-9007
주곡	-9008
▁융합	-9009
▁세워졌다	-9010
수아	-9011
▁정벌	-9012
▁제약	-9013
▁소속되어	-9014
년은	-9015
ade	-9016
스테르	-9017
▁전두	-9018
▁지지하는	-9019
▁88	-9020
▁크리스티	-9021
▁해임	-9022
▁아리스	-9023
그는	-9024
▁하천	-9025
▁스파이	-9026
▁항해	-9027
▁지중해	-9028
▁베타	-9029
▁삶의	-9030
▁연루	-9031
파크	-9032
▁값을	-9033
▁곳곳	-9034
▁시기는	-9035
▁후기의	-9036
▁1500	-9037
▁현의	-9038
▁대신에	-9039
▁된다는	-9040
reat	-9041
▁제국이	-9042
명인	-9043
무르	-9044
▁간다	-9045
▁게재	-9046
▁아가	-9047
▁언어를	-9048
미와	-9049
anc	-9050
▁계열의	-9051
▁수록된	-9052
▁인근에	-9053
▁시기의	-9054
//	-9055
강점	-9056
이후	-9057
▁날개	-9058
▁타운	-9059
▁플라스	-9060
▁베이스볼	-9061
▁달아	-9062
▁섭취	-9063
▁트럭	-9064
▁중력	-9065
▁고등학교이다	-9066
리타	-9067
▁포크	-9068
▁기업이	-9069
▁싱글이다	-9070
▁고교	-9071
▁비극	-9072
▁여기에는	-9073
HO	-9074
▁굉	-9075
세스	-9076
▁정도가	-9077
된다고	-9078
니까	-9079
▁주립	-9080
▁사람에게	-9081
등록	-9082
현악	-9083
▁합리	-9084
▁긍정적인	-9085
런스	-9086
소한	-9087
▁법학	-9088
▁양식	-9089
▁제휴	-9090
▁프로그램은	-9091
▁사용자가	-9092
섬의	-9093
▁경북	-9094
▁고조	-9095
▁반환	-9096
▁미스터	-9097
사추	-9098
▁캠페	-9099
▁시작해	-9100
▁이스트	-9101
▁불리기도	-9102
였기	-9103
-16	-9104
▁MC	-9105
▁상무	-9106
▁연애	-9107
라이더	-9108
스컵	-9109
▁시호는	-9110
▁한동안	-9111
▁말하였다	-9112
▁활약하였다	-9113
▁미분	-9114
▁루트비히	-9115
칸센	-9116
▁가사	-9117
▁비즈	-9118
▁주문	-9119
▁승리로	-9120
ft	-9121
▁곰	-9122
홈런	-9123
▁기호	-9124
▁약물	-9125
항은	-9126
"("	-9127
▁피부	-9128
▁바이올린	-9129
pl	-9130
발의	-9131
차별	-9132
▁국토	-9133
▁손자	-9134
▁당한	-9135
▁구체적인	-9136
▁시간은	-9137
▁젖	-9138
▁컸	-9139
시타	-9140
▁상태이다	-9141
▁점성	-9142
아키	-9143
렸던	-9144
민은	-9145
실록	-9146
켰다	-9147
▁대결	-9148
▁철도의	-9149
▁말한	-9150
▁부착	-9151
▁악화	-9152
▁지목	-9153
▁제작되었다	-9154
즈에	-9155
▁라트	-9156
▁무라	-9157
▁무용	-9158
▁속도를	-9159
▁폼	-9160
▁번호	-9161
▁기술이	-9162
▁노르웨	-9163
▁전투에	-9164
▁등재	-9165
▁커피	-9166
▁필라델	-9167
▁있습니다	-9168
▁맞는	-9169
▁자바	-9170
▁어렵다	-9171
져서	-9172
바이러스	-9173
▁한국에서는	-9174
▁미하	-9175
▁결혼을	-9176
▁남쪽에	-9177
▁다이아	-9178
▁페루	-9179
▁착륙	-9180
▁통칭	-9181
▁흔들	-9182
▁프레임	-9183
▁복구	-9184
▁임상	-9185
속으로	-9186
▁조사를	-9187
▁방영되었다	-9188
등에	-9189
▁감지	-9190
▁이명박	-9191
▁바꾸었다	-9192
▁설립했다	-9193
겼고	-9194
▁정원	-9195
▁트레	-9196
▁한화	-9197
▁내부의	-9198
▁슐	-9199
▁용산	-9200
▁전투는	-9201
▁우리나라	-9202
바야	-9203
▁남긴	-9204
▁합법	-9205
▁어두운	-9206
츠키	-9207
▁다루고	-9208
▁면에서	-9209
ook	-9210
▁법원	-9211
▁예언	-9212
▁방식은	-9213
▁의장	-9214
▁속도로	-9215
▁스카이	-9216
▁아마도	-9217
규칙	-9218
니치	-9219
▁카탈	-9220
▁운행하는	-9221
▁자유롭게	-9222
▁향한	-9223
▁현존하는	-9224
▁탕	-9225
아와	-9226
▁화려한	-9227
석과	-9228
▁호칭	-9229
스트의	-9230
▁구조의	-9231
▁기업의	-9232
▁일했다	-9233
▁마쓰다이라	-9234
도사	-9235
시피	-9236
▁맞게	-9237
▁착수	-9238
▁채로	-9239
▁목적을	-9240
▁유소년	-9241
Th	-9242
▁닐	-9243
아스	-9244
▁포로	-9245
▁개발된	-9246
▁훌륭한	-9247
ics	-9248
▁구름	-9249
▁법무	-9250
▁오렌	-9251
▁마케팅	-9252
▁지어졌다	-9253
▁여덟	-9254
▁조치를	-9255
디에	-9256
온의	-9257
프에	-9258
▁수치	-9259
▁적의	-9260
GC	-9261
ans	-9262
▁귀환	-9263
▁메모	-9264
▁WWE	-9265
▁이오	-9266
▁달러의	-9267
▁방식의	-9268
▁제국은	-9269
▁주어졌다	-9270
▁발전에	-9271
▁서서히	-9272
장관	-9273
▁당의	-9274
▁서남	-9275
▁전성	-9276
▁동메달을	-9277
▁무력	-9278
▁실용	-9279
▁시작된다	-9280
▁테일러	-9281
▁포인	-9282
▁형태가	-9283
▁몰락	-9284
▁때로는	-9285
▁알려지지	-9286
톤의	-9287
▁고성	-9288
_6	-9289
▁칩	-9290
▁가지게	-9291
▁템	-9292
패로	-9293
▁82	-9294
렸을	-9295
차전에서	-9296
▁닿	-9297
▁세로	-9298
▁차남	-9299
400	-9300
▁기생	-9301
▁비서	-9302
▁해적	-9303
▁주에서	-9304
▁코리아	-9305
▁본격적인	-9306
▁파리에서	-9307
팀인	-9308
음은	-9309
자연	-9310
▁학자	-9311
▁발견되는	-9312
▁폴란드의	-9313
▁인조	-9314
▁남아있다	-9315
▁72	-9316
▁프로그램의	-9317
AL	-9318
▁한신	-9319
▁사용이	-9320
▁시대를	-9321
▁66	-9322
▁올림	-9323
▁바티	-9324
▁스리	-9325
건이	-9326
▁끝이	-9327
▁무늬	-9328
▁바가	-9329
그리	-9330
세츠	-9331
▁빌리	-9332
▁이승만	-9333
▁진정한	-9334
▁리메이	-9335
▁교과	-9336
▁종전	-9337
▁과정은	-9338
행은	-9339
▁박탈	-9340
▁오고	-9341
▁사용하기	-9342
▁굵	-9343
검찰	-9344
조정	-9345
청을	-9346
▁비공식	-9347
의에	-9348
enc	-9349
숙한	-9350
▁개업	-9351
▁무대에	-9352
▁이처럼	-9353
▁달의	-9354
곡으로	-9355
erv	-9356
▁술탄	-9357
▁쿠르	-9358
자리에	-9359
▁늘어나	-9360
▁현상이	-9361
▁푸른	-9362
▁오디오	-9363
▁규제	-9364
▁포괄	-9365
▁일제강점	-9366
▁얻는	-9367
제이	-9368
▁85	-9369
▁고분	-9370
▁무효	-9371
▁해군의	-9372
가스	-9373
▁관통	-9374
▁은메달을	-9375
수산	-9376
플라	-9377
▁부품	-9378
▁부흥	-9379
▁미카	-9380
▁도로이다	-9381
▁여의	-9382
안으로	-9383
시절	-9384
▁한양	-9385
▁원작으로	-9386
티움	-9387
▁대폭	-9388
▁세대	-9389
주년을	-9390
▁응우옌	-9391
▁대우	-9392
▁둘은	-9393
▁닌텐도	-9394
▁지속적인	-9395
▁페스티벌	-9396
org	-9397
▁보충	-9398
ple	-9399
▁동지	-9400
▁엘리자베스	-9401
블로	-9402
있고	-9403
투쟁	-9404
the	-9405
▁닥터	-9406
▁피에	-9407
금으로	-9408
네스코	-9409
라이트	-9410
▁주도는	-9411
▁수단	-9412
▁양도	-9413
▁아니면	-9414
-7	-9415
▁꾀	-9416
▁인텔	-9417
챌린	-9418
▁공략	-9419
▁청와	-9420
▁대주교	-9421
▁신칸센	-9422
▁승차	-9423
▁의원이	-9424
▁가능하며	-9425
▁알바니아	-9426
▁길고	-9427
▁아서	-9428
▁이원	-9429
▁축제	-9430
▁특수한	-9431
▁졸업하였다	-9432
igh	-9433
▁베네수엘	-9434
▁곳이	-9435
▁김용	-9436
▁측근	-9437
▁일찍이	-9438
(10	-9439
▁고도	-9440
ake	-9441
경으로	-9442
▁Mus	-9443
▁곡으로	-9444
▁사고로	-9445
▁애틀랜	-9446
▁후지와	-9447
▁독일에서	-9448
formula	-9449
▁펴	-9450
직한	-9451
카를	-9452
▁59	-9453
▁공용	-9454
▁박영	-9455
▁노래는	-9456
▁떼	-9457
▁쟁	-9458
▁무려	-9459
서에서	-9460
▁뒤에는	-9461
ai	-9462
▁시작하는	-9463
라미	-9464
매치	-9465
▁교섭	-9466
▁오세	-9467
▁죽을	-9468
▁돌연	-9469
▁알코	-9470
▁따르는	-9471
rit	-9472
▁장면	-9473
받는다	-9474
주일	-9475
▁곡의	-9476
▁할당	-9477
▁마리오	-9478
▁나가사키	-9479
▁햄	-9480
시민	-9481
오르	-9482
ild	-9483
▁선진	-9484
▁하버드	-9485
년대에는	-9486
▁연구하는	-9487
▁회의에서	-9488
게이머	-9489
▁군사적	-9490
백을	-9491
▁얻기	-9492
▁의지	-9493
▁착공	-9494
▁밴드는	-9495
▁중앙에	-9496
▁북한의	-9497
▁하나님의	-9498
▁드림	-9499
▁구조는	-9500
▁부르며	-9501
▁최저	-9502
PG	-9503
마치	-9504
조약	-9505
▁낮아	-9506
▁라우	-9507
▁맡게	-9508
▁산타	-9509
▁시집	-9510
-21	-9511
▁교외	-9512
▁기록에	-9513
▁프로토콜	-9514
▁스타크래프트	-9515
▁경력	-9516
▁끊임	-9517
▁배정	-9518
▁오가	-9519
▁지각	-9520
디아라비아	-9521
▁로저	-9522
▁조치	-9523
란을	-9524
색이	-9525
▁마찰	-9526
만명	-9527
과이	-9528
▁각기	-9529
▁갑작	-9530
▁비가	-9531
▁원산	-9532
▁시드니	-9533
▁영화제	-9534
터에	-9535
▁지점	-9536
▁밖의	-9537
▁부패	-9538
▁작고	-9539
▁윙	-9540
▁가즈	-9541
▁All	-9542
▁마산	-9543
▁자식	-9544
▁하와이	-9545
▁복사	-9546
▁덴마크의	-9547
▁중순	-9548
▁민주주의	-9549
고속	-9550
위대	-9551
▁들은	-9552
▁활약했다	-9553
타케	-9554
▁부른	-9555
태평양	-9556
▁보내는	-9557
):	-9558
▁조선총독부	-9559
OP	-9560
▁''	-9561
▁Ph	-9562
어진다	-9563
▁규정하고	-9564
불교	-9565
▁근접	-9566
▁훼손	-9567
▁여성이	-9568
▁주축	-9569
▁작품에	-9570
▁과거의	-9571
ternational	-9572
▁희극	-9573
▁모델을	-9574
란의	-9575
내기	-9576
모니	-9577
ons	-9578
▁Ad	-9579
▁공학	-9580
▁중구	-9581
▁pro	-9582
▁토대로	-9583
▁부분적으로	-9584
▁살던	-9585
슨과	-9586
▁싫어	-9587
▁창업	-9588
▁초연	-9589
▁통근	-9590
▁병력	-9591
▁보상	-9592
▁종의	-9593
▁토마	-9594
▁퇴각	-9595
▁피고	-9596
▁롬	-9597
진과	-9598
희는	-9599
▁Or	-9600
▁그림을	-9601
▁둘러싼	-9602
▁엔지	-9603
하우스	-9604
▁일본군	-9605
수수	-9606
▁배틀	-9607
▁이순	-9608
동에서	-9609
▁또다시	-9610
▁선수이자	-9611
▁체제를	-9612
스에게	-9613
▁연방의	-9614
▁Se	-9615
▁한강	-9616
내에서	-9617
▁별칭	-9618
▁부과	-9619
서이다	-9620
▁다음이	-9621
회와	-9622
▁물에	-9623
관찰	-9624
▁이듬해인	-9625
후보	-9626
▁산림	-9627
▁상임	-9628
▁초창	-9629
교회의	-9630
▁발견한	-9631
장한	-9632
▁바위	-9633
▁전세계	-9634
반응	-9635
▁득점을	-9636
▁신규	-9637
▁이나	-9638
▁멤버로	-9639
고도	-9640
모로	-9641
병의	-9642
대한민	-9643
르와	-9644
▁사실은	-9645
▁조직의	-9646
▁황제가	-9647
▁보잉	-9648
▁들어가는	-9649
▁어려움을	-9650
▁학생들이	-9651
▁5.1	-9652
▁성공한	-9653
네의	-9654
▁특징은	-9655
인구	-9656
치현	-9657
▁평행	-9658
▁정확하게	-9659
▁디스플레이	-9660
심한	-9661
포트	-9662
하우	-9663
▁알라	-9664
▁출력	-9665
▁건물을	-9666
▁빌헬름	-9667
▁펀	-9668
열이	-9669
▁아세	-9670
▁하인리히	-9671
억원	-9672
▁일어날	-9673
▁껍	-9674
lay	-9675
▁매개	-9676
▁좋다	-9677
▁펜실	-9678
▁현장	-9679
▁명예의	-9680
▁정의할	-9681
▁이미지를	-9682
▁샹	-9683
스파	-9684
하니	-9685
브리지	-9686
▁르네상	-9687
▁목록은	-9688
▁영국은	-9689
▁반지	-9690
▁노력을	-9691
▁지점에	-9692
형이다	-9693
▁연고로	-9694
▁운동이	-9695
▁이르고	-9696
▁전부터	-9697
▁비슷하다	-9698
형태	-9699
▁날짜	-9700
▁창시	-9701
▁흐름	-9702
▁1.5	-9703
상으로는	-9704
티에	-9705
.2%	-9706
▁카이사	-9707
▁컨트롤	-9708
▁오스트리아의	-9709
:1	-9710
~2	-9711
측의	-9712
▁동구	-9713
▁추증	-9714
▁확인되었다	-9715
▁77	-9716
▁네이션	-9717
▁분류된다	-9718
▁아르헨티	-9719
▁우즈	-9720
▁일으키는	-9721
용은	-9722
▁번뇌	-9723
▁중독	-9724
▁화면	-9725
슈타인	-9726
사추세츠	-9727
EP	-9728
▁따뜻	-9729
▁사육	-9730
▁요르	-9731
▁자발	-9732
▁보여주고	-9733
,3	-9734
레의	-9735
성이다	-9736
▁보니	-9737
▁이영	-9738
▁과정에	-9739
OV	-9740
▁아인	-9741
테쓰	-9742
▁사기	-9743
▁소재로	-9744
▁에스토니아	-9745
티의	-9746
▁바그	-9747
▁수신	-9748
▁여론	-9749
▁피어	-9750
▁관계로	-9751
▁독일어	-9752
▁사상을	-9753
▁트랜스	-9754
자원	-9755
있으며	-9756
▁실험을	-9757
▁판결을	-9758
스러	-9759
용이	-9760
▁급속	-9761
▁동화	-9762
▁땅에	-9763
▁실종	-9764
▁털이	-9765
▁않았기	-9766
▁출전해	-9767
만원	-9768
▁차기	-9769
사령부	-9770
▁건너가	-9771
▁보스니아	-9772
제프	-9773
▁메타	-9774
▁미스	-9775
▁중심의	-9776
▁5000	-9777
▁사이타마	-9778
해주	-9779
▁도구	-9780
ife	-9781
치면서	-9782
▁디비시	-9783
▁마케도니아	-9784
▁없으나	-9785
독일	-9786
▁의견이	-9787
▁차례로	-9788
▁구체적으로	-9789
-18	-9790
▁장의	-9791
▁사우디아라비아	-9792
몬드	-9793
▁받기도	-9794
▁On	-9795
▁목조	-9796
▁이마	-9797
런트	-9798
세에게	-9799
▁포인트	-9800
CC	-9801
분야	-9802
▁공전	-9803
▁며칠	-9804
▁케네	-9805
▁동명의	-9806
▁시작되어	-9807
아리	-9808
▁챌린	-9809
▁사용될	-9810
▁전한다	-9811
르노	-9812
▁당대	-9813
▁후보를	-9814
님이	-9815
▁뜻의	-9816
견을	-9817
목의	-9818
▁캠퍼	-9819
▁풋볼	-9820
▁철학자	-9821
to	-9822
▁샬	-9823
▁팩	-9824
소스	-9825
타니	-9826
팀은	-9827
한을	-9828
▁PD	-9829
▁아즈	-9830
▁칼리지	-9831
▁건의	-9832
▁뿌리	-9833
▁끝나고	-9834
▁찾아가	-9835
오를	-9836
인들	-9837
초에	-9838
▁프랑스와	-9839
sk	-9840
▁정찰	-9841
▁진도	-9842
▁그렇지	-9843
▁목표를	-9844
러의	-9845
▁부장	-9846
▁사료	-9847
▁풀려	-9848
▁레이다	-9849
▁성질을	-9850
로동	-9851
우며	-9852
▁아이를	-9853
▁유니폼	-9854
▁제외하고는	-9855
누리	-9856
ition	-9857
네는	-9858
▁달린	-9859
▁줄어	-9860
▁본선의	-9861
▁형식을	-9862
자책	-9863
해방	-9864
▁풀어	-9865
▁분리되어	-9866
기준	-9867
che	-9868
▁백악	-9869
▁돌아갔다	-9870
헤이	-9871
▁공무	-9872
▁법을	-9873
▁일조	-9874
▁진영	-9875
ology	-9876
▁총괄	-9877
▁팔레스타	-9878
수사	-9879
연이	-9880
▁석탄	-9881
음으로	-9882
▁정부와	-9883
me	-9884
▁성씨	-9885
▁오키나와	-9886
▁시로	-9887
버스터	-9888
ward	-9889
▁싶어	-9890
▁특유의	-9891
더는	-9892
▁항일	-9893
트리올	-9894
▁프랑스어	-9895
▁휠	-9896
교로	-9897
르를	-9898
지대	-9899
eth	-9900
▁장난	-9901
생으로	-9902
▁집으로	-9903
기관이다	-9904
▁시즌에는	-9905
.6%	-9906
▁잃은	-9907
도서관	-9908
▁유네스코	-9909
▁임명되어	-9910
▁진출했다	-9911
▁옐	-9912
▁이틀	-9913
▁추모	-9914
▁아래로	-9915
▁성은	-9916
케이션	-9917
▁여행을	-9918
▁3000	-9919
천을	-9920
▁사직	-9921
▁리눅스	-9922
▁김태	-9923
▁리얼	-9924
▁흥행	-9925
▁거기에	-9926
▁공동체	-9927
▁학교에	-9928
생이	-9929
회장	-9930
les	-9931
▁나이지	-9932
▁형식의	-9933
▁소유하고	-9934
열의	-9935
▁쓰인	-9936
.19	-9937
▁역과	-9938
▁경우를	-9939
에너	-9940
▁생각된다	-9941
▁얘	-9942
론에서	-9943
EO	-9944
전사	-9945
▁안쪽	-9946
▁캄보	-9947
▁CPU	-9948
▁누르고	-9949
▁일본으로	-9950
경영	-9951
▁계절	-9952
▁배를	-9953
이거나	-9954
위원회의	-9955
(7	-9956
▁드럼	-9957
▁레전	-9958
▁명문	-9959
▁학부	-9960
▁구미	-9961
▁피에르	-9962
화하고	-9963
▁하거나	-9964
이었다고	-9965
▁서울에서	-9966
▁명백	-9967
▁에우	-9968
▁영향력	-9969
▁차지한	-9970
▁걱	-9971
너의	-9972
▁왕으로	-9973
곡의	-9974
▁두산	-9975
▁침해	-9976
▁줄여서	-9977
▁한국방송	-9978
▁외곽	-9979
▁후한	-9980
▁레이저	-9981
▁전에는	-9982
▁몸무게는	-9983
▁비즈니스	-9984
▁신속	-9985
내셔널	-9986
▁문서는	-9987
▁카자흐스탄	-9988
카라	-9989
▁재산을	-9990
▁인정받아	-9991
결합	-9992
▁리스	-9993
▁점유	-9994
▁활약하고	-9995
▁성별	-9996
US	-9997
_7	-9998
▁MP	-9999
▁가벼	-10000
▁민속	-10001
▁안타	-10002
색은	-10003
▁대외	-10004
▁무죄	-10005
▁만났다	-10006
MI	-10007
▁68	-10008
▁느낀	-10009
▁동독	-10010
▁운행을	-10011
롤라이나	-10012
▁수수	-10013
▁수평	-10014
▁자율	-10015
가와현	-10016
심의	-10017
▁ch	-10018
▁못할	-10019
▁안의	-10020
리면서	-10021
▁왕위를	-10022
▁특이한	-10023
▁셈	-10024
htt	-10025
▁미토	-10026
▁빛의	-10027
역사	-10028
우와	-10029
▁남부의	-10030
ink	-10031
▁동년	-10032
▁쇼군	-10033
▁선거를	-10034
▁전쟁은	-10035
▁수행하는	-10036
eta	-10037
▁쫓겨	-10038
▁모두가	-10039
▁우연히	-10040
▁이곳은	-10041
▁1894	-10042
마일	-10043
▁래퍼	-10044
▁밀양	-10045
▁위기	-10046
▁1890	-10047
▁IT	-10048
▁기온은	-10049
▁모델은	-10050
▁분야에	-10051
▁원자로	-10052
▁모시	-10053
▁식량	-10054
▁아이템	-10055
8)	-10056
▁각본을	-10057
▁만화가	-10058
▁조직을	-10059
▁미국에서는	-10060
▁관직	-10061
▁사르	-10062
▁필름	-10063
▁삼고	-10064
▁액체	-10065
디가	-10066
▁약화	-10067
▁하야	-10068
▁친일반	-10069
▁조건으로	-10070
범한	-10071
석기	-10072
▁그러자	-10073
▁기록된	-10074
▁리투아니아	-10075
▁관습	-10076
▁이리	-10077
▁무거운	-10078
▁죽이고	-10079
▁럭	-10080
▁스핀	-10081
▁중요하다	-10082
▁기요	-10083
▁소수의	-10084
▁리메이크	-10085
way	-10086
▁비슷하게	-10087
▁시나리오	-10088
▁룩	-10089
▁밝혔	-10090
▁작곡한	-10091
그러	-10092
목적	-10093
▁꿈을	-10094
▁바꿔	-10095
▁조상	-10096
시까지	-10097
▁영역을	-10098
티모	-10099
▁심판	-10100
▁필라델피아	-10101
바닥	-10102
.4%	-10103
▁중계	-10104
▁후보는	-10105
▁추정되는	-10106
▁도서관	-10107
▁연속으로	-10108
▁클린	-10109
▁어려움	-10110
자리를	-10111
▁물리적	-10112
▁점이다	-10113
▁몬트리올	-10114
▁분광	-10115
▁자신에게	-10116
▁역임한	-10117
격이	-10118
▁63	-10119
▁th	-10120
▁별의	-10121
▁쉬운	-10122
▁외의	-10123
▁라이선	-10124
▁진출하였다	-10125
▁모드	-10126
▁김영삼	-10127
자스	-10128
터스	-10129
▁급행	-10130
▁진행된	-10131
아메리카	-10132
▁설립하였다	-10133
.3%	-10134
▁버튼	-10135
▁숙종	-10136
▁김재	-10137
▁김진	-10138
학교에	-10139
▁거리가	-10140
▁네이버	-10141
▁의원은	-10142
▁이인	-10143
슬란드	-10144
이라도	-10145
ream	-10146
▁대전광역시	-10147
▁교도	-10148
▁특급	-10149
교수	-10150
▁군을	-10151
▁촉구	-10152
▁니가타	-10153
▁언제나	-10154
턴은	-10155
▁멈추	-10156
▁미치	-10157
중에는	-10158
ames	-10159
▁형태는	-10160
▁기록하여	-10161
▁라트비아	-10162
석탑	-10163
러시아	-10164
안타	-10165
층은	-10166
▁용이	-10167
란이	-10168
▁시라	-10169
▁주와	-10170
▁움직이는	-10171
업이	-10172
://	-10173
▁낙선	-10174
▁외야	-10175
▁평소	-10176
바이잔	-10177
▁태종	-10178
▁꽤	-10179
▁얀	-10180
▁정책에	-10181
▁지냈으며	-10182
▁반박	-10183
으로의	-10184
▁우주의	-10185
▁굿	-10186
온이	-10187
▁누군	-10188
▁속도가	-10189
▁영화에	-10190
▁언더	-10191
▁도호쿠	-10192
▁출연한	-10193
▁측면에서	-10194
▁텔	-10195
▁증권	-10196
▁맡았고	-10197
▁생기는	-10198
▁1902	-10199
▁대통령을	-10200
▁헐	-10201
고쿠	-10202
러가	-10203
메라	-10204
▁단종	-10205
▁친정	-10206
▁한국에	-10207
HE	-10208
실과	-10209
연속	-10210
▁무소	-10211
▁증기	-10212
▁독일은	-10213
▁항공모	-10214
제르바이잔	-10215
FM	-10216
났을	-10217
▁mm	-10218
▁서경	-10219
하려면	-10220
▁동물의	-10221
▁스타일	-10222
목이	-10223
▁Co	-10224
▁내외	-10225
▁전세	-10226
▁기간에	-10227
하였다는	-10228
,9	-10229
▁마오	-10230
▁왕족	-10231
▁짓고	-10232
▁리버풀	-10233
▁중심이	-10234
▁체계를	-10235
능력	-10236
▁건물의	-10237
▁국가에	-10238
▁신라의	-10239
▁대처	-10240
▁전인	-10241
가에서	-10242
있던	-10243
▁등장했다	-10244
OL	-10245
▁갓	-10246
츠가	-10247
▁두개	-10248
▁침몰	-10249
▁선거구	-10250
▁전쟁으로	-10251
현에	-10252
▁라스	-10253
▁경제학	-10254
명이었다	-10255
▁턱	-10256
진에	-10257
짜리	-10258
▁공의	-10259
▁마천	-10260
▁화재	-10261
lass	-10262
▁소설을	-10263
▁식으로	-10264
▁사적	-10265
▁친일반민족행위	-10266
번을	-10267
▁바뀐	-10268
▁서머	-10269
▁지명을	-10270
▁이어진다	-10271
▁참가하는	-10272
▁국가대표팀의	-10273
공이	-10274
▁유출	-10275
▁의뢰	-10276
▁첨가	-10277
타리오	-10278
▁소속이다	-10279
▁아니지만	-10280
▁신생	-10281
▁유신	-10282
▁장로	-10283
박물관	-10284
▁개혁을	-10285
▁도움으로	-10286
▁기체	-10287
▁소총	-10288
6)	-10289
UN	-10290
ma	-10291
설이	-10292
인명	-10293
▁들어오	-10294
▁결혼했다	-10295
.7%	-10296
▁강경	-10297
▁된다고	-10298
미로	-10299
ener	-10300
▁캐스팅	-10301
▁과학기술	-10302
자본	-10303
▁62	-10304
▁하얀	-10305
▁붓	-10306
예프	-10307
▁내보	-10308
▁의사를	-10309
반도	-10310
주택	-10311
학위를	-10312
받을	-10313
~20	-10314
▁나아	-10315
▁내야	-10316
▁위안	-10317
▁이바	-10318
▁활동은	-10319
yl	-10320
▁찾기	-10321
▁개발에	-10322
▁위협을	-10323
▁중심기압	-10324
▁트레이드	-10325
▁하였는데	-10326
목은	-10327
▁순천	-10328
▁급격히	-10329
▁뉴욕에서	-10330
▁이상으로	-10331
▁밟	-10332
▁잦	-10333
ata	-10334
▁Tr	-10335
▁고무	-10336
베트남	-10337
이었기	-10338
▁스티브	-10339
▁지금도	-10340
고종	-10341
박사	-10342
일간	-10343
▁신용	-10344
▁안장	-10345
▁화살	-10346
▁사회에	-10347
▁관람	-10348
▁수렴	-10349
업에	-10350
치료	-10351
▁눈이	-10352
▁다녀	-10353
▁에버	-10354
▁이슈	-10355
▁북부에	-10356
일드	-10357
▁소니	-10358
▁아는	-10359
▁전당	-10360
▁1898	-10361
▁그룹이다	-10362
▁세미	-10363
▁소닉	-10364
▁써서	-10365
▁창건	-10366
▁결과에	-10367
▁University	-10368
▁받기	-10369
▁형법	-10370
스와의	-10371
▁코무네	-10372
▁미주	-10373
▁아폴	-10374
레를	-10375
▁분배	-10376
▁마쳤다	-10377
▁몰려	-10378
▁일시적으로	-10379
▁림	-10380
간이	-10381
▁객관	-10382
▁팀에	-10383
▁강제로	-10384
▁물고기	-10385
▁이루었다	-10386
▁앓	-10387
연구원	-10388
▁스위스의	-10389
▁주행	-10390
▁헤드	-10391
중에서	-10392
.8%	-10393
년간의	-10394
▁디아	-10395
▁불을	-10396
▁인플	-10397
▁일에	-10398
▁차가	-10399
▁총선거	-10400
~4	-10401
두는	-10402
▁선구	-10403
▁출산	-10404
▁싱글로	-10405
카타	-10406
▁막내	-10407
▁숨겨	-10408
▁에티오	-10409
▁끌려	-10410
▁듯한	-10411
▁오오	-10412
▁좌절	-10413
▁되었	-10414
▁입체	-10415
▁치열	-10416
▁다음에	-10417
▁문재인	-10418
▁스튜어	-10419
▁달성했다	-10420
그레	-10421
▁양키	-10422
▁키프로	-10423
▁총재	-10424
▁출토	-10425
▁디비전	-10426
▁2)	-10427
▁제품을	-10428
▁AS	-10429
▁조반	-10430
▁자신과	-10431
-8	-10432
작품	-10433
▁시점	-10434
▁요금	-10435
▁코트	-10436
▁교차로	-10437
▁전체가	-10438
▁제네바	-10439
작곡	-10440
해와	-10441
(14	-10442
▁권위	-10443
▁선을	-10444
커니즘	-10445
▁가난한	-10446
▁신흥	-10447
▁어울	-10448
커는	-10449
투를	-10450
▁구리	-10451
▁우울	-10452
하였기	-10453
▁아이슬란드	-10454
항에	-10455
▁나이가	-10456
▁실시간	-10457
▁아미노	-10458
▁요소가	-10459
누엘	-10460
백과	-10461
여객	-10462
주기	-10463
▁구동	-10464
▁리치	-10465
▁시그	-10466
▁연령	-10467
▁주제가	-10468
크리	-10469
▁좌파	-10470
▁남부에	-10471
▁있었다는	-10472
무기	-10473
que	-10474
▁것인	-10475
▁관중	-10476
▁소환	-10477
▁쇼핑	-10478
▁편리	-10479
▁홈페이지	-10480
▁신비	-10481
▁외무	-10482
량으로	-10483
▁연결된	-10484
벤처	-10485
▁치명	-10486
▁인물을	-10487
▁전두환	-10488
▁분데스리가	-10489
▁삿	-10490
▁기지	-10491
ement	-10492
▁깨달	-10493
▁볼리	-10494
▁부를	-10495
▁탓에	-10496
▁시설이	-10497
▁1901	-10498
TP	-10499
민을	-10500
버러	-10501
▁다중	-10502
▁에디	-10503
John	-10504
▁되었을	-10505
▁이광	-10506
▁훔	-10507
▁내고	-10508
▁장려	-10509
▁재활	-10510
▁전진	-10511
▁할리우	-10512
▁IP	-10513
▁알제	-10514
화하여	-10515
▁잠수함	-10516
▁되었지만	-10517
▁끓	-10518
저는	-10519
▁군단	-10520
▁개발하고	-10521
▁그리스어	-10522
▁스파르타	-10523
▁시점에서	-10524
▁소실	-10525
▁원내	-10526
▁구조가	-10527
▁마을의	-10528
▁지나치게	-10529
▁걸어	-10530
스트를	-10531
▁선교사	-10532
▁지방에서	-10533
책임	-10534
-12	-10535
▁목사	-10536
▁향을	-10537
▁환원	-10538
우주연	-10539
▁구조로	-10540
▁아사히	-10541
월드	-10542
▁둥근	-10543
▁은퇴를	-10544
▁멕시코의	-10545
소득	-10546
▁군수	-10547
▁신하	-10548
▁준우승을	-10549
▁형성한다	-10550
기기	-10551
▁옷을	-10552
▁프로듀싱	-10553
주식	-10554
▁경비	-10555
▁안티	-10556
피는	-10557
▁경사	-10558
▁왕자	-10559
시부터	-10560
▁치러진	-10561
▁투르크	-10562
▁뿔	-10563
마사	-10564
▁실린	-10565
▁왕비	-10566
▁다리를	-10567
풍을	-10568
▁두루	-10569
▁죄를	-10570
▁후일	-10571
DS	-10572
oo	-10573
▁곡이	-10574
▁도미	-10575
▁주차	-10576
itt	-10577
▁바닷	-10578
▁석조	-10579
▁전념	-10580
▁검은색	-10581
▁것에서	-10582
▁에스파냐	-10583
▁보완	-10584
▁RNA	-10585
편으로	-10586
▁퍼시픽	-10587
돌이	-10588
시노	-10589
▁상원	-10590
▁아버지와	-10591
▁엘리베이	-10592
레아	-10593
.1%	-10594
▁향후	-10595
▁상징하는	-10596
유는	-10597
▁있어서는	-10598
▁하나였다	-10599
먼은	-10600
▁회담	-10601
▁칭호를	-10602
▁공채	-10603
▁나타낼	-10604
▁광산	-10605
▁군은	-10606
▁의병	-10607
정부의	-10608
▁나갔다	-10609
▁방송국	-10610
▁자체는	-10611
▁*	-10612
선조	-10613
▁모방	-10614
▁스쿨	-10615
▁개발되었다	-10616
부르	-10617
▁종결	-10618
▁추상	-10619
▁특징으로	-10620
ank	-10621
▁검증	-10622
▁용어를	-10623
마와	-10624
▁진행된다	-10625
터널	-10626
▁간부	-10627
▁병행	-10628
▁이노	-10629
▁한쪽	-10630
▁대회의	-10631
▁영어로	-10632
▁일요일	-10633
자도	-10634
하이오	-10635
나우	-10636
분석	-10637
▁내린	-10638
▁관현악	-10639
산성	-10640
▁격퇴	-10641
▁열고	-10642
▁나라에서	-10643
▁부문에서	-10644
▁생각하는	-10645
▁전례	-10646
▁영상을	-10647
▁연결된다	-10648
RE	-10649
ute	-10650
▁날아	-10651
▁노비	-10652
▁봉사	-10653
▁대법원	-10654
▁받았으나	-10655
▁거론	-10656
▁시절부터	-10657
▁시즌의	-10658
▁j	-10659
작전	-10660
ict	-10661
▁플랑	-10662
▁회고	-10663
▁효소	-10664
▁군대의	-10665
▁수록곡	-10666
▁인접한	-10667
▁시스템이	-10668
▁않았으나	-10669
▁서해	-10670
▁이화	-10671
▁페어	-10672
푸르트	-10673
▁경험이	-10674
라트	-10675
▁상상	-10676
▁여수	-10677
해왔다	-10678
▁성립한다	-10679
카트	-10680
▁쌓아	-10681
▁예배	-10682
▁이긴	-10683
위원장	-10684
▁마을을	-10685
하겠다는	-10686
▁실질적인	-10687
~1	-10688
지나	-10689
▁부천	-10690
▁비단	-10691
▁지혜	-10692
▁알렸다	-10693
_8	-10694
▁봐	-10695
사태	-10696
▁대학을	-10697
▁하나이며	-10698
_9	-10699
브의	-10700
▁들이	-10701
▁주류	-10702
항으로	-10703
▁참여하고	-10704
포의	-10705
▁공직	-10706
RA	-10707
지붕	-10708
▁바실	-10709
▁국가로	-10710
▁먹이를	-10711
▁저명한	-10712
▁프랭크	-10713
▁화제가	-10714
▁둘러싸고	-10715
경과	-10716
노프	-10717
▁kg	-10718
▁해인	-10719
5)	-10720
보도	-10721
▁김상	-10722
▁수도원	-10723
야가	-10724
초를	-10725
.9%	-10726
▁98	-10727
▁강이	-10728
▁유죄	-10729
▁활발한	-10730
주쿠	-10731
▁DS	-10732
▁오빠	-10733
▁의회는	-10734
▁1899	-10735
▁ST	-10736
▁토니	-10737
▁2.0	-10738
▁공사가	-10739
▁동로마	-10740
▁리비아	-10741
▁일컫는	-10742
LS	-10743
▁인생	-10744
▁만나게	-10745
▁민주화	-10746
▁아제르바이잔	-10747
▁갇	-10748
▁안드레	-10749
▁방법이다	-10750
▁설명했다	-10751
▁cm	-10752
▁개관	-10753
▁잭슨	-10754
▁규모는	-10755
▁인물이	-10756
▁자금을	-10757
▁평등	-10758
▁이에야	-10759
▁생각한다	-10760
▁스테이지	-10761
수인	-10762
올로	-10763
▁No	-10764
▁고발	-10765
▁에이스	-10766
▁중기의	-10767
포는	-10768
공산당	-10769
▁매사추세츠	-10770
처리	-10771
▁기상청	-10772
층이	-10773
▁링컨	-10774
▁실려	-10775
▁추출	-10776
▁했다는	-10777
▁자본주의	-10778
코드	-10779
▁중소	-10780
▁공간의	-10781
▁본사는	-10782
▁1903	-10783
4,	-10784
7)	-10785
▁하락	-10786
▁마이크	-10787
▁요구했다	-10788
▁참여하여	-10789
▁학교에서	-10790
▁애덤	-10791
▁탈환	-10792
▁곡이다	-10793
▁서쪽에	-10794
▁남아있는	-10795
▁이관	-10796
▁입자	-10797
▁초과	-10798
래스카	-10799
▁마이너	-10800
MP	-10801
무스	-10802
▁극히	-10803
▁범위	-10804
▁산소	-10805
권에서	-10806
▁정신적	-10807
▁나눌	-10808
▁나섰다	-10809
▁선수들이	-10810
▁비용을	-10811
대구	-10812
▁리뷰	-10813
▁세션	-10814
ject	-10815
▁계획에	-10816
좌상	-10817
-11	-10818
▁말기	-10819
▁매달	-10820
▁일도	-10821
▁주장하고	-10822
▁그날	-10823
▁끝까지	-10824
▁제외하면	-10825
▁낼	-10826
느러	-10827
▁활약한	-10828
▁조별리그	-10829
란히	-10830
▁이식	-10831
▁호세	-10832
▁넣었다	-10833
▁가톨릭교회	-10834
▁67	-10835
점이다	-10836
ower	-10837
되지는	-10838
lect	-10839
바스	-10840
rop	-10841
▁누적	-10842
▁슬로베	-10843
▁번식	-10844
▁사천	-10845
화에서	-10846
▁ISO	-10847
▁승인을	-10848
▁충격을	-10849
▁존재하며	-10850
▁기념물	-10851
▁대학에	-10852
▁음악의	-10853
▁교수는	-10854
하였다가	-10855
서야	-10856
▁출처	-10857
9)	-10858
my	-10859
▁면적	-10860
▁서사	-10861
▁상원의	-10862
▁음식을	-10863
▁진동	-10864
lack	-10865
▁행성의	-10866
▁생각하고	-10867
보건	-10868
비나	-10869
▁것보다	-10870
작의	-10871
▁권고	-10872
▁먹고	-10873
▁현저	-10874
식품	-10875
음과	-10876
▁왜냐	-10877
제국의	-10878
▁휴스턴	-10879
▁인정하지	-10880
▁댐	-10881
전도	-10882
ble	-10883
▁Ed	-10884
▁시즈	-10885
▁제수	-10886
산면	-10887
▁파운드	-10888
▁가마쿠라	-10889
▁발매하였다	-10890
▁정렬	-10891
▁요크	-10892
▁작센	-10893
▁진짜	-10894
원들은	-10895
▁기리기	-10896
▁지정된	-10897
▁데이터베이스	-10898
원들이	-10899
▁교수가	-10900
▁(,	-10901
▁물고	-10902
▁시칠	-10903
▁중의원	-10904
▁루스	-10905
▁힘입	-10906
▁호평을	-10907
▁나쁜	-10908
▁영의	-10909
▁Cent	-10910
▁학자들은	-10911
▁광주광역시	-10912
전선	-10913
▁맞지	-10914
해지는	-10915
▁조금씩	-10916
(13	-10917
▁SP	-10918
▁이반	-10919
▁제갈	-10920
▁직면	-10921
자이며	-10922
▁생겼다	-10923
▁꼴	-10924
ene	-10925
▁61	-10926
▁김수	-10927
▁줄기	-10928
▁오렌지	-10929
▁참고로	-10930
길을	-10931
ere	-10932
▁시계	-10933
▁부족한	-10934
▁신호를	-10935
▁여기에서	-10936
▁배구	-10937
달라고	-10938
▁승리한	-10939
▁부적	-10940
▁안산	-10941
일에서	-10942
▁NBA	-10943
학적으로	-10944
▁칭찬	-10945
▁다룬다	-10946
▁드러나	-10947
▁맞추어	-10948
▁최후의	-10949
▁2,000	-10950
▁제주특별자치	-10951
▁거행	-10952
▁글리	-10953
▁단위로	-10954
베이니아	-10955
▁근처에서	-10956
▁성공하였다	-10957
oul	-10958
▁1)	-10959
▁76	-10960
▁길게	-10961
▁딸을	-10962
▁후안	-10963
▁이어진	-10964
▁기록하면서	-10965
▁관장	-10966
▁기차	-10967
▁영남	-10968
▁워너	-10969
▁주를	-10970
▁도착한	-10971
▁스피드	-10972
▁승강장은	-10973
gr	-10974
▁닭	-10975
▁롤링	-10976
▁존중	-10977
가들은	-10978
거리는	-10979
▁공사를	-10980
▁초반에	-10981
▁존재했던	-10982
권도	-10983
▁도마뱀	-10984
ual	-10985
▁흔한	-10986
극장	-10987
망이	-10988
셰비	-10989
▁작위를	-10990
▁김포	-10991
▁깨닫	-10992
▁폐위	-10993
▁함유	-10994
프라이	-10995
▁설명한다	-10996
▁톈	-10997
▁로열	-10998
▁미만	-10999
▁확진	-11000
가고	-11001
▁궁극	-11002
글리	-11003
▁모으	-11004
▁복제	-11005
▁학위	-11006
▁시설을	-11007
▁회사를	-11008
▁관리하고	-11009
▁정부로부터	-11010
류이다	-11011
진으로	-11012
▁새겨져	-11013
▁담긴	-11014
▁사라졌다	-11015
▁상반	-11016
▁통틀	-11017
가이자	-11018
려서	-11019
질로	-11020
채를	-11021
▁레바	-11022
▁아예	-11023
▁초등	-11024
▁논문을	-11025
결정	-11026
▁레논	-11027
▁겪었다	-11028
▁신념	-11029
▁이래로	-11030
▁준비를	-11031
보안	-11032
유행	-11033
왔으며	-11034
▁움직임	-11035
▁잃어버	-11036
▁참가하고	-11037
▁단단	-11038
▁전도	-11039
▁스미스	-11040
▁알코올	-11041
▁담당하고	-11042
▁로즈	-11043
▁한계	-11044
▁해밀	-11045
▁동쪽에	-11046
▁별다른	-11047
▁속으로	-11048
▁이산화	-11049
▁중에서는	-11050
▁야당	-11051
소송법	-11052
▁친일인명	-11053
니시	-11054
▁시뮬	-11055
▁육성	-11056
▁채권	-11057
이면서	-11058
▁마음이	-11059
▁요미우리	-11060
▁찌	-11061
고래	-11062
속을	-11063
약품	-11064
▁업그	-11065
▁정사	-11066
▁지폐	-11067
▁쓰였다	-11068
▁웨일스	-11069
▁관할하는	-11070
▁성취	-11071
▁시골	-11072
▁유격	-11073
▁조달	-11074
층석탑	-11075
▁다니엘	-11076
구성	-11077
로니	-11078
▁여신	-11079
▁전선	-11080
▁진정	-11081
▁바꾸어	-11082
▁톤	-11083
▁대피	-11084
▁무승	-11085
▁이끈	-11086
▁기능은	-11087
▁생산하는	-11088
▁슬라	-11089
▁주석	-11090
▁기반의	-11091
▁하드웨어	-11092
▁공화당	-11093
▁레전드	-11094
▁십자가	-11095
려면	-11096
파일	-11097
▁마약	-11098
▁좌표	-11099
▁사이가	-11100
▁중간에	-11101
▁결정적인	-11102
라기	-11103
▁건물로	-11104
▁성균관	-11105
GB	-11106
열차	-11107
▁복지	-11108
▁변경하였다	-11109
▁척추	-11110
▁라이언	-11111
▁사이드	-11112
▁조문이다	-11113
Co	-11114
운트	-11115
▁유래한	-11116
▁의미의	-11117
rad	-11118
▁뻗어	-11119
▁수동	-11120
▁해를	-11121
▁사랑의	-11122
▁쓰이고	-11123
▁않았다고	-11124
놓은	-11125
irl	-11126
▁섬에	-11127
서도	-11128
신라	-11129
증으로	-11130
▁국가는	-11131
▁밑에서	-11132
▁배웠다	-11133
톨레	-11134
▁굉장	-11135
▁종은	-11136
▁부대를	-11137
▁얻는다	-11138
▁쫓아	-11139
▁이론의	-11140
▁비판했다	-11141
나스	-11142
말라	-11143
번에	-11144
야를	-11145
철도의	-11146
▁시켜	-11147
▁야간	-11148
거리를	-11149
▁거주하고	-11150
ris	-11151
▁느껴	-11152
▁영문	-11153
▁직선	-11154
▁시장에	-11155
▁사망하고	-11156
▁계속되었다	-11157
르지	-11158
▁패키	-11159
▁일본을	-11160
▁보지	-11161
▁전제	-11162
대교	-11163
변이	-11164
과정을	-11165
▁여름에	-11166
▁페르디	-11167
나라에	-11168
▁선보였다	-11169
과로	-11170
단위	-11171
수리	-11172
▁전자기	-11173
▁최근의	-11174
▁않는다고	-11175
실험	-11176
쟁이	-11177
▁해운	-11178
▁강점기	-11179
▁시절에는	-11180
▁몸에	-11181
▁억압	-11182
▁주소	-11183
▁보한다	-11184
▁펼쳤다	-11185
▁비잔티움	-11186
▁활동하는	-11187
we	-11188
▁강과	-11189
▁발원	-11190
▁버전의	-11191
▁기점으로	-11192
▁alpha	-11193
▁어휘	-11194
▁III	-11195
▁엔진은	-11196
▁운행한다	-11197
감에	-11198
▁서식하는	-11199
냈고	-11200
씨와	-11201
▁쇼와	-11202
▁협의	-11203
동맥	-11204
람쥐	-11205
▁놓은	-11206
▁닛폰	-11207
▁손해	-11208
▁허리케	-11209
▁설치류의	-11210
▁참여하는	-11211
▁블라디미르	-11212
▁설탕	-11213
▁대상을	-11214
▁사회를	-11215
▁특징이	-11216
▁동래	-11217
▁아벨	-11218
▁기업이다	-11219
십자	-11220
▁최적	-11221
▁최하	-11222
▁도주	-11223
▁아래는	-11224
강과	-11225
▁마츠	-11226
마르크	-11227
▁선수를	-11228
▁런던에서	-11229
포가	-11230
▁PS	-11231
렸으나	-11232
적이지	-11233
▁향하는	-11234
▁솟	-11235
▁결코	-11236
▁사헌	-11237
▁트루	-11238
▁무기를	-11239
인간	-11240
urn	-11241
▁(1	-11242
▁NA	-11243
▁데뷔를	-11244
▁디자인을	-11245
구르	-11246
▁관념	-11247
▁높고	-11248
▁명에	-11249
▁이내	-11250
-200	-11251
턴의	-11252
인들과	-11253
▁덧붙여	-11254
▁전투기	-11255
▁관리하는	-11256
▁대한민국은	-11257
rid	-11258
▁96	-11259
▁세계대	-11260
놓고	-11261
뉴스	-11262
ash	-11263
▁경부	-11264
▁추격	-11265
▁화석	-11266
라디오	-11267
시키며	-11268
기관으로	-11269
▁신설되었다	-11270
▁멋	-11271
▁킨	-11272
oph	-11273
▁개그	-11274
▁브뤼	-11275
▁국방부	-11276
pen	-11277
▁기갑	-11278
▁비오	-11279
▁사사	-11280
▁성모	-11281
▁정면	-11282
▁생각해	-11283
▁히데요	-11284
브는	-11285
▁69	-11286
▁평면	-11287
▁장학	-11288
▁감정을	-11289
▁의회의	-11290
▁사건이다	-11291
▁부호	-11292
작이다	-11293
▁제안을	-11294
▁남해	-11295
▁차원에서	-11296
▁도입되었다	-11297
▁개화	-11298
▁공인	-11299
▁위임	-11300
▁조명	-11301
년대의	-11302
▁최상위	-11303
▁성우이다	-11304
▁모델이	-11305
희의	-11306
▁DC	-11307
강에서	-11308
▁양식을	-11309
▁자세한	-11310
▁왜냐하면	-11311
▁일어나자	-11312
▁로스앤젤레스에서	-11313
위안	-11314
▁빠진	-11315
▁사자	-11316
▁지식을	-11317
▁경기에서는	-11318
▁발트	-11319
사우루	-11320
▁거리는	-11321
Le	-11322
통의	-11323
let	-11324
▁임기	-11325
▁총대	-11326
▁탤	-11327
통이	-11328
황을	-11329
▁김기	-11330
▁10%	-11331
▁시즌이	-11332
▁엽	-11333
박한	-11334
▁사원	-11335
▁재현	-11336
▁잃었다	-11337
▁회사가	-11338
란은	-11339
▁통행	-11340
▁피트	-11341
▁밀접한	-11342
▁종으로	-11343
▁유지하는	-11344
▁지적했다	-11345
▁시작하였고	-11346
▁두어	-11347
▁미노	-11348
▁미터	-11349
▁암시	-11350
년동안	-11351
▁그레고	-11352
▁북부의	-11353
▁제목의	-11354
▁환경을	-11355
▁구릉	-11356
▁터뜨	-11357
▁표명	-11358
▁도시가	-11359
▁분명히	-11360
▁위험한	-11361
▁자동으로	-11362
디언	-11363
▁간호	-11364
ican	-11365
▁부대는	-11366
▁유형의	-11367
▁중심지는	-11368
▁우승하였다	-11369
봉을	-11370
크에	-11371
▁앨범의	-11372
▁이야기는	-11373
▁한국전쟁	-11374
각이	-11375
섬에	-11376
▁연호	-11377
▁희귀	-11378
rans	-11379
sch	-11380
▁로이	-11381
▁축하	-11382
▁셸	-11383
▁전압	-11384
리아는	-11385
▁기술의	-11386
▁조건이	-11387
고등학교를	-11388
▁기름	-11389
▁드문	-11390
▁감독과	-11391
▁떠올	-11392
▁북쪽의	-11393
▁오프닝	-11394
▁운동은	-11395
루션	-11396
▁나눠	-11397
▁담겨	-11398
▁문장	-11399
▁스스로를	-11400
La	-11401
▁보일	-11402
▁서정	-11403
▁순회	-11404
▁다양하다	-11405
▁대신하여	-11406
덕션	-11407
멘트	-11408
▁합창	-11409
▁태도를	-11410
fer	-11411
▁붙은	-11412
자들에	-11413
▁오하이오	-11414
▁조선인민	-11415
▁크리스마스	-11416
ald	-11417
▁디오	-11418
▁편곡	-11419
▁엄격한	-11420
▁고수	-11421
▁성당	-11422
▁수도인	-11423
▁앨범이다	-11424
반에	-11425
층을	-11426
hel	-11427
누스는	-11428
라이어	-11429
▁소속된	-11430
LA	-11431
그의	-11432
ola	-11433
▁대관	-11434
▁몰래	-11435
▁쇼트	-11436
▁유언	-11437
▁최대한	-11438
▁Comp	-11439
▁하더라도	-11440
▁직접적으로	-11441
~5	-11442
미쓰	-11443
▁IBM	-11444
▁조선인	-11445
▁마루	-11446
▁얻고	-11447
▁협약	-11448
▁시장을	-11449
▁이사회	-11450
▁협주곡	-11451
됨으로써	-11452
▁중단되었다	-11453
lo	-11454
지휘	-11455
아일랜드	-11456
소방	-11457
▁부사	-11458
갔으며	-11459
나갔다	-11460
▁굉장히	-11461
▁진출을	-11462
▁만의	-11463
쳤으며	-11464
▁마일	-11465
▁매출	-11466
▁샘플	-11467
▁고려의	-11468
모와	-11469
▁불교의	-11470
▁가축	-11471
▁사토	-11472
▁제사	-11473
방에서	-11474
▁뜨거운	-11475
외선	-11476
▁폭스	-11477
▁교회에	-11478
서원	-11479
▁교구	-11480
▁영동	-11481
▁오라	-11482
▁컬러	-11483
▁해주	-11484
▁힘든	-11485
▁찾아볼	-11486
▁크레이	-11487
▁온타리오	-11488
▁체포되어	-11489
▁봤	-11490
▁밀어	-11491
▁숭배	-11492
▁하마	-11493
▁수술을	-11494
▁대회에서는	-11495
▁월드컵에서	-11496
na	-11497
uk	-11498
▁결론	-11499
▁내리	-11500
▁리틀	-11501
▁시초	-11502
▁시흥	-11503
▁투구	-11504
시에는	-11505
▁위기를	-11506
중은	-11507
채널	-11508
▁게오	-11509
▁마블	-11510
▁변수	-11511
▁업적을	-11512
▁주장한	-11513
캐롤라이나	-11514
감과	-11515
디나	-11516
▁색을	-11517
▁이진	-11518
▁미얀마	-11519
당하였다	-11520
▁이집트의	-11521
▁이루어지고	-11522
▁군에	-11523
▁아부	-11524
▁만나는	-11525
▁학생이	-11526
▁햇	-11527
▁앉아	-11528
▁제안했다	-11529
▁울산광역시	-11530
▁부부	-11531
▁귀중한	-11532
▁페르난	-11533
▁1884	-11534
연은	-11535
평화	-11536
▁불확	-11537
▁탐지	-11538
▁경찰은	-11539
▁생각할	-11540
▁평택	-11541
▁장거리	-11542
▁1897	-11543
▁평균자책	-11544
RT	-11545
무는	-11546
ane	-11547
▁넣고	-11548
▁부수	-11549
▁부유한	-11550
▁순수한	-11551
▁등장인물	-11552
▁버려	-11553
▁소셜	-11554
▁지방을	-11555
클랜드	-11556
▁종이다	-11557
청에	-11558
▁역설	-11559
▁연쇄	-11560
▁이름인	-11561
▁자회사	-11562
▁대한민국에	-11563
(8	-11564
▁힘입어	-11565
즈에서	-11566
▁아름다	-11567
▁와중에	-11568
▁이후로는	-11569
OD	-11570
▁횟	-11571
도어	-11572
▁가도	-11573
▁선사	-11574
▁팀인	-11575
▁허브	-11576
▁중국과	-11577
eng	-11578
▁We	-11579
베르토	-11580
▁게이트	-11581
▁광장	-11582
▁난이	-11583
▁매입	-11584
무역	-11585
▁투옥	-11586
▁전체에	-11587
다지	-11588
선언	-11589
였을	-11590
▁분화	-11591
▁야쿠	-11592
▁집계	-11593
크에서	-11594
▁거느리고	-11595
▁설명하는	-11596
▁건설되었다	-11597
슬리	-11598
▁느꼈	-11599
▁부딪	-11600
▁연세	-11601
▁재무	-11602
기독교	-11603
▁있었을	-11604
▁직전에	-11605
도리	-11606
히메	-11607
▁78	-11608
▁노선의	-11609
풍속	-11610
▁밤에	-11611
▁그러던	-11612
▁아일랜드의	-11613
양은	-11614
▁즉각	-11615
▁케냐	-11616
▁모형	-11617
▁이윤	-11618
도이다	-11619
▁우라늄	-11620
▁의식을	-11621
▁상태였다	-11622
KB	-11623
다르	-11624
이시	-11625
정당	-11626
질은	-11627
▁상수	-11628
▁진급	-11629
액은	-11630
▁2.5	-11631
▁자택	-11632
eter	-11633
▁자체를	-11634
사기	-11635
스페	-11636
▁신임	-11637
▁공로로	-11638
▁시즌은	-11639
▁갈아	-11640
▁왕은	-11641
▁증후	-11642
▁회계	-11643
▁테이블	-11644
▁프로젝트를	-11645
cc	-11646
번은	-11647
hPa	-11648
▁구출	-11649
▁기습	-11650
▁발현	-11651
▁후궁	-11652
▁이유를	-11653
▁중국어	-11654
▁아케이드	-11655
▁있으면서	-11656
▁자연스럽게	-11657
▁봉쇄	-11658
월과	-11659
▁사슬	-11660
▁이가	-11661
▁내부에	-11662
▁출전한	-11663
▁선출했다	-11664
▁안보	-11665
▁진군	-11666
년이다	-11667
정원	-11668
평군	-11669
red	-11670
▁360	-11671
▁개발이	-11672
inc	-11673
▁민사	-11674
▁시트	-11675
리노이	-11676
▁독립된	-11677
▁장치를	-11678
▁기록하는	-11679
▁엔지니어	-11680
림이	-11681
종과	-11682
▁부서	-11683
▁빈곤	-11684
문제연구	-11685
내어	-11686
도르프	-11687
▁일본과	-11688
▁편입되었다	-11689
일체	-11690
▁베니	-11691
▁전통을	-11692
▁냄	-11693
구나	-11694
종인	-11695
▁대니	-11696
▁비평	-11697
▁with	-11698
▁대통령에	-11699
작이	-11700
포구	-11701
함의	-11702
▁올바	-11703
▁춘천	-11704
▁물질을	-11705
▁본사를	-11706
벌레	-11707
어지는	-11708
▁부동산	-11709
▁심리학	-11710
대회에서	-11711
▁옌	-11712
▁왓	-11713
▁제곱	-11714
스트리	-11715
▁사람과	-11716
▁성장을	-11717
▁할머니	-11718
▁환경에서	-11719
▁펜실베이니아	-11720
▁경신	-11721
▁일컬	-11722
▁모르는	-11723
▁파이어	-11724
▁표현을	-11725
▁기록했고	-11726
▁선수이며	-11727
MC	-11728
척의	-11729
▁마스	-11730
▁드러머	-11731
▁실패로	-11732
▁부분으로	-11733
츠를	-11734
풍의	-11735
▁가죽	-11736
▁정한	-11737
▁침투	-11738
▁여부를	-11739
~6	-11740
지능	-11741
ins	-11742
res	-11743
▁가짜	-11744
▁개원	-11745
▁냉각	-11746
▁코어	-11747
▁프레스	-11748
▁돋	-11749
con	-11750
mun	-11751
▁낭만	-11752
▁입원	-11753
▁천문학	-11754
▁이후부터	-11755
하루	-11756
▁모친	-11757
▁밑에	-11758
교육을	-11759
▁런던의	-11760
▁토요일	-11761
▁자리잡고	-11762
▁니콜라	-11763
▁새누리	-11764
▁들어간다	-11765
거는	-11766
분해	-11767
일으	-11768
▁송시	-11769
▁옥스	-11770
▁중도	-11771
▁축적	-11772
▁다운로드	-11773
▁만남	-11774
▁소매	-11775
▁컨셉	-11776
르키예	-11777
▁기간을	-11778
▁주장은	-11779
▁철도가	-11780
▁슬로바키아	-11781
가족	-11782
▁불평	-11783
▁방식이	-11784
열대	-11785
하키	-11786
ott	-11787
▁그냥	-11788
▁낸다	-11789
▁쓰기	-11790
▁시리즈를	-11791
▁딘	-11792
바타	-11793
▁구제	-11794
▁Car	-11795
▁가지며	-11796
▁뒤집	-11797
▁불편	-11798
도마뱀	-11799
▁극장판	-11800
▁되돌아	-11801
▁속도는	-11802
▁이벤트	-11803
,4	-11804
▁계몽	-11805
▁엄격	-11806
▁취재	-11807
▁나가노	-11808
세기부터	-11809
▁물건	-11810
▁배치되어	-11811
▁헌법재판	-11812
네가	-11813
절한	-11814
▁노리	-11815
▁순교	-11816
▁이케	-11817
▁놓았다	-11818
▁환경에	-11819
▁획득한	-11820
,8	-11821
▁넬	-11822
▁라파	-11823
▁칸의	-11824
▁노란색	-11825
EL	-11826
▁다항	-11827
▁띠고	-11828
사령관	-11829
▁그쳤다	-11830
▁사이버	-11831
▁제국을	-11832
▁제노	-11833
▁채워	-11834
▁거기서	-11835
▁들어온	-11836
▁레바논	-11837
악한	-11838
▁상류	-11839
▁팀에서	-11840
매매	-11841
야만	-11842
훈장	-11843
▁개교	-11844
▁우편	-11845
▁도미니	-11846
▁제주도	-11847
네시	-11848
항이	-11849
▁문제의	-11850
▁스트리트	-11851
▁의미에서	-11852
렉스	-11853
티코	-11854
▁발을	-11855
▁효고	-11856
▁아니라고	-11857
ym	-11858
만여	-11859
영어	-11860
.11	-11861
▁뒷받침	-11862
▁자신도	-11863
▁역에	-11864
▁제트	-11865
▁카타	-11866
▁올랐고	-11867
▁피해가	-11868
녀를	-11869
▁촉매	-11870
▁캠프	-11871
="	-11872
▁노무현	-11873
▁Live	-11874
방위	-11875
▁제압	-11876
특히	-11877
▁이빨	-11878
▁동아일보	-11879
님을	-11880
▁경로	-11881
▁띤다	-11882
▁영조	-11883
▁지능	-11884
임에도	-11885
▁101	-11886
▁기록해	-11887
▁사고가	-11888
▁요청을	-11889
▁사회에서	-11890
테르부르크	-11891
까지만	-11892
▁변화에	-11893
공은	-11894
▁증손	-11895
▁독립적인	-11896
▁문서이다	-11897
지역의	-11898
▁원인은	-11899
▁일종으로	-11900
가르	-11901
▁난징	-11902
▁바른	-11903
▁해변	-11904
▁GDP	-11905
▁나오지	-11906
▁느낌을	-11907
순위	-11908
▁강도	-11909
▁숫자	-11910
▁위탁	-11911
▁이남	-11912
▁평일	-11913
▁배우로	-11914
▁황제로	-11915
▁불러일으	-11916
▁김경	-11917
▁믿고	-11918
▁바퀴	-11919
▁포르투갈의	-11920
▁팜	-11921
반이	-11922
▁노인	-11923
▁미즈	-11924
▁협박	-11925
▁요구를	-11926
▁코스타	-11927
▁경우에도	-11928
▁대거	-11929
▁불리게	-11930
▁우승한	-11931
▁아시안컵	-11932
▁콘스탄티노폴리스	-11933
▁산다	-11934
▁가수로	-11935
▁차량을	-11936
▁지구에서	-11937
ye	-11938
▁뉘	-11939
감한	-11940
▁국소	-11941
▁구단은	-11942
▁출시한	-11943
▁나눈	-11944
ings	-11945
▁그룹은	-11946
▁남쪽의	-11947
릴라	-11948
▁내전	-11949
▁스톡	-11950
▁구간을	-11951
▁발렌시아	-11952
▁사용되며	-11953
▁옴	-11954
▁문법	-11955
▁존스	-11956
면에는	-11957
▁움직임을	-11958
칼라	-11959
▁카롤	-11960
▁기술은	-11961
▁장관을	-11962
했습니다	-11963
시즘	-11964
▁책의	-11965
▁피츠	-11966
▁And	-11967
▁부분의	-11968
위원으로	-11969
총장	-11970
황제	-11971
스카야	-11972
▁다음해	-11973
▁지휘관	-11974
FL	-11975
반은	-11976
버는	-11977
버리	-11978
▁상용	-11979
▁있는지	-11980
▁시내버스	-11981
리조	-11982
토르	-11983
port	-11984
▁승부차	-11985
▁난민	-11986
▁넣은	-11987
▁에미	-11988
▁클라이	-11989
▁메시지를	-11990
▁일컫는다	-11991
저지	-11992
▁일러	-11993
▁적고	-11994
▁제자	-11995
▁중합	-11996
루미늄	-11997
▁적합한	-11998
▁메커니즘	-11999
▁고려대학교	-12000
욕을	-12001
▁동명	-12002
▁채무	-12003
▁보호를	-12004
▁비로소	-12005
form	-12006
▁간단히	-12007
▁관리를	-12008
기사	-12009
ner	-12010
▁시키	-12011
▁지고	-12012
▁반경	-12013
▁제독	-12014
▁주민들이	-12015
▁함으로써	-12016
▁용어로	-12017
▁파이널	-12018
▁과거에는	-12019
▁캄보디아	-12020
▁프랑크푸르트	-12021
장치	-12022
oss	-12023
▁아홉	-12024
▁애비	-12025
▁잎은	-12026
▁관련한	-12027
▁왕위에	-12028
▁엿	-12029
수용	-12030
▁불이	-12031
▁물러났다	-12032
▁민족주의	-12033
나리	-12034
운영	-12035
▁예술가	-12036
▁인근의	-12037
검사	-12038
도바	-12039
브루	-12040
▁김씨	-12041
▁온천	-12042
▁자문	-12043
▁본인의	-12044
▁시장에서	-12045
더니	-12046
ini	-12047
▁딸인	-12048
▁법조	-12049
▁일명	-12050
▁그래프	-12051
▁프로그램이	-12052
만년	-12053
▁오노	-12054
▁차량은	-12055
▁등지에서	-12056
▁체코슬로	-12057
▁선언하였다	-12058
족에	-12059
▁정서	-12060
uper	-12061
▁목표는	-12062
▁비율은	-12063
▁상처	-12064
▁짙은	-12065
▁하우	-12066
▁가리키	-12067
▁블로그	-12068
▁것으로서	-12069
▁이름에서	-12070
▁CC	-12071
▁교역	-12072
▁재혼	-12073
▁어머니의	-12074
▁실패하였다	-12075
Ph	-12076
렸는데	-12077
원숭이	-12078
▁2-1	-12079
푸스	-12080
▁불어	-12081
▁평창	-12082
▁주민들은	-12083
DA	-12084
약성	-12085
ret	-12086
▁어려워	-12087
▁황해도	-12088
▁프로게이머	-12089
▁플레이어는	-12090
판과	-12091
▁NC	-12092
▁마하	-12093
▁붙인	-12094
▁버전이	-12095
▁차량이	-12096
▁강수량은	-12097
▁마음작용	-12098
▁머물렀다	-12099
각의	-12100
공주	-12101
로우	-12102
~18	-12103
▁부가	-12104
▁존경	-12105
▁했을	-12106
▁것인데	-12107
▁언급했다	-12108
대책	-12109
링을	-12110
ubl	-12111
▁Go	-12112
▁만성	-12113
▁카스	-12114
▁바이오	-12115
▁언어의	-12116
▁유로파	-12117
▁카를로	-12118
킬로미터	-12119
▁자유주의	-12120
▁Am	-12121
▁쏟아	-12122
▁앙리	-12123
▁완화	-12124
▁조리	-12125
▁어머니가	-12126
')	-12127
▁지주	-12128
▁표본	-12129
▁시호를	-12130
▁조사에	-12131
▁전체적인	-12132
환의	-12133
▁기사를	-12134
▁이론에	-12135
▁차이는	-12136
정신	-12137
▁원리	-12138
▁이룬	-12139
▁중국에	-12140
▁거울	-12141
▁고백	-12142
▁공모	-12143
▁이의	-12144
▁최연	-12145
▁측의	-12146
▁독일이	-12147
yc	-12148
참모	-12149
▁97	-12150
▁생략	-12151
▁컴퍼	-12152
▁수상한	-12153
▁우즈베	-12154
▁인문	-12155
▁시기를	-12156
▁디비시온	-12157
▁날카	-12158
▁반해	-12159
▁1880	-12160
로이	-12161
▁그랜	-12162
uro	-12163
▁Bo	-12164
▁존속	-12165
▁칼라	-12166
ever	-12167
▁일하는	-12168
▁투어를	-12169
로부터의	-12170
▁조선일보	-12171
칸의	-12172
▁비난을	-12173
▁지역구	-12174
▁결정되었다	-12175
명당	-12176
어요	-12177
▁바꾼	-12178
▁싶은	-12179
▁인격	-12180
▁임용	-12181
▁일으킬	-12182
근의	-12183
동성	-12184
수소	-12185
학이	-12186
▁골프	-12187
▁디자	-12188
▁소금	-12189
▁원수	-12190
정에서	-12191
파이어	-12192
제한	-12193
▁전속	-12194
▁파스	-12195
▁보전	-12196
▁봉건	-12197
▁합작	-12198
▁프랑수아	-12199
시나	-12200
net	-12201
▁어긋	-12202
▁상트	-12203
▁결성된	-12204
▁공격에	-12205
▁증가했다	-12206
▁추가적인	-12207
UC	-12208
▁펌	-12209
대륙	-12210
대왕	-12211
액의	-12212
▁제프	-12213
▁갈등을	-12214
▁구성되었다	-12215
IL	-12216
be	-12217
아파	-12218
▁가량	-12219
▁에밀	-12220
▁규모로	-12221
▁그래미	-12222
▁다니는	-12223
▁음악에	-12224
illiam	-12225
IG	-12226
군다	-12227
▁고령	-12228
▁당일	-12229
▁정밀	-12230
▁중기	-12231
▁카트	-12232
▁One	-12233
▁블랙홀	-12234
▁평범한	-12235
▁확실히	-12236
▁승격되었다	-12237
철의	-12238
▁테니스	-12239
▁통틀어	-12240
▁베트남의	-12241
▁벨라루스	-12242
▁브라우저	-12243
▁쇄	-12244
▁낱말	-12245
▁트래	-12246
▁피하기	-12247
▁말씀	-12248
▁종류가	-12249
▁아버지를	-12250
▁타이틀곡	-12251
▁복귀하였다	-12252
▁시리즈에서	-12253
▁이준	-12254
▁초월	-12255
버렸다	-12256
▁살았던	-12257
▁출신인	-12258
▁고체	-12259
▁삼촌	-12260
방으로	-12261
▁is	-12262
▁단기	-12263
▁두는	-12264
▁오타	-12265
선이다	-12266
▁1885	-12267
▁Part	-12268
▁역사적인	-12269
강이	-12270
군단	-12271
▁누르	-12272
▁맥스	-12273
▁아랫	-12274
af	-12275
방울	-12276
보르	-12277
▁총칭	-12278
하이드	-12279
ater	-12280
▁게르만	-12281
▁일이다	-12282
▁적극적인	-12283
아래	-12284
oup	-12285
▁따온	-12286
▁폭넓	-12287
▁환자	-12288
▁따른다	-12289
▁지휘하는	-12290
▁튀르키예	-12291
더의	-12292
버린	-12293
▁),	-12294
▁고쳐	-12295
▁남원	-12296
▁홈구	-12297
▁잡았다	-12298
▁사모	-12299
▁종속	-12300
일이다	-12301
▁나가는	-12302
ution	-12303
▁인터내셔널	-12304
스런	-12305
종교	-12306
▁조언	-12307
▁가족은	-12308
▁성격이	-12309
▁회의를	-12310
애를	-12311
▁누가	-12312
▁시외	-12313
▁구단의	-12314
▁왕국을	-12315
사리	-12316
▁난다	-12317
전문학교	-12318
▁방식이다	-12319
미노	-12320
차와	-12321
▁구할	-12322
▁더글	-12323
▁수습	-12324
▁교황의	-12325
▁제도가	-12326
▁신시	-12327
▁정신을	-12328
프로그램	-12329
▁아래에서	-12330
▁벵	-12331
연방	-12332
oug	-12333
▁태평	-12334
able	-12335
▁위치는	-12336
▁합류했다	-12337
▁경상남도의	-12338
팀의	-12339
▁빌려	-12340
▁세속	-12341
바이트	-12342
서비스	-12343
▁독일과	-12344
▁않으나	-12345
▁팀으로	-12346
▁협상을	-12347
▁구마모토	-12348
▁신이	-12349
▁나머지는	-12350
▁정도였다	-12351
널티	-12352
도비	-12353
코쿠	-12354
ana	-12355
▁하트	-12356
야마현	-12357
▁개념이	-12358
▁속하며	-12359
▁프로레	-12360
과학기술	-12361
▁구역이다	-12362
▁월드컵에	-12363
▁김현	-12364
▁성분	-12365
▁옹립	-12366
▁적혀	-12367
▁게임이	-12368
▁루이지	-12369
▁시위를	-12370
▁벌어졌다	-12371
있었다	-12372
▁김일성	-12373
▁합스부르크	-12374
래스	-12375
▁문명	-12376
▁플랜	-12377
▁세상에	-12378
▁존재가	-12379
▁민족문제연구	-12380
국어	-12381
▁랜드	-12382
▁신한	-12383
▁카디	-12384
▁핸드	-12385
▁호위	-12386
이어서	-12387
▁단어는	-12388
▁장군의	-12389
▁질량은	-12390
.,	-12391
▁네오	-12392
▁이유가	-12393
▁최악의	-12394
▁선거구이다	-12395
림의	-12396
"),	-12397
▁필사	-12398
겼으며	-12399
▁마음에	-12400
▁총리가	-12401
▁프로그램에	-12402
▁깎	-12403
▁서재	-12404
▁사례가	-12405
▁선정한	-12406
▁그들에게	-12407
▁73	-12408
▁공민	-12409
▁받침	-12410
▁어항	-12411
▁오를	-12412
▁위장	-12413
▁한스	-12414
▁매니저	-12415
▁연기를	-12416
▁클래스	-12417
▁시즌이다	-12418
▁발급	-12419
▁용도로	-12420
▁출전하였다	-12421
제작	-12422
▁슈팅	-12423
암으로	-12424
▁밴드이다	-12425
▁알렉산드로	-12426
▁이탈리아에서	-12427
▁설도	-12428
▁웹툰	-12429
▁중요성을	-12430
학부	-12431
▁노트	-12432
▁Day	-12433
▁알려지게	-12434
이하	-12435
커의	-12436
파인	-12437
▁꼭짓	-12438
▁디렉	-12439
▁엔딩	-12440
▁가벼운	-12441
▁언급한	-12442
파르	-12443
학원	-12444
▁방패	-12445
▁진흥	-12446
▁가지가	-12447
▁뛰어나	-12448
▁투표를	-12449
▁뭉	-12450
회담	-12451
▁Ag	-12452
▁권장	-12453
책으로	-12454
▁제사를	-12455
▁텍스트	-12456
▁인정하고	-12457
▁3.	-12458
▁항소	-12459
▁군대에	-12460
▁1860	-12461
▁조선로동	-12462
▁에티오피아	-12463
▁맏	-12464
oon	-12465
▁덮여	-12466
▁줄무늬	-12467
▁아시카가	-12468
▁스튜디오에서	-12469
▁자치구	-12470
▁86	-12471
▁50%	-12472
▁프로리그	-12473
▁땄	-12474
인한	-12475
지아	-12476
▁양이	-12477
▁최후	-12478
▁3,000	-12479
레타	-12480
리라	-12481
▁삼각형	-12482
▁올라간다	-12483
De	-12484
유적	-12485
▁나올	-12486
▁초록	-12487
지는데	-12488
▁담배	-12489
▁목을	-12490
▁오리콘	-12491
▁진행되고	-12492
▁고민	-12493
▁기각	-12494
▁중재	-12495
(2011	-12496
▁아기	-12497
▁악기	-12498
▁이경	-12499
▁토르	-12500
obert	-12501
피의	-12502
▁광둥	-12503
▁리우	-12504
▁명성	-12505
▁밀집	-12506
▁본거	-12507
라에서	-12508
▁미국을	-12509
▁패배를	-12510
▁존재하고	-12511
▁양국	-12512
그라드	-12513
▁수학자	-12514
▁인터페이스	-12515
예정	-12516
하임	-12517
uck	-12518
▁생식	-12519
▁양주	-12520
▁창의	-12521
▁국내외	-12522
▁주도로	-12523
▁음반으로	-12524
▁장성	-12525
▁존슨	-12526
결과를	-12527
▁없었기	-12528
▁복귀했다	-12529
▁미루	-12530
▁차량의	-12531
▁행사를	-12532
▁노동조합	-12533
▁대학교에	-12534
▁74	-12535
▁물질의	-12536
▁프톨레	-12537
측에	-12538
ral	-12539
▁말의	-12540
▁가족의	-12541
▁부작용	-12542
▁사망하자	-12543
▁플라스틱	-12544
아들	-12545
▁부의	-12546
▁수면	-12547
측은	-12548
▁마우	-12549
▁쓰지	-12550
(;	-12551
블리	-12552
차량	-12553
▁던져	-12554
▁마인	-12555
▁분비	-12556
▁업체	-12557
-14	-12558
▁맥락	-12559
▁이라	-12560
▁들어갈	-12561
▁박스	-12562
▁피신	-12563
▁역사에	-12564
▁장면을	-12565
▁더불어민주당	-12566
▁닦	-12567
▁오쿠	-12568
▁왕복	-12569
▁천도	-12570
▁축출	-12571
풍으로	-12572
▁말기의	-12573
▁나이지리아	-12574
ike	-12575
▁선물	-12576
▁수축	-12577
▁토요	-12578
▁해소	-12579
▁보유한	-12580
▁결정하는	-12581
▁알루미늄	-12582
▁방송되었다	-12583
붙이	-12584
위스	-12585
ail	-12586
▁가져왔다	-12587
▁떨어지는	-12588
▁처음부터	-12589
손은	-12590
오늘	-12591
▁일방	-12592
▁달한다	-12593
▁선거는	-12594
▁학교의	-12595
노가	-12596
체제	-12597
태후	-12598
택을	-12599
▁감행	-12600
▁마에	-12601
▁조르	-12602
등으로	-12603
stit	-12604
▁정부에서	-12605
▁갈릴	-12606
▁밴드를	-12607
▁자격으로	-12608
▁중앙위원회	-12609
고와	-12610
병에	-12611
준은	-12612
함마	-12613
any	-12614
▁단축	-12615
해양	-12616
▁플러	-12617
▁카리브	-12618
▁국제적인	-12619
▁정치인으로	-12620
한테	-12621
▁춘추	-12622
으려고	-12623
코르	-12624
▁술을	-12625
▁카우	-12626
▁미시간	-12627
▁글루	-12628
▁대웅	-12629
▁유교	-12630
▁패한	-12631
▁몬스터	-12632
▁소행성	-12633
따라	-12634
▁가까워	-12635
▁다녔다	-12636
▁간주된다	-12637
언어	-12638
▁거제	-12639
▁기슭	-12640
▁정해	-12641
그리스	-12642
▁회사이다	-12643
밴드	-12644
번뇌	-12645
_11	-12646
▁얻지	-12647
▁1-0	-12648
▁베네딕	-12649
▁스리랑	-12650
▁타격을	-12651
▁몸이	-12652
▁스캔	-12653
▁리그를	-12654
▁전역에서	-12655
▁얹	-12656
▁미쳤다	-12657
▁끊임없이	-12658
▁이용한다	-12659
▁5,000	-12660
▁국영	-12661
▁성주	-12662
▁지형	-12663
▁경찰에	-12664
▁81	-12665
▁네팔	-12666
▁배신	-12667
▁중대	-12668
▁아무도	-12669
▁형태이다	-12670
폭력	-12671
▁크리스토퍼	-12672
달아	-12673
히토	-12674
ler	-12675
▁해수	-12676
하자면	-12677
▁말기에	-12678
▁버렸다	-12679
▁1889	-12680
▁임시정부	-12681
▁아타	-12682
▁페리	-12683
▁별명을	-12684
▁비율이	-12685
▁됐	-12686
값을	-12687
국장	-12688
▁사살	-12689
▁잡은	-12690
▁뚜렷한	-12691
▁마을에	-12692
▁브로드	-12693
▁손가락	-12694
적에	-12695
▁가구	-12696
▁라마	-12697
▁유저	-12698
▁펠리	-12699
검찰청	-12700
▁연구의	-12701
▁얽	-12702
미스	-12703
▁우드	-12704
▁지방자치	-12705
▁헝가리의	-12706
코와	-12707
▁고기	-12708
▁모서	-12709
▁슈트	-12710
▁용의	-12711
▁손으로	-12712
근은	-12713
▁ex	-12714
▁연금	-12715
▁케임	-12716
▁기자회	-12717
▁기초를	-12718
창을	-12719
▁도는	-12720
idae	-12721
ital	-12722
▁스탈린	-12723
▁정보가	-12724
▁맑	-12725
투자	-12726
협의회	-12727
▁관직을	-12728
▁개봉되었다	-12729
▁친일인명사전	-12730
열에	-12731
▁팔라	-12732
▁것들이	-12733
▁무대를	-12734
계급	-12735
▁페널티	-12736
사나	-12737
열은	-12738
천여	-12739
▁헤비	-12740
▁CON	-12741
▁시베리아	-12742
▁유사하다	-12743
▁총대주교	-12744
▁쉐	-12745
리야	-12746
순환	-12747
웠고	-12748
자르	-12749
▁||	-12750
▁딸로	-12751
▁막시	-12752
올림픽	-12753
운동에	-12754
▁com	-12755
▁많으며	-12756
▁서유럽	-12757
▁선수는	-12758
▁전역에	-12759
▁시기에는	-12760
▁대합	-12761
▁데스	-12762
▁비유	-12763
▁정조	-12764
▁주가	-12765
▁견해를	-12766
학교에서	-12767
회의에서	-12768
▁아리스토	-12769
▁대통령으로	-12770
▁법인	-12771
▁수확	-12772
▁스폰	-12773
▁아크	-12774
▁충주	-12775
레이터	-12776
▁날에	-12777
▁어른	-12778
▁나폴리	-12779
▁그리스도의	-12780
aj	-12781
결과	-12782
어리	-12783
▁여진	-12784
어지고	-12785
▁있기도	-12786
포드	-12787
▁비타	-12788
▁사절	-12789
▁시범	-12790
▁신중	-12791
가지의	-12792
▁되었다가	-12793
세종	-12794
플레	-12795
ors	-12796
▁상태의	-12797
▁설치한	-12798
▁올리고	-12799
▁부분에서	-12800
▁지정하여	-12801
즈로	-12802
희가	-12803
▁기저	-12804
▁부지	-12805
▁비자	-12806
▁게임에	-12807
▁일리노이	-12808
께서	-12809
ole	-12810
▁벌인	-12811
▁산란	-12812
문에서	-12813
▁지구와	-12814
▁캠퍼스	-12815
▁기아	-12816
▁암흑	-12817
▁갈수록	-12818
▁시리즈는	-12819
▁결혼하였다	-12820
골로	-12821
▁포획	-12822
▁인증을	-12823
▁회장을	-12824
우지	-12825
항의	-12826
▁처녀	-12827
▁하원	-12828
▁것임을	-12829
▁안에는	-12830
▁완벽한	-12831
▁전했다	-12832
집이	-12833
하자는	-12834
▁과정이	-12835
▁주목할	-12836
▁게임으로	-12837
▁옳	-12838
ero	-12839
▁89	-12840
▁소지	-12841
▁20%	-12842
▁육군의	-12843
▁1871	-12844
▁노르웨이의	-12845
타입	-12846
▁00	-12847
▁먹을	-12848
▁승계	-12849
▁흥선	-12850
▁개인이	-12851
▁민족의	-12852
▁Colle	-12853
▁AR	-12854
▁교전	-12855
▁봉안	-12856
▁고통을	-12857
▁추기경	-12858
미즈	-12859
증은	-12860
▁단절	-12861
▁협동	-12862
▁생산을	-12863
▁중추원	-12864
대학교에서	-12865
소녀	-12866
테면	-12867
트륨	-12868
협력	-12869
화물	-12870
▁87	-12871
▁무성	-12872
▁시와	-12873
▁한미	-12874
▁변화는	-12875
▁가고시마	-12876
▁School	-12877
먼드	-12878
문자	-12879
방은	-12880
푸르	-12881
▁개종	-12882
▁상장	-12883
▁점프	-12884
들과는	-12885
인구의	-12886
사용	-12887
▁사면	-12888
▁하부	-12889
▁구스타	-12890
▁1800	-12891
▁프랑스에	-12892
푸아	-12893
▁아야	-12894
▁오바	-12895
▁호의	-12896
▁정해진	-12897
▁받았지만	-12898
▁자유로운	-12899
▁등극	-12900
▁환상	-12901
▁얼굴을	-12902
▁주제를	-12903
▁추측된다	-12904
판매	-12905
ery	-12906
▁CJ	-12907
▁더욱이	-12908
▁구분된다	-12909
▁덤	-12910
▁만일	-12911
▁철회	-12912
▁수행할	-12913
▁영화가	-12914
▁르네상스	-12915
세트	-12916
연료	-12917
▁고산	-12918
▁규범	-12919
▁끝날	-12920
▁전라도	-12921
고려	-12922
수원	-12923
품의	-12924
▁괴롭	-12925
▁안성	-12926
▁콜린	-12927
재단	-12928
▁CH	-12929
▁응원	-12930
~200	-12931
▁데뷔한	-12932
▁시절의	-12933
▁주장하며	-12934
▁핀란드의	-12935
왕에	-12936
줬다	-12937
▁HT	-12938
▁석가	-12939
▁아담	-12940
▁넘어가	-12941
▁비판이	-12942
▁떨어졌다	-12943
업은	-12944
클로	-12945
▁다크	-12946
▁중산	-12947
▁공간이	-12948
▁무료로	-12949
▁아레나	-12950
▁위험을	-12951
▁제작을	-12952
▁자이언츠	-12953
AF	-12954
oth	-12955
▁그루	-12956
▁본부	-12957
▁신탁	-12958
▁심의	-12959
▁드물게	-12960
▁사고를	-12961
▁결정하였다	-12962
▁되지만	-12963
▁조약에	-12964
▁자신들이	-12965
▁프톨레마이	-12966
▁BC	-12967
▁하라	-12968
▁중반에	-12969
-9	-12970
▁동행	-12971
▁왕세	-12972
▁자선	-12973
▁남기고	-12974
공격	-12975
기계	-12976
길이	-12977
▁담아	-12978
▁미디	-12979
▁분당	-12980
▁우호	-12981
▁인산	-12982
▁입성	-12983
▁증거가	-12984
▁득표율을	-12985
▁프로덕션	-12986
▁해상에서	-12987
▁메소	-12988
▁양호	-12989
▁대가로	-12990
▁균형	-12991
글라데	-12992
▁발견하였다	-12993
대손	-12994
▁EC	-12995
▁헤라	-12996
▁길이의	-12997
▁담당했다	-12998
어스	-12999
집행	-13000
▁비주	-13001
품이	-13002
▁Ab	-13003
▁세금	-13004
▁목록에	-13005
(2002	-13006
▁1870	-13007
▁급제하여	-13008
▁카를로스	-13009
▁표현하는	-13010
▁해결하기	-13011
Sh	-13012
해주는	-13013
▁표면에	-13014
페테르부르크	-13015
량과	-13016
chn	-13017
▁백색	-13018
▁즐겨	-13019
▁충남	-13020
▁목소리를	-13021
▁맞은	-13022
▁불명	-13023
▁우르	-13024
▁커널	-13025
▁6.25	-13026
▁쥬	-13027
▁신선	-13028
▁표방	-13029
▁방문한	-13030
▁소말	-13031
군이다	-13032
ouse	-13033
▁기존에	-13034
▁유래된	-13035
▁지진이	-13036
셈부르크	-13037
▁실전	-13038
▁호조	-13039
▁음악은	-13040
▁CF	-13041
▁공익	-13042
▁빛이	-13043
마스터	-13044
▁수익을	-13045
▁압력을	-13046
▁전력을	-13047
▁시칠리아	-13048
▁예정이었으나	-13049
▁두께	-13050
▁장군이	-13051
▁접하며	-13052
▁보호하기	-13053
▁승강장이	-13054
▁왈	-13055
키와	-13056
▁Of	-13057
▁북위	-13058
▁포병	-13059
▁기회가	-13060
▁성능을	-13061
▁진행되는	-13062
▁한나라당	-13063
화이다	-13064
▁차이로	-13065
▁아버지인	-13066
내며	-13067
▁CN	-13068
▁연상	-13069
▁자국	-13070
▁죽이	-13071
▁케빈	-13072
▁교육과	-13073
▁블루스	-13074
▁할아버지	-13075
▁$	-13076
각은	-13077
기니	-13078
▁놀이	-13079
▁Ass	-13080
▁그다지	-13081
(0	-13082
▁콰	-13083
탄의	-13084
▁손꼽	-13085
층으로	-13086
▁도시에	-13087
▁성공회	-13088
▁설립되었으며	-13089
두를	-13090
테크	-13091
▁규격	-13092
▁꼭대	-13093
▁신부	-13094
▁문자를	-13095
▁미래의	-13096
▁일대를	-13097
▁회사인	-13098
▁근무했다	-13099
▁스케이팅	-13100
▁차지하며	-13101
GM	-13102
▁감안	-13103
▁시는	-13104
▁퀘벡	-13105
▁제국에	-13106
▁진나라	-13107
▁맵	-13108
갈색	-13109
것도	-13110
루냐	-13111
▁Ro	-13112
▁으로	-13113
렸다고	-13114
소이다	-13115
▁레스토	-13116
▁일대에	-13117
▁지냈고	-13118
거를	-13119
잡이	-13120
통제	-13121
▁밝힌	-13122
시키지	-13123
inal	-13124
▁시대부터	-13125
▁알려져있다	-13126
Mic	-13127
orm	-13128
▁71	-13129
▁산출	-13130
▁서초	-13131
▁선이	-13132
불교의	-13133
▁접근할	-13134
▁게임에서	-13135
비서	-13136
▁대가	-13137
▁동생인	-13138
▁북아프리카	-13139
레스의	-13140
타이드	-13141
▁어드벤처	-13142
위인	-13143
탈리아	-13144
▁이스라엘의	-13145
발이	-13146
보수	-13147
술의	-13148
▁물어	-13149
▁수에	-13150
▁공부를	-13151
▁동안의	-13152
▁범위를	-13153
▁학생들은	-13154
▁몫	-13155
ino	-13156
▁루터	-13157
▁정도를	-13158
▁아르헨티나의	-13159
Re	-13160
금지	-13161
인터	-13162
▁각자	-13163
▁리오	-13164
▁횡단	-13165
▁단계에서	-13166
▁문화방송	-13167
▁안으로	-13168
▁언어는	-13169
▁마을에서	-13170
강전	-13171
▁오비	-13172
주의가	-13173
▁점령한	-13174
▁존재할	-13175
alpha	-13176
▁토너먼트	-13177
라톱	-13178
▁79	-13179
▁둥글	-13180
▁필드	-13181
스카르	-13182
▁1.2	-13183
!!	-13184
교에	-13185
친구	-13186
col	-13187
▁물의	-13188
▁자의	-13189
▁단어를	-13190
▁대전이	-13191
▁프란츠	-13192
운을	-13193
집에	-13194
▁나은	-13195
▁유연	-13196
▁헌정	-13197
는지는	-13198
▁그곳에	-13199
▁두개골	-13200
▁문서를	-13201
▁밝히고	-13202
▁코드를	-13203
현과	-13204
▁84	-13205
프레스	-13206
▁작용을	-13207
▁결혼하여	-13208
땃쥐	-13209
레가	-13210
상규	-13211
증의	-13212
▁거북	-13213
▁브란	-13214
▁에콰	-13215
▁적지	-13216
▁문화가	-13217
▁소비자	-13218
▁운영을	-13219
두에	-13220
믹스	-13221
▁곳의	-13222
▁동국	-13223
▁유년	-13224
orea	-13225
▁뮤지션	-13226
▁중점을	-13227
▁차례의	-13228
해온	-13229
▁직결	-13230
▁즉위한	-13231
보통학교	-13232
하로	-13233
▁JT	-13234
▁북구	-13235
▁유산	-13236
▁피로	-13237
▁바르샤	-13238
▁기독교의	-13239
▁킬로미터	-13240
▁고등학교를	-13241
신도	-13242
음반	-13243
허가	-13244
KBS	-13245
▁문예	-13246
▁선종	-13247
▁자를	-13248
▁포드	-13249
▁선수들을	-13250
두로	-13251
지리	-13252
▁때인	-13253
▁재미	-13254
▁저렴	-13255
▁병으로	-13256
▁재능을	-13257
▁마찬가지	-13258
▁페르디난	-13259
▁평가했다	-13260
▁극동	-13261
▁노태	-13262
▁퇴적	-13263
회의원	-13264
▁수준으로	-13265
▁정의한다	-13266
ren	-13267
▁강연	-13268
▁맥도	-13269
▁점에	-13270
사업을	-13271
▁결정된다	-13272
▁사랑하는	-13273
▁사망자가	-13274
노리	-13275
홀름	-13276
▁선배	-13277
▁실망	-13278
▁있음	-13279
▁환자의	-13280
▁아라비아	-13281
버스터미널	-13282
약한	-13283
컨대	-13284
▁민병	-13285
▁표지	-13286
공무원	-13287
▁교육의	-13288
▁역임하고	-13289
▁실질적으로	-13290
▁기증	-13291
▁꽃은	-13292
▁대안	-13293
▁발병	-13294
▁잡혀	-13295
▁기준을	-13296
▁음반에	-13297
▁파리의	-13298
▁내용으로	-13299
▁방글라데	-13300
▁가나가와현	-13301
생명	-13302
▁테레	-13303
omys	-13304
▁소송을	-13305
▁잡아먹	-13306
▁진행하고	-13307
SC	-13308
▁쿤	-13309
팀을	-13310
▁알을	-13311
터미널	-13312
▁바오로	-13313
▁서비스는	-13314
브르	-13315
▁걱정	-13316
▁성사	-13317
▁인상을	-13318
aur	-13319
▁무의	-13320
▁입각	-13321
▁말까지	-13322
소타	-13323
▁수련	-13324
▁중복	-13325
▁105	-13326
▁취하고	-13327
▁파일을	-13328
전시	-13329
주간	-13330
▁극대	-13331
▁더해	-13332
▁맞붙	-13333
▁별은	-13334
▁실패한	-13335
▁서비스가	-13336
해로	-13337
▁병역	-13338
▁하남	-13339
▁밖에도	-13340
▁사람도	-13341
▁형성하고	-13342
▁데뷔하였고	-13343
▁출판되었다	-13344
마로	-13345
막을	-13346
▁정말	-13347
▁카나	-13348
▁섬으로	-13349
▁역사의	-13350
lex	-13351
▁건설을	-13352
▁산하에	-13353
▁일렉트로	-13354
들여	-13355
왕조	-13356
▁도입된	-13357
▁아마존	-13358
개와	-13359
집단	-13360
▁전동	-13361
▁주체	-13362
▁협정	-13363
▁때에도	-13364
거의	-13365
▁높게	-13366
▁조립	-13367
▁지녔	-13368
▁편에	-13369
▁실시한	-13370
▁은퇴했다	-13371
▁이루어지는	-13372
▁틸	-13373
기게	-13374
돌을	-13375
행동	-13376
▁러셀	-13377
▁대회가	-13378
▁도카이	-13379
▁드라이브	-13380
▁러시아는	-13381
▁방송되었던	-13382
▁붐	-13383
위성	-13384
준의	-13385
ull	-13386
▁결론을	-13387
▁효과적으로	-13388
쪽은	-13389
▁대치	-13390
▁자오	-13391
▁900	-13392
▁이내에	-13393
▁작업에	-13394
▁하원의	-13395
▁애칭	-13396
나가는	-13397
브리아	-13398
ific	-13399
▁전반에	-13400
루와	-13401
▁김규	-13402
▁모은	-13403
▁나타낸	-13404
▁온도가	-13405
▁현재에	-13406
▁위치하는	-13407
융합	-13408
▁국군	-13409
법이다	-13410
▁30%	-13411
▁갱신	-13412
▁걸린	-13413
▁고래	-13414
▁연꽃	-13415
▁Rec	-13416
▁광저우	-13417
▁물러나	-13418
▁소나타	-13419
▁비밀리에	-13420
▁포켓몬스터	-13421
▁부채	-13422
▁일체	-13423
(2010	-13424
철은	-13425
▁검출	-13426
▁옵션	-13427
▁환영	-13428
▁대표적	-13429
▁발언을	-13430
▁조정에	-13431
년생	-13432
사고	-13433
양성	-13434
티넘	-13435
▁신축	-13436
▁체류	-13437
관계가	-13438
년대와	-13439
▁지키는	-13440
▁나중에는	-13441
▁드라이버	-13442
▁편지	-13443
▁포장	-13444
▁야마토	-13445
▁의미는	-13446
위기	-13447
ara	-13448
▁성종	-13449
▁주오	-13450
▁초신	-13451
▁뉴욕의	-13452
▁레슬링	-13453
▁연세대학교	-13454
여자고등학교	-13455
냐는	-13456
▁대교	-13457
▁무상	-13458
▁주사	-13459
▁패널	-13460
▁한인	-13461
▁계획이다	-13462
▁공개했다	-13463
▁그렇지만	-13464
▁볼리비아	-13465
▁시스템에	-13466
▁시뮬레이션	-13467
네마	-13468
노에	-13469
량에	-13470
▁특집	-13471
▁퍼포	-13472
되도록	-13473
▁베드로	-13474
▁하에서	-13475
위원회를	-13476
나오	-13477
▁성숙	-13478
▁영지	-13479
▁오지	-13480
▁워터	-13481
근이	-13482
시게	-13483
▁유권	-13484
▁무조건	-13485
▁새겨진	-13486
▁중앙아시아	-13487
바둑	-13488
토모	-13489
풍이	-13490
▁사범	-13491
▁이차	-13492
스트에	-13493
▁경제의	-13494
▁쓰시마	-13495
▁음악적	-13496
▁진행했다	-13497
▁취임했다	-13498
▁평가된다	-13499
다드	-13500
▁권총	-13501
▁배상	-13502
▁이소	-13503
▁당연히	-13504
▁몸길이는	-13505
세르	-13506
표가	-13507
▁달이	-13508
▁중종	-13509
▁KIA	-13510
▁경제는	-13511
▁기초로	-13512
▁버전을	-13513
▁소설가	-13514
▁일어났	-13515
▁있거나	-13516
▁포스터	-13517
▁둘러싸여	-13518
▁이루어지지	-13519
MB	-13520
TO	-13521
디를	-13522
왕과	-13523
▁보헤	-13524
▁정무	-13525
로맨스	-13526
▁그려진	-13527
▁설명할	-13528
▁일본국	-13529
▁하이드	-13530
▁프랑스가	-13531
▁후임으로	-13532
츠크	-13533
Pro	-13534
▁기숙	-13535
▁화강	-13536
루에서	-13537
▁영향이	-13538
▁최소한	-13539
서구	-13540
▁중일	-13541
했음을	-13542
▁바이킹	-13543
▁작업이	-13544
▁룩셈부르크	-13545
본으로	-13546
▁유학을	-13547
▁이루며	-13548
▁크기를	-13549
들에게는	-13550
산리	-13551
신인	-13552
▁대명	-13553
▁쓰촨	-13554
▁원천	-13555
렸지만	-13556
▁CEO	-13557
▁Cor	-13558
▁문과에	-13559
▁부근에	-13560
▁불리고	-13561
▁한성부	-13562
▁기어	-13563
▁둔다	-13564
▁같은해	-13565
▁한국은	-13566
▁명명되었다	-13567
신학	-13568
▁세네	-13569
▁진공	-13570
았다고	-13571
▁없어서	-13572
▁원인을	-13573
▁평론가	-13574
▁기록으로	-13575
▁알렉산드르	-13576
해튼	-13577
▁낳은	-13578
▁대행	-13579
▁수비수	-13580
▁포로로	-13581
▁도시에서	-13582
▁연구에서	-13583
EG	-13584
대대	-13585
요의	-13586
우기	-13587
▁바빌	-13588
감으로	-13589
에미	-13590
▁아닐	-13591
▁의석	-13592
▁정치가	-13593
▁사용하면	-13594
거진	-13595
난성	-13596
당해	-13597
벽을	-13598
주지	-13599
▁안치	-13600
▁종로구	-13601
▁주어진다	-13602
▁대한민국과	-13603
바라키	-13604
▁범유행	-13605
▁캔자스	-13606
▁대통령과	-13607
▁뷔	-13608
▁판사	-13609
▁피겨	-13610
▁예선에서	-13611
감은	-13612
주어	-13613
arm	-13614
▁청원	-13615
▁치른	-13616
▁하시	-13617
▁대학생	-13618
▁별개의	-13619
▁어려서	-13620
▁쿠데타	-13621
▁미시시피	-13622
▁한국시리즈	-13623
추는	-13624
출판	-13625
▁김창	-13626
▁까닭	-13627
▁Res	-13628
▁말하면	-13629
▁본인이	-13630
▁상트페테르부르크	-13631
칼리	-13632
▁탐색	-13633
브리엘	-13634
▁안토니오	-13635
▁형성하는	-13636
▁얕	-13637
▁at	-13638
▁퇴역	-13639
ions	-13640
▁제치고	-13641
▁죽였다	-13642
▁청춘	-13643
명에서	-13644
▁설치하고	-13645
RI	-13646
만과	-13647
▁왕을	-13648
▁잔류	-13649
▁진지	-13650
▁충성	-13651
▁구단이	-13652
▁비용이	-13653
▁파란색	-13654
Sc	-13655
부리	-13656
올라	-13657
▁SU	-13658
▁개가	-13659
▁김지	-13660
▁품고	-13661
▁350	-13662
▁결정한다	-13663
일반	-13664
▁어둠	-13665
▁도요토미	-13666
▁불가능한	-13667
미트	-13668
불을	-13669
▁각색	-13670
▁두꺼	-13671
▁한층	-13672
운동의	-13673
▁아열대	-13674
▁위험이	-13675
▁카스티	-13676
트로이트	-13677
▁프로레슬링	-13678
amb	-13679
웨이트	-13680
테이션	-13681
▁기반한	-13682
▁사쿠라	-13683
▁산업의	-13684
▁개인적인	-13685
▁때문이라고	-13686
Ad	-13687
국사	-13688
준비	-13689
▁싸워	-13690
▁알지	-13691
▁나란히	-13692
▁야마가타	-13693
▁오사카부	-13694
▁랴	-13695
질러	-13696
.10	-13697
아버지	-13698
으로부터의	-13699
▁2:	-13700
▁불꽃	-13701
▁수장	-13702
▁키워	-13703
▁바티칸	-13704
조한	-13705
▁그후	-13706
▁바나	-13707
▁중장	-13708
▁키스	-13709
▁103	-13710
▁쌍둥이	-13711
기자	-13712
▁무슨	-13713
▁볼로	-13714
▁빈번	-13715
▁고유의	-13716
▁국립공	-13717
▁아나키	-13718
렉션	-13719
pro	-13720
▁GS	-13721
▁세례	-13722
▁용병	-13723
▁승무원	-13724
▁Christ	-13725
역학	-13726
▁자아	-13727
▁1,0	-13728
▁확실한	-13729
▁고구려의	-13730
▁그레이트	-13731
▁지나면서	-13732
▁금성	-13733
▁곡들은	-13734
▁국제적	-13735
▁세포의	-13736
▁행동에	-13737
▁보도했다	-13738
▁함부르크	-13739
루에	-13740
~10	-13741
▁죽어	-13742
▁파벌	-13743
심에서	-13744
무로	-13745
벨라	-13746
아마	-13747
팀에	-13748
▁성서	-13749
▁시노	-13750
▁얼음	-13751
▁이때부터	-13752
▁클라이언	-13753
모든	-13754
미한	-13755
양함	-13756
쿠버	-13757
▁가옥	-13758
▁다테	-13759
▁안테	-13760
▁원더	-13761
▁경기로	-13762
▁지역구의	-13763
받게	-13764
산동	-13765
▁고트	-13766
▁보내고	-13767
▁제한된	-13768
라리	-13769
▁선비	-13770
▁득표율	-13771
▁삿포로	-13772
▁암호화	-13773
▁에디션	-13774
▁1883	-13775
았기	-13776
▁가려	-13777
▁길에	-13778
▁적다	-13779
▁오피스	-13780
▁태양을	-13781
▁받았다고	-13782
▁중화민국의	-13783
▁중서	-13784
▁지옥	-13785
▁건축가	-13786
▁빨간색	-13787
▁드러났다	-13788
Ge	-13789
▁구의	-13790
▁번에	-13791
▁이병	-13792
▁종착	-13793
동이다	-13794
선수권	-13795
▁각본가	-13796
▁교회는	-13797
▁왕국은	-13798
▁트리플	-13799
다를	-13800
혹한	-13801
ony	-13802
▁음모	-13803
▁이북	-13804
▁코코	-13805
▁헬리	-13806
시인	-13807
.15	-13808
▁그릇	-13809
▁주장에	-13810
▁대표적으로	-13811
▁크리스티안	-13812
마크	-13813
왔던	-13814
하늘	-13815
▁깨끗	-13816
▁조조	-13817
▁청소	-13818
▁가로지	-13819
▁게이지	-13820
▁매카트	-13821
▁무함마	-13822
▁시즌에서	-13823
▁눌	-13824
▁솜	-13825
궁의	-13826
부산	-13827
▁92	-13828
▁be	-13829
▁거뒀	-13830
▁시립	-13831
▁장비를	-13832
기나	-13833
urg	-13834
▁온대	-13835
▁이란의	-13836
▁지도를	-13837
▁쳐들어	-13838
▁공격하여	-13839
나서	-13840
발로	-13841
운다	-13842
키를	-13843
▁돌입	-13844
▁미들	-13845
들보다	-13846
▁모티브	-13847
▁뱅	-13848
후쿠	-13849
▁벌금	-13850
▁보게	-13851
▁북방	-13852
▁히타	-13853
층에서	-13854
▁니콜라이	-13855
숙종	-13856
법에서	-13857
월에서	-13858
▁제목은	-13859
▁올림픽의	-13860
▁인터페이	-13861
▁포기하고	-13862
상도	-13863
▁가볍	-13864
▁감마	-13865
▁마야	-13866
▁지위	-13867
▁투르	-13868
▁내려가	-13869
▁1888	-13870
퍼는	-13871
▁리만	-13872
▁수성	-13873
▁콜라	-13874
▁튀니	-13875
▁혐의	-13876
▁호출	-13877
계약을	-13878
▁생물학적	-13879
▁프로젝트는	-13880
내지	-13881
르며	-13882
▁로맨	-13883
레이크	-13884
정책을	-13885
▁새로이	-13886
적으로도	-13887
▁Your	-13888
▁사용되지	-13889
▁입장에서	-13890
▁시작하면서	-13891
▁스코틀랜드의	-13892
링은	-13893
인권	-13894
티시	-13895
▁가동	-13896
▁드는	-13897
▁사관	-13898
▁사정	-13899
▁아소	-13900
▁임관	-13901
▁가정에서	-13902
▁or	-13903
▁넘게	-13904
▁본명	-13905
▁압둘	-13906
▁통영	-13907
행위를	-13908
▁위원회의	-13909
빈은	-13910
alk	-13911
erm	-13912
▁견제	-13913
▁왜곡	-13914
▁종족	-13915
▁확신	-13916
▁것인지	-13917
▁고향인	-13918
머는	-13919
변에	-13920
전차	-13921
▁퇴임	-13922
경찰서	-13923
▁기업인	-13924
▁여성은	-13925
▁자료가	-13926
▁Life	-13927
루아	-13928
▁충실	-13929
▁다카라	-13930
▁의원을	-13931
▁평화를	-13932
▁타이베이	-13933
나시	-13934
-201	-13935
ield	-13936
▁공격수	-13937
▁예수의	-13938
일자	-13939
평론	-13940
ett	-13941
▁대책	-13942
▁여우	-13943
▁우승했다	-13944
▁콜로라도	-13945
▁디트로이트	-13946
티가	-13947
▁간신	-13948
▁섬을	-13949
▁커리	-13950
▁태극	-13951
▁테르	-13952
▁80%	-13953
▁정치를	-13954
▁정치에	-13955
▁중대한	-13956
OU	-13957
링턴	-13958
제학	-13959
▁현악	-13960
▁격렬한	-13961
▁연결되는	-13962
▁개통되었다	-13963
AI	-13964
봉사	-13965
환은	-13966
▁김민	-13967
▁발칸	-13968
▁작가의	-13969
▁정권의	-13970
▁허가를	-13971
▁점령하고	-13972
▁페이스북	-13973
드릭	-13974
브스	-13975
▁과일	-13976
▁피의	-13977
▁레인저	-13978
▁정당은	-13979
▁작가이다	-13980
▁아이스하키	-13981
효과	-13982
▁스태	-13983
▁윤리	-13984
▁국왕의	-13985
▁마르코	-13986
▁전하는	-13987
▁1882	-13988
▁1893	-13989
▁대응하는	-13990
▁최대풍속	-13991
단지	-13992
▁기회	-13993
▁남게	-13994
판에서	-13995
▁휘하의	-13996
▁부드러운	-13997
▁해당된다	-13998
롭고	-13999
타스	-14000
isc	-14001
▁83	-14002
▁명사	-14003
▁입을	-14004
▁전지	-14005
▁지수	-14006
▁창출	-14007
받았고	-14008
▁분리된	-14009
?)	-14010
▁감리	-14011
▁생체	-14012
▁이씨	-14013
▁추첨	-14014
호선과	-14015
▁건설된	-14016
▁사이토	-14017
▁나섰	-14018
▁세상	-14019
▁없었	-14020
▁경기의	-14021
▁영국에	-14022
▁슬로베니아	-14023
▁z	-14024
국적	-14025
▁값이	-14026
▁고사	-14027
▁불상	-14028
▁폭로	-14029
▁현금	-14030
되어있다	-14031
▁수료	-14032
▁해고	-14033
▁도널드	-14034
▁재판을	-14035
▁프란체	-14036
코타	-14037
▁건륭	-14038
▁교리	-14039
▁하차	-14040
품으로	-14041
▁물건을	-14042
erson	-14043
EM	-14044
▁겁	-14045
elf	-14046
▁AD	-14047
▁강희	-14048
▁냄새	-14049
▁모양이	-14050
▁점수를	-14051
▁혁명의	-14052
▁International	-14053
강은	-14054
아과	-14055
쿠니	-14056
혹은	-14057
환이	-14058
▁응시	-14059
▁이데	-14060
▁뉴저지	-14061
▁보다는	-14062
▁스페이스	-14063
▁출신이며	-14064
(9	-14065
절이	-14066
its	-14067
▁맺은	-14068
▁선도	-14069
▁호응	-14070
▁센다이	-14071
▁외에는	-14072
▁Night	-14073
▁비판하였다	-14074
▁프로젝트의	-14075
▁상인	-14076
▁시공	-14077
▁관련해	-14078
▁엑스박스	-14079
EX	-14080
루이스	-14081
▁War	-14082
▁경찰의	-14083
▁이곳을	-14084
▁그로부터	-14085
▁레스토랑	-14086
▁발견되어	-14087
가요	-14088
린을	-14089
점인	-14090
▁유라	-14091
▁가사를	-14092
▁딸이다	-14093
▁절차를	-14094
▁John	-14095
▁요청했다	-14096
▁의미하며	-14097
아야	-14098
▁Br	-14099
▁달걀	-14100
▁로그	-14101
▁무실	-14102
▁절단	-14103
▁프론	-14104
▁함수의	-14105
▁불가능하다	-14106
노르	-14107
▁Mc	-14108
▁원을	-14109
▁회수	-14110
우리는	-14111
지금의	-14112
클레오	-14113
▁끌었다	-14114
▁대체되었다	-14115
▁킥	-14116
나에	-14117
▁공과	-14118
▁루시	-14119
▁무지	-14120
▁보드	-14121
▁도입하였다	-14122
무가	-14123
▁슈타	-14124
▁앞면	-14125
▁서울대	-14126
▁선택할	-14127
▁아키타	-14128
▁동일하다	-14129
▁종교개혁	-14130
▁등장하였다	-14131
번지	-14132
▁선출된	-14133
▁지나는	-14134
커가	-14135
-23	-14136
▁견인	-14137
▁마오쩌	-14138
▁벼슬을	-14139
▁토지를	-14140
시켰으며	-14141
▁대학교를	-14142
-13	-14143
.12	-14144
~15	-14145
▁군이	-14146
▁등용	-14147
▁기간은	-14148
▁학문을	-14149
▁System	-14150
▁지정되었다가	-14151
건축	-14152
▁쪽은	-14153
▁카사	-14154
▁계약이	-14155
▁도시철도	-14156
▁만족시키는	-14157
행의	-14158
▁김홍	-14159
▁법의	-14160
▁지름	-14161
▁충전	-14162
▁콘솔	-14163
번으로	-14164
avid	-14165
▁여파로	-14166
▁연고지로	-14167
▁93	-14168
▁Do	-14169
▁만세	-14170
▁사간	-14171
▁상세	-14172
▁팔레스타인	-14173
살의	-14174
월호	-14175
▁급성	-14176
▁민영	-14177
▁쌓은	-14178
▁해의	-14179
▁비율로	-14180
▁진출한	-14181
▁유지하기	-14182
현대	-14183
▁아날	-14184
▁음료	-14185
▁주위	-14186
▁직장	-14187
▁규정에	-14188
▁무대로	-14189
ari	-14190
▁Su	-14191
▁농림	-14192
▁모용	-14193
▁세비	-14194
▁영등	-14195
▁세력의	-14196
▁태국의	-14197
▁조선로동당	-14198
부상	-14199
주자	-14200
티드	-14201
ave	-14202
▁몸의	-14203
▁줄여	-14204
▁중공	-14205
▁소재지는	-14206
▁적용되었다	-14207
내가	-14208
▁(2	-14209
▁넓게	-14210
되므로	-14211
ille	-14212
▁가문은	-14213
▁경상도	-14214
▁지구에	-14215
▁오케스트	-14216
▁간토	-14217
▁대두	-14218
▁주머니	-14219
▁오케스트라	-14220
▁엮	-14221
▁Ap	-14222
▁서포	-14223
▁칼뱅	-14224
▁교회를	-14225
▁서울의	-14226
▁조직이	-14227
▁1892	-14228
루수	-14229
이한	-14230
▁경향을	-14231
▁자세히	-14232
▁김병	-14233
기록을	-14234
▁뒤이어	-14235
▁산하의	-14236
▁헌법에	-14237
▁공격으로	-14238
▁그레고리오	-14239
▁잘라	-14240
▁탐구	-14241
▁아름답	-14242
▁정치적인	-14243
▁캉	-14244
공연	-14245
애틀	-14246
원인	-14247
▁남구	-14248
끄러운	-14249
▁경로를	-14250
▁아니라는	-14251
▁증가하고	-14252
심히	-14253
▁위와	-14254
▁유의	-14255
▁차용	-14256
▁보여준	-14257
▁스즈키	-14258
▁조선에	-14259
▁분위기를	-14260
▁학생들의	-14261
▁기록되었다	-14262
교와	-14263
▁IM	-14264
▁부설	-14265
▁양육	-14266
▁이천	-14267
▁시장의	-14268
▁해마다	-14269
도스	-14270
본의	-14271
▁Sm	-14272
▁수색	-14273
▁자칭	-14274
▁파인	-14275
누스의	-14276
ange	-14277
▁경계로	-14278
▁도왔다	-14279
▁정차한다	-14280
슬레	-14281
▁돌출	-14282
▁들을	-14283
▁숨어	-14284
▁요새를	-14285
▁개념으로	-14286
▁야마구치	-14287
▁이를테면	-14288
생은	-14289
영과	-14290
사들이	-14291
▁상황은	-14292
▁인간을	-14293
▁질문에	-14294
)(	-14295
인당	-14296
킨스	-14297
▁배가	-14298
▁상표	-14299
▁소통	-14300
스트가	-14301
▁붙여진	-14302
▁소리가	-14303
▁순위를	-14304
보니	-14305
빈의	-14306
화할	-14307
▁가솔	-14308
▁니코	-14309
▁당주	-14310
▁병을	-14311
▁선로	-14312
▁경찰이	-14313
▁명이다	-14314
▁위원장	-14315
대학교의	-14316
맥스	-14317
심은	-14318
파리	-14319
▁없던	-14320
▁체인	-14321
▁플래티넘	-14322
▁{	-14323
신에	-14324
▁6,	-14325
▁SD	-14326
▁미션	-14327
▁사서	-14328
▁상담	-14329
▁회피	-14330
크리트	-14331
▁똑같은	-14332
▁예이다	-14333
▁저작권	-14334
▁강점기의	-14335
▁사람들과	-14336
▁신조	-14337
▁약혼	-14338
당하는	-14339
▁가지의	-14340
▁시대가	-14341
▁주어졌다고	-14342
▁포스트시즌	-14343
▁station	-14344
시청	-14345
폭탄	-14346
▁제니	-14347
루시아	-14348
지역에	-14349
▁가깝다	-14350
▁그러다가	-14351
▁시리즈에	-14352
너가	-14353
메가	-14354
▁GP	-14355
▁공습	-14356
▁로버	-14357
▁리베	-14358
▁보라	-14359
▁스테이	-14360
▁임명된	-14361
▁종목은	-14362
▁발생하여	-14363
▁씌	-14364
운이	-14365
▁미친	-14366
▁로마에	-14367
▁비행기	-14368
▁임명되었고	-14369
오나	-14370
▁방법에	-14371
▁진행하는	-14372
리얼	-14373
치노	-14374
▁백화	-14375
▁산의	-14376
▁재편	-14377
우스가	-14378
하기는	-14379
▁섬이다	-14380
▁케네디	-14381
▁토리노	-14382
법인이다	-14383
▁방송되는	-14384
▁정의된다	-14385
▁Music	-14386
Cl	-14387
_12	-14388
air	-14389
▁맞대	-14390
단했다	-14391
주머니	-14392
▁뒤에도	-14393
▁드래프트에서	-14394
▁라오	-14395
▁소모	-14396
▁실버	-14397
업으로	-14398
▁볼셰비	-14399
▁사업에	-14400
▁음반이	-14401
▁출판된	-14402
▁설치하여	-14403
▁취임하였다	-14404
▁말미	-14405
▁모인	-14406
▁조화	-14407
▁미야기	-14408
▁사랑에	-14409
▁아이폰	-14410
대한민국	-14411
merican	-14412
인칭	-14413
Com	-14414
▁발각	-14415
▁압력	-14416
▁컴백	-14417
▁사카이	-14418
▁엔진이	-14419
▁동참	-14420
▁형상	-14421
이었을	-14422
▁어렸을	-14423
En	-14424
▁경연	-14425
▁비영	-14426
▁시종	-14427
▁치안	-14428
▁파나	-14429
전이다	-14430
▁Art	-14431
▁열린다	-14432
▁이해할	-14433
▁질량이	-14434
▁실시하고	-14435
체계	-14436
▁쓰레	-14437
▁전날	-14438
▁퍼포먼	-14439
년대까지	-14440
▁Time	-14441
▁로마에서	-14442
▁룰	-14443
▁서적	-14444
▁수녀	-14445
▁그룹에	-14446
▁지구를	-14447
▁청주시	-14448
▁거부하고	-14449
▁시즌부터	-14450
▁유래했다	-14451
▁우크라이나의	-14452
▁다비	-14453
▁터보	-14454
▁NGC	-14455
▁가지로	-14456
▁대도시	-14457
▁메달을	-14458
▁문화와	-14459
▁시간의	-14460
▁아돌프	-14461
▁여성을	-14462
법률	-14463
600	-14464
▁국어	-14465
▁세조	-14466
▁연합군	-14467
▁변경했다	-14468
▁독립운동가	-14469
CAF	-14470
▁들려	-14471
▁입헌	-14472
▁짐작	-14473
▁휴전	-14474
기관의	-14475
▁완성된	-14476
▁장애인	-14477
▁시작하였으며	-14478
▁커뮤니케이션	-14479
▁ID	-14480
▁군청	-14481
▁사바	-14482
▁오크	-14483
▁진실	-14484
▁태자	-14485
지었다	-14486
키아의	-14487
▁1.0	-14488
▁1848	-14489
▁개념이다	-14490
카에	-14491
▁만료	-14492
▁실력	-14493
▁연봉	-14494
▁정립	-14495
▁가져온	-14496
▁모니터	-14497
▁정기적으로	-14498
▁꿀	-14499
운의	-14500
rag	-14501
▁개를	-14502
▁믿는	-14503
▁집결	-14504
▁탁월	-14505
▁궤도를	-14506
▁이상한	-14507
▁토너먼	-14508
급을	-14509
전략	-14510
트레	-14511
함수	-14512
▁데모	-14513
▁브랜	-14514
▁크롬	-14515
▁하비	-14516
▁가격이	-14517
▁더이상	-14518
▁동유럽	-14519
▁마다가	-14520
▁묘사한	-14521
▁클라우드	-14522
▁우즈베키스탄	-14523
히트	-14524
▁공손	-14525
▁무궁	-14526
▁싸우는	-14527
(2006	-14528
▁도착했다	-14529
▁밭	-14530
러드	-14531
로프	-14532
lor	-14533
▁꽃이	-14534
▁균형을	-14535
▁리더십	-14536
▁선발로	-14537
▁청와대	-14538
▁구해	-14539
▁글자	-14540
▁이닝	-14541
▁포착	-14542
▁함대	-14543
▁헬륨	-14544
▁자랐다	-14545
▁장군은	-14546
▁가네	-14547
▁불태	-14548
▁신정	-14549
▁요약	-14550
▁안전한	-14551
▁Rock	-14552
▁디자인은	-14553
▁승강장을	-14554
▁제기되었다	-14555
상업	-14556
▁곡선	-14557
▁시험을	-14558
▁웨스턴	-14559
학자이자	-14560
▁Fran	-14561
▁거부했다	-14562
인산	-14563
▁메릴	-14564
▁저하	-14565
▁건축물	-14566
▁목록을	-14567
▁흔적이	-14568
▁스타리그	-14569
진보	-14570
컴퓨	-14571
황이	-14572
▁긴장	-14573
▁문인	-14574
▁분출	-14575
▁아유	-14576
▁맨해튼	-14577
▁바꾸는	-14578
▁방사성	-14579
▁나타내고	-14580
▁일어나고	-14581
▁경기장이다	-14582
▁플레이어가	-14583
▁아리스토텔레	-14584
▁뾰	-14585
▁킴	-14586
씨로	-14587
▁끌고	-14588
▁이장	-14589
▁0.0	-14590
▁애비뉴	-14591
락이	-14592
병은	-14593
▁과반	-14594
▁안나	-14595
▁캐서	-14596
▁말부터	-14597
설에	-14598
▁손실	-14599
▁앞장	-14600
▁지평	-14601
▁판정	-14602
▁물질이	-14603
▁비하여	-14604
▁유럽과	-14605
▁건축물이다	-14606
야에	-14607
체고	-14608
▁7,	-14609
▁투명	-14610
▁리그인	-14611
▁것입니다	-14612
▁워크	-14613
▁자크	-14614
▁정유	-14615
▁htt	-14616
▁동쪽의	-14617
▁모습은	-14618
▁수단으로	-14619
여우	-14620
집의	-14621
▁모나	-14622
▁from	-14623
▁체포되었다	-14624
법칙	-14625
트루	-14626
▁측에	-14627
▁뛰었다	-14628
▁서쪽의	-14629
▁숙청	-14630
▁이산	-14631
▁절차	-14632
▁지미	-14633
▁각국의	-14634
▁그룹이	-14635
▁기하여	-14636
▁활발히	-14637
▁올랐으며	-14638
▁피아니스트	-14639
▁해체되었다	-14640
모스	-14641
▁가오	-14642
▁우회	-14643
▁사전에	-14644
▁알리는	-14645
▁이라고	-14646
▁제도는	-14647
▁투수가	-14648
▁가르쳤다	-14649
mus	-14650
▁경작	-14651
▁반공	-14652
▁부재	-14653
▁기간이	-14654
▁북아일랜드	-14655
▁10,000	-14656
피가	-14657
형인	-14658
▁견해	-14659
▁공표	-14660
▁기단	-14661
▁나주	-14662
때문에	-14663
▁정권이	-14664
▁주연을	-14665
▁중국인	-14666
▁필리프	-14667
▁상관없이	-14668
RC	-14669
메드	-14670
발사	-14671
rat	-14672
▁국장	-14673
▁동문	-14674
▁투여	-14675
▁평정	-14676
에너지	-14677
▁데스크	-14678
▁붙었다	-14679
▁센고쿠	-14680
▁여우주연	-14681
▁상응	-14682
▁평평	-14683
차이나	-14684
▁갈등이	-14685
▁문제와	-14686
▁다이아몬드	-14687
런은	-14688
▁돌을	-14689
▁비치	-14690
▁저널	-14691
▁추종	-14692
▁역사와	-14693
▁장소로	-14694
▁푸에르	-14695
ience	-14696
▁미네소타	-14697
▁지도자로	-14698
▁엇	-14699
리니	-14700
쿠르	-14701
토와	-14702
거리가	-14703
▁분석을	-14704
▁지역인	-14705
▁이전까지	-14706
분과	-14707
▁le	-14708
▁가열	-14709
▁유동	-14710
▁즈음	-14711
▁하동	-14712
▁국가와	-14713
▁선수들	-14714
▁작성한	-14715
▁치열한	-14716
▁공격했다	-14717
▁학생들을	-14718
▁뻔	-14719
말에	-14720
서기	-14721
조부	-14722
▁타협	-14723
해졌고	-14724
▁2-0	-14725
▁프로그램인	-14726
관련	-14727
한이	-14728
▁관악	-14729
▁루카	-14730
▁종을	-14731
▁파이터	-14732
▁표현한	-14733
EA	-14734
El	-14735
▁앤더	-14736
▁이태	-14737
Fran	-14738
ited	-14739
▁들어올	-14740
▁모두를	-14741
▁부드럽	-14742
▁소련이	-14743
▁되었다는	-14744
네르	-14745
어족	-14746
▁굵은	-14747
▁명목	-14748
▁뽑아	-14749
티미터	-14750
티아의	-14751
▁막부의	-14752
▁선생의	-14753
▁열차를	-14754
▁1600	-14755
▁1868	-14756
ean	-14757
▁EU	-14758
▁IN	-14759
▁감수	-14760
▁국유	-14761
▁석탑	-14762
▁원조	-14763
▁부대가	-14764
▁전략을	-14765
▁주위에	-14766
▁컨트리	-14767
▁섀	-14768
▁쾰	-14769
망에	-14770
야스	-14771
▁윤보	-14772
▁가족을	-14773
▁남성의	-14774
▁소문이	-14775
▁송나라	-14776
세기까지	-14777
▁동일하게	-14778
▁낫	-14779
▁AN	-14780
▁가자	-14781
▁바흐	-14782
▁그룹을	-14783
▁독일에	-14784
메다	-14785
작인	-14786
찬을	-14787
취를	-14788
▁드레	-14789
▁이룩	-14790
▁통용	-14791
▁해명	-14792
위원을	-14793
▁세워져	-14794
▁제시한	-14795
▁중국은	-14796
▁인정하는	-14797
변의	-14798
염을	-14799
▁마녀	-14800
▁영유	-14801
▁펑크	-14802
▁Par	-14803
▁가상의	-14804
▁극심한	-14805
▁기관총	-14806
▁기여를	-14807
▁뉴욕주	-14808
▁사라진	-14809
▁자체의	-14810
▁미사일을	-14811
▁제주특별자치도	-14812
번이	-14813
ior	-14814
▁Gu	-14815
▁번성	-14816
▁석회	-14817
▁양을	-14818
▁타당	-14819
▁다이어	-14820
▁되었던	-14821
▁주위를	-14822
▁통합하여	-14823
RS	-14824
망의	-14825
▁Qu	-14826
▁늦게	-14827
▁파동	-14828
▁한해	-14829
년에도	-14830
▁나라는	-14831
▁세력은	-14832
▁시작할	-14833
▁가브리엘	-14834
▁연립	-14835
▁이송	-14836
▁결정에	-14837
▁꼽힌다	-14838
▁나오고	-14839
▁소련은	-14840
▁클레멘	-14841
▁각지에서	-14842
▁대중교통	-14843
▁영화제에서	-14844
▁때가	-14845
▁마가	-14846
▁불린	-14847
▁최성	-14848
▁히사	-14849
▁인류의	-14850
▁흐름을	-14851
덴부르크	-14852
▁GN	-14853
▁낙동	-14854
▁다를	-14855
▁빌라	-14856
▁천재	-14857
▁호프	-14858
▁오로지	-14859
▁고려하여	-14860
▁기본으로	-14861
들리	-14862
터키	-14863
aut	-14864
▁은메달	-14865
▁터키의	-14866
▁압도적인	-14867
능한	-14868
당인	-14869
▁늑대	-14870
▁동조	-14871
▁파산	-14872
▁폭행	-14873
▁피를	-14874
▁90%	-14875
▁마스크	-14876
▁수용할	-14877
▁슬라브	-14878
▁카드를	-14879
▁홍콩의	-14880
Wh	-14881
현실	-14882
▁예는	-14883
▁차를	-14884
▁높이가	-14885
▁동영상	-14886
▁통과하는	-14887
밀히	-14888
요를	-14889
히코	-14890
▁무척	-14891
▁스노	-14892
▁어뢰	-14893
▁황족	-14894
▁가족과	-14895
▁알프레	-14896
▁저기압	-14897
런의	-14898
표는	-14899
▁교양	-14900
▁양반	-14901
▁탄도	-14902
▁실력을	-14903
▁수행한다	-14904
▁카탈루냐	-14905
▁필요성을	-14906
▁델라	-14907
▁유가	-14908
▁아미타	-14909
▁개발했다	-14910
▁시즈오카	-14911
▁형성되어	-14912
▁케임브리지	-14913
▁헥	-14914
개에	-14915
지오	-14916
▁GO	-14917
▁위헌	-14918
▁시애틀	-14919
▁와일드	-14920
▁의사소	-14921
▁자기의	-14922
▁지방도	-14923
▁통일신라	-14924
Sp	-14925
형제	-14926
▁감싸	-14927
▁갑옷	-14928
▁터치	-14929
▁티켓	-14930
▁풍자	-14931
▁회상	-14932
▁흥미	-14933
▁신화의	-14934
▁벨기에의	-14935
▁병원에서	-14936
▁간선	-14937
▁겪고	-14938
▁곤란	-14939
▁주자	-14940
석에서	-14941
▁동부에	-14942
▁미치지	-14943
▁올리는	-14944
▁카르타	-14945
▁투수로	-14946
세기에는	-14947
▁이적하여	-14948
▁체코슬로바키아	-14949
▁으	-14950
직은	-14951
▁밀리	-14952
▁살려	-14953
▁세자	-14954
▁유진	-14955
▁토끼	-14956
선거구	-14957
▁붙였다	-14958
▁아스널	-14959
직의	-14960
ros	-14961
▁미상	-14962
▁선과	-14963
▁실존	-14964
밀하게	-14965
▁대신해	-14966
▁대표는	-14967
▁중심에	-14968
▁방문하여	-14969
▁고든	-14970
▁나를	-14971
▁레이더	-14972
▁일대의	-14973
▁운영되고	-14974
대군	-14975
중추	-14976
▁리보	-14977
▁마닐	-14978
▁모호	-14979
▁직할	-14980
팀으로	-14981
▁역사에서	-14982
▁효과적인	-14983
▁빔	-14984
리사	-14985
빌딩	-14986
▁기기	-14987
▁총장	-14988
왕후의	-14989
▁저널리	-14990
▁정책은	-14991
▁효고현	-14992
▁받으면서	-14993
▁듀얼	-14994
▁앞의	-14995
▁허위	-14996
여명의	-14997
터에서	-14998
▁교수를	-14999
▁불규칙	-15000
▁부르고뉴	-15001
▁옥스퍼드	-15002
▁일이었다	-15003
▁돌격	-15004
▁복용	-15005
▁히라	-15006
문화유산	-15007
▁살아있는	-15008
▁스타일을	-15009
▁사용하기도	-15010
림과	-15011
▁공천	-15012
▁권유	-15013
▁면허	-15014
▁연소	-15015
▁현행	-15016
▁본래의	-15017
▁증상이	-15018
▁고려시대	-15019
비오	-15020
원자	-15021
▁판매를	-15022
▁하루에	-15023
▁현재도	-15024
▁성적으로	-15025
▁용어이다	-15026
▁인디애나	-15027
훈을	-15028
▁다저	-15029
▁닫힌	-15030
▁독창	-15031
▁도입한	-15032
▁생산된	-15033
▁트로이	-15034
BI	-15035
▁노란	-15036
▁짧고	-15037
호선이	-15038
▁CBS	-15039
▁똑같이	-15040
▁반도체	-15041
▁왔으며	-15042
▁간격으로	-15043
▁대대적인	-15044
▁3)	-15045
▁온갖	-15046
▁회로	-15047
▁가을에	-15048
▁백제의	-15049
▁크라이	-15050
▁Girl	-15051
설은	-15052
▁발의	-15053
▁본인	-15054
▁부시	-15055
▁지장	-15056
들었다	-15057
스키는	-15058
양으로	-15059
▁따뜻한	-15060
▁인공지능	-15061
▁오늘날에는	-15062
누마	-15063
창한	-15064
▁LA	-15065
▁농경	-15066
▁동인	-15067
▁해저	-15068
▁오르는	-15069
▁위주로	-15070
▁집안의	-15071
▁콤팩트	-15072
▁선수로서	-15073
몽골	-15074
▁가환	-15075
▁군산	-15076
▁동위	-15077
▁배후	-15078
▁평을	-15079
직으로	-15080
▁스카우	-15081
▁요시노	-15082
▁이르렀	-15083
▁100%	-15084
▁1886	-15085
▁노이	-15086
▁콘테	-15087
▁내리는	-15088
▁작업은	-15089
▁여겨졌다	-15090
▁연기했다	-15091
디지	-15092
훈은	-15093
테리아	-15094
▁스트레	-15095
▁Tour	-15096
창군	-15097
▁연못	-15098
▁읽고	-15099
▁자생	-15100
▁조광	-15101
로이드	-15102
안에서	-15103
▁애리조	-15104
▁혁명을	-15105
▁지원하고	-15106
▁캐나다에서	-15107
돌은	-15108
요는	-15109
▁도네	-15110
▁세기	-15111
▁점수	-15112
바야시	-15113
▁누구나	-15114
▁유지했다	-15115
엔터테인먼	-15116
이야	-15117
▁다름	-15118
▁매매	-15119
▁비엔	-15120
▁상경	-15121
▁장미	-15122
▁태백	-15123
▁갈리아	-15124
▁일제의	-15125
▁관계없이	-15126
니오	-15127
▁토크	-15128
▁패전	-15129
사회의	-15130
over	-15131
▁사항을	-15132
▁외교관	-15133
▁샌드	-15134
▁원격	-15135
역까지	-15136
지지만	-15137
▁친일파	-15138
▁후지와라노	-15139
▁가늘	-15140
▁고토	-15141
▁발령	-15142
▁조류	-15143
▁체크	-15144
해야만	-15145
▁1891	-15146
▁발견되지	-15147
▁형성되었다	-15148
노래	-15149
_15	-15150
▁LP	-15151
▁땄다	-15152
▁배려	-15153
▁뾰족	-15154
▁민간인	-15155
▁올바른	-15156
▁창원시	-15157
▁부근에서	-15158
▁추구하는	-15159
▁딕	-15160
▁91	-15161
▁Pe	-15162
▁농장	-15163
▁카카	-15164
▁Bar	-15165
▁소나무	-15166
▁책이다	-15167
▁플래시	-15168
▁넷째	-15169
▁다마	-15170
▁이규	-15171
▁(16	-15172
▁구간의	-15173
▁연구와	-15174
▁중국을	-15175
▁생겨났다	-15176
▁아날로그	-15177
▁판매하는	-15178
날레	-15179
▁강동	-15180
▁고인	-15181
▁박람	-15182
▁박헌	-15183
▁불참	-15184
▁원숭	-15185
▁제퍼	-15186
메이지	-15187
▁건조한	-15188
▁생방송	-15189
▁수도를	-15190
▁통치를	-15191
▁내용이다	-15192
▁노선이다	-15193
산물	-15194
시카	-15195
편은	-15196
▁강에	-15197
▁궁궐	-15198
▁우측	-15199
▁한족	-15200
berg	-15201
▁다케다	-15202
▁인접해	-15203
▁차트에	-15204
▁하도록	-15205
졌기	-15206
▁맞고	-15207
▁춤을	-15208
▁쓰여진	-15209
▁선수단은	-15210
▁다카라즈카	-15211
보와	-15212
장로	-15213
▁김제	-15214
▁오류	-15215
▁원인으로	-15216
업체	-15217
제곱	-15218
집은	-15219
▁제의	-15220
▁하반	-15221
▁제도에	-15222
ein	-15223
▁목성	-15224
▁연인	-15225
▁입양	-15226
ular	-15227
▁떨어뜨	-15228
▁머리에	-15229
▁못하여	-15230
▁생성된	-15231
▁열차의	-15232
▁인간은	-15233
▁장르의	-15234
주의적인	-15235
▁1887	-15236
▁이전부터	-15237
▁At	-15238
▁광양	-15239
▁무작	-15240
▁작아	-15241
▁키가	-15242
iver	-15243
▁자란다	-15244
▁내에서는	-15245
RO	-15246
▁내정	-15247
▁유비	-15248
▁트렌	-15249
개월간	-15250
▁서식지는	-15251
▁한편으로	-15252
▁수록되었다	-15253
▁시즌에서는	-15254
~7	-15255
천사	-15256
행에	-15257
▁배속	-15258
▁얇은	-15259
▁오로	-15260
▁용암	-15261
▁즐길	-15262
▁공격해	-15263
▁유지할	-15264
▁나타나고	-15265
시킴	-15266
▁격투	-15267
▁별이	-15268
▁이방	-15269
▁물체의	-15270
▁바꾸고	-15271
▁청동기	-15272
▁치렀고	-15273
▁아랍에미	-15274
▁프로그램으로	-15275
_13	-15276
▁것일	-15277
▁결선	-15278
▁년간	-15279
▁논란을	-15280
▁소유한	-15281
▁시도를	-15282
▁원나라	-15283
▁총리는	-15284
▁발견하고	-15285
ations	-15286
▁전이	-15287
세이다	-15288
▁그렸다	-15289
▁레이싱	-15290
▁마을이	-15291
▁싸움을	-15292
/3	-15293
▁고소	-15294
▁바우	-15295
~201	-15296
▁Med	-15297
▁반응이	-15298
▁서부에	-15299
▁서울에	-15300
▁성향의	-15301
▁시간대	-15302
세다	-15303
▁난을	-15304
▁음향	-15305
▁장을	-15306
▁체르	-15307
▁후세	-15308
년경에	-15309
▁아무것도	-15310
의학	-15311
▁내무	-15312
▁링크	-15313
▁배수	-15314
▁유벤	-15315
▁은거	-15316
orth	-15317
▁면적의	-15318
▁수학적	-15319
▁의무를	-15320
▁종교의	-15321
▁표현할	-15322
▁노선으로	-15323
▁늘어났다	-15324
▁세종특별자치	-15325
▁El	-15326
▁리옹	-15327
▁음원	-15328
ella	-15329
▁도로를	-15330
▁수행했다	-15331
LC	-15332
▁맺어	-15333
▁스텔	-15334
▁치고	-15335
▁패럴	-15336
▁프렌	-15337
학교의	-15338
▁그것의	-15339
▁대화를	-15340
▁반응은	-15341
▁않아서	-15342
▁영지를	-15343
에의	-15344
조각	-15345
준이	-15346
▁모자	-15347
▁올드	-15348
▁동등한	-15349
▁순으로	-15350
성인	-15351
채가	-15352
캐슬	-15353
▁동점	-15354
▁보성	-15355
▁세트	-15356
▁집정	-15357
▁키는	-15358
▁품질	-15359
▁일하고	-15360
▁클럽이다	-15361
▁미드필더로	-15362
▁업그레이드	-15363
가장	-15364
▁데카	-15365
▁윌슨	-15366
▁차원	-15367
액이	-15368
▁처분	-15369
▁황해	-15370
위이다	-15371
▁사태가	-15372
▁선수의	-15373
▁바르샤바	-15374
▁작품에서	-15375
▁명은	-15376
▁세라	-15377
▁합친	-15378
게이트	-15379
만명의	-15380
▁김정은	-15381
▁생각이	-15382
▁제출한	-15383
▁기념하여	-15384
▁종료되었다	-15385
치히	-15386
▁La	-15387
▁원의	-15388
▁일일	-15389
▁자산	-15390
▁연합군의	-15391
것은	-15392
님은	-15393
림은	-15394
알라	-15395
ows	-15396
▁김옥	-15397
▁수령	-15398
▁초빙	-15399
▁영국이	-15400
▁경질	-15401
▁광학	-15402
▁요인	-15403
▁파손	-15404
▁해남	-15405
▁심하게	-15406
▁1,500	-15407
▁릭	-15408
분교	-15409
있게	-15410
▁여운	-15411
▁싸웠다	-15412
▁아키텍	-15413
▁제국과	-15414
▁철학적	-15415
▁한계를	-15416
시한	-15417
▁삼중	-15418
▁아산	-15419
▁않자	-15420
▁마천루	-15421
▁아폴로	-15422
계에서는	-15423
▁고등교육	-15424
▁설명하고	-15425
▁출연하여	-15426
나로	-15427
러를	-15428
▁미세	-15429
▁순조	-15430
사단은	-15431
▁아이치현	-15432
▁않았다는	-15433
▁전반적인	-15434
분열	-15435
ena	-15436
▁부총	-15437
▁서원	-15438
▁연수	-15439
호선은	-15440
▁MTV	-15441
▁관직에	-15442
▁철도는	-15443
▁헤르체고	-15444
사도	-15445
ety	-15446
oot	-15447
▁구와	-15448
▁어쩔	-15449
▁주입	-15450
▁장면이	-15451
▁지리적	-15452
▁참여할	-15453
▁코치를	-15454
▁현상은	-15455
▁므	-15456
▁우정	-15457
▁입국	-15458
▁치세	-15459
속에서	-15460
▁가르침	-15461
▁독일인	-15462
▁서식지	-15463
▁도쿄에서	-15464
▁애틀랜타	-15465
HC	-15466
민과	-15467
바오	-15468
▁생일	-15469
▁현종	-15470
오스트	-15471
▁세군다	-15472
▁앨범에	-15473
▁자유형	-15474
▁죽음에	-15475
▁협력을	-15476
▁방면으로	-15477
▁정상적인	-15478
▁스트라이커	-15479
병과	-15480
▁돌로	-15481
▁매체	-15482
▁조병	-15483
▁팀과	-15484
▁포스	-15485
레이트	-15486
▁des	-15487
▁도시인	-15488
▁엘리트	-15489
▁증거를	-15490
▁혼란을	-15491
▁극장에서	-15492
ux	-15493
▁샀	-15494
▁팰	-15495
▁AG	-15496
▁중등	-15497
▁칸은	-15498
▁쿠빌	-15499
▁동메달	-15500
▁역까지	-15501
여자중학교	-15502
광을	-15503
선발	-15504
천면	-15505
▁an	-15506
▁느린	-15507
▁전격	-15508
년도에	-15509
쪽에는	-15510
▁과도한	-15511
▁도덕적	-15512
▁따왔다	-15513
▁유리한	-15514
▁해군은	-15515
▁진행하였다	-15516
▁샐	-15517
카쓰	-15518
피에	-15519
▁경에	-15520
▁막는	-15521
▁타자	-15522
화하기	-15523
▁나라가	-15524
▁바다에	-15525
▁불안정	-15526
▁프레데	-15527
▁강조했다	-15528
유지	-15529
▁대패	-15530
▁목판	-15531
▁부도	-15532
▁상부	-15533
▁어업	-15534
▁죽인	-15535
▁중퇴	-15536
▁스포르	-15537
▁회원국	-15538
▁그룹으로	-15539
난을	-15540
▁가맹	-15541
▁광명	-15542
▁지쿠	-15543
▁내용에	-15544
▁앨범인	-15545
▁1876	-15546
▁실패하고	-15547
▁적용된다	-15548
▁베네수엘라	-15549
▁앰	-15550
비르	-15551
▁고원	-15552
▁김유	-15553
▁당원	-15554
▁부유	-15555
▁논쟁이	-15556
▁양식의	-15557
▁지바현	-15558
▁내부에서	-15559
▁일부이다	-15560
▁공수	-15561
▁박지	-15562
▁예고	-15563
▁검사를	-15564
개국에서	-15565
▁1881	-15566
▁평안남도	-15567
▁사이타마현	-15568
놀이	-15569
▁라그	-15570
▁미키	-15571
▁성이	-15572
▁영산	-15573
▁하워드	-15574
▁효과는	-15575
▁단독으로	-15576
▁활동하다가	-15577
▁냈	-15578
▁싣	-15579
raph	-15580
▁THE	-15581
▁받아야	-15582
▁친구인	-15583
▁했었다	-15584
▁헬리콥	-15585
▁작용하는	-15586
노를	-15587
전인	-15588
포와	-15589
▁나비	-15590
▁방침	-15591
▁산지	-15592
▁조지프	-15593
▁되어있다	-15594
▁은퇴하였다	-15595
erg	-15596
▁바에	-15597
▁간신히	-15598
▁리그로	-15599
▁마르티	-15600
▁방향에	-15601
▁제정된	-15602
▁점령했다	-15603
ky	-15604
바퀴	-15605
발은	-15606
승지	-15607
▁델타	-15608
▁투항	-15609
here	-15610
▁무렵에	-15611
▁밖에서	-15612
▁상처를	-15613
▁자메이	-15614
하와	-15615
▁클러	-15616
승으로	-15617
▁3.5	-15618
▁가솔린	-15619
▁국민당	-15620
▁노래가	-15621
▁남북으로	-15622
▁담당한다	-15623
절의	-15624
진군	-15625
▁기수	-15626
▁김원	-15627
▁레온	-15628
▁제너	-15629
부리그	-15630
▁권위를	-15631
▁역할은	-15632
▁젊은이	-15633
▁헌법을	-15634
▁전국적으로	-15635
리던	-15636
보리	-15637
_19	-15638
▁내어	-15639
▁부에	-15640
▁일간	-15641
▁조세	-15642
▁지출	-15643
감의	-15644
미나	-15645
▁결별	-15646
▁회화	-15647
▁놀라운	-15648
▁보고서	-15649
▁승리에	-15650
▁혐의를	-15651
▁에너지가	-15652
철이	-15653
ula	-15654
▁GT	-15655
▁데서	-15656
▁전복	-15657
▁지류	-15658
루스의	-15659
심으로	-15660
ator	-15661
▁호르몬	-15662
FF	-15663
▁그저	-15664
▁40%	-15665
▁구하는	-15666
▁다나카	-15667
▁믿었다	-15668
▁오클랜드	-15669
태를	-15670
▁기인	-15671
▁방콕	-15672
▁펜싱	-15673
▁항목	-15674
물리학	-15675
▁의혹을	-15676
▁선수들의	-15677
▁알래스카	-15678
▁사운드트랙	-15679
야와	-15680
▁국적	-15681
▁명인	-15682
▁씨의	-15683
▁이완	-15684
▁쾌속	-15685
▁헌신	-15686
차례의	-15687
▁경쟁을	-15688
▁당국은	-15689
▁명확한	-15690
▁협정을	-15691
▁평안북도	-15692
HD	-15693
ode	-15694
▁고다	-15695
▁김구	-15696
▁영장	-15697
▁학원	-15698
났지만	-15699
블랜드	-15700
▁썬	-15701
청구	-15702
▁대부	-15703
▁선행	-15704
▁예하	-15705
▁혼성	-15706
▁되도록	-15707
▁마르틴	-15708
▁약속을	-15709
▁열매는	-15710
▁그녀에게	-15711
▁선수들은	-15712
Ed	-15713
가구	-15714
버의	-15715
전달	-15716
▁공신	-15717
케라톱	-15718
ount	-15719
▁관해서는	-15720
▁사용되어	-15721
▁수여받았다	-15722
사르	-15723
▁날이	-15724
▁루키	-15725
▁시부	-15726
▁의결	-15727
▁허리	-15728
vent	-15729
▁1,2	-15730
▁70%	-15731
▁총리를	-15732
▁트럼프	-15733
▁황제는	-15734
▁경기도의	-15735
▁위원회는	-15736
▁기여하였다	-15737
▁더불어민주	-15738
협의	-15739
▁이득	-15740
▁코소	-15741
▁하나다	-15742
▁홍콩에서	-15743
▁#	-15744
공무	-15745
년제	-15746
복음	-15747
▁것의	-15748
▁궁정	-15749
▁맞춘	-15750
섬에서	-15751
▁법무부	-15752
▁스튜어트	-15753
▁영화에서	-15754
▁첸	-15755
부아	-15756
▁이렇	-15757
▁모로코	-15758
▁전통적	-15759
▁광범위하게	-15760
술은	-15761
▁vs	-15762
▁감금	-15763
▁신형	-15764
▁이겨	-15765
▁좌석	-15766
▁영역에	-15767
▁정의는	-15768
▁프랜차	-15769
▁활동하던	-15770
▁심해	-15771
▁대표가	-15772
▁수도로	-15773
▁아이가	-15774
▁언론에	-15775
▁의혹이	-15776
▁표현이	-15777
▁지원하기	-15778
▁캐릭터를	-15779
통은	-15780
lan	-15781
▁미라	-15782
rain	-15783
▁Mon	-15784
▁대사관	-15785
▁세금을	-15786
▁정의를	-15787
▁조정의	-15788
▁독립적으로	-15789
ney	-15790
▁이현	-15791
세였다	-15792
조에서	-15793
▁도로가	-15794
미네	-15795
쉽게	-15796
히데	-15797
▁구형	-15798
▁살라	-15799
▁입구	-15800
▁혼동	-15801
▁손해배	-15802
▁솔로몬	-15803
▁여지가	-15804
▁위에는	-15805
▁주도한	-15806
▁차지했고	-15807
▁국가대표팀에	-15808
--	-15809
아트	-15810
유도	-15811
크트	-15812
ray	-15813
▁씨앗	-15814
▁증대	-15815
정부가	-15816
▁고대의	-15817
▁몽골의	-15818
▁초창기	-15819
▁의회에서	-15820
법상	-15821
정리	-15822
콜라	-15823
하르	-15824
▁치즈	-15825
▁희곡	-15826
하기가	-15827
illa	-15828
▁기술적	-15829
▁정도에	-15830
▁마오쩌둥	-15831
▁무대에서	-15832
▁부족으로	-15833
~8	-15834
니코	-15835
더가	-15836
득점	-15837
레시	-15838
와도	-15839
웠던	-15840
풀이	-15841
▁몰수	-15842
▁분지	-15843
▁시어	-15844
▁카시	-15845
▁타구	-15846
▁브리튼	-15847
▁건물이다	-15848
▁천문학자	-15849
▁겹쳐	-15850
▁다툼	-15851
▁되던	-15852
▁스포	-15853
▁포식	-15854
▁협조	-15855
▁대기업	-15856
▁비주얼	-15857
▁스톡홀름	-15858
▁받아들였다	-15859
▁산성	-15860
▁개인적	-15861
▁방영한	-15862
▁세이부	-15863
▁이름과	-15864
▁임명하였다	-15865
독한	-15866
로워	-15867
lin	-15868
▁계수	-15869
▁고쿠	-15870
▁남미	-15871
▁벽돌	-15872
▁알프	-15873
▁의문	-15874
▁창녕	-15875
정부는	-15876
▁220	-15877
▁가격은	-15878
▁여배우	-15879
▁지키기	-15880
▁직위를	-15881
는가	-15882
통상	-15883
_14	-15884
▁기고	-15885
▁단식	-15886
▁바꿀	-15887
▁왼손	-15888
▁인과	-15889
▁쾰른	-15890
하게도	-15891
▁대대로	-15892
▁부문의	-15893
ensis	-15894
▁애리조나	-15895
▁출전하지	-15896
▁수락	-15897
▁아빠	-15898
▁그보다	-15899
▁낳는다	-15900
▁마리의	-15901
▁미주리	-15902
▁안티오	-15903
▁열심히	-15904
▁낚	-15905
▁흠	-15906
▁안도	-15907
▁마라톤	-15908
▁비영리	-15909
▁알파벳	-15910
▁이용된다	-15911
▁사용되기도	-15912
▁강간	-15913
▁모차	-15914
▁아프	-15915
▁정동	-15916
▁진을	-15917
▁핑크	-15918
▁ATP	-15919
▁무소속	-15920
▁힘으로	-15921
섬과	-15922
▁봄에	-15923
▁상공	-15924
▁여겼다	-15925
▁연합의	-15926
▁음악과	-15927
▁버전으로	-15928
호텔	-15929
▁온건	-15930
▁해부	-15931
▁조성된	-15932
권에서는	-15933
공화	-15934
묘한	-15935
지스	-15936
▁아쿠	-15937
▁유러	-15938
학적인	-15939
▁Don	-15940
▁con	-15941
▁밴쿠버	-15942
▁우려가	-15943
▁작성된	-15944
▁전기의	-15945
축을	-15946
▁찍은	-15947
▁남쪽은	-15948
▁수준을	-15949
▁전당에	-15950
▁한국과	-15951
정상	-15952
▁벌여	-15953
▁스칸	-15954
▁카테	-15955
▁헬싱	-15956
자라고	-15957
▁1-2	-15958
▁명확히	-15959
▁서쪽은	-15960
▁손실을	-15961
안과	-15962
타우	-15963
하겐	-15964
▁박종	-15965
▁부각	-15966
▁취업	-15967
▁휩쓸	-15968
조참판	-15969
린과	-15970
벌을	-15971
선생	-15972
해석	-15973
▁전래	-15974
▁목소리	-15975
▁무리를	-15976
▁참가할	-15977
▁클럽의	-15978
끄러	-15979
정사	-15980
▁대마	-15981
▁봉기	-15982
▁사쿠	-15983
▁요하	-15984
교에서	-15985
hael	-15986
▁병원에	-15987
▁제품의	-15988
▁제공했다	-15989
▁가신	-15990
▁국한	-15991
▁베리	-15992
▁자란	-15993
▁출가	-15994
▁해가	-15995
▁부모의	-15996
▁음반인	-15997
▁전투의	-15998
▁컴퓨팅	-15999
▁관련되어	-16000
BN	-16001
네티	-16002
부작	-16003
종에	-16004
▁CS	-16005
▁모셔	-16006
▁미셸	-16007
▁서민	-16008
▁야외	-16009
▁장흥	-16010
bert	-16011
▁규모를	-16012
▁사건과	-16013
▁전략적	-16014
▁스크린도	-16015
▁만들어진다	-16016
▁찐	-16017
록을	-16018
한은	-16019
▁방치	-16020
▁산둥	-16021
▁와인	-16022
▁차체	-16023
▁취항	-16024
▁카즈	-16025
연으로	-16026
▁규정을	-16027
▁시에서	-16028
▁요제프	-16029
▁조직은	-16030
▁지휘를	-16031
▁다양하게	-16032
▁보존되어	-16033
▁다윈	-16034
▁대영	-16035
▁드라	-16036
▁스퀘	-16037
▁하키	-16038
▁행진	-16039
▁보낸다	-16040
▁생긴다	-16041
▁관할했다	-16042
▁시작하고	-16043
▁엥	-16044
창의	-16045
카리	-16046
▁페니	-16047
각형의	-16048
세에서	-16049
위까지	-16050
▁영국령	-16051
▁지키고	-16052
▁1866	-16053
▁공격하는	-16054
▁여겨지는	-16055
▁주관하는	-16056
▁출발하여	-16057
▁클리블랜드	-16058
▁소프트웨어를	-16059
++	-16060
8,	-16061
▁겔	-16062
그가	-16063
바브	-16064
어인	-16065
▁대출	-16066
▁수필	-16067
제도를	-16068
▁교통의	-16069
▁언론인	-16070
▁자원을	-16071
▁스타일의	-16072
바리	-16073
▁94	-16074
▁사탕	-16075
▁이븐	-16076
▁형인	-16077
▁내각의	-16078
▁식물의	-16079
▁축구를	-16080
▁아이디얼	-16081
타워	-16082
▁강풍	-16083
당하여	-16084
▁가이드	-16085
▁대중의	-16086
▁찬사를	-16087
받았으며	-16088
▁결합하여	-16089
두의	-16090
▁et	-16091
▁공백	-16092
▁먹이	-16093
▁승점	-16094
▁청산	-16095
왕으로	-16096
회사로	-16097
▁배터리	-16098
▁지배하는	-16099
OK	-16100
사한	-16101
▁바꿨	-16102
▁첨단	-16103
▁타케	-16104
▁달러에	-16105
▁죽음의	-16106
▁최연소	-16107
▁토스카	-16108
위원회에	-16109
▁하였지만	-16110
▁전반적으로	-16111
트맨	-16112
▁다투	-16113
▁딸이	-16114
▁유타	-16115
▁파기	-16116
시간이	-16117
▁고양시	-16118
▁나타날	-16119
▁카메룬	-16120
ision	-16121
암의	-16122
채는	-16123
초로	-16124
▁값은	-16125
▁갤러	-16126
▁상급	-16127
▁아데	-16128
▁모리스	-16129
▁발표하고	-16130
▁운행하고	-16131
강한	-16132
직할	-16133
▁Up	-16134
▁삼척	-16135
▁장제	-16136
▁주조	-16137
outh	-16138
▁그래도	-16139
▁전신인	-16140
▁홍문관	-16141
▁활발하게	-16142
5,	-16143
영국	-16144
uss	-16145
▁격추	-16146
▁잠정	-16147
▁폐렴	-16148
▁노래의	-16149
▁장소에	-16150
▁일어나지	-16151
▁함경남도	-16152
6,	-16153
(12	-16154
▁"(	-16155
▁슬픔	-16156
▁오아	-16157
▁이모	-16158
▁인명	-16159
▁풍속	-16160
론으로	-16161
▁바뀌어	-16162
▁암컷은	-16163
▁맘	-16164
비용	-16165
▁메뉴	-16166
▁별세	-16167
▁신동	-16168
▁이타	-16169
▁중생	-16170
▁포터	-16171
▁동대문	-16172
▁들어갔	-16173
▁유니버설	-16174
보스	-16175
MHz	-16176
▁차출	-16177
▁구역은	-16178
▁마이애	-16179
▁천천	-16180
▁코카	-16181
▁휴식	-16182
났는데	-16183
능력을	-16184
회의를	-16185
▁금요일	-16186
▁파일럿	-16187
ative	-16188
▁전국동시지방선거의	-16189
▁;	-16190
New	-16191
▁살게	-16192
▁화를	-16193
▁조약이	-16194
▁증상을	-16195
▁프레이	-16196
▁1873	-16197
▁활동하며	-16198
데라	-16199
추진	-16200
por	-16201
▁SL	-16202
▁제인	-16203
▁노래로	-16204
▁북동부	-16205
▁십자군	-16206
▁아리아	-16207
▁영업을	-16208
▁원칙을	-16209
▁의문을	-16210
▁전국의	-16211
박물관에	-16212
▁이번에는	-16213
▁필리핀의	-16214
NG	-16215
Pr	-16216
▁렉	-16217
무의	-16218
사다	-16219
700	-16220
▁갖지	-16221
▁내걸	-16222
▁노면	-16223
▁소울	-16224
▁출석	-16225
▁보호하는	-16226
▁콘크리트	-16227
▁죠	-16228
마케	-16229
수지	-16230
스기	-16231
키타	-16232
▁불분	-16233
▁세가	-16234
▁조형	-16235
▁채취	-16236
▁추서	-16237
▁힘썼	-16238
스키의	-16239
우스와	-16240
▁가리지	-16241
▁단어가	-16242
▁주민들의	-16243
▁아틀레티코	-16244
ww	-16245
▁웬	-16246
면적	-16247
물인	-16248
전국	-16249
▁김선	-16250
▁이건	-16251
▁남았다	-16252
▁동쪽은	-16253
▁말미암	-16254
▁모른다	-16255
▁들어오는	-16256
▁영역에서	-16257
근을	-16258
▁렌즈	-16259
▁박쥐의	-16260
▁비롯된	-16261
▁서울로	-16262
▁이시카와	-16263
▁딥	-16264
령과	-16265
아라	-16266
▁간첩	-16267
▁복소	-16268
▁일기	-16269
▁장사	-16270
치에서	-16271
▁Vol	-16272
▁당대의	-16273
▁왕실의	-16274
▁헤이안	-16275
▁1872	-16276
▁나타나지	-16277
▁연극배우	-16278
▁주인공으로	-16279
▁면제	-16280
▁보복	-16281
레스는	-16282
▁Can	-16283
▁나라에	-16284
▁남동생	-16285
▁만들었고	-16286
▁영향력이	-16287
디와	-16288
온을	-16289
▁AV	-16290
▁리조	-16291
▁오락	-16292
▁차로	-16293
▁파란	-16294
▁해병대	-16295
결혼	-16296
쓰마	-16297
철학	-16298
▁CM	-16299
▁침묵	-16300
들처럼	-16301
▁달라고	-16302
▁사이로	-16303
▁않다고	-16304
▁해밀턴	-16305
▁정치적으로	-16306
련된	-16307
▁매력	-16308
▁입주	-16309
▁전함	-16310
▁API	-16311
▁경제를	-16312
▁스테파	-16313
▁정당이다	-16314
▁허리케인	-16315
lation	-16316
▁국가대표로	-16317
▁일제강점기	-16318
▁공방	-16319
▁좌측	-16320
reen	-16321
▁돌고	-16322
▁앙골	-16323
▁정작	-16324
▁집어	-16325
▁켈트	-16326
▁상업적	-16327
▁수업을	-16328
▁인도에서	-16329
▁공개적으로	-16330
▁퐁	-16331
배가	-16332
복합	-16333
비언	-16334
▁서스	-16335
▁우아	-16336
▁조국	-16337
▁죽기	-16338
▁질문	-16339
▁느끼는	-16340
▁단체의	-16341
▁서재필	-16342
▁않아도	-16343
▁앨리스	-16344
▁정상에	-16345
▁해안에	-16346
▁입학하여	-16347
▁지역구의원	-16348
▁한편으로는	-16349
▁비례대표의원	-16350
▁뢰	-16351
심과	-16352
자고	-16353
▁부합	-16354
▁식당	-16355
▁전전	-16356
▁짓는	-16357
자리의	-16358
▁불과하다	-16359
▁붙여졌다	-16360
▁에콰도르	-16361
▁조사에서	-16362
▁활동했으며	-16363
7,	-16364
▁리바	-16365
▁유료	-16366
▁음악이	-16367
▁친구가	-16368
▁천연기념	-16369
▁코무네다	-16370
SD	-16371
크레	-16372
▁모색	-16373
▁목재	-16374
▁언니	-16375
▁칼럼	-16376
▁겉보기	-16377
▁전쟁과	-16378
▁페트로	-16379
▁설립하여	-16380
교사	-16381
토록	-16382
▁김광	-16383
▁더빙	-16384
▁반격	-16385
▁산호	-16386
▁선원	-16387
▁찬양	-16388
되어서	-16389
▁가져다	-16390
▁가족이	-16391
▁문화에	-16392
▁전화를	-16393
▁플라이	-16394
▁국내에서	-16395
▁그랑프리	-16396
▁대항하여	-16397
▁지명되었다	-16398
포시	-16399
▁유목	-16400
▁카툰	-16401
운동장	-16402
▁것이나	-16403
▁다목적	-16404
▁불확실	-16405
za	-16406
미래	-16407
▁규칙을	-16408
▁끼쳤다	-16409
▁시에라	-16410
▁지난날	-16411
과정에서	-16412
▁Park	-16413
▁미스터리	-16414
▁박사학위를	-16415
코딩	-16416
oly	-16417
▁1:	-16418
▁공존	-16419
고에서	-16420
▁공로를	-16421
▁당하고	-16422
▁몬테네	-16423
▁크리에	-16424
▁안정적인	-16425
by	-16426
것을	-16427
독을	-16428
먼의	-16429
바가	-16430
활성	-16431
▁시몬	-16432
▁윈도	-16433
▁허드	-16434
▁열대폭	-16435
▁따라서는	-16436
▁성장했다	-16437
▁전까지는	-16438
▁중심지로	-16439
기갑	-16440
기둥	-16441
세키	-16442
oft	-16443
▁고개	-16444
▁타지	-16445
▁헤어	-16446
자라는	-16447
▁교회가	-16448
▁인테르	-16449
▁여겨지고	-16450
링겐	-16451
▁대역	-16452
▁입지	-16453
▁탄자	-16454
지느러	-16455
▁단계를	-16456
▁산업은	-16457
▁월요일	-16458
▁조반니	-16459
거리에서	-16460
▁스페인어	-16461
▁선거결과를	-16462
니크	-16463
더를	-16464
▁by	-16465
▁대북	-16466
▁징병	-16467
▁공항은	-16468
▁쓰나미	-16469
▁서울특별시의	-16470
천년	-16471
▁SE	-16472
▁he	-16473
▁김형	-16474
▁나노	-16475
▁사리	-16476
▁이고	-16477
르트의	-16478
▁공간은	-16479
▁목적이	-16480
▁1850	-16481
▁1861	-16482
남부	-16483
타고	-16484
iew	-16485
▁궁전	-16486
▁보리	-16487
▁셀레	-16488
▁못했지만	-16489
▁문화체육	-16490
셨다	-16491
원수	-16492
Con	-16493
▁강대	-16494
▁낮다	-16495
▁세븐	-16496
▁전무	-16497
▁중엽	-16498
당한다	-16499
▁느끼고	-16500
▁레오폴	-16501
▁루돌프	-16502
▁정보는	-16503
▁한국을	-16504
했음에도	-16505
▁탈락했다	-16506
절에	-16507
중종	-16508
▁누이	-16509
▁동학	-16510
가능한	-16511
▁서로의	-16512
▁어렵게	-16513
▁정책의	-16514
▁Song	-16515
▁강조하는	-16516
▁맷	-16517
테의	-16518
▁개항	-16519
▁적어	-16520
▁제임	-16521
▁분야를	-16522
▁유닉스	-16523
▁선임되었다	-16524
▁기해	-16525
▁노조	-16526
▁보증	-16527
▁블레	-16528
헝가리	-16529
▁시장이	-16530
▁주위의	-16531
▁패배한	-16532
국제공항	-16533
섬을	-16534
▁로페	-16535
▁저격	-16536
▁하프	-16537
▁미군의	-16538
▁증거는	-16539
▁스트리밍	-16540
▁프랑스령	-16541
▁튼	-16542
▁준수	-16543
▁코시	-16544
데이터	-16545
테이너	-16546
▁Eng	-16547
▁기관차	-16548
▁마르세	-16549
▁시에는	-16550
▁프로모	-16551
▁시리즈이다	-16552
라드	-16553
비츠	-16554
스퍼	-16555
▁묶어	-16556
work	-16557
▁기타를	-16558
▁논쟁을	-16559
▁의지를	-16560
▁홉	-16561
농업	-16562
막이	-16563
▁선동	-16564
▁전구	-16565
▁포수	-16566
▁에스페	-16567
▁미야자키	-16568
▁옮겨졌다	-16569
사유	-16570
▁동정	-16571
▁접한	-16572
사들은	-16573
(190	-16574
▁넘어서	-16575
▁용인시	-16576
▁이동하는	-16577
나기	-16578
나파	-16579
▁느낄	-16580
▁랴오	-16581
▁부다	-16582
▁성전	-16583
▁재팬	-16584
▁긴테쓰	-16585
▁천황이	-16586
▁체계는	-16587
▁사용자의	-16588
▁후반부터	-16589
보장	-16590
▁강철	-16591
▁섬은	-16592
▁이양	-16593
▁쪽에	-16594
▁호크	-16595
대회를	-16596
▁구하기	-16597
▁전자의	-16598
▁이바라키	-16599
▁일으킨다	-16600
▁항공모함	-16601
▁아프리카의	-16602
궁을	-16603
min	-16604
▁자민	-16605
▁전담	-16606
▁개발하였다	-16607
▁코스타리카	-16608
구미	-16609
테른	-16610
app	-16611
www	-16612
▁드리	-16613
▁듣지	-16614
개국이	-16615
하겠다	-16616
▁거두며	-16617
▁마누엘	-16618
▁무역을	-16619
세손	-16620
▁BM	-16621
▁간략	-16622
▁요충	-16623
▁추존	-16624
▁픽처	-16625
▁서대문	-16626
▁속이다	-16627
▁이기고	-16628
▁정하고	-16629
(2014	-16630
ody	-16631
▁심지	-16632
▁모시고	-16633
▁목성의	-16634
▁아나톨	-16635
▁이론이	-16636
▁1878	-16637
▁결승전에	-16638
▁기간동안	-16639
▁아이디어를	-16640
도상	-16641
▁동네	-16642
▁떠오	-16643
▁상행	-16644
▁어찌	-16645
▁작다	-16646
▁직통	-16647
▁한명	-16648
▁대전의	-16649
▁드디어	-16650
▁미토콘	-16651
▁신화에	-16652
▁아이언	-16653
▁자치체	-16654
서스	-16655
▁공이	-16656
▁성리	-16657
▁정성	-16658
▁체조	-16659
▁감염된	-16660
▁도메인	-16661
▁방안을	-16662
▁왕가의	-16663
▁유력한	-16664
▁의석을	-16665
▁인간과	-16666
▁설계되었다	-16667
ze	-16668
▁늙	-16669
되나	-16670
▁공감	-16671
▁번영	-16672
▁아바	-16673
▁중형	-16674
▁헬레	-16675
그룹의	-16676
▁노선에	-16677
▁북쪽은	-16678
▁생명을	-16679
▁케이스	-16680
▁클레이	-16681
▁태권도	-16682
CACAF	-16683
▁프란체스코	-16684
▁찢	-16685
간은	-16686
구멍	-16687
료는	-16688
▁때려	-16689
▁무언	-16690
▁성에	-16691
▁컸다	-16692
지거나	-16693
▁10,	-16694
▁단계에	-16695
▁이주한	-16696
개인	-16697
통치	-16698
▁나갔	-16699
▁비대	-16700
▁죽게	-16701
▁최진	-16702
▁키보	-16703
▁방식에	-16704
▁용어가	-16705
▁유학생	-16706
▁조직에	-16707
▁투자를	-16708
▁NASA	-16709
▁키프로스	-16710
▁실시되었다	-16711
▁확정되었다	-16712
기며	-16713
럴드	-16714
oid	-16715
▁남자가	-16716
▁단계로	-16717
▁대표를	-16718
▁신학자	-16719
▁표현은	-16720
▁화학적	-16721
▁세인트루이스	-16722
▁경복	-16723
▁도래	-16724
▁장인	-16725
atch	-16726
▁난카이	-16727
▁다양체	-16728
▁쉴	-16729
증에	-16730
트넘	-16731
_16	-16732
▁김명	-16733
▁보석	-16734
▁선천	-16735
▁점과	-16736
▁프롤	-16737
▁현직	-16738
상규명	-16739
▁쿠웨이트	-16740
▁효율적으로	-16741
조리	-16742
호른	-16743
▁극우	-16744
▁이이	-16745
나에서	-16746
▁다리가	-16747
▁1864	-16748
BL	-16749
라니	-16750
분부터	-16751
▁미하일	-16752
▁예컨대	-16753
▁흐르고	-16754
▁데뷔하였으며	-16755
▁ne	-16756
▁대각	-16757
▁옥타	-16758
▁유혹	-16759
▁화순	-16760
예정자	-16761
▁노르망	-16762
▁양자로	-16763
▁충청도	-16764
▁사무실은	-16765
▁EX	-16766
▁경희	-16767
▁잠깐	-16768
▁장안	-16769
디자인	-16770
웨스트	-16771
▁위치가	-16772
▁후기에	-16773
▁1875	-16774
전대	-16775
ven	-16776
▁강은	-16777
▁서산	-16778
▁천거	-16779
민스터	-16780
▁고문을	-16781
▁작전에	-16782
▁흐른다	-16783
▁밝혀지지	-16784
▁유러피언	-16785
EE	-16786
▁댓	-16787
노와	-16788
영조	-16789
▁동력	-16790
▁요동	-16791
▁자작	-16792
▁철폐	-16793
▁휘말	-16794
▁Per	-16795
▁처분을	-16796
▁1863	-16797
▁경기장으로	-16798
▁프로듀서이다	-16799
경비	-16800
여단	-16801
재산	-16802
▁Ge	-16803
▁OB	-16804
▁고아	-16805
▁백신	-16806
▁정전	-16807
▁진해	-16808
▁Mag	-16809
▁고유한	-16810
▁달했다	-16811
▁러시아와	-16812
▁발매됐다	-16813
포에	-16814
▁사당	-16815
▁청룡	-16816
▁iOS	-16817
▁게릴라	-16818
▁마을은	-16819
▁비정상	-16820
▁생겨난	-16821
▁수사를	-16822
▁예로는	-16823
▁활동의	-16824
▁계속되는	-16825
▁이용해서	-16826
▁할리우드	-16827
▁현장에서	-16828
복의	-16829
쇼와	-16830
유예	-16831
호르	-16832
▁To	-16833
▁비전	-16834
▁타르	-16835
▁자녀를	-16836
▁자유당	-16837
▁주파수	-16838
▁해당되는	-16839
▁현대자동차	-16840
▁겪은	-16841
▁장이	-16842
▁접수	-16843
관계에	-16844
순위로	-16845
자에서	-16846
▁ABC	-16847
▁OST	-16848
▁북서부	-16849
▁시청률	-16850
▁정하는	-16851
▁대항하는	-16852
척을	-16853
▁ar	-16854
▁부평	-16855
▁트란	-16856
가들이	-16857
▁독일군	-16858
▁증가하는	-16859
읍에	-16860
▁동등	-16861
▁미에	-16862
▁병이	-16863
▁복장	-16864
▁솟아	-16865
▁자서	-16866
▁축조	-16867
부분에	-16868
▁0.5	-16869
▁쓰기도	-16870
▁연이어	-16871
▁총리로	-16872
▁동치이다	-16873
▁알렉산드리아	-16874
안보	-16875
약의	-16876
▁너머	-16877
▁돕는	-16878
▁옮긴	-16879
만원을	-16880
▁내리고	-16881
▁이스탄	-16882
▁흩어져	-16883
▁아인슈타	-16884
저의	-16885
증권	-16886
표준	-16887
헌법	-16888
▁서임	-16889
▁후배	-16890
▁Air	-16891
▁각지의	-16892
▁종류는	-16893
▁프란치	-16894
▁선수단이다	-16895
du	-16896
벨트	-16897
▁모른	-16898
▁바젤	-16899
▁연동	-16900
▁알프스	-16901
▁설립되어	-16902
▁유로파리그	-16903
당할	-16904
시다	-16905
_20	-16906
▁돼지	-16907
▁상해	-16908
▁부대의	-16909
▁와이번	-16910
▁함수를	-16911
▁설치하였다	-16912
▁깜	-16913
황의	-16914
▁경의	-16915
▁포럼	-16916
▁폭풍	-16917
▁사상은	-16918
▁지나가	-16919
화하였다	-16920
OT	-16921
극을	-16922
토로	-16923
품은	-16924
~16	-16925
▁몽고	-16926
▁피할	-16927
▁혼다	-16928
저기압	-16929
▁가공의	-16930
▁카타르	-16931
▁행하는	-16932
▁청나라의	-16933
▁김인	-16934
▁세습	-16935
▁앞선	-16936
▁(17	-16937
▁감옥에	-16938
▁노동당	-16939
▁자유의	-16940
▁측에서	-16941
▁1865	-16942
▁대한항공	-16943
▁측정하는	-16944
사자	-16945
())	-16946
EST	-16947
▁가산	-16948
▁군부	-16949
▁카지	-16950
▁받았던	-16951
▁생활에	-16952
▁참석한	-16953
▁만들어져	-16954
▁포함되지	-16955
▁프리메라	-16956
업의	-16957
천이	-16958
체른	-16959
▁많지	-16960
▁백두	-16961
▁시바	-16962
▁오기	-16963
▁온다	-16964
▁전수	-16965
▁컴파	-16966
▁새끼를	-16967
▁시코쿠	-16968
▁영원히	-16969
▁아이들을	-16970
▁찔	-16971
-22	-16972
▁낙하	-16973
▁사인	-16974
▁총을	-16975
▁나트륨	-16976
▁소재의	-16977
▁안정된	-16978
▁클럽인	-16979
코로	-16980
테는	-16981
히게	-16982
히지	-16983
▁박성	-16984
▁이언	-16985
▁Out	-16986
▁현대적인	-16987
▁언급하였다	-16988
니라	-16989
▁가중	-16990
▁반전	-16991
▁태그	-16992
▁못했던	-16993
▁본부를	-16994
▁성향을	-16995
▁천천히	-16996
들이었다	-16997
▁제작했다	-16998
▁후계자로	-16999
▁독자적으로	-17000
▁형사소송법	-17001
DC	-17002
▁송신	-17003
▁악의	-17004
▁유식	-17005
▁라파엘	-17006
▁빠졌다	-17007
스테르담	-17008
름의	-17009
승의	-17010
▁검거	-17011
▁초콜	-17012
화되고	-17013
▁모델의	-17014
▁방사능	-17015
대학교를	-17016
▁것이므로	-17017
▁비교하여	-17018
▁하나로서	-17019
▁흥선대원	-17020
레니	-17021
▁재일	-17022
▁되어야	-17023
▁명령에	-17024
▁사거리	-17025
▁원리를	-17026
▁기념하기	-17027
▁단체이다	-17028
▁프랑스를	-17029
▁시작되었고	-17030
Be	-17031
HL	-17032
금과	-17033
틀리	-17034
▁마셜	-17035
▁암석	-17036
▁키르	-17037
▁곳곳에	-17038
▁대단히	-17039
▁복소수	-17040
▁주제에	-17041
▁진행을	-17042
▁국제적으로	-17043
▁대한민국을	-17044
장사	-17045
▁우파	-17046
▁근본적인	-17047
▁비판하는	-17048
▁투수이다	-17049
▁가면라이더	-17050
러브	-17051
리마	-17052
질환	-17053
ars	-17054
▁놓인	-17055
▁면이	-17056
▁충북	-17057
orge	-17058
▁제안한	-17059
▁책에서	-17060
▁치명적인	-17061
▁한국철도	-17062
티를	-17063
▁니혼	-17064
▁도출	-17065
▁엔터	-17066
▁강남구	-17067
▁밴드가	-17068
스크리트	-17069
▁Comm	-17070
▁프랑스로	-17071
▁플랫폼을	-17072
▁국회의원을	-17073
▁예정이었다	-17074
소비	-17075
워서	-17076
▁sp	-17077
▁생겼	-17078
▁수로	-17079
▁승무	-17080
▁악마	-17081
▁잃게	-17082
▁찾고	-17083
운드의	-17084
▁1-1	-17085
▁공장을	-17086
▁달리는	-17087
▁밀도가	-17088
▁작품인	-17089
▁클라크	-17090
▁도입했다	-17091
▁물리치고	-17092
위원회에서	-17093
색과	-17094
▁엄마	-17095
▁이회	-17096
▁자결	-17097
▁파고	-17098
▁견해가	-17099
▁너무나	-17100
▁무궁화	-17101
▁북한이	-17102
▁생전에	-17103
▁적었다	-17104
▁퍼스트	-17105
▁살아남은	-17106
▁전달하는	-17107
▁산시	-17108
펜하겐	-17109
행으로	-17110
▁SNS	-17111
▁기법을	-17112
▁번째는	-17113
▁받았는데	-17114
▁방지하기	-17115
▁배우이자	-17116
▁윌리엄스	-17117
▁수록예정자	-17118
▁아프리카계	-17119
달의	-17120
청장	-17121
커를	-17122
▁과테	-17123
▁실무	-17124
▁집회	-17125
▁기준이	-17126
▁맡았던	-17127
▁반도의	-17128
▁어느날	-17129
방과	-17130
정권	-17131
지부	-17132
처는	-17133
▁칼로	-17134
▁해태	-17135
▁서로를	-17136
▁지닌다	-17137
언론	-17138
_21	-17139
▁개헌	-17140
▁고딕	-17141
▁시합	-17142
▁원통	-17143
▁제대	-17144
청에서	-17145
▁원정을	-17146
잉글랜드	-17147
▁진출한다	-17148
▁체결했다	-17149
▁Black	-17150
마귀	-17151
▁8,	-17152
▁안드	-17153
였다는	-17154
▁AKB	-17155
▁대륙의	-17156
▁빅토르	-17157
▁신앙을	-17158
▁우루과이	-17159
""	-17160
양과	-17161
▁Ne	-17162
▁닮은	-17163
▁방화	-17164
연대는	-17165
익스피	-17166
▁메시지	-17167
▁사실에	-17168
▁서바이	-17169
▁있어서의	-17170
선형	-17171
▁게리	-17172
▁관동	-17173
▁국외	-17174
▁대왕	-17175
▁더비	-17176
▁모범	-17177
▁모의	-17178
▁조인	-17179
▁테라	-17180
▁레드삭	-17181
적이라고	-17182
▁JTBC	-17183
▁경과	-17184
▁글꼴	-17185
▁도피	-17186
▁마린	-17187
▁볼프	-17188
▁성곽	-17189
▁아다	-17190
▁450	-17191
▁지시를	-17192
▁삼층석탑	-17193
▁여객철도의	-17194
발트	-17195
증과	-17196
▁브룩	-17197
▁에레	-17198
▁은신	-17199
▁끝난다	-17200
하더라도	-17201
▁실시하는	-17202
▁전적으로	-17203
▁담당하였다	-17204
▁후쿠오카현	-17205
마디	-17206
▁Kn	-17207
▁누나	-17208
▁돕기	-17209
▁문과	-17210
▁습윤	-17211
▁싶다	-17212
▁유해	-17213
▁조로	-17214
쪽에서	-17215
rich	-17216
▁근거가	-17217
▁부부는	-17218
▁온도는	-17219
▁중부에	-17220
▁체제의	-17221
▁효율적인	-17222
lu	-17223
정지	-17224
▁간이	-17225
▁발해	-17226
▁비늘	-17227
▁아치	-17228
▁회귀	-17229
ient	-17230
▁소피아	-17231
▁왕국이	-17232
▁체제로	-17233
▁어머니와	-17234
▁영국으로	-17235
▁쿠데타를	-17236
▁성장하였다	-17237
ization	-17238
군인	-17239
랑을	-17240
▁나루	-17241
▁다듬	-17242
▁은혜	-17243
▁에어로	-17244
▁영어를	-17245
▁지점에서	-17246
봉은	-17247
스레	-17248
▁그릴	-17249
▁후예	-17250
다람쥐	-17251
회사가	-17252
▁2~3	-17253
▁3.0	-17254
▁뉴캐슬	-17255
▁심리적	-17256
▁아라곤	-17257
▁직책을	-17258
▁패했다	-17259
▁프리스	-17260
퍼레이션	-17261
▁1830	-17262
▁일본군의	-17263
▁쿡	-17264
길에	-17265
날의	-17266
월을	-17267
▁비준	-17268
▁열을	-17269
▁정선	-17270
노스케	-17271
span	-17272
▁면이다	-17273
▁댈	-17274
전에는	-17275
omas	-17276
▁USS	-17277
▁시신은	-17278
▁자료에	-17279
강전에서	-17280
▁국립공원	-17281
▁국무총리	-17282
mp	-17283
▁괄	-17284
▁떡	-17285
섬유	-17286
속도	-17287
▁서귀	-17288
▁줄리	-17289
▁공군의	-17290
▁보내어	-17291
▁세우는	-17292
▁제공할	-17293
▁아오모리	-17294
▁출시했다	-17295
▁발전하였다	-17296
ka	-17297
네오	-17298
▁맡는	-17299
▁했기	-17300
▁이동할	-17301
▁저항을	-17302
▁제한을	-17303
▁추가된	-17304
▁카이로	-17305
▁둘러싸인	-17306
▁몸길이가	-17307
▁앨범으로	-17308
▁프로세서	-17309
▁네이션스컵	-17310
▁스크린도어가	-17311
yr	-17312
검은	-17313
브가	-17314
▁신입	-17315
▁우유	-17316
▁만난다	-17317
문서	-17318
변속	-17319
요리	-17320
▁Ac	-17321
▁교정	-17322
▁번갈	-17323
▁소외	-17324
대학의	-17325
oint	-17326
▁구성은	-17327
▁모르고	-17328
▁보이게	-17329
▁장소를	-17330
▁판정을	-17331
▁설립하고	-17332
사범	-17333
죄로	-17334
▁조롱	-17335
▁표를	-17336
으려는	-17337
쥐과에	-17338
▁EBS	-17339
▁각자의	-17340
▁뿌리를	-17341
▁언어가	-17342
▁연주를	-17343
▁외국어	-17344
▁이해하는	-17345
▁창설되었다	-17346
파울	-17347
▁미륵	-17348
▁아메	-17349
▁증폭	-17350
공사의	-17351
대통령	-17352
▁결혼한	-17353
▁부인은	-17354
▁지구가	-17355
▁흥미를	-17356
이었다는	-17357
▁공부했다	-17358
▁후쿠시마현	-17359
▁막스	-17360
▁보강	-17361
▁재선	-17362
▁직책	-17363
▁LED	-17364
▁가문이	-17365
▁발전소	-17366
▁북유럽	-17367
▁시절을	-17368
▁않다는	-17369
▁미래통합	-17370
▁위키백과	-17371
▁의미이다	-17372
▁Dream	-17373
▁판매되었다	-17374
가쿠	-17375
▁나갈	-17376
▁라디	-17377
▁적게	-17378
▁종군	-17379
▁주니	-17380
내었다	-17381
(189	-17382
▁국적을	-17383
▁연주자	-17384
▁정당이	-17385
ublic	-17386
▁완벽하게	-17387
▁고려시대의	-17388
▁역임했으며	-17389
CO	-17390
▁챙	-17391
됐던	-17392
케의	-17393
▁반포	-17394
화했다	-17395
▁들어가게	-17396
▁명령했다	-17397
▁전해지는	-17398
BT	-17399
시안	-17400
▁IV	-17401
▁동사	-17402
▁매수	-17403
▁스플	-17404
▁우세	-17405
▁재상	-17406
▁조이	-17407
▁학과	-17408
▁글로브	-17409
▁바스크	-17410
▁설계된	-17411
▁오른손	-17412
▁유럽에	-17413
▁패밀리	-17414
▁행성이	-17415
▁니가타현	-17416
▁보이지만	-17417
▁지역에는	-17418
▁파괴되었다	-17419
▁앗	-17420
성장	-17421
틴은	-17422
ham	-17423
ien	-17424
▁달고	-17425
▁리에	-17426
▁매킨	-17427
퍼런스	-17428
▁Rev	-17429
▁기관의	-17430
▁일자리	-17431
▁거리에서	-17432
▁의과대학	-17433
▁컴퓨터를	-17434
▁분리되었다	-17435
▁CONCACAF	-17436
기본	-17437
세력	-17438
처의	-17439
▁공고	-17440
▁도둑	-17441
▁실재	-17442
ontr	-17443
▁가라앉	-17444
▁단체인	-17445
▁등판해	-17446
▁미술관	-17447
▁피라미	-17448
▁행동은	-17449
▁없었으며	-17450
PD	-17451
례로	-17452
출력	-17453
코를	-17454
피트	-17455
▁비어	-17456
각으로	-17457
▁공격은	-17458
▁도로는	-17459
▁생산이	-17460
▁예선에	-17461
▁자기가	-17462
▁주었고	-17463
▁행동이	-17464
사관학교	-17465
▁메릴랜드	-17466
▁중요하게	-17467
▁필수적인	-17468
▁유래되었다	-17469
모에	-17470
버른	-17471
초가	-17472
▁과장	-17473
▁노바	-17474
▁찰리	-17475
▁초고	-17476
청소년	-17477
▁개봉된	-17478
▁구성을	-17479
▁선수였다	-17480
▁자료이다	-17481
GA	-17482
▁갚	-17483
세요	-17484
▁관세	-17485
▁단원	-17486
▁말과	-17487
▁배양	-17488
▁아와	-17489
▁파는	-17490
▁비타민	-17491
▁에스페란	-17492
▁지칭하는	-17493
▁투표에서	-17494
▁요구하였다	-17495
격은	-17496
고지	-17497
매김	-17498
메트	-17499
시경	-17500
▁3:	-17501
▁계단	-17502
▁불변	-17503
▁상연	-17504
▁일차	-17505
▁커플	-17506
▁폭파	-17507
는다는	-17508
연합회	-17509
(186	-17510
▁거리의	-17511
▁과정의	-17512
▁시간과	-17513
▁연설을	-17514
▁운행이	-17515
▁작가가	-17516
▁패트릭	-17517
▁회사에	-17518
디나비아	-17519
▁공화국이	-17520
▁명확하게	-17521
▁승리했다	-17522
거가	-17523
그마	-17524
▁나우	-17525
▁최강	-17526
▁Bro	-17527
▁급격한	-17528
▁소식이	-17529
▁은하의	-17530
▁실시했다	-17531
▁원활	-17532
▁음이	-17533
▁강의를	-17534
▁요구에	-17535
▁차례에	-17536
▁측면을	-17537
▁함수는	-17538
주식회사	-17539
▁공개하였다	-17540
9,	-17541
▁콕	-17542
리콘	-17543
▁나일	-17544
▁숨을	-17545
▁우의	-17546
▁즐거	-17547
색이다	-17548
▁아브라	-17549
▁장기간	-17550
▁Good	-17551
▁공장에서	-17552
▁준우승에	-17553
tr	-17554
분한	-17555
▁가타	-17556
▁격려	-17557
▁공격이	-17558
▁병력이	-17559
▁산티아	-17560
▁이와테	-17561
▁황제를	-17562
▁진행한다	-17563
▁네트워크를	-17564
▁인도네시아의	-17565
기타	-17566
_17	-17567
▁차관	-17568
스터의	-17569
회사의	-17570
▁125	-17571
▁손상을	-17572
▁이스탄불	-17573
▁토착종이다	-17574
루이	-17575
변호	-17576
코토	-17577
▁금호	-17578
▁기쁨	-17579
▁나이는	-17580
▁성명을	-17581
▁피해자	-17582
▁것이지만	-17583
▁대학교는	-17584
▁주전으로	-17585
객이	-17586
남에	-17587
다와	-17588
배에	-17589
약이	-17590
▁관절	-17591
▁군용	-17592
▁여인	-17593
▁인재	-17594
▁포털	-17595
▁교사로	-17596
▁자라는	-17597
고속도로의	-17598
▁경상북도의	-17599
개미	-17600
우로	-17601
줄기	-17602
헤드	-17603
rav	-17604
▁띄는	-17605
▁설문	-17606
▁이누	-17607
▁제로	-17608
제이다	-17609
▁의약품	-17610
▁의회에	-17611
▁접근을	-17612
▁가르침을	-17613
▁림프	-17614
▁불행	-17615
▁교육에	-17616
▁모았다	-17617
▁시신을	-17618
▁책으로	-17619
▁철학을	-17620
▁Heart	-17621
▁Instit	-17622
IR	-17623
니언	-17624
지던	-17625
▁공휴	-17626
▁수양	-17627
▁통보	-17628
페스트	-17629
▁발달한	-17630
▁이론과	-17631
▁코펜하겐	-17632
락의	-17633
랑은	-17634
소시	-17635
평의	-17636
프턴	-17637
▁김준	-17638
▁문경	-17639
▁평의	-17640
▁해독	-17641
▁호를	-17642
번이나	-17643
집으로	-17644
▁미래를	-17645
▁1862	-17646
bo	-17647
자동	-17648
▁김윤	-17649
▁레일	-17650
▁지극	-17651
▁허블	-17652
▁결합을	-17653
▁공간에	-17654
▁끌어들	-17655
▁요청에	-17656
▁콘서트를	-17657
▁승강장으로	-17658
▁기니	-17659
▁삼림	-17660
▁선은	-17661
▁소극	-17662
겠지만	-17663
▁급속히	-17664
▁바탕에	-17665
▁세네갈	-17666
▁소관의	-17667
▁공간으로	-17668
▁기관이다	-17669
Robert	-17670
▁College	-17671
등과	-17672
스콘	-17673
키스	-17674
▁싸이	-17675
▁해왕	-17676
▁구축함	-17677
▁등에게	-17678
▁부근의	-17679
▁성으로	-17680
▁알제리	-17681
▁요시다	-17682
▁장점이	-17683
▁전하고	-17684
음으로써	-17685
▁날카로운	-17686
견이	-17687
▁민감	-17688
▁에게	-17689
▁지침	-17690
▁히메	-17691
▁사형을	-17692
▁선언을	-17693
지역에서	-17694
▁공산당의	-17695
▁룸	-17696
덕왕	-17697
심에	-17698
워즈	-17699
토프	-17700
▁전락	-17701
▁치는	-17702
▁파우	-17703
▁후진	-17704
세포의	-17705
▁3-1	-17706
▁무엇이	-17707
▁문화는	-17708
▁미래에	-17709
▁언론의	-17710
스케이팅	-17711
박이	-17712
암은	-17713
예수	-17714
▁달에	-17715
▁물체	-17716
▁장덕	-17717
운동이	-17718
▁예전에	-17719
▁프린스턴	-17720
사적	-17721
회원	-17722
uth	-17723
▁SA	-17724
▁위촉	-17725
▁이메	-17726
▁하급	-17727
reet	-17728
▁계통의	-17729
▁순서로	-17730
▁자료는	-17731
▁챌린지	-17732
▁코드는	-17733
▁없었지만	-17734
▁유래하였다	-17735
▁%	-17736
공파	-17737
정맥	-17738
▁Fe	-17739
▁경호	-17740
▁류큐	-17741
▁읽는	-17742
▁잦은	-17743
▁항쟁	-17744
▁전역을	-17745
▁철저히	-17746
▁혁명이	-17747
고등법원	-17748
▁발표하여	-17749
▁혀	-17750
도쿄	-17751
▁바와	-17752
▁샤이	-17753
▁역도	-17754
▁게이오	-17755
▁중심을	-17756
▁어머니를	-17757
▁헛	-17758
▁산이	-17759
ates	-17760
▁128	-17761
▁공으로	-17762
▁바다의	-17763
▁학교는	-17764
▁아카데미상	-17765
절로	-17766
▁새긴	-17767
▁양측	-17768
▁염려	-17769
▁102	-17770
▁Inc	-17771
▁강하다	-17772
▁느끼게	-17773
▁맡기도	-17774
▁멤버가	-17775
▁책임이	-17776
▁서울중앙	-17777
▁산스크리트	-17778
▁중수	-17779
▁중위	-17780
▁페레	-17781
▁폭이	-17782
클리드	-17783
▁갈라져	-17784
▁강화를	-17785
▁브뤼셀	-17786
▁존재로	-17787
▁활용하여	-17788
로폰	-17789
▁칭송	-17790
직하고	-17791
▁것과는	-17792
▁비율을	-17793
▁이르게	-17794
▁그레고리	-17795
▁프랜시스	-17796
▁하느님의	-17797
▁줄어들었다	-17798
▁숀	-17799
▁펩	-17800
내려	-17801
달라	-17802
리드	-17803
복이	-17804
▁냉전	-17805
▁주권	-17806
▁칼슘	-17807
▁털은	-17808
▁거쳤다	-17809
▁현대에	-17810
▁쿠빌라이	-17811
▁남작	-17812
▁났다	-17813
▁출구	-17814
▁새누리당	-17815
▁스테이션	-17816
그림	-17817
르카	-17818
살에	-17819
섬은	-17820
▁공성	-17821
▁국기	-17822
▁나미	-17823
▁머신	-17824
▁워드	-17825
▁피핀	-17826
미사일	-17827
▁높았다	-17828
▁비교해	-17829
▁샌디에	-17830
▁지상파	-17831
▁National	-17832
미치	-17833
불이	-17834
수단	-17835
ope	-17836
▁말리	-17837
▁성도	-17838
▁치환	-17839
시켜야	-17840
▁인정을	-17841
▁일주일	-17842
▁공항으로	-17843
▁들어왔다	-17844
▁인기있는	-17845
▁선고받았다	-17846
eck	-17847
ila	-17848
▁모빌	-17849
▁불완	-17850
▁성명	-17851
로스의	-17852
▁240	-17853
▁경주시	-17854
▁존재했다	-17855
▁프랭클린	-17856
료가	-17857
배의	-17858
조치	-17859
협정	-17860
▁고생	-17861
▁구호	-17862
▁꿈꾸	-17863
▁무술	-17864
▁세바	-17865
▁잡는	-17866
▁맞았다	-17867
▁삼국지	-17868
▁수요가	-17869
▁작사가	-17870
▁주지사	-17871
▁케플러	-17872
▁늪	-17873
공개	-17874
박을	-17875
초는	-17876
▁군정	-17877
▁조회	-17878
▁하행	-17879
그리고	-17880
▁구조와	-17881
▁브루스	-17882
▁언급이	-17883
▁한다면	-17884
▁아직까지	-17885
▁경기장에서	-17886
▁미토콘드리아	-17887
공립	-17888
공장	-17889
샤오	-17890
off	-17891
▁밀도	-17892
▁성운	-17893
라이드	-17894
전부터	-17895
▁계획의	-17896
▁그리는	-17897
▁기원은	-17898
▁로마로	-17899
▁미나모토	-17900
▁장소에서	-17901
▁채택되었다	-17902
말의	-17903
케는	-17904
▁무서	-17905
▁산을	-17906
▁송출	-17907
▁접해	-17908
▁페로	-17909
▁지위에	-17910
▁파푸아	-17911
시키면서	-17912
▁스페인은	-17913
▁Award	-17914
감사	-17915
▁기뻐	-17916
▁문하	-17917
▁보낼	-17918
▁파병	-17919
▁그만큼	-17920
▁법칙을	-17921
▁볼티모	-17922
▁비중이	-17923
▁위구르	-17924
▁침공을	-17925
▁말미암아	-17926
▁수행하고	-17927
▁움직임이	-17928
▁출연한다	-17929
막의	-17930
▁변동	-17931
▁상기	-17932
▁상법	-17933
▁육체	-17934
▁호쿠	-17935
▁극도로	-17936
▁상태는	-17937
▁서부의	-17938
▁자격이	-17939
▁벌어지는	-17940
자금	-17941
천은	-17942
▁배달	-17943
▁송파	-17944
▁평민	-17945
▁마음의	-17946
▁않았을	-17947
▁에서는	-17948
▁테네시	-17949
▁추정되며	-17950
ociation	-17951
▁결핵	-17952
▁명종	-17953
부에는	-17954
▁소유의	-17955
▁앤드루	-17956
▁피아노를	-17957
주아	-17958
후가	-17959
▁결핍	-17960
▁넓고	-17961
▁입수	-17962
▁정제	-17963
▁기관이	-17964
▁따르고	-17965
▁선거인	-17966
▁의회가	-17967
▁종래의	-17968
▁줄이기	-17969
▁파견하여	-17970
▁패럴림픽	-17971
▁쪼	-17972
가미	-17973
ger	-17974
olf	-17975
▁러일	-17976
▁맛을	-17977
▁에반	-17978
▁외래	-17979
▁장녀	-17980
당했고	-17981
cess	-17982
irst	-17983
▁걸쳐서	-17984
▁것들을	-17985
▁오세아	-17986
▁케이프	-17987
▁항복을	-17988
▁1867	-17989
상황	-17990
쾌한	-17991
inn	-17992
▁NT	-17993
▁정주	-17994
분까지	-17995
수에서	-17996
▁경력이	-17997
▁기술과	-17998
▁밝혀진	-17999
▁적용되는	-18000
▁지나간다	-18001
▁암스테르담	-18002
층과	-18003
▁구이	-18004
▁럭비	-18005
▁서열	-18006
▁연희	-18007
▁요정	-18008
▁야마모토	-18009
▁예전에는	-18010
▁스트라이크	-18011
▁푸에르토리	-18012
▁랄	-18013
니티	-18014
머가	-18015
물리	-18016
수송	-18017
하되	-18018
회관	-18019
▁수교	-18020
▁연한	-18021
▁촉발	-18022
▁사이먼	-18023
▁사회가	-18024
시키는데	-18025
▁덧붙였다	-18026
▁발견되며	-18027
▁브루클린	-18028
Se	-18029
▁괌	-18030
슨을	-18031
애니	-18032
저를	-18033
▁넣는	-18034
▁대위	-18035
▁우한	-18036
▁쳤다	-18037
▁혐오	-18038
메이트	-18039
시이다	-18040
▁기록과	-18041
▁내무부	-18042
▁시위가	-18043
▁역할로	-18044
▁요르단	-18045
▁라이선스	-18046
▁뿐이었다	-18047
▁문화체육관광	-18048
개씩	-18049
마니	-18050
▁성악	-18051
▁칭기	-18052
▁헌액	-18053
ship	-18054
▁하느님	-18055
▁협회의	-18056
aster	-18057
▁1874	-18058
▁Club	-18059
▁아나운서	-18060
▁크리에이	-18061
▁합류하여	-18062
투수	-18063
호마	-18064
▁농부	-18065
▁높여	-18066
▁천왕	-18067
대서양	-18068
방송을	-18069
▁그림은	-18070
▁외부의	-18071
▁장관이	-18072
▁Best	-18073
TE	-18074
▁굶	-18075
기통	-18076
사법	-18077
▁법에	-18078
▁인력	-18079
▁조슈	-18080
▁판례	-18081
▁Har	-18082
▁끝나는	-18083
▁자세를	-18084
▁출전을	-18085
▁튀르크	-18086
▁국가들은	-18087
▁목소리가	-18088
다오	-18089
명종	-18090
▁목회	-18091
▁정인	-18092
▁증상	-18093
▁집착	-18094
▁트램	-18095
스터는	-18096
▁문학의	-18097
▁사망할	-18098
▁파나마	-18099
▁1869	-18100
▁더글러스	-18101
▁소말리아	-18102
Gr	-18103
수입	-18104
▁As	-18105
▁불균	-18106
▁쉽다	-18107
▁절벽	-18108
▁가깝게	-18109
▁기여한	-18110
▁부모는	-18111
▁피렌체	-18112
▁심지어는	-18113
▁없으므로	-18114
▁일대에서	-18115
▁최고인민	-18116
▁추정하고	-18117
르다	-18118
학사	-18119
▁규탄	-18120
▁스와	-18121
▁토미	-18122
놓았다	-18123
▁Wii	-18124
▁떠난다	-18125
▁사랑과	-18126
▁상에서	-18127
▁활동으로	-18128
▁경제적으로	-18129
▁널	-18130
훈이	-18131
_18	-18132
str	-18133
▁sc	-18134
▁un	-18135
▁관상	-18136
▁맞춤	-18137
조사를	-18138
▁경계에	-18139
▁구조에	-18140
▁병사를	-18141
▁이뤄진	-18142
▁형식은	-18143
▁훈장을	-18144
▁국민투표	-18145
▁이탈리아는	-18146
토쿠	-18147
~14	-18148
▁몸은	-18149
▁백과	-18150
▁신원	-18151
▁심근	-18152
▁차츰	-18153
▁광고를	-18154
▁생각한	-18155
▁주민의	-18156
▁집단의	-18157
▁초부터	-18158
▁축구단	-18159
ura	-18160
▁배운	-18161
▁위그	-18162
▁클루	-18163
▁멜버른	-18164
▁사망자	-18165
▁성남시	-18166
▁이바지	-18167
▁재정적	-18168
earch	-18169
▁Open	-18170
▁구성하고	-18171
▁캐릭터가	-18172
구스	-18173
모어	-18174
좌를	-18175
충은	-18176
ype	-18177
▁당뇨	-18178
▁무안	-18179
▁자카	-18180
▁좀더	-18181
▁퍼즐	-18182
국이다	-18183
▁60%	-18184
▁기억을	-18185
▁몇몇의	-18186
▁사상의	-18187
▁안타를	-18188
▁오이타	-18189
▁제주시	-18190
공화국의	-18191
(2009	-18192
▁임명했다	-18193
▁제정되었다	-18194
관인	-18195
든다	-18196
▁다발	-18197
▁로얄	-18198
▁반감	-18199
▁일괄	-18200
▁자책	-18201
▁반란이	-18202
▁안되는	-18203
▁중성자	-18204
▁평가가	-18205
▁가와사키	-18206
▁달라진다	-18207
▁잃어버린	-18208
▁텍사스주	-18209
Te	-18210
▁맬	-18211
국립	-18212
옆면	-18213
▁늦은	-18214
▁사슴	-18215
▁섭정	-18216
▁수목	-18217
▁정몽	-18218
▁사헌부	-18219
▁초콜릿	-18220
▁주변에서	-18221
▁인플레이션	-18222
▁제작하였다	-18223
▁애니메이션이다	-18224
Or	-18225
가게	-18226
곡리	-18227
명칭	-18228
모르	-18229
▁인원	-18230
▁화랑	-18231
▁대성당	-18232
▁박사는	-18233
▁참여를	-18234
▁체제가	-18235
▁사용하게	-18236
▁주인공이	-18237
▁대한민국에는	-18238
오버	-18239
판사	-18240
두었다	-18241
마리의	-18242
ival	-18243
▁단체는	-18244
▁예선을	-18245
▁유니언	-18246
▁정도는	-18247
그라운드	-18248
(2012	-18249
▁스칸디나비아	-18250
바위	-18251
업과	-18252
짐에	-18253
컵을	-18254
▁경인	-18255
▁답변	-18256
▁미성	-18257
▁쿠퍼	-18258
▁동안에는	-18259
▁에너지의	-18260
▁율리우스	-18261
unction	-18262
경쟁	-18263
움이	-18264
▁기와	-18265
▁노후	-18266
▁농어	-18267
▁로비	-18268
▁면을	-18269
▁물과	-18270
▁불필	-18271
▁자제	-18272
▁재난	-18273
▁카네	-18274
▁캐시	-18275
▁한중	-18276
족으로	-18277
▁연안에	-18278
▁전원이	-18279
방향으로	-18280
arles	-18281
▁패하였다	-18282
표의	-18283
▁송도	-18284
▁정려	-18285
▁정자	-18286
전까지	-18287
uman	-18288
▁숫자는	-18289
▁있듯이	-18290
▁함대를	-18291
대학으로	-18292
되었음을	-18293
진상규명	-18294
▁이베리아	-18295
▁중앙정보	-18296
▁컴퓨터의	-18297
▁Record	-18298
CH	-18299
루엔	-18300
하길	-18301
gel	-18302
▁간혹	-18303
▁피셔	-18304
▁호랑	-18305
학과에	-18306
▁108	-18307
▁솔루션	-18308
▁나카무라	-18309
▁취소되었다	-18310
티즌	-18311
합성	-18312
▁Dr	-18313
▁광물	-18314
▁씨가	-18315
▁채굴	-18316
사무소	-18317
▁마카오	-18318
▁별명이	-18319
▁시트콤	-18320
▁정의된	-18321
▁회장으로	-18322
-09	-18323
▁체스	-18324
번호는	-18325
프에서	-18326
▁당선된	-18327
▁세상의	-18328
▁채널을	-18329
▁펠리페	-18330
▁회장이	-18331
▁이론에서	-18332
▁시작되었으며	-18333
▁노스캐롤라이나	-18334
궁에	-18335
대리	-18336
표로	-18337
▁Gl	-18338
▁구금	-18339
▁기성	-18340
▁미칠	-18341
▁승용	-18342
▁함양	-18343
▁성매매	-18344
▁포유류	-18345
박쥐과에	-18346
▁도미니카	-18347
▁셰익스피	-18348
▁스리랑카	-18349
▁하이브리	-18350
확인	-18351
▁버진	-18352
▁피오	-18353
▁하타	-18354
ason	-18355
▁대사를	-18356
▁돌연변	-18357
▁제한이	-18358
▁체결된	-18359
▁취임한	-18360
(2008	-18361
▁연주하는	-18362
▁일본군은	-18363
▁완성되었다	-18364
CP	-18365
LE	-18366
My	-18367
락은	-18368
지정	-18369
▁길다	-18370
▁마비	-18371
▁신주쿠	-18372
▁싱글은	-18373
▁오리온	-18374
▁소설이다	-18375
▁중소기업	-18376
▁프로세스	-18377
oe	-18378
만화	-18379
창은	-18380
uch	-18381
▁고이	-18382
▁관제	-18383
▁넷플	-18384
▁노보	-18385
▁당황	-18386
▁미소	-18387
▁별을	-18388
▁수복	-18389
▁신기	-18390
▁탈레	-18391
▁탈취	-18392
▁포토	-18393
▁군대와	-18394
▁나누는	-18395
▁대체할	-18396
▁뛰어넘	-18397
▁팬들의	-18398
▁행위는	-18399
▁일반적이다	-18400
▁싼	-18401
▁김대	-18402
▁마키	-18403
▁저자	-18404
▁하니	-18405
▁홍수	-18406
해지자	-18407
▁중이며	-18408
▁City	-18409
▁표기한다	-18410
▁닷	-18411
노부	-18412
륜구	-18413
아노	-18414
용과	-18415
▁급증	-18416
▁부러	-18417
▁우치	-18418
▁지는	-18419
▁형용	-18420
되다가	-18421
베스트	-18422
reak	-18423
▁믿는다	-18424
▁분기점	-18425
▁비중을	-18426
▁테스트를	-18427
▁4.	-18428
▁구독	-18429
▁시속	-18430
▁재차	-18431
▁측이	-18432
라에몽	-18433
음보살	-18434
ling	-18435
▁머리카	-18436
▁사후에	-18437
▁이름에	-18438
▁멍	-18439
상대	-18440
유전	-18441
▁마요	-18442
▁조셉	-18443
▁하코	-18444
지라도	-18445
▁가리는	-18446
▁이론적	-18447
▁전기를	-18448
▁데스크톱	-18449
▁연관되어	-18450
라나	-18451
▁5%	-18452
▁막대	-18453
▁버마	-18454
▁요격	-18455
▁인가	-18456
▁읽을	-18457
▁얻었고	-18458
▁우간다	-18459
▁지내는	-18460
▁기록이다	-18461
AE	-18462
데자	-18463
och	-18464
▁DF	-18465
▁위를	-18466
▁추억	-18467
▁걸리는	-18468
▁계속된	-18469
▁분포하고	-18470
▁사회민주	-18471
▁이산화탄	-18472
▁몹	-18473
▁씻	-18474
모노	-18475
코어	-18476
▁대도	-18477
▁상서	-18478
▁세분	-18479
▁콜레	-18480
▁길이를	-18481
▁남동쪽	-18482
▁라오스	-18483
▁시민의	-18484
▁질량을	-18485
타수	-18486
-50	-18487
ese	-18488
▁사신	-18489
▁에른	-18490
▁친왕	-18491
만명을	-18492
▁Mic	-18493
▁아이콘	-18494
▁엔진의	-18495
▁예정인	-18496
▁왕조가	-18497
▁유전적	-18498
▁지원이	-18499
He	-18500
극의	-18501
오자	-18502
Ste	-18503
▁갈래	-18504
슬레틱	-18505
코리아	-18506
▁0.3	-18507
▁3-0	-18508
▁이해를	-18509
▁전투로	-18510
임의	-18511
피오	-18512
]],	-18513
▁공명	-18514
▁블로	-18515
▁서인	-18516
▁진사	-18517
기관이	-18518
버스는	-18519
▁다시금	-18520
▁성격의	-18521
▁아카이	-18522
▁유치원	-18523
▁의원의	-18524
▁대표팀의	-18525
▁이슬람교	-18526
▁종목에서	-18527
공단	-18528
군주	-18529
망은	-18530
있어	-18531
지상	-18532
erc	-18533
▁상록	-18534
▁월터	-18535
▁이봉	-18536
▁편안	-18537
▁라이너	-18538
▁방정식	-18539
▁성적이	-18540
▁쌓았다	-18541
▁가능성도	-18542
▁거점으로	-18543
▁무시하고	-18544
▁이용되고	-18545
▁입단하여	-18546
여자대학교	-18547
▁통합되었다	-18548
▁거인	-18549
▁군마	-18550
▁굴절	-18551
▁도사	-18552
▁맛이	-18553
▁보행	-18554
▁USB	-18555
▁것이기	-18556
▁부르게	-18557
▁사무를	-18558
▁진출할	-18559
▁태생의	-18560
리그에서	-18561
▁귀국하여	-18562
▁올림피아	-18563
IF	-18564
다양	-18565
▁김승	-18566
▁바울	-18567
▁세레	-18568
▁취한	-18569
시켜서	-18570
타나베	-18571
▁두각을	-18572
▁서양의	-18573
▁안전을	-18574
▁철저한	-18575
▁대규모의	-18576
▁함경북도	-18577
▁보고되었다	-18578
마력	-18579
복은	-18580
최고	-18581
▁재외	-18582
▁von	-18583
▁롬바르	-18584
▁프레임워	-18585
▁프랑스군은	-18586
CS	-18587
농구	-18588
몬트	-18589
▁순차	-18590
▁얘기	-18591
▁열려	-18592
▁조부	-18593
년마다	-18594
달라는	-18595
itch	-18596
press	-18597
▁유사하게	-18598
루트	-18599
And	-18600
▁덴쇼	-18601
▁뚫고	-18602
▁배에	-18603
▁저해	-18604
▁축성	-18605
로마치	-18606
비치는	-18607
▁무엇을	-18608
▁1879	-18609
▁단백질의	-18610
▁제공된다	-18611
▁협력하여	-18612
▁받아들이지	-18613
리쿠	-18614
질에	-18615
▁오대	-18616
▁쪽이	-18617
▁캐피	-18618
▁화해	-18619
▁그밖에	-18620
▁먹이는	-18621
▁핵융합	-18622
▁1200	-18623
▁High	-18624
▁기념하는	-18625
▁독일군의	-18626
▁사용하던	-18627
▁베이시스트	-18628
▁다우	-18629
▁자와	-18630
▁제재	-18631
▁조현	-18632
▁커서	-18633
공으로	-18634
궐선거	-18635
자리는	-18636
gram	-18637
▁세르게	-18638
▁하늘을	-18639
▁매끄러운	-18640
▁시도했다	-18641
▁히틀러는	-18642
▁익스프레스	-18643
Ne	-18644
▁쾨	-18645
록시	-18646
통과	-18647
▁고추	-18648
▁구장	-18649
▁그외	-18650
▁압록	-18651
▁재래	-18652
▁단체가	-18653
▁중앙의	-18654
▁스트레스	-18655
▁지속되었다	-18656
▁필요하다고	-18657
광이	-18658
금속	-18659
사실	-18660
hem	-18661
▁부당	-18662
▁산요	-18663
▁온난	-18664
▁유희	-18665
▁육식	-18666
베이성	-18667
▁Des	-18668
▁IOC	-18669
▁리프트	-18670
▁원칙에	-18671
▁장남으로	-18672
▁클럽에서	-18673
▁뮐	-18674
▁쟈	-18675
개소	-18676
레드	-18677
폐합	-18678
▁남하	-18679
▁번도	-18680
▁보며	-18681
▁점진	-18682
▁종신	-18683
▁증진	-18684
▁대니얼	-18685
▁산맥의	-18686
▁차세대	-18687
도서관은	-18688
▁가르치는	-18689
▁러시아가	-18690
▁사용자는	-18691
▁활약으로	-18692
일인	-18693
▁공자	-18694
▁공적	-18695
▁배드	-18696
▁우두	-18697
▁한큐	-18698
▁TBS	-18699
▁마을로	-18700
▁방송이	-18701
▁스트라	-18702
▁영토로	-18703
▁종교는	-18704
분간	-18705
▁Fl	-18706
▁김천	-18707
▁당내	-18708
▁때를	-18709
▁함흥	-18710
▁보이스	-18711
▁작가로	-18712
▁조사한	-18713
olution	-18714
Ex	-18715
보컬	-18716
자문	-18717
▁거칠	-18718
▁급여	-18719
▁몰두	-18720
▁손잡	-18721
▁이코	-18722
▁정이	-18723
▁택시	-18724
루스는	-18725
▁가지지	-18726
▁건강한	-18727
▁사업이	-18728
▁패러디	-18729
유산으로	-18730
(2001	-18731
학술	-18732
해질	-18733
▁갖춰	-18734
▁과연	-18735
▁능동	-18736
▁만드	-18737
▁열릴	-18738
▁106	-18739
▁Sec	-18740
▁소재한	-18741
▁아내가	-18742
▁항성의	-18743
▁확인된	-18744
▁물리학자	-18745
▁슛	-18746
산염	-18747
외교	-18748
RNA	-18749
▁대포	-18750
▁무어	-18751
▁장벽	-18752
기면서	-18753
르기스	-18754
리스는	-18755
▁나무를	-18756
▁장치가	-18757
▁전자는	-18758
▁분류한다	-18759
▁지진으로	-18760
▁인정받았다	-18761
두가	-18762
러와	-18763
▁디에	-18764
▁머무	-18765
▁복선	-18766
▁색이	-18767
▁스텝	-18768
▁신자	-18769
르타뉴	-18770
▁주계열	-18771
▁연합군은	-18772
▁Center	-18773
▁틴	-18774
포타	-18775
▁신종	-18776
▁용서	-18777
▁위함	-18778
▁이단	-18779
▁입는	-18780
▁정읍	-18781
▁지부	-18782
▁타락	-18783
▁팔아	-18784
리스가	-18785
▁버린다	-18786
▁주제는	-18787
▁컬렉션	-18788
▁이용하고	-18789
등은	-18790
순은	-18791
제인	-18792
창이	-18793
▁전미	-18794
▁Act	-18795
▁검찰은	-18796
▁벗어난	-18797
▁빠져나	-18798
▁세포가	-18799
▁직후에	-18800
[...]
